[UNK]	0
[PAD]	0
▁이	-0
▁는	-1
▁하	-2
니다	-3
▁을	-4
▁에	-5
▁고	-6
▁가	-7
▁의	-8
▁들	-9
▁은	-10
▁지	-11
▁를	-12
▁아	-13
▁도	-14
▁한	-15
▁있	-16
▁다	-17
▁습	-18
▁어	-19
▁사	-20
▁습니다	-21
▁으	-22
▁그	-23
▁대	-24
▁해	-25
▁수	-26
▁인	-27
▁시	-28
▁기	-29
▁주	-30
▁보	-31
▁게	-32
▁으로	-33
▁합	-34
▁입	-35
▁나	-36
▁라	-37
▁것	-38
▁여	-39
▁되	-40
▁합니다	-41
▁에서	-42
▁정	-43
▁만	-44
▁학	-45
▁자	-46
▁적	-47
▁로	-48
▁부	-49
▁일	-50
▁생	-51
▁없	-52
▁국	-53
▁과	-54
▁입니다	-55
▁면	-56
▁교	-57
▁제	-58
▁세	-59
▁않	-60
▁할	-61
▁안	-62
▁저	-63
▁선	-64
▁성	-65
▁전	-66
▁위	-67
▁생각	-68
▁1	-69
▁아이	-70
▁공	-71
▁조	-72
▁청	-73
▁모	-74
▁문	-75
▁더	-76
▁거	-77
▁받	-78
▁경	-79
▁말	-80
▁우	-81
▁많	-82
▁었	-83
▁방	-84
▁무	-85
▁대한	-86
▁중	-87
▁유	-88
▁남	-89
▁2	-90
▁사람	-91
▁바	-92
▁내	-93
▁와	-94
▁에게	-95
▁세요	-96
▁상	-97
▁국민	-98
▁때	-99
▁등	-100
▁처	-101
▁마	-102
▁같	-103
▁했	-104
니까	-105
▁비	-106
▁개	-107
▁겠	-108
▁교육	-109
▁못	-110
▁서	-111
▁된	-112
▁다고	-113
▁우리	-114
▁관	-115
▁현	-116
▁는데	-117
▁학생	-118
▁라고	-119
▁불	-120
▁분	-121
▁지만	-122
▁나라	-123
▁님	-124
▁소	-125
▁년	-126
▁원	-127
▁법	-128
▁학교	-129
▁신	-130
▁한다	-131
▁요	-132
▁피	-133
▁당	-134
▁아니	-135
▁까	-136
▁라는	-137
▁올	-138
▁며	-139
▁실	-140
▁선수	-141
▁미	-142
▁또	-143
▁까지	-144
▁살	-145
▁강	-146
▁동	-147
▁오	-148
▁건	-149
▁스	-150
▁여성	-151
▁감	-152
▁좋	-153
▁알	-154
▁해야	-155
▁문제	-156
▁차	-157
▁반	-158
▁진	-159
▁3	-160
▁평	-161
▁이런	-162
▁명	-163
▁장	-164
▁연	-165
▁행	-166
▁단	-167
▁으면	-168
▁잘	-169
민국	-170
▁구	-171
▁피해	-172
▁영	-173
▁계	-174
▁시간	-175
▁너	-176
▁국가	-177
▁청원	-178
▁위해	-179
▁대한민국	-180
▁해서	-181
▁발	-182
▁다는	-183
▁심	-184
▁던	-185
▁노	-186
▁너무	-187
▁화	-188
▁그리	-189
▁예	-190
▁왜	-191
▁사회	-192
범죄	-193
▁폭	-194
▁어린	-195
▁지금	-196
▁권	-197
▁도록	-198
▁면서	-199
▁니	-200
▁결	-201
▁았	-202
▁그런	-203
▁언	-204
▁그리고	-205
▁처벌	-206
학교	-207
▁통	-208
▁교사	-209
▁재	-210
▁직	-211
소년	-212
▁야	-213
▁사건	-214
▁네	-215
▁드	-216
▁20	-217
▁힘	-218
▁최	-219
▁십	-220
▁폐	-221
▁대통	-222
▁대통령	-223
▁출	-224
▁운	-225
▁됩	-226
▁필	-227
▁집	-228
▁때문	-229
▁간	-230
▁정부	-231
▁만들	-232
▁특	-233
▁월	-234
▁근	-235
▁군	-236
▁배	-237
▁싶	-238
▁초	-239
▁부터	-240
립니다	-241
▁아닌	-242
▁따	-243
▁이나	-244
▁맞	-245
▁될	-246
▁물	-247
▁번	-248
▁이유	-249
▁였	-250
▁됩니다	-251
▁후	-252
▁어린이	-253
▁매	-254
▁범죄	-255
▁청소년	-256
▁부모	-257
▁엄	-258
▁이상	-259
▁한국	-260
▁누	-261
▁필요	-262
렇게	-263
▁정말	-264
▁외	-265
▁는지	-266
▁다른	-267
▁글	-268
▁인권	-269
▁두	-270
▁현재	-271
▁회	-272
▁길	-273
▁보다	-274
▁돈	-275
▁4	-276
▁걸	-277
▁본	-278
▁어야	-279
▁죠	-280
지만	-281
▁그러	-282
▁유치	-283
▁임	-284
▁판	-285
▁추	-286
▁피해자	-287
▁달	-288
▁함	-289
▁지원	-290
▁치	-291
▁5	-292
▁및	-293
▁모든	-294
▁방송	-295
▁어린이집	-296
▁경우	-297
▁여자	-298
▁양	-299
▁유치원	-300
▁종	-301
▁데	-302
▁줄	-303
▁축	-304
▁된다	-305
랍니다	-306
▁한다고	-307
▁참	-308
▁또한	-309
▁확	-310
▁남성	-311
▁하지만	-312
▁음	-313
▁폐지	-314
▁대해	-315
▁체	-316
▁돌	-317
▁어서	-318
▁많이	-319
▁10	-320
대로	-321
▁바랍니다	-322
▁부탁	-323
▁네요	-324
▁애	-325
▁려	-326
▁점	-327
▁저희	-328
▁못하	-329
▁자신	-330
▁금	-331
▁취	-332
▁대학	-333
▁버	-334
▁십시	-335
▁민	-336
까요	-337
등학교	-338
▁다시	-339
림픽	-340
▁검	-341
▁남자	-342
▁언론	-343
▁얼	-344
▁포	-345
▁형	-346
▁선생	-347
▁올림픽	-348
▁정책	-349
▁기사	-350
▁상황	-351
▁병	-352
▁쓰	-353
▁겁	-354
▁사실	-355
▁하나	-356
▁대표	-357
▁가지	-358
▁뿐	-359
▁제도	-360
▁경찰	-361
▁책	-362
▁앞	-363
▁없이	-364
▁조사	-365
▁친	-366
▁아닙	-367
▁정도	-368
▁역	-369
▁인데	-370
▁열	-371
▁보호	-372
▁제발	-373
▁아무	-374
▁김	-375
▁이번	-376
▁박	-377
▁작	-378
▁관련	-379
▁라도	-380
▁사이	-381
▁복	-382
▁축구	-383
▁곳	-384
▁벌	-385
▁이렇게	-386
▁뉴	-387
▁셨	-388
▁습니까	-389
▁게임	-390
▁모두	-391
▁처럼	-392
▁준	-393
▁그래	-394
▁내용	-395
▁마음	-396
가요	-397
▁좀	-398
▁경기	-399
▁위한	-400
▁몇	-401
▁막	-402
▁모르	-403
▁뉴스	-404
▁여러	-405
▁거나	-406
▁201	-407
▁나요	-408
▁편	-409
▁활	-410
▁큰	-411
▁잘못	-412
▁문화	-413
▁느	-414
▁키	-415
▁가족	-416
▁손	-417
▁존	-418
▁목	-419
▁넘	-420
▁안녕	-421
▁휴	-422
▁협	-423
▁아야	-424
▁다면	-425
▁답	-426
▁이러	-427
▁봅	-428
▁6	-429
▁공부	-430
▁가해	-431
▁약	-432
▁절	-433
▁폭행	-434
▁시키	-435
▁요즘	-436
▁억	-437
▁그런데	-438
▁해도	-439
▁파	-440
▁프	-441
▁죄	-442
▁가정	-443
▁봅니다	-444
▁먹	-445
▁인지	-446
▁갈	-447
▁께	-448
▁허	-449
▁들어	-450
▁생활	-451
▁규	-452
▁변	-453
▁감사	-454
▁각	-455
▁사용	-456
▁죽	-457
▁태	-458
▁어떻	-459
▁질	-460
▁채	-461
▁팀	-462
▁폭력	-463
▁악	-464
▁책임	-465
▁자유	-466
▁증	-467
▁개인	-468
▁설	-469
▁날	-470
▁아닙니다	-471
▁업	-472
▁현실	-473
▁몰	-474
▁환	-475
▁이제	-476
학생	-477
▁얼마	-478
▁식	-479
▁시험	-480
▁든	-481
▁다니	-482
▁가해자	-483
▁운영	-484
▁속	-485
▁시켜	-486
▁담	-487
▁십시오	-488
▁가능	-489
다고	-490
▁감독	-491
▁엄마	-492
▁겁니다	-493
▁제대로	-494
라도	-495
▁그렇	-496
▁꼭	-497
▁밖	-498
▁투	-499
▁늘	-500
▁페	-501
▁갑	-502
▁표	-503
▁인해	-504
▁나오	-505
▁평등	-506
▁의무	-507
▁드립니다	-508
▁물론	-509
▁수업	-510
▁볼	-511
00	-512
▁눈	-513
▁이해	-514
▁한다는	-515
포츠	-516
▁정치	-517
▁따라	-518
▁이용	-519
▁프로	-520
▁사이트	-521
▁어떻게	-522
▁학년	-523
▁스포츠	-524
어나	-525
▁용	-526
▁타	-527
▁자기	-528
▁인터	-529
▁온	-530
▁운동	-531
▁충	-532
▁계속	-533
▁으며	-534
▁해결	-535
▁보내	-536
▁힘들	-537
▁위해서	-538
▁난	-539
▁봐	-540
▁7	-541
▁관리	-542
▁듯	-543
다는	-544
▁반대	-545
▁순	-546
▁어떤	-547
▁문재	-548
▁육	-549
▁통해	-550
▁보육	-551
▁입니까	-552
▁차별	-553
▁놓	-554
▁학원	-555
▁광	-556
▁아동	-557
▁욕	-558
▁중요	-559
▁아직	-560
▁급	-561
▁가장	-562
▁북	-563
▁그것	-564
▁정신	-565
▁끝	-566
▁높	-567
아가	-568
▁누구	-569
▁같이	-570
▁행위	-571
▁수능	-572
▁세계	-573
▁다가	-574
▁8	-575
▁학부	-576
▁그래서	-577
다면	-578
▁독	-579
▁동안	-580
▁항	-581
▁부탁드	-582
▁잡	-583
▁접	-584
교육	-585
▁미래	-586
▁바로	-587
▁고등학교	-588
▁권리	-589
▁지역	-590
▁군대	-591
▁찾	-592
▁장애	-593
▁활동	-594
▁란	-595
▁영어	-596
▁노력	-597
▁산	-598
▁라면	-599
▁징	-600
▁아서	-601
▁평가	-602
▁냐	-603
▁그냥	-604
▁혜	-605
▁행동	-606
▁부탁드립니다	-607
▁세금	-608
▁수사	-609
▁자녀	-610
▁관계	-611
▁기관	-612
▁학부모	-613
▁강력	-614
▁하루	-615
▁키우	-616
▁이것	-617
▁9	-618
▁일부	-619
▁부분	-620
▁과정	-621
▁이미	-622
▁일반	-623
▁새	-624
▁근무	-625
▁초등학교	-626
▁입장	-627
▁댓	-628
▁철	-629
▁메	-630
▁리	-631
▁k	-632
▁친구	-633
▁논	-634
▁뭐	-635
▁희	-636
▁결과	-637
▁호	-638
▁본인	-639
▁기준	-640
▁기간	-641
▁인터넷	-642
▁밖에	-643
▁불법	-644
▁지요	-645
▁발생	-646
어지	-647
▁방법	-648
tv	-649
▁신고	-650
▁어요	-651
▁별	-652
▁비리	-653
▁이야	-654
▁공무	-655
▁카	-656
▁된다고	-657
▁혜택	-658
▁침	-659
부분	-660
▁자격	-661
▁혼	-662
▁시작	-663
▁체육	-664
▁해당	-665
▁대부분	-666
▁당연	-667
▁공정	-668
▁어려	-669
▁회사	-670
▁12	-671
▁일본	-672
▁씨	-673
▁세상	-674
▁낳	-675
▁이루	-676
▁댓글	-677
▁사고	-678
▁뒤	-679
▁그러나	-680
▁개선	-681
▁을까요	-682
▁강제	-683
▁서울	-684
▁성폭	-685
▁북한	-686
▁어느	-687
▁기회	-688
▁그렇게	-689
▁먼	-690
▁꿈	-691
▁나이	-692
▁협회	-693
▁페미	-694
▁이야기	-695
▁이게	-696
▁s	-697
▁천	-698
▁무슨	-699
▁시대	-700
▁빙	-701
▁퇴	-702
▁조금	-703
▁환경	-704
▁당하	-705
▁빠	-706
▁보여	-707
▁공무원	-708
▁또는	-709
▁외국	-710
▁성범죄	-711
▁대해서	-712
▁셔	-713
▁준비	-714
▁요구	-715
▁인간	-716
▁니까	-717
▁얼마나	-718
▁께서	-719
▁무엇	-720
▁함께	-721
▁짓	-722
▁출산	-723
▁살인	-724
▁크	-725
▁최근	-726
▁도와	-727
▁범죄자	-728
▁관심	-729
▁마다	-730
▁보도	-731
▁믿	-732
▁혹	-733
주의	-734
▁요청	-735
▁정보	-736
▁듣	-737
▁인정	-738
▁오늘	-739
▁기자	-740
▁나가	-741
▁려고	-742
▁모습	-743
▁청와	-744
▁떨	-745
▁청와대	-746
▁보이	-747
▁만큼	-748
▁억울	-749
▁지켜	-750
▁한테	-751
▁밝	-752
▁직장	-753
▁문재인	-754
듭니다	-755
▁고통	-756
▁진행	-757
▁조차	-758
▁단체	-759
▁교복	-760
▁방탄	-761
▁더라도	-762
▁왔	-763
▁기본	-764
▁특히	-765
▁사립	-766
▁둘	-767
▁너무나	-768
▁커	-769
▁육아	-770
▁망	-771
▁엔	-772
▁뽑	-773
▁의견	-774
▁응	-775
▁오히	-776
▁30	-777
▁오히려	-778
▁병역	-779
▁초등	-780
▁도움	-781
▁성적	-782
▁여기	-783
▁바라	-784
심히	-785
▁으로서	-786
▁평창	-787
▁금지	-788
▁확인	-789
▁똑	-790
▁창	-791
▁중학교	-792
▁저지	-793
▁열심히	-794
▁혐	-795
▁심각	-796
▁c	-797
▁개월	-798
▁수시	-799
▁어디	-800
▁떠	-801
▁공개	-802
▁선택	-803
▁더욱	-804
▁워	-805
▁무시	-806
▁시행	-807
▁놀	-808
▁십시요	-809
스트	-810
▁헌	-811
▁없애	-812
▁납	-813
▁주장	-814
군요	-815
▁대상	-816
▁한다면	-817
▁합니까	-818
▁자리	-819
▁연예	-820
▁민주	-821
▁a	-822
▁경제	-823
▁진짜	-824
▁이후	-825
▁능	-826
▁적폐	-827
▁갖	-828
▁원장	-829
▁올라	-830
▁남녀	-831
▁m	-832
▁딸	-833
▁시민	-834
▁이건	-835
▁지난	-836
▁위원	-837
▁못한	-838
▁양육	-839
▁먼저	-840
▁교육부	-841
▁신청	-842
▁사교육	-843
▁존재	-844
▁안전	-845
▁잠	-846
bs	-847
▁어도	-848
▁일어나	-849
▁토	-850
▁말씀	-851
▁조치	-852
▁단일	-853
▁배우	-854
▁불구	-855
▁11	-856
▁들어가	-857
▁이름	-858
▁침해	-859
▁소년	-860
▁직원	-861
▁성인	-862
▁쉽	-863
▁패	-864
▁강화	-865
▁그럼	-866
▁줘	-867
▁100	-868
▁범	-869
▁훈	-870
▁절대	-871
▁싸	-872
▁직접	-873
드시	-874
▁씩	-875
▁입학	-876
▁반드시	-877
▁귀	-878
▁삼	-879
▁과연	-880
▁올리	-881
합니다	-882
▁읽	-883
▁수준	-884
▁백	-885
▁자체	-886
▁걱	-887
▁결국	-888
▁드리	-889
▁빙상	-890
져야	-891
▁2018	-892
▁걱정	-893
▁다음	-894
▁페미니	-895
▁코	-896
▁행복	-897
▁상태	-898
▁부담	-899
▁싫	-900
▁더군요	-901
▁보장	-902
▁역사	-903
▁부족	-904
▁어른	-905
▁똑같	-906
▁전문	-907
▁낮	-908
▁매우	-909
▁발전	-910
▁으니	-911
▁시설	-912
▁머	-913
▁화장	-914
▁학대	-915
▁어렵	-916
▁단일팀	-917
▁지나	-918
▁맡	-919
벌이	-920
▁노동	-921
▁등등	-922
▁봤	-923
▁승	-924
▁아기	-925
▁국회	-926
▁전혀	-927
▁처리	-928
▁얘	-929
▁업무	-930
▁현장	-931
▁몸	-932
▁능력	-933
없이	-934
▁여러분	-935
▁소리	-936
▁쉬	-937
▁총	-938
시다	-939
▁월드	-940
▁측	-941
▁결정	-942
▁누가	-943
▁끼	-944
▁상대	-945
▁그만	-946
▁사랑	-947
▁맘	-948
▁로서	-949
▁의해	-950
▁복지	-951
▁버리	-952
▁야구	-953
▁고자	-954
▁교실	-955
▁장관	-956
▁최소	-957
▁스럽	-958
▁행정	-959
▁면제	-960
▁봉	-961
▁지급	-962
▁으로써	-963
▁즉	-964
▁시청	-965
▁부산	-966
▁분명	-967
▁규정	-968
▁광고	-969
그램	-970
▁영상	-971
▁병원	-972
▁십니까	-973
▁극	-974
▁긴	-975
▁써	-976
▁언제	-977
▁마련	-978
▁정시	-979
▁판단	-980
▁월드컵	-981
▁유아	-982
▁답변	-983
▁연예인	-984
▁입시	-985
▁영화	-986
▁건가요	-987
▁동의	-988
▁건강	-989
▁개정	-990
▁팬	-991
▁힘든	-992
▁대학교	-993
▁프로그램	-994
▁부디	-995
▁포함	-996
▁해외	-997
▁심지	-998
▁무고	-999
▁심지어	-1000
▁방학	-1001
▁러	-1002
▁검사	-1003
▁완	-1004
▁자살	-1005
▁제한	-1006
▁인가요	-1007
▁압	-1008
머니	-1009
▁판결	-1010
▁비용	-1011
▁대회	-1012
▁진정	-1013
▁졸	-1014
소년단	-1015
▁방탄소년단	-1016
▁빨	-1017
▁맞벌이	-1018
▁근로	-1019
▁정상	-1020
▁돌봄	-1021
▁트	-1022
▁조선	-1023
▁당장	-1024
▁철저	-1025
▁얘기	-1026
▁울	-1027
▁가르	-1028
▁적용	-1029
▁은데	-1030
▁서로	-1031
▁표현	-1032
▁티	-1033
▁처음	-1034
▁전화	-1035
▁시스	-1036
▁성추	-1037
▁기업	-1038
▁셔서	-1039
▁조작	-1040
▁술	-1041
▁헌법	-1042
▁교육청	-1043
▁성추행	-1044
▁첫	-1045
▁tv	-1046
▁규제	-1047
▁실제	-1048
▁겁니까	-1049
연맹	-1050
▁생리	-1051
▁증거	-1052
▁시스템	-1053
▁미투	-1054
▁알려	-1055
▁거의	-1056
▁남북	-1057
▁아시	-1058
▁우선	-1059
▁집단	-1060
▁만약	-1061
▁스트	-1062
▁갑질	-1063
▁사업	-1064
러운	-1065
▁직업	-1066
▁상처	-1067
므로	-1068
▁구요	-1069
▁즐	-1070
▁당시	-1071
▁대로	-1072
▁실시	-1073
▁결혼	-1074
▁자식	-1075
▁아무리	-1076
▁지방	-1077
▁터	-1078
▁희망	-1079
▁바뀌	-1080
▁목적	-1081
▁아주	-1082
▁듭니다	-1083
▁200	-1084
▁풀	-1085
▁가진	-1086
▁불편	-1087
▁을까	-1088
▁건지	-1089
▁빙상연맹	-1090
▁홍	-1091
▁충분	-1092
▁사과	-1093
▁인생	-1094
▁효	-1095
▁낙	-1096
▁넣	-1097
▁경쟁	-1098
▁전국	-1099
▁째	-1100
▁혹은	-1101
▁아빠	-1102
▁훈련	-1103
▁사진	-1104
▁엄청	-1105
▁종목	-1106
▁참여	-1107
▁대책	-1108
▁등록	-1109
▁전형	-1110
▁15	-1111
▁여론	-1112
▁정당	-1113
▁과거	-1114
▁근데	-1115
▁행사	-1116
레스	-1117
▁항상	-1118
▁소년법	-1119
▁삶	-1120
▁과목	-1121
▁나와	-1122
▁도대	-1123
▁느끼	-1124
▁으나	-1125
▁당신	-1126
▁대체	-1127
조건	-1128
▁생기	-1129
▁각종	-1130
▁올립니다	-1131
▁혼자	-1132
▁줘야	-1133
▁예산	-1134
▁무조건	-1135
▁됐	-1136
▁거짓	-1137
▁인가	-1138
▁도대체	-1139
▁려는	-1140
▁잔	-1141
▁아닌가요	-1142
▁심판	-1143
▁안타	-1144
▁겨	-1145
▁방과	-1146
▁묻	-1147
▁교수	-1148
▁된다면	-1149
▁박탈	-1150
▁다양	-1151
▁더라	-1152
▁고등	-1153
부터	-1154
▁만드	-1155
▁부정	-1156
▁올해	-1157
▁뛰	-1158
▁탈	-1159
▁인한	-1160
▁수많	-1161
▁살아가	-1162
▁이익	-1163
▁돼	-1164
▁실력	-1165
▁인식	-1166
▁일어	-1167
▁지키	-1168
▁권력	-1169
▁아요	-1170
▁당연히	-1171
▁성폭행	-1172
▁영향	-1173
▁성폭력	-1174
▁갔	-1175
▁아닐	-1176
▁19	-1177
▁테	-1178
▁0	-1179
▁스스	-1180
▁꺼	-1181
▁봉사	-1182
▁스트레스	-1183
▁선발	-1184
▁소득	-1185
▁수당	-1186
▁정의	-1187
▁센	-1188
▁내려	-1189
▁휴직	-1190
▁얼굴	-1191
▁정권	-1192
▁특별	-1193
▁b	-1194
▁링	-1195
▁고소	-1196
▁졸업	-1197
▁국내	-1198
▁아파	-1199
▁지지	-1200
▁스스로	-1201
▁바꿔	-1202
▁늦	-1203
▁의원	-1204
▁발언	-1205
▁의미	-1206
▁얻	-1207
▁제안	-1208
▁빼	-1209
▁마시	-1210
▁사라	-1211
▁돌아	-1212
▁방식	-1213
으면	-1214
▁네이	-1215
▁확대	-1216
▁둔	-1217
▁특정	-1218
▁솔	-1219
▁아닙니까	-1220
▁아들	-1221
▁따라서	-1222
출산	-1223
▁저출산	-1224
▁p	-1225
▁농	-1226
▁수정	-1227
ns	-1228
▁밀	-1229
▁판매	-1230
▁밝혀	-1231
▁학습	-1232
▁50	-1233
▁최저	-1234
▁e	-1235
▁가요	-1236
▁제공	-1237
▁지도	-1238
▁취업	-1239
▁검찰	-1240
▁생명	-1241
▁바꾸	-1242
▁향	-1243
▁주변	-1244
▁불안	-1245
▁국방	-1246
▁넘어	-1247
▁찍	-1248
버지	-1249
▁깨	-1250
▁외국인	-1251
▁히	-1252
▁교과	-1253
▁월급	-1254
bc	-1255
▁청년	-1256
마드	-1257
▁포기	-1258
▁평화	-1259
▁워마드	-1260
▁거부	-1261
▁예술	-1262
▁네이버	-1263
▁젊	-1264
▁매일	-1265
▁징역	-1266
▁숨	-1267
▁단순	-1268
▁조두	-1269
소리	-1270
자리	-1271
▁담당	-1272
▁듯이	-1273
비스	-1274
▁된다는	-1275
▁아무런	-1276
▁흘	-1277
▁혐오	-1278
▁그대로	-1279
▁어려운	-1280
▁조두순	-1281
▁아래	-1282
▁는데요	-1283
▁유지	-1284
▁중국	-1285
▁미국	-1286
▁복무	-1287
▁위원회	-1288
▁보상	-1289
▁분노	-1290
▁역시	-1291
▁서비스	-1292
▁겪	-1293
▁머리	-1294
▁미성	-1295
▁분위	-1296
▁사형	-1297
▁암	-1298
▁쪽	-1299
▁기록	-1300
▁응원	-1301
▁점점	-1302
▁괴	-1303
▁대하	-1304
▁차이	-1305
나라	-1306
▁올바	-1307
▁저런	-1308
▁더니	-1309
▁밥	-1310
▁고민	-1311
▁쓸	-1312
▁국제	-1313
▁부당	-1314
▁특수	-1315
구요	-1316
▁재판	-1317
▁연맹	-1318
튜브	-1319
▁cc	-1320
▁양성	-1321
▁사항	-1322
▁설치	-1323
▁격	-1324
▁아도	-1325
▁나온	-1326
▁존경	-1327
▁청산	-1328
▁최소한	-1329
▁베	-1330
▁착	-1331
기업	-1332
▁부부	-1333
▁궁	-1334
▁새로	-1335
▁올려	-1336
▁임신	-1337
▁짜	-1338
▁다르	-1339
▁유튜브	-1340
▁성평	-1341
▁출전	-1342
▁kbs	-1343
id	-1344
▁웃	-1345
▁메달	-1346
▁서류	-1347
▁종교	-1348
▁차량	-1349
▁계약	-1350
▁방안	-1351
▁성평등	-1352
▁논란	-1353
▁센터	-1354
가지	-1355
▁사례	-1356
▁옳	-1357
▁거리	-1358
▁그래도	-1359
▁구성	-1360
▁링크	-1361
▁만든	-1362
▁위험	-1363
▁아시안	-1364
▁정확	-1365
▁치료	-1366
▁cctv	-1367
▁그저	-1368
▁민원	-1369
▁저지르	-1370
▁당했	-1371
▁비하	-1372
▁잃	-1373
▁수행	-1374
▁의사	-1375
▁확실	-1376
매매	-1377
▁업체	-1378
▁게시	-1379
▁인성	-1380
▁밤	-1381
▁해체	-1382
▁가슴	-1383
▁임금	-1384
▁으면서	-1385
▁난민	-1386
▁는가	-1387
▁미성년	-1388
이트	-1389
▁간곡	-1390
▁발표	-1391
▁솔직	-1392
▁정작	-1393
▁추가	-1394
▁o	-1395
▁틀	-1396
▁고려	-1397
▁페미니즘	-1398
흥민	-1399
▁손흥민	-1400
▁가치	-1401
▁명예	-1402
▁시위	-1403
▁학기	-1404
▁뜻	-1405
▁퍼	-1406
▁여중	-1407
▁성매매	-1408
▁기에	-1409
▁어떠	-1410
▁떨어	-1411
▁산업	-1412
▁평생	-1413
▁법안	-1414
▁관한	-1415
▁기다	-1416
▁노출	-1417
▁자료	-1418
▁조직	-1419
▁찬	-1420
메달	-1421
▁졌	-1422
▁작성	-1423
▁잖	-1424
▁가짜	-1425
▁시기	-1426
▁팔	-1427
▁답답	-1428
▁골	-1429
전히	-1430
▁군인	-1431
▁에선	-1432
▁점수	-1433
의원	-1434
▁희생	-1435
▁우리나라	-1436
▁왕	-1437
거리	-1438
▁공공	-1439
릅니다	-1440
▁관계자	-1441
▁기대	-1442
▁법원	-1443
▁탄	-1444
▁고요	-1445
▁예전	-1446
▁적극	-1447
▁국공	-1448
▁양육비	-1449
▁마땅	-1450
▁법률	-1451
▁언론사	-1452
▁나왔	-1453
아이	-1454
▁당한	-1455
▁국공립	-1456
▁국회의원	-1457
▁인원	-1458
집니다	-1459
▁챙	-1460
▁18	-1461
▁동성	-1462
▁전부	-1463
▁숙	-1464
▁김보	-1465
▁로써	-1466
▁언어	-1467
▁빨리	-1468
▁상담	-1469
▁간곡히	-1470
▁재산	-1471
▁제외	-1472
▁아침	-1473
▁이전	-1474
▁끊	-1475
▁고등학생	-1476
▁려면	-1477
▁순간	-1478
ti	-1479
▁랑	-1480
▁40	-1481
▁꾸	-1482
▁붙	-1483
해서	-1484
입니다	-1485
▁김보름	-1486
▁화장실	-1487
▁여야	-1488
▁차단	-1489
▁초등학생	-1490
지막	-1491
▁악용	-1492
▁자율	-1493
▁존중	-1494
▁인사	-1495
▁삭	-1496
호사	-1497
▁n	-1498
세요	-1499
▁멀	-1500
▁무서	-1501
▁케	-1502
▁와서	-1503
▁위하	-1504
▁아버지	-1505
▁솔직히	-1506
▁노선	-1507
▁의심	-1508
▁검토	-1509
▁으려	-1510
▁i	-1511
▁플	-1512
▁낙태	-1513
▁누군	-1514
▁약자	-1515
▁이슈	-1516
▁됩니까	-1517
▁계획	-1518
▁단지	-1519
▁미성년자	-1520
▁노래	-1521
▁등급	-1522
▁욕설	-1523
▁인기	-1524
▁지속	-1525
▁추진	-1526
▁잇	-1527
▁인하	-1528
▁차원	-1529
▁판사	-1530
으나	-1531
▁인증	-1532
▁디	-1533
▁져	-1534
▁마지막	-1535
▁거기	-1536
▁위배	-1537
▁협박	-1538
▁금액	-1539
▁사법	-1540
▁세대	-1541
▁수학	-1542
▁선거	-1543
▁소중	-1544
▁전체	-1545
▁걸로	-1546
▁그게	-1547
▁리그	-1548
▁관리자	-1549
▁좌	-1550
▁따른	-1551
까운	-1552
▁sns	-1553
▁충분히	-1554
어도	-1555
▁둘째	-1556
▁비율	-1557
▁그걸	-1558
▁보조	-1559
▁조건	-1560
▁집행	-1561
▁노선영	-1562
▁빌	-1563
▁클	-1564
▁보험	-1565
▁벌금	-1566
▁상관	-1567
▁성장	-1568
▁나쁜	-1569
▁마저	-1570
▁반복	-1571
▁내신	-1572
▁마치	-1573
000	-1574
▁문제점	-1575
▁뭔	-1576
훼손	-1577
▁서민	-1578
▁쳐	-1579
▁기억	-1580
▁여학생	-1581
▁값	-1582
▁공연	-1583
▁자랑	-1584
▁벗	-1585
▁마찬	-1586
▁신문	-1587
▁목소리	-1588
▁촬	-1589
▁가격	-1590
▁남편	-1591
▁어찌	-1592
▁신체	-1593
▁아이스	-1594
▁슬	-1595
▁간절	-1596
▁찾아	-1597
▁이루어지	-1598
▁공평	-1599
▁궁금	-1600
▁마찬가지	-1601
▁민주주의	-1602
▁롭	-1603
▁소속	-1604
▁아파트	-1605
▁사태	-1606
▁분야	-1607
▁위치	-1608
▁중계	-1609
▁채용	-1610
▁의식	-1611
▁허위	-1612
▁일자리	-1613
▁시절	-1614
▁요건	-1615
▁가져	-1616
▁봐야	-1617
▁비판	-1618
▁강간	-1619
▁반성	-1620
▁아프	-1621
▁16	-1622
▁근거	-1623
▁대신	-1624
▁자는	-1625
▁는다	-1626
▁양심	-1627
▁투표	-1628
▁살아	-1629
▁연기	-1630
▁몰카	-1631
▁자라	-1632
▁줄어	-1633
▁평범	-1634
▁율	-1635
▁신경	-1636
▁텐	-1637
▁구속	-1638
▁비난	-1639
▁무기	-1640
▁방치	-1641
▁던지	-1642
▁도입	-1643
▁이혼	-1644
▁취지	-1645
▁니다	-1646
▁연락	-1647
▁낭	-1648
▁레	-1649
▁알아	-1650
▁태극	-1651
▁포털	-1652
▁강요	-1653
▁근로자	-1654
▁는다고	-1655
▁보호법	-1656
▁민국	-1657
▁뿌	-1658
▁개혁	-1659
▁갈등	-1660
▁갑니다	-1661
▁똑같이	-1662
라리	-1663
▁변화	-1664
▁상당	-1665
▁진실	-1666
▁담배	-1667
▁의문	-1668
▁촬영	-1669
▁효과	-1670
▁납니다	-1671
▁흔	-1672
▁공간	-1673
▁급여	-1674
▁원하	-1675
▁취소	-1676
▁할까요	-1677
다수	-1678
▁오래	-1679
▁생리대	-1680
▁도박	-1681
▁시급	-1682
▁합리	-1683
▁스러운	-1684
▁올바른	-1685
▁대우	-1686
▁는다는	-1687
▁다름	-1688
▁변경	-1689
▁주민	-1690
▁그룹	-1691
▁일정	-1692
▁가르치	-1693
▁경험	-1694
▁실수	-1695
▁일까요	-1696
▁비롯	-1697
▁대다수	-1698
▁앉	-1699
▁차라리	-1700
반도	-1701
▁14	-1702
▁23	-1703
▁단어	-1704
▁으시	-1705
▁동일	-1706
다가	-1707
▁검색	-1708
▁음악	-1709
▁휴가	-1710
▁보입니다	-1711
▁률	-1712
자기	-1713
▁예방	-1714
▁실제로	-1715
▁한반도	-1716
▁끌	-1717
라인	-1718
수록	-1719
▁늘려	-1720
▁텐데	-1721
옵니다	-1722
▁땅	-1723
▁교원	-1724
▁가수	-1725
▁내년	-1726
▁누군가	-1727
▁촉	-1728
▁방지	-1729
▁2017	-1730
▁윤	-1731
▁일으	-1732
▁혈	-1733
▁소통	-1734
▁연구	-1735
▁인천	-1736
▁져야	-1737
▁합의	-1738
▁갑자기	-1739
▁적어도	-1740
사자	-1741
▁라며	-1742
▁부끄	-1743
워서	-1744
▁페미니스트	-1745
동안	-1746
▁따르	-1747
▁성희	-1748
▁수험	-1749
▁줬	-1750
▁감정	-1751
▁설명	-1752
▁바람	-1753
▁성희롱	-1754
▁동계	-1755
▁합법	-1756
▁짧	-1757
▁정해	-1758
▁아이돌	-1759
▁다며	-1760
▁삭제	-1761
▁이하	-1762
▁황	-1763
▁13	-1764
▁사기	-1765
▁작년	-1766
▁어머니	-1767
▁다녀	-1768
▁드라	-1769
▁블	-1770
▁일베	-1771
▁훼손	-1772
▁원합니다	-1773
▁택	-1774
▁낭비	-1775
▁홍보	-1776
어난	-1777
▁그때	-1778
▁순위	-1779
▁제목	-1780
▁돌아가	-1781
▁더불	-1782
▁새로운	-1783
▁분위기	-1784
▁경력	-1785
▁냐고	-1786
▁중고	-1787
▁철저히	-1788
▁배려	-1789
▁제재	-1790
▁알리	-1791
▁지원금	-1792
생활	-1793
하키	-1794
▁그럴	-1795
▁도시	-1796
▁아이스하키	-1797
▁연금	-1798
▁장학	-1799
▁충격	-1800
▁형사	-1801
▁금메달	-1802
으며	-1803
▁눈물	-1804
▁선진	-1805
▁시물	-1806
▁집중	-1807
▁회장	-1808
요일	-1809
▁끼리	-1810
▁상식	-1811
▁다수	-1812
▁못했	-1813
▁어쩔	-1814
▁전용	-1815
▁구조	-1816
▁원칙	-1817
레기	-1818
▁나올	-1819
▁동성애	-1820
▁장려	-1821
▁최고	-1822
마트	-1823
▁심사	-1824
▁기존	-1825
▁버스	-1826
▁퇴근	-1827
▁옷	-1828
▁모욕	-1829
▁방해	-1830
▁사망	-1831
▁이라도	-1832
▁ᅲ	-1833
▁소비	-1834
▁한데	-1835
▁개최	-1836
▁라서	-1837
▁쓰레기	-1838
▁괜	-1839
▁떠나	-1840
▁무고죄	-1841
▁봐도	-1842
▁사유	-1843
▁드라마	-1844
▁고용	-1845
▁엄중	-1846
▁구매	-1847
▁원인	-1848
▁줄이	-1849
▁견	-1850
▁17	-1851
▁이사	-1852
▁자연	-1853
▁참가	-1854
▁최대	-1855
▁엄청난	-1856
▁계시	-1857
▁아예	-1858
▁출근	-1859
▁허용	-1860
▁활용	-1861
▁자격증	-1862
▁몇몇	-1863
▁뻔	-1864
▁단속	-1865
▁스마트	-1866
▁중학생	-1867
▁빈	-1868
▁쓴	-1869
▁줍	-1870
▁쇼	-1871
▁괴롭	-1872
▁재학	-1873
▁저지른	-1874
▁박지	-1875
▁투명	-1876
▁역할	-1877
▁제작	-1878
▁투자	-1879
▁훨	-1880
▁아마	-1881
▁잖아	-1882
▁지정	-1883
디어	-1884
레이	-1885
▁반영	-1886
▁시장	-1887
▁나서	-1888
▁어제	-1889
▁거주	-1890
▁불가	-1891
▁유명	-1892
▁인터뷰	-1893
▁제정	-1894
▁출소	-1895
▁태극기	-1896
▁무죄	-1897
▁행태	-1898
▁더라구요	-1899
▁t	-1900
▁급식	-1901
▁필수	-1902
▁셧	-1903
▁빠른	-1904
▁따로	-1905
▁죽이	-1906
▁시켜야	-1907
▁스타	-1908
▁폐쇄	-1909
▁시점	-1910
▁저질	-1911
▁제기	-1912
▁읍	-1913
▁고발	-1914
▁비해	-1915
▁강사	-1916
▁소수	-1917
▁왜곡	-1918
▁의혹	-1919
▁로부터	-1920
▁학생부	-1921
▁여가	-1922
▁종합	-1923
▁늘어나	-1924
▁안타깝	-1925
▁층	-1926
어진	-1927
▁꼴	-1928
▁염	-1929
▁익	-1930
▁잊	-1931
▁담임	-1932
▁무섭	-1933
▁므로	-1934
▁합격	-1935
▁해요	-1936
▁방향	-1937
▁합시다	-1938
▁d	-1939
▁컨	-1940
▁건데	-1941
▁자주	-1942
▁공감	-1943
▁태도	-1944
▁mbc	-1945
▁민족	-1946
▁셋	-1947
저히	-1948
▁눈치	-1949
▁간절히	-1950
▁징계	-1951
▁훨씬	-1952
▁경기도	-1953
▁는다면	-1954
▁브	-1955
▁쯤	-1956
▁헤	-1957
일보	-1958
▁뿌리	-1959
▁일단	-1960
▁장소	-1961
▁교과서	-1962
▁박근	-1963
▁설립	-1964
▁진학	-1965
▁촉구	-1966
▁떨어지	-1967
▁끝나	-1968
▁라니	-1969
▁신뢰	-1970
▁j	-1971
▁소식	-1972
▁예비	-1973
▁조장	-1974
▁통과	-1975
▁아닌가	-1976
▁방문	-1977
▁의도	-1978
▁강력히	-1979
▁ᄏ	-1980
▁당당	-1981
▁명백	-1982
▁선동	-1983
▁어려움	-1984
▁깊	-1985
▁동영	-1986
▁전쟁	-1987
▁출연	-1988
▁코치	-1989
▁특성	-1990
▁문화재	-1991
▁굳	-1992
▁공동	-1993
▁두려	-1994
▁선정	-1995
▁소송	-1996
▁일방	-1997
▁모자	-1998
▁무상	-1999
▁교장	-2000
▁자면	-2001
▁할지	-2002
▁동영상	-2003
▁스마트폰	-2004
▁척	-2005
▁컬	-2006
▁콘	-2007
▁위안	-2008
▁취급	-2009
▁공교육	-2010
▁변호사	-2011
20	-2012
▁기술	-2013
▁논리	-2014
▁달라	-2015
▁불리	-2016
▁청소	-2017
▁박근혜	-2018
▁드러	-2019
▁우려	-2020
▁접하	-2021
▁제출	-2022
▁중심	-2023
▁힘듭니다	-2024
▁보수	-2025
▁위주	-2026
▁으라	-2027
▁놈	-2028
▁에요	-2029
▁인격	-2030
▁자세	-2031
▁나아가	-2032
▁시킨	-2033
▁에겐	-2034
▁주일	-2035
▁형량	-2036
▁x	-2037
▁시킬	-2038
▁위반	-2039
▁절차	-2040
▁종일	-2041
▁돌려	-2042
▁이거	-2043
▁페이	-2044
▁혐의	-2045
▁줄어들	-2046
▁25	-2047
▁실망	-2048
▁곧	-2049
▁묵	-2050
▁고생	-2051
▁동시	-2052
▁오후	-2053
▁유포	-2054
▁선진국	-2055
다운	-2056
▁한번	-2057
▁는지요	-2058
▁홈	-2059
▁21	-2060
▁미세	-2061
▁사장	-2062
▁온갖	-2063
▁정치인	-2064
▁났	-2065
▁첫째	-2066
▁횡	-2067
나마	-2068
▁지식	-2069
▁뒷	-2070
▁낸	-2071
▁광주	-2072
▁실정	-2073
▁증가	-2074
▁그나마	-2075
▁장학금	-2076
▁유린	-2077
▁여중생	-2078
으로	-2079
▁f	-2080
▁어리	-2081
▁받아	-2082
▁성공	-2083
▁시도	-2084
▁이랑	-2085
▁24	-2086
▁대중	-2087
▁등교	-2088
▁쌓	-2089
▁세력	-2090
▁방송사	-2091
▁잖아요	-2092
▁세월	-2093
▁안정	-2094
▁장난	-2095
▁든지	-2096
▁채널	-2097
▁학업	-2098
▁교육감	-2099
▁끔	-2100
▁국정	-2101
▁내부	-2102
▁진심	-2103
▁달리	-2104
▁등록금	-2105
re	-2106
▁한지	-2107
▁경찰서	-2108
▁y	-2109
▁대입	-2110
▁카드	-2111
▁아무것	-2112
▁생겨	-2113
▁셔야	-2114
▁동생	-2115
▁카페	-2116
▁그동안	-2117
▁위안부	-2118
▁중간	-2119
▁2019	-2120
시아	-2121
▁도서	-2122
▁비슷	-2123
▁어떨	-2124
▁왕따	-2125
▁전하	-2126
▁주말	-2127
▁느껴	-2128
▁부르	-2129
▁접수	-2130
▁제일	-2131
▁흐	-2132
▁목숨	-2133
▁컬링	-2134
▁맨	-2135
▁교통	-2136
▁내리	-2137
▁다운	-2138
▁치마	-2139
▁송	-2140
▁겨울	-2141
▁게시판	-2142
▁덜	-2143
▁썩	-2144
▁만나	-2145
▁무너	-2146
▁통합	-2147
▁당사자	-2148
▁약속	-2149
▁개발	-2150
▁어쩌	-2151
▁을지	-2152
▁뜨	-2153
▁석	-2154
▁당해	-2155
▁독립	-2156
▁배정	-2157
▁의한	-2158
▁인상	-2159
▁도저히	-2160
▁ᄏᄏ	-2161
▁통신	-2162
▁기분	-2163
▁수단	-2164
▁인구	-2165
▁혹시	-2166
워야	-2167
▁보통	-2168
▁부여	-2169
▁실질	-2170
▁인재	-2171
▁캐	-2172
▁받아들	-2173
▁대화	-2174
▁수십	-2175
▁여행	-2176
▁혁	-2177
▁흡	-2178
먼지	-2179
▁임용	-2180
▁줄여	-2181
려고	-2182
▁고객	-2183
▁다만	-2184
▁매년	-2185
▁으신	-2186
▁처우	-2187
▁넘어가	-2188
▁미세먼지	-2189
▁h	-2190
▁국어	-2191
▁사무	-2192
▁신분	-2193
▁이젠	-2194
▁핸	-2195
▁누리	-2196
▁옆	-2197
▁근본	-2198
▁실명	-2199
▁심하	-2200
▁여가부	-2201
▁나중	-2202
려서	-2203
▁미약	-2204
▁애국	-2205
ew	-2206
▁굳이	-2207
▁못할	-2208
▁뭘	-2209
▁60	-2210
▁기능	-2211
▁보낼	-2212
▁전환	-2213
▁집니다	-2214
▁굉	-2215
▁촛	-2216
▁수신	-2217
▁위협	-2218
▁이기	-2219
▁중단	-2220
▁노동자	-2221
▁사라지	-2222
에도	-2223
▁늘리	-2224
▁박지우	-2225
▁여전히	-2226
▁통해서	-2227
▁품	-2228
의자	-2229
▁기초	-2230
▁노인	-2231
▁대출	-2232
▁굉장	-2233
▁기부	-2234
▁심한	-2235
▁현상	-2236
▁혼란	-2237
▁녹	-2238
▁딱	-2239
▁던데	-2240
▁사상	-2241
▁운전	-2242
▁지내	-2243
▁게다가	-2244
▁버린	-2245
po	-2246
▁선고	-2247
▁성과	-2248
▁신상	-2249
▁유해	-2250
▁특혜	-2251
▁나타	-2252
▁대구	-2253
▁수치	-2254
▁아님	-2255
▁음란	-2256
▁저작	-2257
▁추구	-2258
▁일반인	-2259
▁사정	-2260
▁증명	-2261
▁청소년법	-2262
▁움	-2263
▁70	-2264
▁놀이	-2265
▁언급	-2266
▁여부	-2267
▁제시	-2268
▁대기업	-2269
▁u	-2270
▁짐	-2271
▁불만	-2272
▁애기	-2273
▁촛불	-2274
▁마세요	-2275
▁ᅳ	-2276
▁끔찍	-2277
▁독일	-2278
▁키울	-2279
▁타인	-2280
▁후보	-2281
▁대학생	-2282
▁한반도기	-2283
▁과학	-2284
▁여서	-2285
▁축제	-2286
▁판정	-2287
▁sbs	-2288
▁펼	-2289
▁괜찮	-2290
▁통제	-2291
▁허가	-2292
▁휴게	-2293
▁땀	-2294
▁흉	-2295
고사	-2296
▁알바	-2297
▁한마	-2298
보호	-2299
텐츠	-2300
▁편하	-2301
▁분명히	-2302
▁전문가	-2303
▁l	-2304
▁솜	-2305
▁계기	-2306
▁느라	-2307
▁버렸	-2308
▁죽음	-2309
▁흥	-2310
딩크	-2311
려야	-2312
▁맞춰	-2313
▁잔인	-2314
▁기다리	-2315
▁꼬	-2316
▁국립	-2317
▁납득	-2318
▁맡기	-2319
▁정규	-2320
▁단순히	-2321
▁참고	-2322
▁티비	-2323
▁한마디	-2324
▁그건	-2325
▁비교	-2326
▁수용	-2327
▁이행	-2328
▁지상	-2329
▁무료	-2330
▁소방	-2331
▁의료	-2332
▁일삼	-2333
▁권한	-2334
▁매체	-2335
▁읍니다	-2336
▁관광	-2337
▁손해	-2338
▁못합니다	-2339
▁일상	-2340
▁입대	-2341
▁저녁	-2342
▁전달	-2343
▁처분	-2344
▁추월	-2345
▁나와서	-2346
▁할머니	-2347
▁대처	-2348
깁니다	-2349
보호법	-2350
▁히딩크	-2351
▁청소년보호법	-2352
▁대응	-2353
▁삼성	-2354
▁몰라	-2355
▁사안	-2356
▁정서	-2357
▁통하	-2358
▁한글	-2359
▁풍	-2360
▁동네	-2361
▁마약	-2362
▁비싼	-2363
▁아내	-2364
▁연습	-2365
▁조정	-2366
▁십니다	-2367
▁온라인	-2368
▁어린아이	-2369
▁겟	-2370
▁다닐	-2371
▁용기	-2372
▁건물	-2373
▁기타	-2374
▁출신	-2375
▁공익	-2376
▁진술	-2377
▁집안	-2378
▁객	-2379
폭력	-2380
▁감시	-2381
▁게끔	-2382
▁공식	-2383
▁로운	-2384
▁못해	-2385
▁임산	-2386
▁해라	-2387
▁성별	-2388
▁유리	-2389
▁주차	-2390
▁즐기	-2391
▁관람	-2392
▁모아	-2393
▁생겼	-2394
▁원래	-2395
▁음주	-2396
▁의지	-2397
▁찬성	-2398
▁천만	-2399
▁확률	-2400
▁굉장히	-2401
현수	-2402
▁거래	-2403
▁자국	-2404
▁태어나	-2405
▁웹	-2406
차별	-2407
▁ᅲᅲ	-2408
▁대기	-2409
▁민간	-2410
▁예정	-2411
▁전공	-2412
▁짓밟	-2413
▁편파	-2414
▁임산부	-2415
▁옛	-2416
평가	-2417
▁구분	-2418
▁문자	-2419
▁심신	-2420
▁정원	-2421
▁가리	-2422
▁명시	-2423
▁수익	-2424
▁심리	-2425
▁엄벌	-2426
▁차례	-2427
▁한국인	-2428
▁아닐까요	-2429
▁곤	-2430
▁덕	-2431
▁핵	-2432
▁다를	-2433
▁실업	-2434
▁인력	-2435
▁때리	-2436
▁수입	-2437
▁이끌	-2438
▁자꾸	-2439
▁자동	-2440
▁그러므로	-2441
▁번호	-2442
▁외치	-2443
▁형평	-2444
▁으니까	-2445
▁뇌	-2446
▁보고	-2447
▁체험	-2448
▁됬	-2449
▁가만	-2450
▁개념	-2451
▁계신	-2452
▁고교	-2453
▁스러	-2454
▁좋아	-2455
▁파악	-2456
▁미디어	-2457
▁이미지	-2458
▁됨	-2459
▁걸리	-2460
▁불러	-2461
▁실행	-2462
▁걸까요	-2463
▁씁	-2464
▁진로	-2465
▁퇴출	-2466
▁학급	-2467
십니까	-2468
▁거짓말	-2469
▁시청자	-2470
▁참으로	-2471
망이	-2472
▁모집	-2473
▁무리	-2474
▁야간	-2475
▁올린	-2476
▁현행	-2477
▁수행평가	-2478
30	-2479
▁높이	-2480
▁재수	-2481
▁체력	-2482
▁최선	-2483
▁토론	-2484
▁사법부	-2485
▁v	-2486
▁80	-2487
▁국위	-2488
▁도덕	-2489
▁싸움	-2490
▁자고	-2491
▁장면	-2492
▁수신료	-2493
▁이루어	-2494
▁핑	-2495
▁몰래	-2496
▁그래야	-2497
연히	-2498
▁22	-2499
▁다자	-2500
▁보건	-2501
▁여름	-2502
▁일제	-2503
▁핸드	-2504
▁형편	-2505
▁겨우	-2506
▁명목	-2507
▁시달	-2508
▁지인	-2509
▁했었	-2510
▁니까요	-2511
▁료	-2512
▁선양	-2513
▁연령	-2514
▁조롱	-2515
▁혈세	-2516
▁아닌지	-2517
▁일어난	-2518
▁나갈	-2519
▁만족	-2520
▁부서	-2521
▁지하	-2522
▁챙기	-2523
▁통일	-2524
▁다자녀	-2525
▁탓	-2526
▁햇	-2527
▁가입	-2528
▁목표	-2529
▁정지	-2530
▁비중	-2531
▁이뤄	-2532
▁민주당	-2533
ec	-2534
▁00	-2535
▁명확	-2536
▁태권	-2537
방망이	-2538
▁어떨까	-2539
▁모릅니다	-2540
▁음식	-2541
▁형성	-2542
▁엉	-2543
▁느낌	-2544
▁엘	-2545
거운	-2546
▁고쳐	-2547
▁나머	-2548
▁이르	-2549
▁티켓	-2550
▁소비자	-2551
▁올라가	-2552
▁솜방망이	-2553
▁컴	-2554
▁탁	-2555
메라	-2556
▁전학	-2557
▁통한	-2558
▁환불	-2559
▁그러면	-2560
▁사생활	-2561
▁결론	-2562
▁진출	-2563
▁폭언	-2564
▁환자	-2565
▁회원	-2566
▁책임지	-2567
▁그럼에도	-2568
하면	-2569
▁만화	-2570
▁맞추	-2571
▁사전	-2572
▁경기장	-2573
▁러시아	-2574
▁2016	-2575
▁빛	-2576
▁쌍	-2577
▁쏟	-2578
▁고서	-2579
▁발달	-2580
▁불과	-2581
▁시켰	-2582
▁지자	-2583
▁아닌데	-2584
18	-2585
▁물질	-2586
▁시선	-2587
▁어이	-2588
▁이어	-2589
▁지적	-2590
▁남학생	-2591
▁밑	-2592
▁휘	-2593
▁국기	-2594
▁외면	-2595
▁획	-2596
▁미안	-2597
▁스케	-2598
▁일찍	-2599
▁자극	-2600
▁주인	-2601
▁징병	-2602
▁케이	-2603
▁통보	-2604
▁신다면	-2605
▁찌	-2606
▁공소	-2607
▁생길	-2608
▁오로	-2609
▁제품	-2610
▁휴대	-2611
▁경찰관	-2612
▁나머지	-2613
▁나옵니다	-2614
10	-2615
▁공영	-2616
▁매번	-2617
▁유도	-2618
▁장기	-2619
▁적절	-2620
▁중독	-2621
▁가까운	-2622
▁그만큼	-2623
▁덮	-2624
▁객관	-2625
▁대안	-2626
▁면접	-2627
▁실현	-2628
▁지불	-2629
▁평소	-2630
▁지상파	-2631
으니	-2632
페이	-2633
▁아미	-2634
▁엄격	-2635
▁커녕	-2636
▁하고	-2637
▁학과	-2638
▁형태	-2639
▁올라오	-2640
▁첨	-2641
▁교도	-2642
▁더러	-2643
▁두발	-2644
▁부처	-2645
▁억지	-2646
▁확보	-2647
▁될까요	-2648
▁피의자	-2649
▁간단	-2650
▁아픈	-2651
▁셧다운	-2652
▁낼	-2653
▁상품	-2654
▁세우	-2655
▁현대	-2656
▁오로지	-2657
▁살펴	-2658
▁안심	-2659
▁움직	-2660
▁자원	-2661
▁취하	-2662
▁키워	-2663
▁평균	-2664
▁인데요	-2665
▁기획	-2666
▁오르	-2667
▁들어오	-2668
▁지자체	-2669
▁들여	-2670
▁흡연	-2671
▁색	-2672
▁칼	-2673
다니	-2674
랜드	-2675
리아	-2676
▁34	-2677
▁감옥	-2678
▁건의	-2679
▁공사	-2680
▁정하	-2681
▁벌어지	-2682
▁동아	-2683
▁매달	-2684
▁애초	-2685
▁이래	-2686
▁미리	-2687
십니다	-2688
▁더라고	-2689
▁강남	-2690
▁공립	-2691
▁구입	-2692
▁모른	-2693
▁바지	-2694
▁벌써	-2695
▁새벽	-2696
▁인물	-2697
▁정말로	-2698
▁조선일보	-2699
tio	-2700
▁공유	-2701
▁일으키	-2702
▁성범죄자	-2703
▁단축	-2704
▁밝히	-2705
▁호소	-2706
▁방송국	-2707
▁핸드폰	-2708
▁옮	-2709
보드	-2710
▁동등	-2711
▁모독	-2712
▁빠져	-2713
▁빼앗	-2714
▁어긋	-2715
▁용서	-2716
▁이곳	-2717
▁점심	-2718
▁청구	-2719
▁답니다	-2720
▁걷	-2721
▁건전	-2722
▁구단	-2723
▁대전	-2724
▁이걸	-2725
▁편의	-2726
▁교육비	-2727
▁부끄럽	-2728
▁으로부터	-2729
▁여고	-2730
▁완전	-2731
▁우울	-2732
▁재미	-2733
▁준다고	-2734
▁훌	-2735
분별	-2736
▁내놓	-2737
▁수상	-2738
▁철회	-2739
▁무분별	-2740
▁옹	-2741
▁근절	-2742
▁문의	-2743
▁방관	-2744
▁생산	-2745
▁활성	-2746
▁배치	-2747
▁수술	-2748
▁이렇	-2749
▁조항	-2750
▁교직	-2751
▁교체	-2752
▁깨끗	-2753
▁여경	-2754
▁임원	-2755
▁정리	-2756
▁특례	-2757
▁갈수록	-2758
▁가산	-2759
▁공기	-2760
▁데리	-2761
▁연합	-2762
▁채우	-2763
▁줍니다	-2764
▁kb	-2765
▁그분	-2766
▁물건	-2767
▁왜냐	-2768
▁통학	-2769
갑니다	-2770
▁고작	-2771
▁보훈	-2772
▁접근	-2773
▁조성	-2774
▁알아보	-2775
▁이대로	-2776
▁지하철	-2777
▁개입	-2778
▁돌보	-2779
▁문체	-2780
▁비싸	-2781
▁수도	-2782
▁심정	-2783
▁합당	-2784
▁안타까운	-2785
▁공원	-2786
▁법정	-2787
▁실패	-2788
▁악플	-2789
▁여도	-2790
▁연장	-2791
▁도서관	-2792
운데	-2793
▁고위	-2794
▁보복	-2795
▁압박	-2796
▁연봉	-2797
▁영업	-2798
▁예상	-2799
▁차지	-2800
▁회의	-2801
25	-2802
▁팩	-2803
▁제주	-2804
▁상당히	-2805
▁여성부	-2806
▁bj	-2807
▁감형	-2808
▁미혼	-2809
▁외부	-2810
▁지시	-2811
▁w	-2812
▁규모	-2813
▁발견	-2814
▁세워	-2815
▁승리	-2816
▁연수	-2817
▁축소	-2818
페이지	-2819
▁대학원	-2820
▁홈페이지	-2821
▁홀	-2822
디오	-2823
▁미치	-2824
▁수급	-2825
▁우월	-2826
▁항의	-2827
▁해소	-2828
▁기간제	-2829
▁결코	-2830
▁계산	-2831
▁작가	-2832
▁재정	-2833
▁전기	-2834
▁학점	-2835
▁효율	-2836
상식	-2837
▁느냐	-2838
▁리라	-2839
▁망신	-2840
▁윤리	-2841
▁마이	-2842
▁연차	-2843
▁오전	-2844
▁유럽	-2845
▁익명	-2846
웨덴	-2847
▁가까	-2848
▁노예	-2849
▁상상	-2850
▁어차	-2851
▁지진	-2852
er	-2853
▁g	-2854
▁스웨덴	-2855
▁좋아하	-2856
▁가정폭력	-2857
▁캠	-2858
해야	-2859
▁31	-2860
▁시즌	-2861
▁주택	-2862
▁추천	-2863
▁가만히	-2864
▁그만두	-2865
▁법인	-2866
▁전자	-2867
▁중소	-2868
▁향상	-2869
▁바라보	-2870
▁어차피	-2871
▁사교육비	-2872
▁나누	-2873
▁핑계	-2874
50	-2875
이팅	-2876
▁내일	-2877
▁농구	-2878
▁되게	-2879
▁생계	-2880
▁수고	-2881
▁출입	-2882
▁하늘	-2883
▁절대로	-2884
▁도우	-2885
▁버젓	-2886
▁진상	-2887
▁빌보드	-2888
tbc	-2889
▁상위	-2890
▁생긴	-2891
▁주위	-2892
▁jtbc	-2893
▁멋	-2894
▁감소	-2895
▁동료	-2896
▁무대	-2897
▁사퇴	-2898
▁앞서	-2899
▁약하	-2900
▁영역	-2901
▁옹호	-2902
▁상대방	-2903
▁꽃	-2904
▁루	-2905
가족	-2906
하루	-2907
▁가질	-2908
▁범위	-2909
▁부적	-2910
▁빙산	-2911
▁열리	-2912
▁유출	-2913
▁죄송	-2914
▁질문	-2915
▁파벌	-2916
▁하원	-2917
▁담당자	-2918
▁하루하루	-2919
구니	-2920
▁던가	-2921
▁시정	-2922
▁유저	-2923
▁임대	-2924
▁직무	-2925
▁출제	-2926
▁실시간	-2927
▁합법화	-2928
▁ᅮ	-2929
뜨리	-2930
▁pc	-2931
▁이성	-2932
▁전면	-2933
▁전반	-2934
▁중앙	-2935
납니다	-2936
▁였으나	-2937
져서	-2938
▁고시	-2939
▁논의	-2940
▁실태	-2941
▁워킹	-2942
▁유기	-2943
▁학력	-2944
pop	-2945
▁대비	-2946
▁돌리	-2947
▁동참	-2948
▁빠지	-2949
▁심해	-2950
▁안내	-2951
▁옛날	-2952
▁의하	-2953
▁정정	-2954
▁가산점	-2955
은이	-2956
▁공약	-2957
▁나무	-2958
▁반면	-2959
▁신태	-2960
▁암표	-2961
▁약한	-2962
▁어처	-2963
▁이럴	-2964
▁90	-2965
▁따지	-2966
▁유일	-2967
▁추첨	-2968
▁떳	-2969
▁개편	-2970
▁군요	-2971
▁실습	-2972
▁유공	-2973
▁후원	-2974
▁딸아이	-2975
▁세월호	-2976
▁어이없	-2977
▁강의	-2978
▁불쌍	-2979
▁심의	-2980
▁추행	-2981
▁흘리	-2982
▁사실상	-2983
▁했으나	-2984
▁어처구니	-2985
▁족	-2986
▁오랜	-2987
▁형식	-2988
▁강한	-2989
▁당할	-2990
▁싸우	-2991
▁시달리	-2992
▁씁니다	-2993
▁체육계	-2994
▁강조	-2995
▁구하	-2996
▁이명	-2997
▁일지	-2998
▁무서운	-2999
▁벗어나	-3000
▁완전히	-3001
▁지켜보	-3002
▁쉴	-3003
뮤니	-3004
▁내보	-3005
▁맡길	-3006
▁셋째	-3007
▁이동	-3008
▁허락	-3009
▁교도소	-3010
▁신태용	-3011
▁역차별	-3012
▁커뮤니	-3013
▁더라고요	-3014
▁왜냐하면	-3015
▁폰	-3016
▁구나	-3017
▁동물	-3018
▁소위	-3019
▁재능	-3020
▁체계	-3021
▁친일	-3022
▁태어난	-3023
▁kpop	-3024
▁넷	-3025
▁탐	-3026
석희	-3027
▁기념	-3028
▁작업	-3029
▁창의	-3030
▁경찰청	-3031
▁으려고	-3032
▁마음대로	-3033
ar	-3034
▁긍	-3035
어날	-3036
▁국적	-3037
▁잠재	-3038
12	-3039
▁병설	-3040
▁오직	-3041
▁절실	-3042
▁한심	-3043
▁휴대폰	-3044
퓨터	-3045
▁공격	-3046
▁그랬	-3047
▁단계	-3048
▁분열	-3049
▁살해	-3050
▁주도	-3051
▁상관없이	-3052
▁멤	-3053
빨리	-3054
행위	-3055
▁부활	-3056
▁아실	-3057
▁영구	-3058
▁작품	-3059
▁죄인	-3060
▁주로	-3061
▁챙겨	-3062
▁서울시	-3063
▁컴퓨터	-3064
▁커뮤니티	-3065
조리	-3066
▁수백	-3067
▁어릴	-3068
▁취득	-3069
▁한두	-3070
▁협의	-3071
▁가르쳐	-3072
▁배울	-3073
▁사냥	-3074
▁수위	-3075
▁와이	-3076
▁현역	-3077
▁확정	-3078
▁가운데	-3079
▁유공자	-3080
▁젊은이	-3081
▁평창동	-3082
rea	-3083
▁공인	-3084
▁대답	-3085
▁으라고	-3086
▁떼	-3087
체육	-3088
▁감당	-3089
▁강원	-3090
▁근처	-3091
▁명절	-3092
▁미만	-3093
▁은행	-3094
▁주관	-3095
▁도우미	-3096
▁어려워	-3097
▁놔	-3098
▁빚	-3099
권력	-3100
▁남겨	-3101
▁두렵	-3102
▁몰랐	-3103
▁주요	-3104
▁통화	-3105
▁훌륭	-3106
▁저질렀	-3107
둥이	-3108
▁개개	-3109
▁나쁘	-3110
▁명령	-3111
▁바쁘	-3112
▁아름	-3113
▁이외	-3114
▁초중	-3115
▁축협	-3116
▁음란물	-3117
▁기울	-3118
▁납부	-3119
▁멤버	-3120
▁바램	-3121
▁성실	-3122
▁여유	-3123
▁열정	-3124
▁자금	-3125
▁재단	-3126
▁포르	-3127
▁일어날	-3128
▁준다는	-3129
▁지나가	-3130
▁넓	-3131
▁칭	-3132
자연	-3133
▁니깐	-3134
▁별로	-3135
▁소개	-3136
▁이득	-3137
▁직장인	-3138
▁확실히	-3139
▁컵	-3140
▁강하	-3141
▁등원	-3142
▁시각	-3143
▁추정	-3144
▁더욱더	-3145
▁바로잡	-3146
▁그렇지만	-3147
▁ᄋ	-3148
▁28	-3149
▁남용	-3150
▁동원	-3151
▁자질	-3152
▁집회	-3153
소득	-3154
체능	-3155
▁구체	-3156
▁꾸준	-3157
▁대변	-3158
▁만행	-3159
▁법무	-3160
▁선배	-3161
▁이란	-3162
▁짜리	-3163
▁버젓이	-3164
▁예체능	-3165
▁포르노	-3166
▁느꼈	-3167
▁대단	-3168
▁보단	-3169
▁순수	-3170
▁신설	-3171
▁일관	-3172
▁조용	-3173
▁지구	-3174
▁퇴직	-3175
▁팩트	-3176
▁포항	-3177
냅니다	-3178
픕니다	-3179
▁500	-3180
▁다시피	-3181
▁널	-3182
▁멍	-3183
▁과도	-3184
▁요원	-3185
▁장치	-3186
라이	-3187
▁기여	-3188
▁바른	-3189
▁보냈	-3190
▁조심	-3191
▁즉각	-3192
▁후배	-3193
▁개개인	-3194
▁저소득	-3195
▁하루빨리	-3196
희정	-3197
▁애니	-3198
▁올렸	-3199
▁지경	-3200
▁최초	-3201
▁탄압	-3202
▁혁명	-3203
▁장자연	-3204
▁발급	-3205
▁기록부	-3206
▁안희정	-3207
▁이나마	-3208
▁냈	-3209
▁닫	-3210
▁쥐	-3211
▁헛	-3212
한다	-3213
휴일	-3214
▁가득	-3215
▁기계	-3216
▁무능	-3217
▁우수	-3218
▁전통	-3219
▁짜증	-3220
▁소방관	-3221
▁아시아	-3222
▁지도자	-3223
▁2014	-3224
유예	-3225
▁라인	-3226
▁비록	-3227
▁현금	-3228
▁돌아오	-3229
▁페이스	-3230
▁플레이	-3231
소수	-3232
▁건설	-3233
▁격차	-3234
▁구글	-3235
▁기득	-3236
▁독도	-3237
▁미친	-3238
▁복귀	-3239
▁수강	-3240
▁열악	-3241
▁제제	-3242
▁지위	-3243
▁치르	-3244
▁편히	-3245
▁허나	-3246
▁회복	-3247
▁공휴일	-3248
▁시켜서	-3249
▁우울증	-3250
▁겸	-3251
▁45	-3252
▁더더	-3253
▁부대	-3254
▁부인	-3255
▁성향	-3256
▁수영	-3257
▁우승	-3258
▁자행	-3259
▁정식	-3260
▁주제	-3261
▁보조금	-3262
▁살아갈	-3263
▁아동학	-3264
▁멈	-3265
▁윗	-3266
▁검증	-3267
▁김정	-3268
▁남기	-3269
▁명분	-3270
▁악의	-3271
▁첨부	-3272
체육회	-3273
▁겉	-3274
▁뺏	-3275
스크	-3276
▁각자	-3277
▁단절	-3278
▁모여	-3279
▁바란	-3280
▁임시	-3281
▁접속	-3282
▁클럽	-3283
▁간호사	-3284
▁대한체육회	-3285
▁곡	-3286
▁칠	-3287
이드	-3288
쳐서	-3289
▁계층	-3290
▁교회	-3291
▁도로	-3292
▁떠들	-3293
▁마녀	-3294
▁미술	-3295
▁유사	-3296
▁자치	-3297
▁지향	-3298
▁참석	-3299
▁황당	-3300
le	-3301
부로	-3302
어야	-3303
▁27	-3304
▁명칭	-3305
▁위기	-3306
▁조재	-3307
▁종편	-3308
▁해고	-3309
▁더더욱	-3310
▁자라나	-3311
▁해야지	-3312
in	-3313
축구	-3314
▁다루	-3315
▁잠시	-3316
▁해자	-3317
▁아니면	-3318
▁최대한	-3319
▁컨텐츠	-3320
▁함부로	-3321
22	-3322
oo	-3323
▁땐	-3324
▁큽	-3325
라우	-3326
명규	-3327
시효	-3328
▁끼치	-3329
▁입원	-3330
▁테러	-3331
▁낙태죄	-3332
▁균	-3333
▁썼	-3334
▁경비	-3335
▁고사	-3336
▁독재	-3337
▁변명	-3338
▁소문	-3339
칩니다	-3340
▁공권력	-3341
▁일어났	-3342
▁중소기업	-3343
▁갓	-3344
▁그거	-3345
▁극단	-3346
▁기만	-3347
▁내세	-3348
▁노무	-3349
▁달려	-3350
▁뛰어	-3351
▁비방	-3352
▁연결	-3353
▁지연	-3354
▁체크	-3355
▁탈락	-3356
▁대상자	-3357
▁아무렇	-3358
▁징병제	-3359
▁가끔	-3360
▁계정	-3361
▁떳떳	-3362
▁배제	-3363
▁복직	-3364
▁써야	-3365
▁이수	-3366
▁피땀	-3367
▁큽니다	-3368
▁해결책	-3369
▁앱	-3370
ews	-3371
▁공지	-3372
▁빠르	-3373
▁요금	-3374
▁점검	-3375
▁300	-3376
▁사이버	-3377
▁정확히	-3378
▁빅	-3379
▁군복	-3380
▁나아	-3381
▁느낄	-3382
▁모를	-3383
▁선량	-3384
▁아픔	-3385
▁영아	-3386
▁예능	-3387
▁이리	-3388
▁징수	-3389
▁호칭	-3390
▁전명규	-3391
▁튜	-3392
무리	-3393
은혜	-3394
▁망치	-3395
▁반응	-3396
▁요소	-3397
▁자부	-3398
▁두려워	-3399
▁바꿔야	-3400
▁특별법	-3401
▁칸	-3402
▁고의	-3403
▁교시	-3404
▁블랙	-3405
▁소지	-3406
▁즉시	-3407
▁휴식	-3408
▁가까이	-3409
▁공소시효	-3410
십시	-3411
▁긍정	-3412
▁기재	-3413
▁대놓	-3414
▁본질	-3415
▁식사	-3416
▁신중	-3417
▁야동	-3418
▁질서	-3419
▁출판	-3420
▁편성	-3421
▁해명	-3422
▁들어와	-3423
▁라면서	-3424
▁카메라	-3425
▁1000	-3426
▁깜	-3427
까봐	-3428
▁경영	-3429
▁기피	-3430
▁바르	-3431
▁살려	-3432
▁악마	-3433
▁억압	-3434
▁착용	-3435
▁초과	-3436
▁한자	-3437
▁라니요	-3438
▁아이템	-3439
▁유은혜	-3440
▁아십니까	-3441
oc	-3442
▁가난	-3443
▁고인	-3444
▁규칙	-3445
▁냐는	-3446
▁다행	-3447
▁벌어	-3448
▁수면	-3449
▁스피	-3450
▁아울	-3451
▁여건	-3452
▁지킬	-3453
▁택시	-3454
▁터지	-3455
▁올바르	-3456
▁장려금	-3457
▁체육관	-3458
▁2015	-3459
▁푼	-3460
협회	-3461
▁대리	-3462
▁데려	-3463
▁며칠	-3464
▁뭔가	-3465
▁진보	-3466
▁창출	-3467
▁회견	-3468
십시오	-3469
▁경쟁력	-3470
▁들어간	-3471
▁정규직	-3472
▁슈	-3473
리카	-3474
조사	-3475
▁26	-3476
▁교권	-3477
▁그곳	-3478
▁도망	-3479
▁방통	-3480
▁선임	-3481
▁퇴사	-3482
▁으므로	-3483
▁페이스북	-3484
▁돕	-3485
▁개설	-3486
▁경고	-3487
▁먹이	-3488
▁배운	-3489
▁사설	-3490
▁악질	-3491
▁으셨	-3492
▁인맥	-3493
▁힘없	-3494
▁괴롭히	-3495
▁더러운	-3496
▁억지로	-3497
▁지나치	-3498
▁찾아가	-3499
▁딴	-3500
▁무지	-3501
▁보낸	-3502
▁부리	-3503
▁불쾌	-3504
▁선행	-3505
▁소재	-3506
▁우롱	-3507
▁위로	-3508
▁존엄	-3509
▁지출	-3510
▁추방	-3511
▁한참	-3512
▁노무현	-3513
▁아울러	-3514
▁인권위	-3515
▁장현수	-3516
▁2002	-3517
▁다릅니다	-3518
▁갚	-3519
던지	-3520
▁공포	-3521
▁방영	-3522
▁사행	-3523
▁속상	-3524
▁유죄	-3525
▁임명	-3526
▁주입	-3527
▁폐원	-3528
리스트	-3529
▁심석희	-3530
11	-3531
즈음	-3532
▁가벼	-3533
▁검열	-3534
▁공산	-3535
▁공직	-3536
▁기숙	-3537
▁난무	-3538
▁부패	-3539
▁살리	-3540
▁외모	-3541
▁피부	-3542
▁한계	-3543
▁회피	-3544
▁흔히	-3545
▁힘써	-3546
an	-3547
▁맛	-3548
▁가볍	-3549
▁날짜	-3550
▁높여	-3551
▁맡겨	-3552
▁매장	-3553
▁영양	-3554
▁주의	-3555
습니다	-3556
▁ᄏᄏᄏ	-3557
▁애국가	-3558
▁체육회	-3559
▁계십니다	-3560
▁낫	-3561
▁삽	-3562
▁36	-3563
▁가혹	-3564
▁공중	-3565
▁기반	-3566
▁비밀	-3567
▁앞두	-3568
▁인도	-3569
▁주소	-3570
▁표준	-3571
▁회수	-3572
▁횡포	-3573
▁깁니다	-3574
▁안타까	-3575
▁영향력	-3576
▁집행유예	-3577
el	-3578
vi	-3579
▁꾼	-3580
무니	-3581
▁난리	-3582
▁무화	-3583
▁실천	-3584
▁어마	-3585
▁예요	-3586
▁중대	-3587
▁진단	-3588
▁폭로	-3589
▁뭡	-3590
▁좁	-3591
▁간부	-3592
▁감동	-3593
▁군사	-3594
▁나영	-3595
▁오해	-3596
▁재벌	-3597
▁구성원	-3598
▁나타나	-3599
▁랍니다	-3600
▁뭡니까	-3601
▁찾아보	-3602
속히	-3603
이터	-3604
▁다리	-3605
▁다치	-3606
▁스토	-3607
▁응시	-3608
▁제보	-3609
▁조기	-3610
▁최악	-3611
▁표기	-3612
▁관련자	-3613
▁두려움	-3614
▁수시로	-3615
바일	-3616
신문	-3617
▁29	-3618
▁가중	-3619
▁감수	-3620
▁기소	-3621
▁매트	-3622
▁버티	-3623
▁보였	-3624
▁복잡	-3625
▁부과	-3626
▁부지	-3627
▁쉬운	-3628
▁체제	-3629
▁출생	-3630
▁해석	-3631
▁획득	-3632
▁kbo	-3633
▁인정받	-3634
▁지켜야	-3635
▁터무니	-3636
ts	-3637
▁ht	-3638
▁각각	-3639
▁노조	-3640
▁목격	-3641
▁바닥	-3642
▁벌점	-3643
▁부작	-3644
▁상징	-3645
▁식당	-3646
▁양산	-3647
▁오보	-3648
▁외교	-3649
▁유발	-3650
▁투입	-3651
▁파괴	-3652
▁꾸준히	-3653
▁모바일	-3654
▁운동장	-3655
▁스케이팅	-3656
▁아프리카	-3657
경원	-3658
▁감히	-3659
▁건축	-3660
▁권위	-3661
▁멀리	-3662
▁부추	-3663
▁숙제	-3664
▁자존	-3665
▁전수	-3666
▁취해	-3667
▁특목	-3668
▁휴교	-3669
▁들어갈	-3670
▁마무리	-3671
▁옥	-3672
▁탑	-3673
트리	-3674
회장	-3675
▁거절	-3676
▁나름	-3677
▁신입	-3678
▁유통	-3679
▁항공	-3680
▁흘려	-3681
▁계약직	-3682
▁떨어진	-3683
▁저소득층	-3684
▁벤	-3685
이션	-3686
▁거든	-3687
▁대충	-3688
▁따뜻	-3689
▁막말	-3690
▁범인	-3691
▁베트	-3692
▁입법	-3693
▁입증	-3694
▁모자라	-3695
▁아닐까	-3696
▁주차장	-3697
동산	-3698
▁권고	-3699
▁끝난	-3700
▁나눠	-3701
▁누릴	-3702
▁상승	-3703
▁연계	-3704
▁출석	-3705
▁나경원	-3706
▁세계인	-3707
▁언론인	-3708
▁인해서	-3709
▁아픕니다	-3710
et	-3711
▁펜	-3712
막식	-3713
서트	-3714
▁대형	-3715
▁십쇼	-3716
▁아가	-3717
▁육성	-3718
▁취재	-3719
▁피하	-3720
▁회계	-3721
▁교직원	-3722
교사	-3723
여행	-3724
▁갖추	-3725
▁결제	-3726
▁구역	-3727
▁모순	-3728
▁사학	-3729
▁아르	-3730
▁연애	-3731
▁즐겁	-3732
▁지사	-3733
▁통계	-3734
▁휴일	-3735
라우마	-3736
▁선수단	-3737
▁위원장	-3738
▁트라우마	-3739
▁콜	-3740
▁걸린	-3741
▁교감	-3742
▁길래	-3743
▁마냥	-3744
▁약물	-3745
▁영원	-3746
▁우습	-3747
▁이승	-3748
▁자제	-3749
▁전교	-3750
▁주체	-3751
▁차리	-3752
▁택배	-3753
▁학자	-3754
▁확산	-3755
▁기숙사	-3756
▁방통위	-3757
▁사무실	-3758
▁엄연히	-3759
▁진정한	-3760
축구협회	-3761
▁대한축구협회	-3762
od	-3763
▁밟	-3764
▁액	-3765
▁엇	-3766
▁찢	-3767
▁그림	-3768
▁금전	-3769
▁기원	-3770
▁몰아	-3771
▁선언	-3772
▁쓰이	-3773
▁웹툰	-3774
▁저렴	-3775
▁포상	-3776
아버지	-3777
▁력	-3778
▁론	-3779
말로	-3780
면제	-3781
▁가하	-3782
▁강릉	-3783
▁그날	-3784
▁나간	-3785
▁놀라	-3786
▁당일	-3787
▁도구	-3788
▁디자	-3789
▁바꿀	-3790
▁발휘	-3791
▁성립	-3792
▁실상	-3793
▁와중	-3794
▁입주	-3795
▁편견	-3796
▁하교	-3797
▁하키	-3798
▁협력	-3799
▁법무부	-3800
▁부작용	-3801
▁스피드	-3802
tions	-3803
▁병역면제	-3804
80	-3805
▁더군	-3806
▁막대	-3807
▁뭔지	-3808
▁욕구	-3809
▁조카	-3810
▁치밀	-3811
▁데이트	-3812
▁몰라도	-3813
▁베스트	-3814
en	-3815
다나	-3816
시대	-3817
우스	-3818
혐오	-3819
▁내내	-3820
▁대가	-3821
▁만연	-3822
▁망가	-3823
▁보인	-3824
▁부상	-3825
▁소유	-3826
▁언니	-3827
▁연관	-3828
▁원치	-3829
▁프리	-3830
▁허리	-3831
▁회생	-3832
▁횡령	-3833
▁힘드	-3834
▁바란다	-3835
▁부동산	-3836
▁자국민	-3837
▁래	-3838
▁벽	-3839
▁씻	-3840
▁엑	-3841
▁가구	-3842
▁감싸	-3843
▁소외	-3844
▁이분	-3845
▁좌절	-3846
▁편향	-3847
▁시청료	-3848
▁이명박	-3849
▁자동차	-3850
▁특목고	-3851
▁남성혐오	-3852
40	-3853
▁r	-3854
▁푸	-3855
렴치	-3856
운전	-3857
환경	-3858
▁35	-3859
▁구제	-3860
▁낮추	-3861
▁덕분	-3862
▁바보	-3863
▁변질	-3864
▁사소	-3865
▁쇼트	-3866
▁자퇴	-3867
▁전원	-3868
▁현직	-3869
▁부회장	-3870
▁저렇게	-3871
▁파렴치	-3872
▁빽	-3873
▁앗	-3874
▁헬	-3875
가락	-3876
▁교내	-3877
▁모의	-3878
▁배상	-3879
▁세종	-3880
▁이때	-3881
▁정황	-3882
▁조절	-3883
▁배우자	-3884
▁립	-3885
eti	-3886
▁ᅮᅮ	-3887
▁검정	-3888
▁느낀	-3889
▁별도	-3890
▁보완	-3891
▁뻔뻔	-3892
▁상실	-3893
▁성기	-3894
▁종료	-3895
▁종사	-3896
▁창작	-3897
▁패럴	-3898
▁편안	-3899
신문고	-3900
▁거든요	-3901
▁콘서트	-3902
▁국민신문고	-3903
▁녀	-3904
▁권익	-3905
▁넘쳐	-3906
▁대대	-3907
▁대법	-3908
▁드릴	-3909
▁마구	-3910
▁명단	-3911
▁명문	-3912
▁목사	-3913
▁소녀	-3914
▁압수	-3915
▁어째	-3916
▁여겨	-3917
▁이웃	-3918
▁중지	-3919
▁진료	-3920
▁탁상	-3921
▁표시	-3922
▁화면	-3923
▁다녀야	-3924
▁냉	-3925
▁룰	-3926
▁싱	-3927
퇴근	-3928
학습	-3929
▁공문	-3930
▁과제	-3931
▁비서	-3932
▁수요	-3933
▁인종	-3934
▁재발	-3935
▁카톡	-3936
▁흉악	-3937
▁동아리	-3938
▁바람직	-3939
▁더군다나	-3940
etitions	-3941
▁털	-3942
카오	-3943
▁끊임	-3944
▁될지	-3945
▁드려	-3946
▁미달	-3947
▁바탕	-3948
▁세기	-3949
▁수원	-3950
▁영국	-3951
▁완화	-3952
▁조국	-3953
▁준다	-3954
▁타당	-3955
▁518	-3956
▁ebs	-3957
▁자세히	-3958
▁콘텐츠	-3959
▁굴	-3960
게임	-3961
▁규명	-3962
▁독서	-3963
▁맞춤	-3964
▁생존	-3965
▁시끄	-3966
▁언행	-3967
▁위상	-3968
▁육체	-3969
▁음원	-3970
▁증언	-3971
▁짐승	-3972
▁튜버	-3973
▁펼치	-3974
▁상관없	-3975
▁였으면	-3976
▁학기제	-3977
tp	-3978
▁띄	-3979
트랙	-3980
▁내린	-3981
▁도중	-3982
▁베이	-3983
▁변하	-3984
▁서슴	-3985
▁원아	-3986
▁조현	-3987
▁해임	-3988
▁흔들	-3989
바이트	-3990
▁쌍둥이	-3991
▁이어지	-3992
▁카카오	-3993
▁한국어	-3994
▁받아들이	-3995
▁턱	-3996
여금	-3997
티즌	-3998
▁더럽	-3999
▁미루	-4000
▁민정	-4001
▁버려	-4002
▁보충	-4003
▁사찰	-4004
▁소용	-4005
▁아라	-4006
▁용품	-4007
▁이념	-4008
▁적응	-4009
▁항목	-4010
▁형벌	-4011
▁드러나	-4012
▁미혼모	-4013
▁정신병	-4014
▁쇼트트랙	-4015
▁아르바이트	-4016
on	-4017
구나	-4018
▁서버	-4019
▁써서	-4020
▁원서	-4021
▁재량	-4022
▁내보내	-4023
▁다니요	-4024
▁무너지	-4025
▁올라온	-4026
▁와이프	-4027
▁무서워서	-4028
▁패럴림픽	-4029
ou	-4030
▁득	-4031
▁뮤	-4032
공정	-4033
지부	-4034
▁경악	-4035
▁고문	-4036
▁발의	-4037
▁분리	-4038
▁불신	-4039
▁장사	-4040
▁중립	-4041
▁추억	-4042
▁한정	-4043
낍니다	-4044
▁대놓고	-4045
▁몫	-4046
▁섬	-4047
임금	-4048
▁거쳐	-4049
▁때려	-4050
▁수수	-4051
▁운운	-4052
▁유학	-4053
▁패널	-4054
▁홀로	-4055
▁후회	-4056
▁김정은	-4057
▁보호자	-4058
▁정해진	-4059
▁느낍니다	-4060
려면	-4061
머님	-4062
화고	-4063
▁간통	-4064
▁고정	-4065
▁김기	-4066
▁무한	-4067
▁바뀐	-4068
▁본다	-4069
▁새끼	-4070
▁주기	-4071
▁취미	-4072
▁베트남	-4073
▁친환경	-4074
▁특성화고	-4075
▁뜯	-4076
▁관대	-4077
▁구청	-4078
▁너희	-4079
▁반고	-4080
▁승부	-4081
▁야근	-4082
▁용어	-4083
▁유료	-4084
▁유총	-4085
▁저하	-4086
▁차트	-4087
▁199	-4088
▁어쩌면	-4089
▁저질러	-4090
▁2020	-4091
at	-4092
▁깔	-4093
거나	-4094
정기	-4095
▁강도	-4096
▁돌봐	-4097
▁벌이	-4098
▁빈번	-4099
▁엄연	-4100
▁창피	-4101
▁체벌	-4102
▁학비	-4103
▁활약	-4104
▁으니까요	-4105
▁이루어져야	-4106
or	-4107
지대	-4108
총리	-4109
▁교류	-4110
▁당제	-4111
▁비정	-4112
▁아쉬	-4113
▁야기	-4114
▁야자	-4115
▁어라	-4116
▁운행	-4117
▁착취	-4118
▁철학	-4119
▁태아	-4120
▁흘러	-4121
▁교육자	-4122
▁길거리	-4123
▁마땅히	-4124
▁수치심	-4125
▁안현수	-4126
▁옵니다	-4127
▁꼼	-4128
민주	-4129
정부	-4130
혜원	-4131
▁관행	-4132
▁끝내	-4133
▁논술	-4134
▁물리	-4135
▁방조	-4136
▁수차	-4137
▁스런	-4138
▁실험	-4139
▁어울	-4140
▁울산	-4141
▁지났	-4142
▁피임	-4143
▁행하	-4144
▁호봉	-4145
소수자	-4146
read	-4147
▁장애인	-4148
▁성소수자	-4149
▁꽤	-4150
▁빵	-4151
리라	-4152
어마	-4153
프트	-4154
▁과장	-4155
▁관념	-4156
▁널리	-4157
▁무릎	-4158
▁부를	-4159
▁앞장	-4160
▁오류	-4161
▁잠깐	-4162
▁출동	-4163
▁한쪽	-4164
▁휴지	-4165
▁가벼운	-4166
▁가치관	-4167
▁강원도	-4168
▁기획사	-4169
▁네티즌	-4170
▁다면서	-4171
▁자부심	-4172
▁출산율	-4173
▁2000	-4174
▁숫	-4175
▁썬	-4176
학년	-4177
▁날씨	-4178
▁누굴	-4179
▁맨날	-4180
▁사각	-4181
▁수년	-4182
▁승진	-4183
▁시인	-4184
▁올림	-4185
▁절반	-4186
▁지옥	-4187
▁혁신	-4188
▁불공정	-4189
▁출퇴근	-4190
▁태권도	-4191
▁어마어마	-4192
▁잣	-4193
규직	-4194
마자	-4195
이도	-4196
▁강국	-4197
▁고치	-4198
▁드렸	-4199
▁들리	-4200
▁마당	-4201
▁범법	-4202
▁법치	-4203
▁설문	-4204
▁시킵	-4205
▁엘리	-4206
▁접할	-4207
▁죽여	-4208
▁지침	-4209
▁한편	-4210
▁할까	-4211
▁디자인	-4212
▁무서워	-4213
▁음주운전	-4214
hd	-4215
▁봄	-4216
▁싹	-4217
▁깊이	-4218
▁다녔	-4219
▁마루	-4220
▁밀어	-4221
▁보일	-4222
▁부실	-4223
▁여대	-4224
▁예외	-4225
▁욕심	-4226
▁입국	-4227
▁즐길	-4228
▁처사	-4229
▁최종	-4230
▁투기	-4231
▁양육자	-4232
▁어째서	-4233
▁영원히	-4234
▁움직이	-4235
▁자마자	-4236
▁2012	-4237
▁받아들여	-4238
▁비정규직	-4239
▁우월주의	-4240
▁맙	-4241
바로	-4242
▁등장	-4243
▁미수	-4244
▁밝혔	-4245
▁사죄	-4246
▁실적	-4247
▁작용	-4248
▁적당	-4249
▁전해	-4250
▁특검	-4251
▁떨어져	-4252
▁생활비	-4253
▁연예계	-4254
▁요즈음	-4255
▁하우스	-4256
▁사각지대	-4257
al	-4258
hn	-4259
▁ᄒ	-4260
▁닿	-4261
▁가게	-4262
▁가려	-4263
▁거론	-4264
▁곳곳	-4265
▁넘기	-4266
▁막상	-4267
▁면허	-4268
▁예고	-4269
▁이중	-4270
▁인건	-4271
▁자막	-4272
▁잣대	-4273
▁줘서	-4274
▁출처	-4275
▁치우	-4276
▁침묵	-4277
▁케어	-4278
▁난이도	-4279
▁몰라라	-4280
▁저지를	-4281
▁증명서	-4282
▁토요일	-4283
ml	-4284
▁남여	-4285
▁대폭	-4286
▁발상	-4287
▁블로	-4288
▁숫자	-4289
▁스키	-4290
▁인척	-4291
▁입소	-4292
▁접종	-4293
▁체하	-4294
▁화합	-4295
▁사업자	-4296
▁손혜원	-4297
▁넥	-4298
▁씌	-4299
란히	-4300
사고	-4301
▁금수	-4302
▁끌려	-4303
▁명의	-4304
▁모양	-4305
▁배웠	-4306
▁실장	-4307
▁쏟아	-4308
▁염색	-4309
▁예약	-4310
▁완벽	-4311
▁위함	-4312
▁유독	-4313
▁유투	-4314
▁일가	-4315
▁져서	-4316
▁학연	-4317
▁화폐	-4318
▁강력범	-4319
▁올라왔	-4320
▁이뤄지	-4321
▁인건비	-4322
▁학교장	-4323
13	-4324
fa	-4325
▁롯	-4326
영향	-4327
페인	-4328
▁pd	-4329
▁개성	-4330
▁걸려	-4331
▁고스	-4332
▁당국	-4333
▁모델	-4334
▁번역	-4335
▁손실	-4336
▁용납	-4337
▁위법	-4338
▁인문	-4339
▁초래	-4340
▁출발	-4341
▁타이	-4342
▁파면	-4343
▁해질	-4344
▁헌신	-4345
▁살펴보	-4346
▁수차례	-4347
▁악영향	-4348
▁알아주	-4349
▁어긋나	-4350
▁종사자	-4351
60	-4352
▁묶	-4353
▁거듭	-4354
▁극악	-4355
▁무관	-4356
▁성격	-4357
▁아깝	-4358
▁여혐	-4359
▁은지	-4360
▁처해	-4361
▁탄핵	-4362
▁폐기	-4363
▁한창	-4364
▁현명	-4365
▁가이드	-4366
▁들어야	-4367
▁뛰어난	-4368
▁아이디	-4369
▁부끄러운	-4370
▁사회생활	-4371
19	-4372
▁냄	-4373
▁류	-4374
무실	-4375
바지	-4376
▁52	-4377
▁격려	-4378
▁기구	-4379
▁김상	-4380
▁꿈꾸	-4381
▁부장	-4382
▁사료	-4383
▁였을	-4384
▁오지	-4385
▁위탁	-4386
▁이른	-4387
▁이슬	-4388
▁제명	-4389
▁지문	-4390
▁지우	-4391
▁커서	-4392
▁핵심	-4393
▁공중파	-4394
▁괴롭힘	-4395
▁라고요	-4396
▁애니메	-4397
▁이용자	-4398
▁조용히	-4399
▁20180	-4400
▁도둑	-4401
▁바뀔	-4402
▁법제	-4403
▁성욕	-4404
▁웃음	-4405
▁전락	-4406
▁취직	-4407
▁트위	-4408
▁프랑	-4409
▁였으며	-4410
민주주의	-4411
▁자유민주주의	-4412
tn	-4413
▁맥	-4414
▁맹	-4415
▁왠	-4416
무도	-4417
▁강서	-4418
▁마트	-4419
▁법조	-4420
▁용인	-4421
▁일간	-4422
▁종이	-4423
▁종종	-4424
▁즐거	-4425
▁채택	-4426
▁체포	-4427
▁추세	-4428
▁향해	-4429
▁확신	-4430
▁금지법	-4431
▁명백히	-4432
▁으려면	-4433
▁졌으면	-4434
▁프랑스	-4435
▁2030	-4436
▁둥	-4437
두리	-4438
▁내몰	-4439
▁데뷔	-4440
▁또래	-4441
▁롯데	-4442
▁무단	-4443
▁상습	-4444
▁세무	-4445
▁여지	-4446
▁조례	-4447
▁종류	-4448
▁향후	-4449
▁ioc	-4450
▁아름다운	-4451
▁애니메이션	-4452
▁in	-4453
▁교재	-4454
▁내주	-4455
▁단기	-4456
▁막막	-4457
▁성숙	-4458
▁소음	-4459
▁스쿨	-4460
▁언젠	-4461
▁열람	-4462
▁오빠	-4463
▁우대	-4464
▁위장	-4465
▁장점	-4466
▁전남	-4467
▁전담	-4468
▁측면	-4469
▁공직자	-4470
▁이슬람	-4471
▁지나친	-4472
▁청정기	-4473
▁트위터	-4474
▁2013	-4475
▁엠	-4476
▁춤	-4477
방위	-4478
어났	-4479
tic	-4480
▁가량	-4481
▁경남	-4482
▁공고	-4483
▁공단	-4484
▁공론	-4485
▁관할	-4486
▁국당	-4487
▁노리	-4488
▁독점	-4489
▁무려	-4490
▁바쁜	-4491
▁반박	-4492
▁양보	-4493
▁에어	-4494
▁으실	-4495
▁전역	-4496
▁커지	-4497
▁평양	-4498
▁한류	-4499
▁관광객	-4500
▁예비군	-4501
▁제주도	-4502
▁이루어진	-4503
70	-4504
▁닝	-4505
시고	-4506
풀이	-4507
▁th	-4508
▁대국	-4509
▁동기	-4510
▁묵인	-4511
▁민사	-4512
▁보안	-4513
▁보편	-4514
▁수천	-4515
▁여당	-4516
▁줄일	-4517
▁특기	-4518
▁aid	-4519
▁으리라	-4520
▁랍	-4521
▁짝	-4522
▁펴	-4523
벤트	-4524
▁김성	-4525
▁김지	-4526
▁낙인	-4527
▁대선	-4528
▁뒤집	-4529
▁따위	-4530
▁마을	-4531
▁매수	-4532
▁멀쩡	-4533
▁밀려	-4534
▁붙여	-4535
▁상영	-4536
▁선물	-4537
▁선출	-4538
▁아쉽	-4539
▁어렸	-4540
▁오염	-4541
▁정착	-4542
▁특권	-4543
▁현제	-4544
▁간다고	-4545
▁스러워	-4546
▁이벤트	-4547
▁동성애자	-4548
뉴스	-4549
스타	-4550
▁가사	-4551
▁교대	-4552
▁될까	-4553
▁복장	-4554
▁사명	-4555
▁상무	-4556
▁쓰여	-4557
▁어르	-4558
▁역량	-4559
▁연속	-4560
▁자본	-4561
▁좌석	-4562
▁책상	-4563
▁초기	-4564
▁치부	-4565
▁호텔	-4566
▁000	-4567
▁부적절	-4568
▁손가락	-4569
▁엄청나	-4570
▁준다면	-4571
▁지지자	-4572
▁news	-4573
스럽	-4574
ecd	-4575
nhn	-4576
▁xx	-4577
▁공장	-4578
▁구축	-4579
▁기저	-4580
▁매매	-4581
▁무용	-4582
▁봐서	-4583
▁붙이	-4584
▁쓸데	-4585
▁어떡	-4586
▁제거	-4587
▁조리	-4588
▁추운	-4589
▁클릭	-4590
▁파탄	-4591
▁편집	-4592
▁피우	-4593
답니다	-4594
▁검색어	-4595
▁금수저	-4596
▁부추기	-4597
▁하여금	-4598
▁블랙리스트	-4599
▁런	-4600
▁뼈	-4601
▁쫓	-4602
다보	-4603
무지	-4604
일비	-4605
▁거두	-4606
▁계실	-4607
▁금융	-4608
▁기량	-4609
▁끌어	-4610
▁단위	-4611
▁떠오	-4612
▁마디	-4613
▁비행	-4614
▁실형	-4615
▁업소	-4616
▁엑소	-4617
▁예의	-4618
▁유승	-4619
▁으론	-4620
▁의구	-4621
▁자분	-4622
▁재심	-4623
▁정체	-4624
▁주사	-4625
▁편한	-4626
▁포장	-4627
view	-4628
▁110	-4629
▁게시물	-4630
▁남북한	-4631
▁에게서	-4632
▁의해서	-4633
▁oecd	-4634
▁깎	-4635
▁흙	-4636
주부	-4637
화문	-4638
▁간식	-4639
▁구타	-4640
▁내역	-4641
▁도착	-4642
▁박수	-4643
▁상해	-4644
▁에이	-4645
▁인류	-4646
▁자영	-4647
▁자전	-4648
▁정직	-4649
▁정한	-4650
▁진지	-4651
▁통장	-4652
▁회담	-4653
▁후손	-4654
▁기저귀	-4655
▁아마도	-4656
▁주어지	-4657
15	-4658
▁픽	-4659
문화	-4660
보기	-4661
아먹	-4662
역시	-4663
▁격리	-4664
▁그녀	-4665
▁급급	-4666
▁김연	-4667
▁맞이	-4668
▁문학	-4669
▁발탁	-4670
▁비단	-4671
▁소설	-4672
▁실기	-4673
▁아웃	-4674
▁에다	-4675
▁예매	-4676
▁적합	-4677
▁진다	-4678
▁페지	-4679
▁허세	-4680
일비재	-4681
▁간통죄	-4682
▁들어온	-4683
▁맙시다	-4684
▁무거운	-4685
▁신문사	-4686
▁의구심	-4687
▁자영업	-4688
▁자전거	-4689
▁http	-4690
▁고스란히	-4691
▁비일비재	-4692
란드	-4693
스터	-4694
저기	-4695
책감	-4696
▁가방	-4697
▁경질	-4698
▁교칙	-4699
▁나갔	-4700
▁다닌	-4701
▁되돌	-4702
▁마감	-4703
▁물러	-4704
▁백만	-4705
▁식구	-4706
▁쓰러	-4707
▁열린	-4708
▁욕하	-4709
▁은폐	-4710
▁의자	-4711
▁이자	-4712
▁이재	-4713
▁입양	-4714
▁처지	-4715
▁총장	-4716
▁평일	-4717
▁폐교	-4718
닙니다	-4719
0000	-4720
▁당당히	-4721
▁들으면	-4722
▁부끄러	-4723
▁편의점	-4724
▁할려고	-4725
▁여기저기	-4726
▁젠	-4727
경기	-4728
사관	-4729
와서	-4730
터링	-4731
▁가상	-4732
▁경향	-4733
▁기르	-4734
▁까요	-4735
▁다스	-4736
▁도전	-4737
▁목포	-4738
▁승인	-4739
▁악행	-4740
▁연말	-4741
▁올릴	-4742
▁요새	-4743
▁유착	-4744
▁이겨	-4745
▁이듭	-4746
▁출장	-4747
▁후반	-4748
tion	-4749
▁서울대	-4750
▁엄중히	-4751
▁은메달	-4752
▁재미있	-4753
▁주입식	-4754
▁한다니	-4755
▁횟	-4756
내리	-4757
부패	-4758
이크	-4759
▁관해	-4760
▁긴급	-4761
▁김민	-4762
▁놀랐	-4763
▁물가	-4764
▁민감	-4765
▁보미	-4766
▁산하	-4767
▁소장	-4768
▁심히	-4769
▁업계	-4770
▁영장	-4771
▁입히	-4772
▁저항	-4773
▁청춘	-4774
▁치루	-4775
▁태풍	-4776
▁해설	-4777
▁도박장	-4778
▁들어갔	-4779
▁봉사자	-4780
▁블로그	-4781
▁여고생	-4782
▁으라는	-4783
▁부정부패	-4784
▁갇	-4785
사람	-4786
혀서	-4787
▁군데	-4788
▁방침	-4789
▁배구	-4790
▁사리	-4791
▁신용	-4792
▁신장	-4793
▁실무	-4794
▁여군	-4795
▁인신	-4796
▁자발	-4797
▁주부	-4798
▁공론화	-4799
▁위해선	-4800
▁재수사	-4801
▁죄책감	-4802
▁행정부	-4803
▁버립니다	-4804
▁할아버지	-4805
▁떄	-4806
기사	-4807
쟁이	-4808
▁개방	-4809
▁국무	-4810
▁기말	-4811
▁도리	-4812
▁모니	-4813
▁숨기	-4814
▁악화	-4815
▁이만	-4816
▁인근	-4817
▁저번	-4818
▁주어	-4819
▁참담	-4820
▁키즈	-4821
▁헤아	-4822
▁횟수	-4823
▁흐름	-4824
카메라	-4825
▁625	-4826
▁비디오	-4827
▁사라진	-4828
▁어르신	-4829
▁어야지	-4830
▁일요일	-4831
▁친일파	-4832
▁학자금	-4833
▁보냅니다	-4834
▁몰래카메라	-4835
▁뉘	-4836
▁맺	-4837
▁욱	-4838
시코	-4839
화점	-4840
▁립니	-4841
▁메인	-4842
▁문구	-4843
▁사범	-4844
▁소망	-4845
▁입금	-4846
▁잔치	-4847
▁지장	-4848
▁피고	-4849
▁할인	-4850
▁허다	-4851
▁협조	-4852
▁형법	-4853
▁호주	-4854
▁흥미	-4855
▁광화문	-4856
▁노동부	-4857
▁대법원	-4858
▁몰아가	-4859
▁생겨나	-4860
▁언젠가	-4861
▁유승준	-4862
▁지난해	-4863
readnhn	-4864
▁petitions	-4865
▁쇠	-4866
▁큐	-4867
센트	-4868
워크	-4869
▁33	-4870
▁감안	-4871
▁개학	-4872
▁글자	-4873
▁김영	-4874
▁깨닫	-4875
▁둘러	-4876
▁마크	-4877
▁매스	-4878
▁모임	-4879
▁법령	-4880
▁상사	-4881
▁실격	-4882
▁심화	-4883
▁아나	-4884
▁전과	-4885
▁전업	-4886
▁집값	-4887
▁초반	-4888
▁혜화	-4889
▁강서구	-4890
▁개막식	-4891
▁김연아	-4892
▁도무지	-4893
▁불안감	-4894
▁수없이	-4895
▁지지율	-4896
▁코리아	-4897
▁돌아다니	-4898
▁연합뉴스	-4899
▁https	-4900
원회	-4901
sid	-4902
▁lg	-4903
▁걸어	-4904
▁걸음	-4905
▁공통	-4906
▁괴로	-4907
▁구해	-4908
▁라뇨	-4909
▁멈추	-4910
▁미용	-4911
▁불량	-4912
▁시비	-4913
▁시효	-4914
▁엔터	-4915
▁오죽	-4916
▁유니	-4917
▁이영	-4918
▁주거	-4919
▁최순	-4920
▁크림	-4921
▁하물	-4922
▁형제	-4923
▁후진	-4924
▁검찰청	-4925
▁시상식	-4926
▁일부러	-4927
▁조재범	-4928
▁힘든데	-4929
▁끊임없이	-4930
▁생깁니다	-4931
▁보여집니다	-4932
es	-4933
▁멕	-4934
크로	-4935
▁na	-4936
▁금치	-4937
▁내렸	-4938
▁뇌물	-4939
▁는대	-4940
▁다소	-4941
▁당선	-4942
▁묵살	-4943
▁부가	-4944
▁알림	-4945
▁오른	-4946
▁유행	-4947
▁이틀	-4948
▁재직	-4949
▁조회	-4950
▁질병	-4951
▁청문	-4952
▁행해	-4953
▁150	-4954
▁경기력	-4955
▁달라지	-4956
▁똑바로	-4957
▁백화점	-4958
▁시험지	-4959
▁하물며	-4960
▁시킵니다	-4961
▁껍	-4962
▁섭	-4963
▁셈	-4964
▁앵	-4965
나다	-4966
잡이	-4967
▁un	-4968
▁기독	-4969
▁단정	-4970
▁망하	-4971
▁보살	-4972
▁분석	-4973
▁생일	-4974
▁약간	-4975
▁옮겨	-4976
▁지망	-4977
▁확충	-4978
▁당해야	-4979
▁이래서	-4980
▁학년도	-4981
▁했으며	-4982
dm	-4983
it	-4984
▁짖	-4985
▁쾌	-4986
니스	-4987
▁32	-4988
▁공급	-4989
▁담사	-4990
▁따돌	-4991
▁라이	-4992
▁박정	-4993
▁반하	-4994
▁분류	-4995
▁업적	-4996
▁오심	-4997
▁입사	-4998
▁채무	-4999
▁충남	-5000
▁취약	-5001
▁탈북	-5002
▁패딩	-5003
▁해택	-5004
위원회	-5005
▁부조리	-5006
▁소프트	-5007
▁책임자	-5008
▁퍼센트	-5009
▁한다며	-5010
ticle	-5011
▁에서부터	-5012
▁똥	-5013
▁벅	-5014
▁킴	-5015
어버	-5016
운동	-5017
천지	-5018
ids	-5019
▁48	-5020
▁가졌	-5021
▁간접	-5022
▁건가	-5023
▁결승	-5024
▁기각	-5025
▁당황	-5026
▁들이	-5027
▁불행	-5028
▁빠진	-5029
▁상호	-5030
▁수장	-5031
▁아산	-5032
▁안일	-5033
▁여태	-5034
▁연극	-5035
▁예선	-5036
▁올랐	-5037
▁우린	-5038
▁이내	-5039
▁재범	-5040
▁정기	-5041
▁젠더	-5042
▁증인	-5043
▁직종	-5044
▁추석	-5045
▁충족	-5046
▁친정	-5047
▁한들	-5048
▁uhd	-5049
▁ytn	-5050
▁가져가	-5051
▁감독관	-5052
▁돈벌이	-5053
▁멕시코	-5054
▁오늘날	-5055
▁오지환	-5056
▁마십시오	-5057
▁못한다면	-5058
90	-5059
부모	-5060
순환	-5061
▁건립	-5062
▁계좌	-5063
▁마주	-5064
▁무작	-5065
▁물어	-5066
▁배움	-5067
▁부자	-5068
▁사복	-5069
▁소급	-5070
▁수저	-5071
▁시원	-5072
▁오랫	-5073
▁응급	-5074
▁이라	-5075
▁점차	-5076
▁제사	-5077
▁조합	-5078
▁주권	-5079
▁지능	-5080
▁지수	-5081
▁직권	-5082
▁혼인	-5083
▁개정안	-5084
▁악순환	-5085
▁유가족	-5086
▁케이블	-5087
▁흉악범	-5088
ch	-5089
om	-5090
▁짊	-5091
동생	-5092
디션	-5093
▁관여	-5094
▁그치	-5095
▁끊이	-5096
▁만만	-5097
▁무자	-5098
▁설득	-5099
▁수립	-5100
▁업종	-5101
▁작금	-5102
▁적성	-5103
▁즐겨	-5104
▁총리	-5105
▁측정	-5106
▁칭찬	-5107
▁패스	-5108
▁공기업	-5109
▁내세우	-5110
▁마스크	-5111
▁벌금형	-5112
▁신다고	-5113
▁에어컨	-5114
▁조속히	-5115
▁앨	-5116
소연	-5117
화국	-5118
mod	-5119
▁견디	-5120
▁경북	-5121
▁공모	-5122
▁극복	-5123
▁남발	-5124
▁무언	-5125
▁발굴	-5126
▁발령	-5127
▁병사	-5128
▁본래	-5129
▁서술	-5130
▁숙명	-5131
▁시일	-5132
▁유전	-5133
▁의존	-5134
▁장비	-5135
▁지대	-5136
▁질환	-5137
▁차마	-5138
▁청장	-5139
▁향한	-5140
▁다가오	-5141
▁대국민	-5142
▁돌려주	-5143
▁언제나	-5144
▁외국어	-5145
▁현행법	-5146
▁합니다만	-5147
▁멘	-5148
▁융	-5149
덩이	-5150
버스	-5151
▁거대	-5152
▁거치	-5153
▁균형	-5154
▁기도	-5155
▁김경	-5156
▁드립	-5157
▁따름	-5158
▁만일	-5159
▁매주	-5160
▁문서	-5161
▁법규	-5162
▁신성	-5163
▁은퇴	-5164
▁전술	-5165
▁채워	-5166
▁추악	-5167
▁타투	-5168
▁편입	-5169
▁활발	-5170
▁본보기	-5171
▁어려서	-5172
▁영화관	-5173
▁저학년	-5174
▁책임질	-5175
▁다닙니다	-5176
▁만듭니다	-5177
▁오랫동안	-5178
ᅳᅳ	-5179
▁량	-5180
▁팝	-5181
네요	-5182
지현	-5183
▁sk	-5184
▁갑작	-5185
▁고령	-5186
▁관점	-5187
▁국익	-5188
▁기쁨	-5189
▁나빠	-5190
▁놔두	-5191
▁누명	-5192
▁먼지	-5193
▁무척	-5194
▁버릴	-5195
▁본론	-5196
▁설정	-5197
▁성관	-5198
▁역대	-5199
▁오픈	-5200
▁월세	-5201
▁일원	-5202
▁자비	-5203
▁전시	-5204
▁주먹	-5205
▁추후	-5206
▁파견	-5207
▁피곤	-5208
▁한남	-5209
가족부	-5210
▁나와야	-5211
▁일으킨	-5212
▁자존심	-5213
▁정교사	-5214
▁하소연	-5215
model	-5216
▁모의고사	-5217
▁남성가족부	-5218
readnhnmodel	-5219
14	-5220
▁댄	-5221
▁멸	-5222
▁뭉	-5223
▁섞	-5224
▁숭	-5225
▁앓	-5226
▁촌	-5227
린다	-5228
▁고집	-5229
▁관중	-5230
▁관찰	-5231
▁단독	-5232
▁동반	-5233
▁먹여	-5234
▁몰려	-5235
▁박사	-5236
▁변제	-5237
▁분쟁	-5238
▁비웃	-5239
▁산점	-5240
▁수렴	-5241
▁숙박	-5242
▁스펙	-5243
▁전두	-5244
▁전세	-5245
▁절망	-5246
▁정현	-5247
▁제약	-5248
▁지극	-5249
▁훈장	-5250
▁노래방	-5251
▁박정희	-5252
▁앞장서	-5253
▁엘리트	-5254
▁턱없이	-5255
▁한게임	-5256
readnhnmodels	-5257
17	-5258
▁쪼	-5259
던가	-5260
로드	-5261
저씨	-5262
하고	-5263
▁강점	-5264
▁국영	-5265
▁기성	-5266
▁나날	-5267
▁나마	-5268
▁로또	-5269
▁무식	-5270
▁속이	-5271
▁시합	-5272
▁안중	-5273
▁욕먹	-5274
▁일선	-5275
▁임기	-5276
▁적발	-5277
▁전북	-5278
▁정년	-5279
▁주년	-5280
▁추적	-5281
▁추측	-5282
▁치열	-5283
▁토토	-5284
▁평준	-5285
▁흘린	-5286
▁교육법	-5287
▁기독교	-5288
▁는군요	-5289
▁늘어날	-5290
▁아저씨	-5291
▁체육복	-5292
▁페이지	-5293
▁눌	-5294
▁묘	-5295
조작	-5296
▁ᄒᄒ	-5297
▁갈아	-5298
▁고맙	-5299
▁김포	-5300
▁납치	-5301
▁뉘우	-5302
▁다섯	-5303
▁들려	-5304
▁반발	-5305
▁발찌	-5306
▁방어	-5307
▁부러	-5308
▁안겨	-5309
▁애인	-5310
▁입맛	-5311
▁저해	-5312
▁전략	-5313
▁파일	-5314
▁교무실	-5315
▁국정원	-5316
▁명확히	-5317
▁살인자	-5318
▁어긋난	-5319
▁승부조작	-5320
▁아이디어	-5321
▁유치원생	-5322
▁으십니다	-5323
33	-5324
ht	-5325
ub	-5326
▁폼	-5327
줘야	-5328
항공	-5329
▁견제	-5330
▁고충	-5331
▁골프	-5332
▁돼야	-5333
▁보유	-5334
▁복수	-5335
▁부합	-5336
▁상업	-5337
▁실내	-5338
▁커피	-5339
▁파업	-5340
▁패배	-5341
▁폐간	-5342
▁학군	-5343
▁혹여	-5344
▁힘쓰	-5345
▁국방부	-5346
▁김상곤	-5347
▁더구나	-5348
▁물어야	-5349
▁박탈감	-5350
▁삽니다	-5351
▁어려울	-5352
▁전두환	-5353
▁지극히	-5354
▁캐나다	-5355
47	-5356
▁덧	-5357
▁붕	-5358
별력	-5359
봐도	-5360
세지	-5361
토록	-5362
▁가로	-5363
▁관공	-5364
▁그간	-5365
▁꺼내	-5366
▁농어	-5367
▁물려	-5368
▁물품	-5369
▁설계	-5370
▁수록	-5371
▁요인	-5372
▁원망	-5373
▁저렇	-5374
▁조중	-5375
▁중시	-5376
▁차등	-5377
▁착각	-5378
▁해제	-5379
▁그런지	-5380
▁배워야	-5381
▁올라와	-5382
▁으려는	-5383
dmids	-5384
as	-5385
▁잦	-5386
▁젖	-5387
▁틈	-5388
▁험	-5389
갈이	-5390
들이	-5391
루킹	-5392
운서	-5393
인트	-5394
하나	-5395
▁it	-5396
▁yg	-5397
▁걸맞	-5398
▁고유	-5399
▁공제	-5400
▁관하	-5401
▁괜히	-5402
▁구멍	-5403
▁구별	-5404
▁꽃뱀	-5405
▁꾸미	-5406
▁부도	-5407
▁성민	-5408
▁소홀	-5409
▁신생	-5410
▁아끼	-5411
▁압력	-5412
▁위조	-5413
▁잔혹	-5414
▁전직	-5415
▁조상	-5416
▁천사	-5417
▁추락	-5418
▁치안	-5419
▁포탈	-5420
▁한숨	-5421
▁해킹	-5422
▁oid	-5423
▁간다는	-5424
▁김지은	-5425
▁다름없	-5426
▁드루킹	-5427
▁서지현	-5428
▁알려진	-5429
▁에다가	-5430
▁혹시나	-5431
▁대한항공	-5432
is	-5433
▁깍	-5434
▁뱃	-5435
▁엿	-5436
물관	-5437
▁각하	-5438
▁감금	-5439
▁강압	-5440
▁계열	-5441
▁광부	-5442
▁냄새	-5443
▁당첨	-5444
▁동포	-5445
▁배워	-5446
▁신규	-5447
▁알렸	-5448
▁야당	-5449
▁염원	-5450
▁잊혀	-5451
▁펜스	-5452
▁학문	-5453
▁해선	-5454
▁홍대	-5455
▁공화국	-5456
▁관공서	-5457
▁급식비	-5458
▁기다려	-5459
▁농어촌	-5460
▁당해도	-5461
▁맘대로	-5462
▁야구장	-5463
▁줍시다	-5464
▁극악무도	-5465
▁기말고사	-5466
▁아나운서	-5467
dmidsec	-5468
▁켜	-5469
▁혀	-5470
고리	-5471
눈물	-5472
지르	-5473
▁oo	-5474
▁ᅳᅳ	-5475
▁간섭	-5476
▁개별	-5477
▁매진	-5478
▁보존	-5479
▁불륜	-5480
▁비례	-5481
▁신념	-5482
▁어기	-5483
▁영웅	-5484
▁이민	-5485
▁일수	-5486
▁전력	-5487
▁조폭	-5488
▁좌파	-5489
▁주심	-5490
▁코스	-5491
▁112	-5492
▁기울여	-5493
▁떨어졌	-5494
▁메세지	-5495
▁보여준	-5496
▁보험료	-5497
▁사라졌	-5498
▁수수료	-5499
▁피눈물	-5500
▁사라져야	-5501
▁수학여행	-5502
▁끄	-5503
▁닉	-5504
▁랭	-5505
고시	-5506
방송	-5507
▁고양	-5508
▁과감	-5509
▁과외	-5510
▁나뉘	-5511
▁뒤늦	-5512
▁모으	-5513
▁유산	-5514
▁자랄	-5515
▁자르	-5516
▁접했	-5517
▁지니	-5518
▁책정	-5519
▁청탁	-5520
▁호흡	-5521
▁화나	-5522
▁강점기	-5523
▁나온다	-5524
▁들어왔	-5525
▁따돌림	-5526
▁봅시다	-5527
▁으세요	-5528
▁은데요	-5529
▁축구팬	-5530
▁5000	-5531
▁공산주의	-5532
▁교통사고	-5533
▁독립운동	-5534
▁최저임금	-5535
▁느껴집니다	-5536
▁놨	-5537
▁짤	-5538
수색	-5539
어리	-5540
준영	-5541
▁02	-5542
▁mb	-5543
▁갔다	-5544
▁걸쳐	-5545
▁광장	-5546
▁국격	-5547
▁극심	-5548
▁낮춰	-5549
▁로스	-5550
▁묵묵	-5551
▁미숙	-5552
▁미지	-5553
▁박스	-5554
▁서명	-5555
▁선도	-5556
▁선전	-5557
▁세여	-5558
▁시리	-5559
▁신속	-5560
▁알릴	-5561
▁애매	-5562
▁앨범	-5563
▁염려	-5564
▁워너	-5565
▁으러	-5566
▁장교	-5567
▁정답	-5568
▁취한	-5569
▁편법	-5570
▁펼쳐	-5571
▁화재	-5572
▁you	-5573
▁다고요	-5574
▁다는데	-5575
▁뭔가요	-5576
▁사이비	-5577
▁조재현	-5578
▁검정고시	-5579
▁문화재청	-5580
▁전업주부	-5581
▁카카오톡	-5582
16	-5583
▁춘	-5584
센터	-5585
▁56	-5586
▁까진	-5587
▁꼬박	-5588
▁누나	-5589
▁모병	-5590
▁미사	-5591
▁범행	-5592
▁사직	-5593
▁소원	-5594
▁수석	-5595
▁쉬쉬	-5596
▁신혼	-5597
▁엉망	-5598
▁옮기	-5599
▁용도	-5600
▁이윤	-5601
▁자산	-5602
▁준하	-5603
▁지표	-5604
▁크리	-5605
▁틀린	-5606
▁하위	-5607
▁합성	-5608
▁환영	-5609
▁드러내	-5610
▁모조리	-5611
▁몰라서	-5612
▁박물관	-5613
▁방송인	-5614
▁신천지	-5615
▁우선시	-5616
▁했으니	-5617
▁관계없이	-5618
▁하나하나	-5619
am	-5620
▁옵	-5621
▁윈	-5622
▁쭉	-5623
▁콩	-5624
든지	-5625
릭터	-5626
슬림	-5627
추어	-5628
▁경각	-5629
▁고개	-5630
▁공항	-5631
▁교묘	-5632
▁글로	-5633
▁내릴	-5634
▁넘겨	-5635
▁단점	-5636
▁대접	-5637
▁마인	-5638
▁멍청	-5639
▁무궁	-5640
▁비자	-5641
▁사비	-5642
▁술집	-5643
▁시골	-5644
▁일까	-5645
▁잡혀	-5646
▁전주	-5647
▁전파	-5648
▁정가	-5649
▁지명	-5650
▁지배	-5651
▁팬덤	-5652
▁풍선	-5653
▁피파	-5654
▁무슬림	-5655
▁성실히	-5656
▁어머님	-5657
▁어울리	-5658
▁정해져	-5659
▁줄어드	-5660
▁테스트	-5661
▁피고인	-5662
▁2022	-5663
▁선행학습	-5664
▁아니한다	-5665
▁압수수색	-5666
23	-5667
no	-5668
▁듀	-5669
▁랜	-5670
▁41	-5671
▁99	-5672
▁개그	-5673
▁구현	-5674
▁농락	-5675
▁눈감	-5676
▁무게	-5677
▁문법	-5678
▁사후	-5679
▁슬픈	-5680
▁앞둔	-5681
▁영광	-5682
▁응답	-5683
▁일시	-5684
▁정산	-5685
▁충실	-5686
▁토록	-5687
▁해진	-5688
▁히트	-5689
▁경각심	-5690
▁관람료	-5691
▁불가피	-5692
▁수사관	-5693
▁시끄럽	-5694
▁싸이트	-5695
▁유니폼	-5696
▁할려면	-5697
▁심합니다	-5698
▁이루어질	-5699
27	-5700
▁셀	-5701
는데	-5702
셔츠	-5703
▁날조	-5704
▁낮잠	-5705
▁노릇	-5706
▁떠올	-5707
▁메뉴	-5708
▁반인	-5709
▁배경	-5710
▁배신	-5711
▁불문	-5712
▁비상	-5713
▁사원	-5714
▁신랑	-5715
▁악법	-5716
▁영리	-5717
▁외벌	-5718
▁이관	-5719
▁저버	-5720
▁지체	-5721
▁초범	-5722
▁타격	-5723
▁특강	-5724
▁하도	-5725
▁학위	-5726
▁현황	-5727
▁글로벌	-5728
▁매크로	-5729
▁조중동	-5730
▁출판사	-5731
▁프로젝	-5732
▁대학원생	-5733
▁명예훼손	-5734
▁아마추어	-5735
dmidsecsid	-5736
▁둬	-5737
▁땜	-5738
▁렀	-5739
▁팅	-5740
▁핀	-5741
갱이	-5742
무원	-5743
▁cj	-5744
▁kt	-5745
▁감기	-5746
▁감추	-5747
▁갖춘	-5748
▁과금	-5749
▁단설	-5750
▁메일	-5751
▁미명	-5752
▁미칠	-5753
▁분단	-5754
▁사연	-5755
▁설마	-5756
▁속도	-5757
▁스승	-5758
▁였음	-5759
▁절감	-5760
▁접촉	-5761
▁토대	-5762
▁환수	-5763
린다고	-5764
복지부	-5765
▁the	-5766
▁갈리아	-5767
▁따라가	-5768
▁뜨거운	-5769
▁로스쿨	-5770
▁무언가	-5771
▁박지성	-5772
▁브랜드	-5773
▁스토킹	-5774
▁쓸데없	-5775
▁우연히	-5776
▁캠페인	-5777
▁학부형	-5778
▁그러니까	-5779
▁모니터링	-5780
▁프로젝트	-5781
▁보건복지부	-5782
ed	-5783
▁쫒	-5784
너무	-5785
▁강행	-5786
▁금방	-5787
▁깨달	-5788
▁몰이	-5789
▁봐요	-5790
▁부딪	-5791
▁수여	-5792
▁순서	-5793
▁심심	-5794
▁어지	-5795
▁업주	-5796
▁원한	-5797
▁정비	-5798
▁지르	-5799
▁체전	-5800
▁크기	-5801
▁탄생	-5802
▁학사	-5803
▁bts	-5804
▁가져야	-5805
▁김기덕	-5806
▁다녀오	-5807
▁드려요	-5808
▁상당수	-5809
▁신생아	-5810
▁아파서	-5811
▁암표상	-5812
▁영양사	-5813
▁청문회	-5814
▁키워야	-5815
▁통신사	-5816
▁포인트	-5817
▁국무총리	-5818
▁모자이크	-5819
▁쿠	-5820
재단	-5821
퍼스	-5822
▁가관	-5823
▁갈취	-5824
▁건너	-5825
▁경상	-5826
▁공범	-5827
▁국사	-5828
▁귀한	-5829
▁그야	-5830
▁김치	-5831
▁내지	-5832
▁노후	-5833
▁녹음	-5834
▁돼지	-5835
▁때로	-5836
▁미흡	-5837
▁배출	-5838
▁부재	-5839
▁상주	-5840
▁새롭	-5841
▁성년	-5842
▁시범	-5843
▁실용	-5844
▁실효	-5845
▁심장	-5846
▁쓸모	-5847
▁안락	-5848
▁어깨	-5849
▁인민	-5850
▁일자	-5851
▁일종	-5852
▁장병	-5853
▁주목	-5854
▁중반	-5855
▁직위	-5856
▁치뤄	-5857
▁풀려	-5858
▁현지	-5859
▁간다면	-5860
▁넘쳐나	-5861
▁마인드	-5862
▁바꿔서	-5863
▁빨갱이	-5864
▁스러웠	-5865
▁에이즈	-5866
▁예술인	-5867
▁정준영	-5868
▁주인공	-5869
▁찾아볼	-5870
▁혜화역	-5871
▁2011	-5872
▁남녀차별	-5873
▁꽉	-5874
▁춥	-5875
교통	-5876
급식	-5877
▁가계	-5878
▁가깝	-5879
▁대만	-5880
▁댄스	-5881
▁동조	-5882
▁모범	-5883
▁변호	-5884
▁별거	-5885
▁복원	-5886
▁색깔	-5887
▁세뇌	-5888
▁수첩	-5889
▁안보	-5890
▁연일	-5891
▁작전	-5892
▁종결	-5893
▁지쳐	-5894
▁직전	-5895
▁축하	-5896
▁파트	-5897
▁하락	-5898
▁한가	-5899
▁해졌	-5900
▁198	-5901
▁가르칠	-5902
▁라디오	-5903
▁몰상식	-5904
▁살인죄	-5905
▁지금껏	-5906
▁징역형	-5907
▁책임감	-5908
▁2010	-5909
▁책임져야	-5910
▁쏘	-5911
▁폴	-5912
먼트	-5913
▁to	-5914
▁경계	-5915
▁경호	-5916
▁고지	-5917
▁매출	-5918
▁메시	-5919
▁병들	-5920
▁불합	-5921
▁산후	-5922
▁선처	-5923
▁손님	-5924
▁슈퍼	-5925
▁아팠	-5926
▁어선	-5927
▁요리	-5928
▁우익	-5929
▁울리	-5930
▁위생	-5931
▁의뢰	-5932
▁자란	-5933
▁제자	-5934
▁죄질	-5935
▁주간	-5936
▁주최	-5937
▁지휘	-5938
▁청렴	-5939
▁플랫	-5940
▁학창	-5941
▁해치	-5942
▁호도	-5943
▁휴업	-5944
html	-5945
▁경비원	-5946
▁계약서	-5947
▁벗어난	-5948
▁본다면	-5949
▁재조사	-5950
▁채무자	-5951
▁흡연자	-5952
ation	-5953
▁무상급식	-5954
26	-5955
▁ᄌ	-5956
▁곰	-5957
레임	-5958
커녕	-5959
프라	-5960
▁37	-5961
▁65	-5962
▁구독	-5963
▁국고	-5964
▁군가	-5965
▁노고	-5966
▁달성	-5967
▁똑똑	-5968
▁멋진	-5969
▁바우	-5970
▁소름	-5971
▁아리	-5972
▁안양	-5973
▁앞뒤	-5974
▁연루	-5975
▁온상	-5976
▁완성	-5977
▁유예	-5978
▁유흥	-5979
▁이룰	-5980
▁자니	-5981
▁적시	-5982
▁전념	-5983
▁전액	-5984
▁증설	-5985
▁지목	-5986
▁찌푸	-5987
▁찬양	-5988
▁천안	-5989
▁폭위	-5990
▁표출	-5991
▁화해	-5992
▁더라면	-5993
▁민방위	-5994
▁월요일	-5995
▁입장료	-5996
▁캐릭터	-5997
▁화장품	-5998
▁너무너무	-5999
▁겹	-6000
▁굶	-6001
▁껀	-6002
▁꿇	-6003
▁끈	-6004
▁덩	-6005
▁뜬	-6006
▁튀	-6007
다른	-6008
의식	-6009
저리	-6010
통신	-6011
▁38	-6012
▁55	-6013
▁fi	-6014
▁is	-6015
▁가스	-6016
▁간호	-6017
▁고는	-6018
▁공학	-6019
▁광복	-6020
▁귀기	-6021
▁깜짝	-6022
▁놓여	-6023
▁뒤쳐	-6024
▁모텔	-6025
▁물의	-6026
▁민심	-6027
▁배달	-6028
▁배포	-6029
▁본사	-6030
▁산모	-6031
▁산정	-6032
▁수호	-6033
▁시사	-6034
▁암기	-6035
▁예쁜	-6036
▁이론	-6037
▁일치	-6038
▁재고	-6039
▁재원	-6040
▁전무	-6041
▁증진	-6042
▁지워	-6043
▁창원	-6044
▁채점	-6045
▁철거	-6046
▁폐해	-6047
▁화학	-6048
▁공동체	-6049
▁관해서	-6050
▁떠오르	-6051
▁못해서	-6052
▁무교육	-6053
▁사라질	-6054
▁재수생	-6055
▁진다고	-6056
▁짓거리	-6057
▁캠퍼스	-6058
▁퇴직금	-6059
▁포상금	-6060
▁후진국	-6061
▁3000	-6062
▁그야말로	-6063
▁대중교통	-6064
▁방송통신	-6065
▁해외여행	-6066
▁방송통신위원회	-6067
ve	-6068
▁꿀	-6069
▁듭	-6070
부인	-6071
셔서	-6072
스레	-6073
워하	-6074
▁39	-6075
▁ar	-6076
▁강구	-6077
▁결재	-6078
▁고리	-6079
▁귀하	-6080
▁극우	-6081
▁금품	-6082
▁남한	-6083
▁누르	-6084
▁딱히	-6085
▁려니	-6086
▁메이	-6087
▁반납	-6088
▁반말	-6089
▁반칙	-6090
▁방금	-6091
▁병행	-6092
▁본부	-6093
▁볼모	-6094
▁부득	-6095
▁분통	-6096
▁선호	-6097
▁수비	-6098
▁연대	-6099
▁장악	-6100
▁전적	-6101
▁지필	-6102
▁진입	-6103
▁징집	-6104
▁최우	-6105
▁친절	-6106
▁카시	-6107
▁탐구	-6108
▁합산	-6109
▁항소	-6110
▁흥원	-6111
힙니다	-6112
▁120	-6113
▁가져오	-6114
▁국기원	-6115
▁내려야	-6116
▁따라야	-6117
▁리스트	-6118
▁마음놓	-6119
▁벌어진	-6120
▁스트리	-6121
▁아야지	-6122
▁아이즈	-6123
▁인프라	-6124
▁일본어	-6125
▁정현백	-6126
▁팀워크	-6127
▁해야죠	-6128
▁2009	-6129
▁조선시대	-6130
▁해서라도	-6131
pl	-6132
▁늙	-6133
▁닥	-6134
▁멜	-6135
▁벨	-6136
▁칩	-6137
긍심	-6138
래도	-6139
바닥	-6140
재기	-6141
출소	-6142
행정	-6143
ing	-6144
▁간다	-6145
▁교화	-6146
▁귀찮	-6147
▁근대	-6148
▁길러	-6149
▁논문	-6150
▁놓치	-6151
▁늘어	-6152
▁도배	-6153
▁되찾	-6154
▁든가	-6155
▁랭킹	-6156
▁몰리	-6157
▁못지	-6158
▁무마	-6159
▁믿음	-6160
▁발목	-6161
▁복권	-6162
▁불이	-6163
▁붙잡	-6164
▁빈부	-6165
▁사단	-6166
▁세부	-6167
▁속옷	-6168
▁식민	-6169
▁신변	-6170
▁싸이	-6171
▁원비	-6172
▁위대	-6173
▁위자	-6174
▁유엔	-6175
▁이모	-6176
▁자매	-6177
▁제압	-6178
▁집어	-6179
▁착오	-6180
▁착한	-6181
▁쳐도	-6182
▁쳐먹	-6183
▁치유	-6184
▁해져	-6185
▁확립	-6186
▁냅니다	-6187
▁당해서	-6188
▁떨어질	-6189
▁명문대	-6190
▁모욕죄	-6191
▁사업장	-6192
▁아니하	-6193
▁안락사	-6194
▁운영비	-6195
▁이승훈	-6196
▁자긍심	-6197
▁조선족	-6198
▁즐거운	-6199
▁창의력	-6200
▁룸	-6201
▁림	-6202
▁즈	-6203
▁컷	-6204
▁폄	-6205
광고	-6206
넘기	-6207
봐야	-6208
운드	-6209
이나	-6210
하여	-6211
▁vs	-6212
▁강자	-6213
▁근래	-6214
▁금연	-6215
▁급하	-6216
▁꼼수	-6217
▁녹색	-6218
▁담보	-6219
▁대사	-6220
▁디지	-6221
▁리얼	-6222
▁무사	-6223
▁문신	-6224
▁별개	-6225
▁보급	-6226
▁속히	-6227
▁외투	-6228
▁유감	-6229
▁유형	-6230
▁정몽	-6231
▁죽인	-6232
▁충당	-6233
▁충북	-6234
▁카테	-6235
▁큰일	-6236
▁트리	-6237
▁팀장	-6238
▁편리	-6239
▁피시	-6240
▁할당	-6241
▁흉기	-6242
▁가진다	-6243
▁권력자	-6244
▁되풀이	-6245
▁라지만	-6246
▁바우처	-6247
▁밝혀진	-6248
▁부담감	-6249
▁사회악	-6250
▁살아남	-6251
▁성교육	-6252
▁일본인	-6253
▁카시트	-6254
▁떨어뜨리	-6255
▁못한다는	-6256
▁중간고사	-6257
▁카테고리	-6258
▁탁상행정	-6259
il	-6260
▁ᄀ	-6261
▁껴	-6262
러리	-6263
머리	-6264
▁75	-6265
▁ex	-6266
▁me	-6267
▁nc	-6268
▁가시	-6269
▁근간	-6270
▁기미	-6271
▁노벨	-6272
▁녹취	-6273
▁만점	-6274
▁말살	-6275
▁문장	-6276
▁미뤄	-6277
▁보관	-6278
▁보태	-6279
▁비참	-6280
▁빌미	-6281
▁빨간	-6282
▁수감	-6283
▁쌍방	-6284
▁야외	-6285
▁여아	-6286
▁웃기	-6287
▁위력	-6288
▁의거	-6289
▁재밌	-6290
▁적정	-6291
▁주무	-6292
▁체대	-6293
▁토익	-6294
▁파헤	-6295
▁피할	-6296
▁휴전	-6297
쁩니다	-6298
▁180	-6299
▁강간범	-6300
▁밝혀졌	-6301
▁생겨서	-6302
▁엉덩이	-6303
▁움직임	-6304
▁위자료	-6305
▁태어났	-6306
▁가르쳐야	-6307
▁일어납니다	-6308
▁뚜	-6309
▁몹	-6310
▁줌	-6311
너지	-6312
라고	-6313
러스	-6314
로운	-6315
선미	-6316
유산	-6317
터리	-6318
▁43	-6319
▁간청	-6320
▁거세	-6321
▁검출	-6322
▁경주	-6323
▁과실	-6324
▁귀가	-6325
▁그쪽	-6326
▁다툼	-6327
▁드림	-6328
▁무겁	-6329
▁묻히	-6330
▁미개	-6331
▁비소	-6332
▁사면	-6333
▁사춘	-6334
▁상장	-6335
▁슬프	-6336
▁양아	-6337
▁없앤	-6338
▁우편	-6339
▁은닉	-6340
▁이탈	-6341
▁자아	-6342
▁종전	-6343
▁청각	-6344
▁타임	-6345
▁틀리	-6346
▁퍼져	-6347
▁피겨	-6348
▁피로	-6349
▁필기	-6350
▁합창	-6351
▁010	-6352
▁귀기울	-6353
▁드러났	-6354
▁미지급	-6355
▁베이비	-6356
▁살인범	-6357
▁속상하	-6358
▁어리석	-6359
▁엄격히	-6360
▁엔터테	-6361
▁칩니다	-6362
▁컨디션	-6363
▁타이틀	-6364
▁학년제	-6365
ac	-6366
lo	-6367
▁낯	-6368
▁냅	-6369
▁샤	-6370
▁찰	-6371
돼지	-6372
철기	-6373
▁67	-6374
▁vi	-6375
▁가담	-6376
▁걸림	-6377
▁구미	-6378
▁그릇	-6379
▁긴장	-6380
▁대략	-6381
▁돼서	-6382
▁망정	-6383
▁매도	-6384
▁모호	-6385
▁뮤직	-6386
▁민망	-6387
▁바래	-6388
▁사병	-6389
▁쇼핑	-6390
▁신축	-6391
▁아까	-6392
▁아티	-6393
▁연휴	-6394
▁영유	-6395
▁요양	-6396
▁유적	-6397
▁음성	-6398
▁인공	-6399
▁인용	-6400
▁잡히	-6401
▁쟁이	-6402
▁조취	-6403
▁청사	-6404
▁체류	-6405
▁판독	-6406
▁퍼지	-6407
▁하차	-6408
▁한당	-6409
▁행보	-6410
인먼트	-6411
▁400	-6412
▁too	-6413
▁개돼지	-6414
▁근무자	-6415
▁달라진	-6416
▁대해선	-6417
▁디지털	-6418
▁물러나	-6419
▁보고서	-6420
▁부사관	-6421
▁사춘기	-6422
▁살아왔	-6423
▁유소년	-6424
▁잃어버	-6425
▁제자리	-6426
▁중국인	-6427
▁중범죄	-6428
▁체육인	-6429
▁최우선	-6430
▁주민센터	-6431
▁중간광고	-6432
▁엔터테인먼트	-6433
▁inreadnhnmodels	-6434
▁롱	-6435
▁몽	-6436
▁튼	-6437
▁휩	-6438
공격	-6439
기심	-6440
네임	-6441
라지	-6442
벤지	-6443
성이	-6444
시간	-6445
▁고향	-6446
▁과밀	-6447
▁국장	-6448
▁께선	-6449
▁날라	-6450
▁냐며	-6451
▁넘치	-6452
▁노골	-6453
▁당직	-6454
▁따져	-6455
▁망언	-6456
▁무수	-6457
▁바이	-6458
▁상하	-6459
▁소모	-6460
▁소요	-6461
▁수령	-6462
▁스튜	-6463
▁시립	-6464
▁쌓이	-6465
▁악랄	-6466
▁앞세	-6467
▁어두	-6468
▁예시	-6469
▁외고	-6470
▁외우	-6471
▁장래	-6472
▁전후	-6473
▁조그	-6474
▁처참	-6475
▁크로	-6476
▁탈세	-6477
▁폭염	-6478
▁허탈	-6479
▁회화	-6480
▁휘두	-6481
▁휘둘	-6482
▁kbl	-6483
▁냐구요	-6484
▁닉네임	-6485
▁더욱이	-6486
▁라구요	-6487
▁리벤지	-6488
▁맞춰서	-6489
▁메시지	-6490
▁백철기	-6491
▁변별력	-6492
▁비상식	-6493
▁소수자	-6494
▁애국심	-6495
▁즐거움	-6496
▁했으면	-6497
▁호기심	-6498
▁아무래도	-6499
▁인신공격	-6500
▁체험학습	-6501
▁가이드라인	-6502
▁들어갑니다	-6503
▁낚	-6504
▁낱	-6505
▁뺨	-6506
▁섹	-6507
▁웬	-6508
▁팟	-6509
▁힙	-6510
여서	-6511
▁05	-6512
▁95	-6513
▁개탄	-6514
▁고액	-6515
▁구석	-6516
▁꼬리	-6517
▁남아	-6518
▁동호	-6519
▁매국	-6520
▁모색	-6521
▁발음	-6522
▁발행	-6523
▁복용	-6524
▁부위	-6525
▁붕괴	-6526
▁빌려	-6527
▁빠졌	-6528
▁식품	-6529
▁양해	-6530
▁엉뚱	-6531
▁영진	-6532
▁유용	-6533
▁일일	-6534
▁장수	-6535
▁접대	-6536
▁제게	-6537
▁직후	-6538
▁초청	-6539
▁한때	-6540
▁합쳐	-6541
▁휴무	-6542
▁경조사	-6543
▁냐고요	-6544
▁마음껏	-6545
▁사명감	-6546
▁스타트	-6547
▁신분증	-6548
▁아리랑	-6549
▁이바지	-6550
▁장난감	-6551
▁마구잡이	-6552
▁아티스트	-6553
▁주십시오	-6554
article	-6555
▁뚫	-6556
▁찔	-6557
가운	-6558
거지	-6559
다리	-6560
밀히	-6561
사욕	-6562
ube	-6563
▁ab	-6564
▁거지	-6565
▁걸릴	-6566
▁결사	-6567
▁경위	-6568
▁고마	-6569
▁고질	-6570
▁괴물	-6571
▁국군	-6572
▁극히	-6573
▁길이	-6574
▁남충	-6575
▁누드	-6576
▁단죄	-6577
▁단호	-6578
▁도청	-6579
▁돌볼	-6580
▁멈춰	-6581
▁명심	-6582
▁상한	-6583
▁소아	-6584
▁시댁	-6585
▁요약	-6586
▁운용	-6587
▁위키	-6588
▁이딴	-6589
▁일전	-6590
▁자궁	-6591
▁작곡	-6592
▁저조	-6593
▁전전	-6594
▁주범	-6595
▁중복	-6596
▁초대	-6597
▁치러	-6598
▁투쟁	-6599
▁한도	-6600
▁허술	-6601
▁협상	-6602
▁기본법	-6603
▁놀이터	-6604
▁뛰어놀	-6605
▁모아서	-6606
▁무작정	-6607
▁범법자	-6608
▁선수촌	-6609
▁양아치	-6610
▁영상물	-6611
▁이사장	-6612
▁일본군	-6613
▁진선미	-6614
▁태어날	-6615
▁피시방	-6616
▁한국사	-6617
▁fifa	-6618
▁부탁드리	-6619
▁사리사욕	-6620
▁으십니까	-6621
▁저질러도	-6622
▁청소년기	-6623
▁한답니다	-6624
29	-6625
▁넉	-6626
▁넌	-6627
▁돋	-6628
버려	-6629
ver	-6630
▁sm	-6631
▁걸러	-6632
▁과태	-6633
▁교단	-6634
▁교양	-6635
▁균등	-6636
▁그라	-6637
▁그지	-6638
▁기뻐	-6639
▁눌러	-6640
▁다뤄	-6641
▁덧붙	-6642
▁도장	-6643
▁막히	-6644
▁만지	-6645
▁매월	-6646
▁면담	-6647
▁반사	-6648
▁방패	-6649
▁버튼	-6650
▁변태	-6651
▁부문	-6652
▁상기	-6653
▁습관	-6654
▁식비	-6655
▁실추	-6656
▁아플	-6657
▁엘지	-6658
▁역행	-6659
▁예민	-6660
▁완료	-6661
▁외신	-6662
▁의대	-6663
▁재혼	-6664
▁제대	-6665
▁증원	-6666
▁지각	-6667
▁지치	-6668
▁참조	-6669
▁채팅	-6670
▁출국	-6671
▁치사	-6672
▁친부	-6673
▁폐업	-6674
▁표절	-6675
뜩이나	-6676
▁거주지	-6677
▁고쳐야	-6678
▁금요일	-6679
▁내려가	-6680
▁민원인	-6681
▁스타킹	-6682
▁지구대	-6683
▁테두리	-6684
▁특례법	-6685
▁합격자	-6686
▁그리하여	-6687
▁들어와서	-6688
28	-6689
▁q	-6690
▁곁	-6691
▁됀	-6692
▁롤	-6693
▁르	-6694
▁뷰	-6695
▁샘	-6696
▁컸	-6697
▁팽	-6698
겨운	-6699
괴감	-6700
바이	-6701
을까	-6702
토토	-6703
▁of	-6704
▁각성	-6705
▁간첩	-6706
▁결석	-6707
▁관료	-6708
▁기하	-6709
▁도용	-6710
▁두산	-6711
▁망쳐	-6712
▁멜론	-6713
▁무방	-6714
▁미미	-6715
▁배팅	-6716
▁벤투	-6717
▁복도	-6718
▁본선	-6719
▁부천	-6720
▁상응	-6721
▁세반	-6722
▁암묵	-6723
▁업자	-6724
▁연가	-6725
▁연간	-6726
▁열받	-6727
▁예쁘	-6728
▁외화	-6729
▁원리	-6730
▁원활	-6731
▁이길	-6732
▁인체	-6733
▁자습	-6734
▁재난	-6735
▁좌우	-6736
▁진흥	-6737
▁처하	-6738
▁칭하	-6739
▁파마	-6740
▁펼칠	-6741
▁걸림돌	-6742
▁과태료	-6743
▁기다렸	-6744
▁넘어갈	-6745
▁다행히	-6746
▁모여서	-6747
▁묵묵히	-6748
▁바라지	-6749
▁온전히	-6750
▁올려서	-6751
▁운전자	-6752
▁을려고	-6753
▁응원단	-6754
▁자괴감	-6755
▁전기세	-6756
▁중국어	-6757
▁1102	-6758
▁가뜩이나	-6759
▁언어폭력	-6760
▁해집니다	-6761
▁스포츠토토	-6762
34	-6763
se	-6764
▁ᄂ	-6765
▁냥	-6766
▁띠	-6767
▁벼	-6768
▁엎	-6769
▁잉	-6770
▁쳤	-6771
▁헐	-6772
▁흑	-6773
당당	-6774
데체	-6775
조합	-6776
▁ec	-6777
▁간주	-6778
▁골목	-6779
▁공짜	-6780
▁금일	-6781
▁노역	-6782
▁달하	-6783
▁대두	-6784
▁대인	-6785
▁더운	-6786
▁때렸	-6787
▁로그	-6788
▁로울	-6789
▁면죄	-6790
▁반환	-6791
▁설사	-6792
▁수역	-6793
▁실체	-6794
▁여권	-6795
▁원천	-6796
▁유족	-6797
▁유혹	-6798
▁장례	-6799
▁적혀	-6800
▁전투	-6801
▁정유	-6802
▁중도	-6803
▁척결	-6804
▁취할	-6805
▁친척	-6806
news	-6807
▁119	-6808
▁고발자	-6809
▁공정성	-6810
▁광역시	-6811
▁끌려가	-6812
▁넘어서	-6813
▁늘려야	-6814
▁도데체	-6815
▁무자비	-6816
▁불합격	-6817
▁스타일	-6818
▁실업자	-6819
▁전교조	-6820
▁주세요	-6821
▁기다려야	-6822
▁문화유산	-6823
▁부정행위	-6824
21	-6825
st	-6826
▁갤	-6827
▁갱	-6828
▁닦	-6829
▁슴	-6830
▁앙	-6831
무가	-6832
어준	-6833
친구	-6834
idx	-6835
▁ko	-6836
▁ᄋᄋ	-6837
▁갖춰	-6838
▁개종	-6839
▁개헌	-6840
▁계급	-6841
▁골라	-6842
▁구형	-6843
▁끼칠	-6844
▁내면	-6845
▁노숙	-6846
▁논하	-6847
▁달린	-6848
▁대립	-6849
▁디스	-6850
▁마친	-6851
▁무참	-6852
▁방사	-6853
▁비속	-6854
▁비제	-6855
▁뻔한	-6856
▁슬로	-6857
▁시오	-6858
▁써도	-6859
▁애쓰	-6860
▁영수	-6861
▁유능	-6862
▁유무	-6863
▁잘라	-6864
▁적자	-6865
▁죽일	-6866
▁창녀	-6867
▁치명	-6868
▁친권	-6869
▁키운	-6870
▁터진	-6871
▁해산	-6872
▁고위직	-6873
▁공공연	-6874
▁극소수	-6875
▁김어준	-6876
▁뉘우치	-6877
▁늘어난	-6878
▁다네요	-6879
▁다시금	-6880
▁동메달	-6881
▁랍시고	-6882
▁맡겨야	-6883
▁몰아주	-6884
▁별다른	-6885
▁병원비	-6886
▁보인다	-6887
▁부득이	-6888
▁사기업	-6889
▁아무튼	-6890
▁어린애	-6891
▁절실히	-6892
▁쳐다보	-6893
▁투성이	-6894
▁헤아려	-6895
▁남자친구	-6896
▁불법행위	-6897
▁스튜디오	-6898
▁이야말로	-6899
24	-6900
ic	-6901
▁웁	-6902
▁톡	-6903
니지	-6904
아지	-6905
지사	-6906
▁간혹	-6907
▁개판	-6908
▁걸렸	-6909
▁결여	-6910
▁권장	-6911
▁김대	-6912
▁김학	-6913
▁녹화	-6914
▁다던	-6915
▁담긴	-6916
▁동사	-6917
▁만난	-6918
▁목록	-6919
▁미쳐	-6920
▁박상	-6921
▁박용	-6922
▁보증	-6923
▁분산	-6924
▁수리	-6925
▁숨겨	-6926
▁시술	-6927
▁야지	-6928
▁없앨	-6929
▁역활	-6930
▁연설	-6931
▁오버	-6932
▁일괄	-6933
▁자정	-6934
▁자칫	-6935
▁저기	-6936
▁전날	-6937
▁전입	-6938
▁제지	-6939
▁지법	-6940
▁참전	-6941
▁쳐서	-6942
▁추위	-6943
▁충원	-6944
▁할려	-6945
▁허무	-6946
▁훈육	-6947
▁힘겹	-6948
떨어진	-6949
▁눈치보	-6950
▁무궁화	-6951
▁부총리	-6952
▁살아온	-6953
▁생각나	-6954
▁성행위	-6955
▁시리즈	-6956
▁양육권	-6957
▁재판부	-6958
▁죄의식	-6959
▁진다면	-6960
▁케이팝	-6961
▁테니스	-6962
▁파출소	-6963
▁휴교령	-6964
▁아닌지요	-6965
▁정정당당	-6966
▁썰	-6967
▁앤	-6968
나큰	-6969
노소	-6970
높이	-6971
느니	-6972
러니	-6973
무소	-6974
지노	-6975
카드	-6976
net	-6977
▁78	-6978
▁88	-6979
▁감면	-6980
▁감성	-6981
▁개봉	-6982
▁건드	-6983
▁고급	-6984
▁고도	-6985
▁곤란	-6986
▁김재	-6987
▁낱낱	-6988
▁내뱉	-6989
▁때린	-6990
▁루머	-6991
▁명명	-6992
▁박진	-6993
▁반해	-6994
▁버텨	-6995
▁살피	-6996
▁상의	-6997
▁소변	-6998
▁소신	-6999
▁소집	-7000
▁슬픔	-7001
▁습니	-7002
▁씁쓸	-7003
▁씌우	-7004
▁악습	-7005
▁엄정	-7006
▁엄한	-7007
▁오프	-7008
▁와야	-7009
▁외출	-7010
▁은가	-7011
▁이과	-7012
▁일개	-7013
▁자해	-7014
▁재기	-7015
▁재료	-7016
▁절벽	-7017
▁줘도	-7018
▁질까	-7019
▁최상	-7020
▁투신	-7021
▁폐단	-7022
▁화가	-7023
▁회식	-7024
▁힘내	-7025
적으로	-7026
▁강제성	-7027
▁교통비	-7028
▁기울이	-7029
▁돌아갈	-7030
▁라던지	-7031
▁리니지	-7032
▁본다는	-7033
▁비속어	-7034
▁빠져나	-7035
▁수용자	-7036
▁승무원	-7037
▁안중근	-7038
▁운동부	-7039
▁인스타	-7040
▁찾아내	-7041
▁출연료	-7042
▁크나큰	-7043
▁프레임	-7044
▁후원금	-7045
▁희생자	-7046
idxno	-7047
▁남녀노소	-7048
▁아이러니	-7049
▁터무니없	-7050
▁빡	-7051
▁캡	-7052
▁훔	-7053
북도	-7054
쳐야	-7055
타리	-7056
▁cm	-7057
▁과언	-7058
▁구경	-7059
▁기한	-7060
▁넉넉	-7061
▁동작	-7062
▁랜덤	-7063
▁무력	-7064
▁무효	-7065
▁바꾼	-7066
▁비극	-7067
▁서점	-7068
▁선별	-7069
▁스카	-7070
▁양질	-7071
▁이날	-7072
▁일각	-7073
▁입력	-7074
▁전라	-7075
▁증축	-7076
▁지낼	-7077
▁지울	-7078
▁탑승	-7079
▁파울	-7080
▁편지	-7081
▁학벌	-7082
▁헌데	-7083
▁화성	-7084
▁회비	-7085
습니까	-7086
▁spo	-7087
▁그래요	-7088
▁도망가	-7089
▁독서실	-7090
▁들어서	-7091
▁사무소	-7092
▁스케줄	-7093
▁에너지	-7094
▁일으켜	-7095
▁전라도	-7096
▁합의금	-7097
ot	-7098
▁ᅵ	-7099
▁락	-7100
▁랄	-7101
▁맏	-7102
▁샀	-7103
▁텍	-7104
▁핫	-7105
거품	-7106
무사	-7107
제도	-7108
종환	-7109
회식	-7110
▁간판	-7111
▁검거	-7112
▁고장	-7113
▁교습	-7114
▁교정	-7115
▁국보	-7116
▁권유	-7117
▁근친	-7118
▁금할	-7119
▁도쿄	-7120
▁레이	-7121
▁리원	-7122
▁만날	-7123
▁만료	-7124
▁설령	-7125
▁성남	-7126
▁세탁	-7127
▁손상	-7128
▁수긍	-7129
▁앞날	-7130
▁앵커	-7131
▁양쪽	-7132
▁여초	-7133
▁오니	-7134
▁오타	-7135
▁온통	-7136
▁을시	-7137
▁이력	-7138
▁인과	-7139
▁일과	-7140
▁일용	-7141
▁임의	-7142
▁좌지	-7143
▁차려	-7144
▁처단	-7145
▁충동	-7146
▁취임	-7147
▁커져	-7148
▁해방	-7149
▁나아갈	-7150
▁물갈이	-7151
▁물거품	-7152
▁비해서	-7153
▁수요일	-7154
▁알려져	-7155
▁알려졌	-7156
▁업로드	-7157
▁이어질	-7158
▁주머니	-7159
▁협의회	-7160
▁법치주의	-7161
▁였음에도	-7162
▁꺾	-7163
▁련	-7164
▁령	-7165
▁쉼	-7166
구장	-7167
아내	-7168
▁03	-7169
▁an	-7170
▁가을	-7171
▁겠죠	-7172
▁국한	-7173
▁꺼리	-7174
▁냐면	-7175
▁넥슨	-7176
▁농단	-7177
▁든다	-7178
▁라곤	-7179
▁매기	-7180
▁매니	-7181
▁문득	-7182
▁미필	-7183
▁반값	-7184
▁배부	-7185
▁분유	-7186
▁불려	-7187
▁삭감	-7188
▁상세	-7189
▁생물	-7190
▁선의	-7191
▁세습	-7192
▁속하	-7193
▁역겹	-7194
▁우기	-7195
▁유급	-7196
▁유익	-7197
▁이치	-7198
▁일벌	-7199
▁입구	-7200
▁제고	-7201
▁주식	-7202
▁질타	-7203
▁참사	-7204
▁코드	-7205
▁통지	-7206
▁하드	-7207
▁하복	-7208
▁해준	-7209
▁현혹	-7210
▁활개	-7211
▁경제력	-7212
▁내버려	-7213
▁넘어선	-7214
▁다녀온	-7215
▁도종환	-7216
▁돌아왔	-7217
▁멋대로	-7218
▁벌어졌	-7219
▁법조인	-7220
▁벗어날	-7221
▁불이익	-7222
▁사업주	-7223
▁실망감	-7224
▁울타리	-7225
▁저임금	-7226
▁적당히	-7227
▁전남편	-7228
▁조현우	-7229
▁주어진	-7230
▁카지노	-7231
▁큰아이	-7232
▁현저히	-7233
▁나온다고	-7234
▁아주머니	-7235
▁오릅니다	-7236
▁독립운동가	-7237
ol	-7238
um	-7239
▁ᄅ	-7240
▁깡	-7241
▁션	-7242
▁탕	-7243
▁휠	-7244
걸이	-7245
공론	-7246
그릇	-7247
랑이	-7248
우지	-7249
재판	-7250
100	-7251
▁가출	-7252
▁결단	-7253
▁고선	-7254
▁관객	-7255
▁그딴	-7256
▁깜깜	-7257
▁꺼려	-7258
▁난다	-7259
▁내외	-7260
▁단합	-7261
▁망각	-7262
▁명성	-7263
▁미러	-7264
▁민법	-7265
▁바깥	-7266
▁병폐	-7267
▁부각	-7268
▁석방	-7269
▁소환	-7270
▁손쉽	-7271
▁수만	-7272
▁숙소	-7273
▁순번	-7274
▁스티	-7275
▁식단	-7276
▁실지	-7277
▁연인	-7278
▁영혼	-7279
▁예측	-7280
▁용산	-7281
▁이스	-7282
▁임하	-7283
▁재외	-7284
▁조명	-7285
▁친한	-7286
▁투약	-7287
▁호구	-7288
부인과	-7289
지부지	-7290
▁800	-7291
▁그걸로	-7292
▁데이터	-7293
▁로그인	-7294
▁모른다	-7295
▁미성숙	-7296
▁밀어주	-7297
▁밥그릇	-7298
▁보육원	-7299
▁슬로건	-7300
▁신문고	-7301
▁아세요	-7302
▁어려우	-7303
▁정몽규	-7304
▁찾아오	-7305
▁폐막식	-7306
▁휘두르	-7307
▁희생양	-7308
▁2008	-7309
▁계십니까	-7310
▁렀습니다	-7311
▁산부인과	-7312
▁운전기사	-7313
▁탁상공론	-7314
▁흐지부지	-7315
▁꼽	-7316
▁델	-7317
▁뛸	-7318
▁랴	-7319
▁렌	-7320
▁린	-7321
▁짱	-7322
▁힐	-7323
구권	-7324
기소	-7325
낙연	-7326
너스	-7327
대문	-7328
셔야	-7329
▁44	-7330
▁fc	-7331
▁km	-7332
▁감축	-7333
▁경로	-7334
▁계셨	-7335
▁고졸	-7336
▁공분	-7337
▁국토	-7338
▁극장	-7339
▁급격	-7340
▁낚시	-7341
▁날리	-7342
▁노름	-7343
▁다둥	-7344
▁다이	-7345
▁대수	-7346
▁독자	-7347
▁드린	-7348
▁들으	-7349
▁뚜렷	-7350
▁뜯어	-7351
▁마비	-7352
▁막론	-7353
▁말리	-7354
▁멀다	-7355
▁면은	-7356
▁명장	-7357
▁민중	-7358
▁바다	-7359
▁병력	-7360
▁복구	-7361
▁복학	-7362
▁성비	-7363
▁성취	-7364
▁소견	-7365
▁얼룩	-7366
▁용돈	-7367
▁위헌	-7368
▁의회	-7369
▁인형	-7370
▁일명	-7371
▁일보	-7372
▁일조	-7373
▁장담	-7374
▁조민	-7375
▁차출	-7376
▁출시	-7377
▁친족	-7378
▁틀렸	-7379
▁틀림	-7380
▁판례	-7381
▁품위	-7382
▁흐리	-7383
릅니까	-7384
추구권	-7385
▁고소인	-7386
▁나날이	-7387
▁내려오	-7388
▁다구요	-7389
▁다지만	-7390
▁면죄부	-7391
▁모병제	-7392
▁박용진	-7393
▁반인륜	-7394
▁버려야	-7395
▁비행기	-7396
▁아쉬운	-7397
▁야구팬	-7398
▁엔트리	-7399
▁연구원	-7400
▁연합회	-7401
▁영수증	-7402
▁이낙연	-7403
▁일일이	-7404
▁정유라	-7405
▁책임져	-7406
▁특정인	-7407
▁프리미	-7408
▁할머님	-7409
▁멀다하고	-7410
▁받아들일	-7411
▁사회주의	-7412
▁정신병자	-7413
▁좌지우지	-7414
▁korea	-7415
▁행복추구권	-7416
▁듬	-7417
▁맑	-7418
▁퀴	-7419
남도	-7420
받침	-7421
어질	-7422
▁46	-7423
▁st	-7424
▁각지	-7425
▁겉옷	-7426
▁교환	-7427
▁구할	-7428
▁그놈	-7429
▁남긴	-7430
▁달래	-7431
▁돌이	-7432
▁등수	-7433
▁떄문	-7434
▁마십	-7435
▁만남	-7436
▁문란	-7437
▁미비	-7438
▁미연	-7439
▁반장	-7440
▁밝힌	-7441
▁뱃속	-7442
▁보람	-7443
▁부채	-7444
▁불참	-7445
▁성분	-7446
▁셔도	-7447
▁소라	-7448
▁신세	-7449
▁쌓여	-7450
▁악성	-7451
▁안산	-7452
▁여럿	-7453
▁영토	-7454
▁온몸	-7455
▁유입	-7456
▁일체	-7457
▁장군	-7458
▁재롱	-7459
▁저리	-7460
▁적법	-7461
▁정화	-7462
▁찍히	-7463
▁창구	-7464
▁천지	-7465
▁체감	-7466
▁침입	-7467
▁통행	-7468
▁파장	-7469
▁표명	-7470
▁하청	-7471
▁해온	-7472
▁흐르	-7473
▁흔적	-7474
▁흥행	-7475
더군요	-7476
▁mbn	-7477
▁구시대	-7478
▁껍니다	-7479
▁나타났	-7480
▁넘어간	-7481
▁누군지	-7482
▁다녀왔	-7483
▁뒷받침	-7484
▁서부터	-7485
▁소년원	-7486
▁신다는	-7487
▁여동생	-7488
▁인원수	-7489
▁제작진	-7490
▁찢어지	-7491
▁청소부	-7492
▁축구단	-7493
▁폭력범	-7494
▁흘러가	-7495
▁html	-7496
▁mnet	-7497
▁노동조합	-7498
▁스케이트	-7499
▁살아갑니다	-7500
78	-7501
▁얽	-7502
▁죗	-7503
▁툭	-7504
근무	-7505
꾸로	-7506
뉴얼	-7507
먹이	-7508
박스	-7509
붙이	-7510
의미	-7511
이머	-7512
저것	-7513
조선	-7514
▁가두	-7515
▁건수	-7516
▁고로	-7517
▁구호	-7518
▁근원	-7519
▁기기	-7520
▁넷째	-7521
▁논쟁	-7522
▁농협	-7523
▁단원	-7524
▁대결	-7525
▁던져	-7526
▁동상	-7527
▁떨리	-7528
▁매입	-7529
▁머니	-7530
▁밀리	-7531
▁법관	-7532
▁비추	-7533
▁뻔히	-7534
▁손자	-7535
▁수집	-7536
▁신발	-7537
▁십사	-7538
▁우스	-7539
▁유시	-7540
▁이의	-7541
▁자진	-7542
▁전가	-7543
▁죗값	-7544
▁중산	-7545
▁직결	-7546
▁처한	-7547
▁터져	-7548
▁하향	-7549
▁한강	-7550
▁할꺼	-7551
▁협동	-7552
▁협약	-7553
광역시	-7554
▁거꾸로	-7555
▁그토록	-7556
▁노동법	-7557
▁도시락	-7558
▁매뉴얼	-7559
▁방지법	-7560
▁비서관	-7561
▁사과문	-7562
▁사이즈	-7563
▁소년단	-7564
▁아까운	-7565
▁예술가	-7566
▁예술단	-7567
▁이윤택	-7568
▁임대료	-7569
▁입학금	-7570
▁재판소	-7571
▁저버리	-7572
▁조부모	-7573
▁지원자	-7574
▁텐데요	-7575
▁하나님	-7576
▁합창단	-7577
▁화이팅	-7578
▁안타까움	-7579
▁와이셔츠	-7580
▁이것저것	-7581
▁이루어져	-7582
▁잖습니까	-7583
▁떨어집니다	-7584
articleview	-7585
45	-7586
▁빗	-7587
▁쌤	-7588
▁쏠	-7589
▁킹	-7590
계약	-7591
르타	-7592
망정	-7593
불리	-7594
불성	-7595
소통	-7596
스티	-7597
어져	-7598
줌마	-7599
지물	-7600
▁57	-7601
▁계단	-7602
▁국력	-7603
▁그려	-7604
▁금번	-7605
▁까다	-7606
▁끝날	-7607
▁네덜	-7608
▁느니	-7609
▁담겨	-7610
▁듀스	-7611
▁바랄	-7612
▁발암	-7613
▁밤새	-7614
▁법대	-7615
▁병무	-7616
▁보드	-7617
▁부진	-7618
▁부풀	-7619
▁불상	-7620
▁살짝	-7621
▁섬김	-7622
▁성명	-7623
▁소서	-7624
▁수두	-7625
▁수혜	-7626
▁신원	-7627
▁안건	-7628
▁았었	-7629
▁여과	-7630
▁연세	-7631
▁영입	-7632
▁오가	-7633
▁원생	-7634
▁위계	-7635
▁위축	-7636
▁음반	-7637
▁입건	-7638
▁자칭	-7639
▁저러	-7640
▁전염	-7641
▁전한	-7642
▁조별	-7643
▁죽였	-7644
▁지검	-7645
▁지냈	-7646
▁청주	-7647
▁취향	-7648
▁하계	-7649
▁화제	-7650
▁후유	-7651
▁흡수	-7652
아내리	-7653
웁니다	-7654
tube	-7655
▁140	-7656
▁간단히	-7657
▁넘어지	-7658
▁노리개	-7659
▁들어도	-7660
▁리얼돌	-7661
▁미래인	-7662
▁병역법	-7663
▁수업료	-7664
▁시행령	-7665
▁신청자	-7666
▁아줌마	-7667
▁어두운	-7668
▁연락처	-7669
▁제정신	-7670
▁조민기	-7671
▁진짜로	-7672
▁짊어지	-7673
▁크리에	-7674
▁판매자	-7675
▁네덜란드	-7676
▁무용지물	-7677
▁사형제도	-7678
▁의사소통	-7679
▁중앙일보	-7680
▁youtube	-7681
▁륜	-7682
▁뭣	-7683
▁쿼	-7684
▁훗	-7685
▁흠	-7686
살이	-7687
싸움	-7688
장소	-7689
직원	-7690
진다	-7691
▁개천	-7692
▁고대	-7693
▁고속	-7694
▁공과	-7695
▁구간	-7696
▁날로	-7697
▁남경	-7698
▁눈살	-7699
▁대행	-7700
▁떠돌	-7701
▁리더	-7702
▁막내	-7703
▁모시	-7704
▁민생	-7705
▁방면	-7706
▁부조	-7707
▁상금	-7708
▁속출	-7709
▁슬퍼	-7710
▁시내	-7711
▁신호	-7712
▁여의	-7713
▁익숙	-7714
▁인강	-7715
▁일당	-7716
▁일탈	-7717
▁자카	-7718
▁잔재	-7719
▁재앙	-7720
▁전제	-7721
▁정녕	-7722
▁종시	-7723
▁죄다	-7724
▁주지	-7725
▁지닌	-7726
▁지킨	-7727
▁직책	-7728
▁차후	-7729
▁철폐	-7730
▁초점	-7731
▁커리	-7732
▁타락	-7733
▁특징	-7734
▁판치	-7735
▁하의	-7736
▁하이	-7737
▁한탄	-7738
▁화려	-7739
▁확장	-7740
쌉니다	-7741
▁123	-7742
▁개그맨	-7743
▁고소장	-7744
▁구매자	-7745
▁대단히	-7746
▁데려다	-7747
▁돌아와	-7748
▁방사능	-7749
▁불기소	-7750
▁세워야	-7751
▁실업팀	-7752
▁쏟아지	-7753
▁어떤지	-7754
▁이른바	-7755
▁임직원	-7756
▁장수지	-7757
▁저작권	-7758
▁학습지	-7759
▁혹여나	-7760
▁흔들리	-7761
▁2007	-7762
▁7080	-7763
▁그라운드	-7764
▁동아일보	-7765
▁자카르타	-7766
▁할지라도	-7767
▁여겨집니다	-7768
46	-7769
99	-7770
▁덴	-7771
▁뺑	-7772
▁쫌	-7773
꼬박	-7774
년생	-7775
도전	-7776
드백	-7777
서야	-7778
스코	-7779
시마	-7780
인지	-7781
짜피	-7782
패치	-7783
▁ad	-7784
▁개국	-7785
▁겨자	-7786
▁공백	-7787
▁공용	-7788
▁과자	-7789
▁기용	-7790
▁대관	-7791
▁모이	-7792
▁무산	-7793
▁묵과	-7794
▁미터	-7795
▁밀양	-7796
▁방세	-7797
▁백신	-7798
▁본연	-7799
▁부착	-7800
▁불렀	-7801
▁살림	-7802
▁상급	-7803
▁새해	-7804
▁생략	-7805
▁서열	-7806
▁선사	-7807
▁셔츠	-7808
▁수갑	-7809
▁수지	-7810
▁스크	-7811
▁연출	-7812
▁영문	-7813
▁오만	-7814
▁오브	-7815
▁원정	-7816
▁육군	-7817
▁이권	-7818
▁자의	-7819
▁족구	-7820
▁중등	-7821
▁증빙	-7822
▁지점	-7823
▁진도	-7824
▁차장	-7825
▁창문	-7826
▁처방	-7827
▁초빙	-7828
▁콘돔	-7829
▁터졌	-7830
▁투어	-7831
▁파워	-7832
▁포괄	-7833
▁표정	-7834
▁한단	-7835
▁헛되	-7836
▁홍익	-7837
▁흔한	-7838
▁희롱	-7839
불성설	-7840
▁가져다	-7841
▁갑니까	-7842
▁김민정	-7843
▁나아지	-7844
▁난다고	-7845
▁내려놓	-7846
▁노동력	-7847
▁눈높이	-7848
▁돌아온	-7849
▁뛰어나	-7850
▁문정부	-7851
▁보건소	-7852
▁살인마	-7853
▁성과급	-7854
▁소라넷	-7855
▁수두룩	-7856
▁어지럽	-7857
▁어짜피	-7858
▁연습생	-7859
▁올라갈	-7860
▁이승우	-7861
▁중고생	-7862
▁찾아와	-7863
▁케이스	-7864
▁1500	-7865
▁꼬박꼬박	-7866
▁당합니다	-7867
▁디스패치	-7868
▁무한도전	-7869
▁스트라이	-7870
▁어불성설	-7871
▁spotv	-7872
▁크리에이터	-7873
48	-7874
ph	-7875
▁ᄉ	-7876
▁깃	-7877
▁덥	-7878
▁람	-7879
▁팍	-7880
빠진	-7881
아나	-7882
쪼록	-7883
치소	-7884
▁간과	-7885
▁감찰	-7886
▁개원	-7887
▁거액	-7888
▁게재	-7889
▁급한	-7890
▁기적	-7891
▁나랏	-7892
▁내요	-7893
▁노약	-7894
▁다움	-7895
▁다친	-7896
▁뒷돈	-7897
▁맛있	-7898
▁모방	-7899
▁모셔	-7900
▁배당	-7901
▁사귀	-7902
▁서양	-7903
▁소명	-7904
▁속해	-7905
▁수련	-7906
▁순직	-7907
▁스텝	-7908
▁실직	-7909
▁안태	-7910
▁압류	-7911
▁애정	-7912
▁어긴	-7913
▁예우	-7914
▁오토	-7915
▁옳바	-7916
▁욕망	-7917
▁울분	-7918
▁위임	-7919
▁유교	-7920
▁의경	-7921
▁잘난	-7922
▁재검	-7923
▁주자	-7924
▁지혜	-7925
▁퀴어	-7926
▁클래	-7927
▁태형	-7928
▁한겨	-7929
▁한답	-7930
▁환원	-7931
▁획기	-7932
▁고사장	-7933
▁는구나	-7934
▁던데요	-7935
▁드러난	-7936
▁등록증	-7937
▁떠넘기	-7938
▁매스컴	-7939
▁밝혀야	-7940
▁보살펴	-7941
▁부산시	-7942
▁손석희	-7943
▁스러울	-7944
▁스페인	-7945
▁쓴다고	-7946
▁앞세워	-7947
▁엉터리	-7948
▁예비역	-7949
▁인지라	-7950
▁일용직	-7951
▁장애아	-7952
▁전과자	-7953
▁지도층	-7954
▁진단서	-7955
▁치료비	-7956
▁트레이	-7957
▁특히나	-7958
▁동사무소	-7959
▁두려워하	-7960
▁들으면서	-7961
▁못한다고	-7962
▁서슴없이	-7963
▁이뤄지고	-7964
▁특수교육	-7965
▁스트라이크	-7966
▁딩	-7967
▁똘	-7968
관계	-7969
농단	-7970
니어	-7971
세청	-7972
업소	-7973
정자	-7974
정호	-7975
por	-7976
▁ch	-7977
▁re	-7978
▁각국	-7979
▁갇혀	-7980
▁견뎌	-7981
▁궁극	-7982
▁규탄	-7983
▁기상	-7984
▁꼴찌	-7985
▁대왕	-7986
▁대자	-7987
▁대피	-7988
▁대항	-7989
▁데로	-7990
▁동복	-7991
▁동행	-7992
▁따를	-7993
▁레기	-7994
▁막장	-7995
▁맡긴	-7996
▁먹방	-7997
▁못함	-7998
▁무전	-7999
▁미화	-8000
▁백종	-8001
▁부유	-8002
▁불명	-8003
▁브라	-8004
▁빠듯	-8005
▁빼돌	-8006
▁사지	-8007
▁소액	-8008
▁신화	-8009
▁싱글	-8010
▁안티	-8011
▁약해	-8012
▁어딜	-8013
▁예원	-8014
▁워낙	-8015
▁원주	-8016
▁이화	-8017
▁자숙	-8018
▁작태	-8019
▁족부	-8020
▁중학	-8021
▁진영	-8022
▁찍힌	-8023
▁척하	-8024
▁총재	-8025
▁태우	-8026
▁퇴보	-8027
▁한달	-8028
▁한하	-8029
▁합동	-8030
▁호의	-8031
▁후쿠	-8032
▁훗날	-8033
무가내	-8034
베이터	-8035
▁가르친	-8036
▁국립대	-8037
▁김대중	-8038
▁김영란	-8039
▁나와도	-8040
▁늘어놓	-8041
▁대변인	-8042
▁데려가	-8043
▁들어올	-8044
▁무너져	-8045
▁문제집	-8046
▁밝혀내	-8047
▁부적합	-8048
▁사형수	-8049
▁성년자	-8050
▁아름답	-8051
▁안태근	-8052
▁알려야	-8053
▁압박감	-8054
▁원해서	-8055
▁입주민	-8056
▁조현민	-8057
▁청원서	-8058
▁판결문	-8059
▁핀란드	-8060
▁학점제	-8061
▁후유증	-8062
▁2500	-8063
▁국정농단	-8064
▁귀기울여	-8065
▁나온다는	-8066
▁막무가내	-8067
▁이기주의	-8068
▁굽	-8069
▁닷	-8070
▁떡	-8071
▁랏	-8072
▁텔	-8073
거래	-8074
느리	-8075
동민	-8076
방식	-8077
장학	-8078
치기	-8079
케팅	-8080
트롤	-8081
asp	-8082
▁01	-8083
▁bc	-8084
▁가옥	-8085
▁공존	-8086
▁기아	-8087
▁깨우	-8088
▁남짓	-8089
▁내게	-8090
▁높일	-8091
▁대량	-8092
▁독단	-8093
▁동거	-8094
▁동급	-8095
▁등재	-8096
▁멋지	-8097
▁명회	-8098
▁부려	-8099
▁부른	-8100
▁부턴	-8101
▁분양	-8102
▁불미	-8103
▁브리	-8104
▁사익	-8105
▁수료	-8106
▁스위	-8107
▁신도	-8108
▁실종	-8109
▁썰매	-8110
▁아우	-8111
▁아웅	-8112
▁안쓰	-8113
▁어의	-8114
▁엄두	-8115
▁에스	-8116
▁예멘	-8117
▁예수	-8118
▁예절	-8119
▁왕복	-8120
▁요번	-8121
▁우유	-8122
▁웃긴	-8123
▁원동	-8124
▁이강	-8125
▁일련	-8126
▁임무	-8127
▁작동	-8128
▁정성	-8129
▁조희	-8130
▁중점	-8131
▁지칭	-8132
▁직시	-8133
▁진급	-8134
▁충청	-8135
▁코너	-8136
▁탈출	-8137
▁택하	-8138
▁통상	-8139
▁퇴학	-8140
▁파산	-8141
▁피아	-8142
▁혈안	-8143
린다는	-8144
▁250	-8145
▁600	-8146
▁가입자	-8147
▁개소리	-8148
▁걸어서	-8149
▁고양이	-8150
▁대자보	-8151
▁들으며	-8152
▁사라져	-8153
▁수십만	-8154
▁스토리	-8155
▁시켜라	-8156
▁아파하	-8157
▁유전자	-8158
▁장난치	-8159
▁진다는	-8160
▁특별히	-8161
▁한해서	-8162
장학재단	-8163
▁비쌉니다	-8164
▁사고방식	-8165
▁한국장학재단	-8166
76	-8167
ag	-8168
un	-8169
▁걍	-8170
▁땄	-8171
▁밴	-8172
▁삐	-8173
▁왼	-8174
그리	-8175
께요	-8176
다란	-8177
명보	-8178
바리	-8179
어가	-8180
지각	-8181
지요	-8182
▁89	-8183
▁no	-8184
▁가한	-8185
▁개조	-8186
▁과잉	-8187
▁구급	-8188
▁군기	-8189
▁그름	-8190
▁극도	-8191
▁기쁘	-8192
▁꼼꼼	-8193
▁난임	-8194
▁내국	-8195
▁놀리	-8196
▁눈앞	-8197
▁대치	-8198
▁뒷전	-8199
▁드신	-8200
▁떠드	-8201
▁명품	-8202
▁발판	-8203
▁벌레	-8204
▁변해	-8205
▁변했	-8206
▁북미	-8207
▁분할	-8208
▁불의	-8209
▁불화	-8210
▁비호	-8211
▁새싹	-8212
▁소멸	-8213
▁손길	-8214
▁습득	-8215
▁심야	-8216
▁씨씨	-8217
▁액수	-8218
▁양씨	-8219
▁연고	-8220
▁원룸	-8221
▁원본	-8222
▁원할	-8223
▁유망	-8224
▁유신	-8225
▁유효	-8226
▁의상	-8227
▁의의	-8228
▁이주	-8229
▁익히	-8230
▁입각	-8231
▁제조	-8232
▁조각	-8233
▁주문	-8234
▁증상	-8235
▁직급	-8236
▁짐작	-8237
▁쪼개	-8238
▁창설	-8239
▁창업	-8240
▁천재	-8241
▁충주	-8242
▁치욕	-8243
▁컨설	-8244
▁타령	-8245
▁탈퇴	-8246
▁터질	-8247
▁항문	-8248
▁행각	-8249
▁화상	-8250
▁황금	-8251
▁후세	-8252
▁결과물	-8253
▁김경두	-8254
▁내세워	-8255
▁뒤쳐지	-8256
▁몰지각	-8257
▁부조금	-8258
▁사직서	-8259
▁산다는	-8260
▁수백만	-8261
▁시험장	-8262
▁어떨지	-8263
▁용의자	-8264
▁운동가	-8265
▁일으킬	-8266
▁죽여도	-8267
▁중독자	-8268
▁지난번	-8269
▁진행자	-8270
▁축구팀	-8271
▁피드백	-8272
▁갑작스럽	-8273
▁오프라인	-8274
▁20170	-8275
ad	-8276
▁댁	-8277
▁뻗	-8278
▁쇄	-8279
▁싼	-8280
▁엮	-8281
▁젤	-8282
▁즘	-8283
가르	-8284
기야	-8285
더라	-8286
러지	-8287
마다	-8288
보내	-8289
상권	-8290
전드	-8291
진호	-8292
화감	-8293
vig	-8294
▁54	-8295
▁59	-8296
▁검진	-8297
▁결심	-8298
▁경미	-8299
▁고기	-8300
▁교포	-8301
▁국비	-8302
▁국외	-8303
▁군필	-8304
▁냉정	-8305
▁농담	-8306
▁독거	-8307
▁동부	-8308
▁리모	-8309
▁마침	-8310
▁마포	-8311
▁맘놓	-8312
▁무더	-8313
▁무소	-8314
▁묻혀	-8315
▁밝힐	-8316
▁버릇	-8317
▁번복	-8318
▁번지	-8319
▁법위	-8320
▁볼일	-8321
▁불평	-8322
▁브로	-8323
▁비아	-8324
▁빈곤	-8325
▁뺑뺑	-8326
▁서면	-8327
▁소나	-8328
▁속한	-8329
▁수생	-8330
▁신인	-8331
▁억제	-8332
▁연주	-8333
▁오라	-8334
▁오락	-8335
▁용사	-8336
▁월등	-8337
▁위인	-8338
▁유세	-8339
▁육상	-8340
▁응대	-8341
▁자켓	-8342
▁저장	-8343
▁정경	-8344
▁준수	-8345
▁차선	-8346
▁참관	-8347
▁총기	-8348
▁팀웍	-8349
▁판명	-8350
▁포커	-8351
▁해줍	-8352
▁허울	-8353
▁혼내	-8354
▁휴학	-8355
ᅳᅳᅳᅳ	-8356
▁감사원	-8357
▁걸려서	-8358
▁고의로	-8359
▁던가요	-8360
▁떄문에	-8361
▁레전드	-8362
▁마케팅	-8363
▁목격자	-8364
▁못한다	-8365
▁무참히	-8366
▁부담금	-8367
▁불러서	-8368
▁사회봉	-8369
▁선동열	-8370
▁성장기	-8371
▁식민지	-8372
▁여기자	-8373
▁올려야	-8374
▁위화감	-8375
▁음식점	-8376
▁이강인	-8377
▁이래도	-8378
▁제보자	-8379
▁축구장	-8380
▁편가르	-8381
▁무너뜨리	-8382
▁택시기사	-8383
▁터무니없이	-8384
htmlidxno	-8385
▁newsarticleview	-8386
79	-8387
ut	-8388
▁꺽	-8389
▁짚	-8390
▁챔	-8391
▁템	-8392
규모	-8393
담회	-8394
둬야	-8395
메일	-8396
백계	-8397
부장	-8398
식간	-8399
여대	-8400
치료	-8401
카락	-8402
▁98	-8403
▁ps	-8404
▁간소	-8405
▁강경	-8406
▁강북	-8407
▁건들	-8408
▁견해	-8409
▁결탁	-8410
▁고칠	-8411
▁과하	-8412
▁관습	-8413
▁구도	-8414
▁국론	-8415
▁귀국	-8416
▁그린	-8417
▁김신	-8418
▁당부	-8419
▁동결	-8420
▁려다	-8421
▁로봇	-8422
▁마져	-8423
▁만세	-8424
▁머물	-8425
▁모국	-8426
▁뮤지	-8427
▁발매	-8428
▁발부	-8429
▁번거	-8430
▁병가	-8431
▁본격	-8432
▁봐줄	-8433
▁불허	-8434
▁비위	-8435
▁빅뱅	-8436
▁빙자	-8437
▁빛내	-8438
▁빼먹	-8439
▁성우	-8440
▁소형	-8441
▁손잡	-8442
▁싸워	-8443
▁악덕	-8444
▁오리	-8445
▁원어	-8446
▁이겼	-8447
▁일환	-8448
▁입상	-8449
▁작사	-8450
▁작정	-8451
▁잠실	-8452
▁재화	-8453
▁중재	-8454
▁즈음	-8455
▁지갑	-8456
▁지어	-8457
▁진작	-8458
▁집권	-8459
▁책무	-8460
▁최국	-8461
▁추모	-8462
▁출범	-8463
▁침대	-8464
▁토지	-8465
▁퇴임	-8466
▁폄하	-8467
▁품질	-8468
▁행한	-8469
▁헤어	-8470
▁현안	-8471
찹니다	-8472
▁관광지	-8473
▁관심없	-8474
▁기업체	-8475
▁남성부	-8476
▁내몰리	-8477
▁동의서	-8478
▁못지않	-8479
▁무의미	-8480
▁브리핑	-8481
▁뺑뺑이	-8482
▁소규모	-8483
▁송두리	-8484
▁수십억	-8485
▁신고자	-8486
▁실생활	-8487
▁애국자	-8488
▁여교사	-8489
▁올라간	-8490
▁이메일	-8491
▁작성자	-8492
▁장기간	-8493
▁재검토	-8494
▁재대로	-8495
▁줄여야	-8496
▁찌푸리	-8497
▁체육부	-8498
▁커다란	-8499
▁해봐도	-8500
▁헛소리	-8501
▁호랑이	-8502
▁홍명보	-8503
▁회사원	-8504
▁다릅니까	-8505
▁머리카락	-8506
▁부담없이	-8507
▁사회봉사	-8508
▁안전사고	-8509
▁약합니다	-8510
▁일벌백계	-8511
▁지켜줘야	-8512
▁학력고사	-8513
▁한다거나	-8514
▁navig	-8515
▁navigation	-8516
kr	-8517
tr	-8518
ᅲᅲ	-8519
▁꽁	-8520
▁낡	-8521
▁록	-8522
▁짙	-8523
▁펑	-8524
▁픈	-8525
게요	-8526
겨서	-8527
기능	-8528
더니	-8529
두천	-8530
뜨려	-8531
배우	-8532
사리	-8533
성기	-8534
은행	-8535
타기	-8536
포트	-8537
php	-8538
▁62	-8539
▁fa	-8540
▁간신	-8541
▁거니	-8542
▁거친	-8543
▁계절	-8544
▁공신	-8545
▁교섭	-8546
▁군부	-8547
▁김해	-8548
▁나열	-8549
▁내야	-8550
▁네트	-8551
▁답안	-8552
▁동남	-8553
▁둔갑	-8554
▁랜드	-8555
▁막힌	-8556
▁모인	-8557
▁무혐	-8558
▁발송	-8559
▁본능	-8560
▁부역	-8561
▁분립	-8562
▁빛나	-8563
▁사악	-8564
▁사인	-8565
▁상벌	-8566
▁상시	-8567
▁상자	-8568
▁생성	-8569
▁섭외	-8570
▁센타	-8571
▁소셜	-8572
▁소주	-8573
▁시터	-8574
▁신다	-8575
▁아랫	-8576
▁애써	-8577
▁어쨌	-8578
▁엄하	-8579
▁여진	-8580
▁영재	-8581
▁외상	-8582
▁외주	-8583
▁요지	-8584
▁이송	-8585
▁일산	-8586
▁잘사	-8587
▁장모	-8588
▁전임	-8589
▁접한	-8590
▁정중	-8591
▁조원	-8592
▁조율	-8593
▁조종	-8594
▁주류	-8595
▁주작	-8596
▁줄인	-8597
▁줄지	-8598
▁증세	-8599
▁지양	-8600
▁징벌	-8601
▁창조	-8602
▁체불	-8603
▁추워	-8604
▁춘천	-8605
▁커플	-8606
▁태반	-8607
▁투수	-8608
▁파급	-8609
▁폭발	-8610
▁폭탄	-8611
▁향하	-8612
▁훈계	-8613
▁훌쩍	-8614
1200	-8615
▁간담회	-8616
▁갤러리	-8617
▁고령화	-8618
▁교과목	-8619
▁구치소	-8620
▁급기야	-8621
▁김경수	-8622
▁나타내	-8623
▁늘려서	-8624
▁다거나	-8625
▁다문화	-8626
▁덩어리	-8627
▁돌아간	-8628
▁동두천	-8629
▁든다고	-8630
▁들여다	-8631
▁박상기	-8632
▁보상금	-8633
▁보여야	-8634
▁선발전	-8635
▁양진호	-8636
▁유시민	-8637
▁인격체	-8638
▁일부분	-8639
▁일수록	-8640
▁입학식	-8641
▁제작자	-8642
▁졸업장	-8643
▁집안일	-8644
▁컨설팅	-8645
▁컨트롤	-8646
▁1020	-8647
▁2005	-8648
▁개탄스럽	-8649
▁동떨어진	-8650
▁스트리밍	-8651
▁안타까워	-8652
▁이해관계	-8653
▁잃어버린	-8654
▁자본주의	-8655
▁정당방위	-8656
eb	-8657
▁ᄃ	-8658
▁벡	-8659
▁썻	-8660
▁텀	-8661
가정	-8662
걸음	-8663
문학	-8664
민정	-8665
승호	-8666
아요	-8667
잘못	-8668
티비	-8669
프레	-8670
▁58	-8671
▁as	-8672
▁감경	-8673
▁감염	-8674
▁경희	-8675
▁계란	-8676
▁공작	-8677
▁끝났	-8678
▁나체	-8679
▁난감	-8680
▁늘릴	-8681
▁단장	-8682
▁도달	-8683
▁도민	-8684
▁동정	-8685
▁동화	-8686
▁마식	-8687
▁매너	-8688
▁매점	-8689
▁무얼	-8690
▁미군	-8691
▁바빠	-8692
▁반찬	-8693
▁밤낮	-8694
▁배후	-8695
▁벌인	-8696
▁변함	-8697
▁보좌	-8698
▁복사	-8699
▁볼까	-8700
▁부름	-8701
▁분별	-8702
▁비전	-8703
▁빨라	-8704
▁뿐이	-8705
▁상향	-8706
▁상환	-8707
▁서구	-8708
▁소치	-8709
▁손녀	-8710
▁송출	-8711
▁수유	-8712
▁순환	-8713
▁시신	-8714
▁싫어	-8715
▁아껴	-8716
▁악몽	-8717
▁압도	-8718
▁양반	-8719
▁여전	-8720
▁영세	-8721
▁왠만	-8722
▁유트	-8723
▁이순	-8724
▁이적	-8725
▁인수	-8726
▁일생	-8727
▁자폐	-8728
▁잔디	-8729
▁전개	-8730
▁조언	-8731
▁조퇴	-8732
▁죄자	-8733
▁줄줄	-8734
▁중형	-8735
▁집착	-8736
▁찬물	-8737
▁초월	-8738
▁타국	-8739
▁토끼	-8740
▁티오	-8741
▁평택	-8742
▁피폐	-8743
▁학살	-8744
▁활보	-8745
▁흘렸	-8746
라이딩	-8747
섭니다	-8748
플레이	-8749
▁230	-8750
▁공문서	-8751
▁기자단	-8752
▁달라질	-8753
▁대리점	-8754
▁돌아올	-8755
▁매국노	-8756
▁매니저	-8757
▁며느리	-8758
▁수영장	-8759
▁순식간	-8760
▁쓸모없	-8761
▁아가씨	-8762
▁아쉬움	-8763
▁연구소	-8764
▁올라갔	-8765
▁옳바른	-8766
▁원어민	-8767
▁으니깐	-8768
▁이성애	-8769
▁조그만	-8770
▁집어넣	-8771
▁형편없	-8772
▁고등교육	-8773
▁빠져나가	-8774
▁슬라이딩	-8775
▁씨씨티비	-8776
▁안타까울	-8777
▁이화여대	-8778
▁입니다만	-8779
▁후쿠시마	-8780
▁다문화가정	-8781
36	-8782
ay	-8783
ir	-8784
op	-8785
▁z	-8786
▁붉	-8787
▁빕	-8788
▁쟁	-8789
마크	-8790
반대	-8791
벨트	-8792
숙고	-8793
징계	-8794
쳐도	-8795
클럽	-8796
▁가동	-8797
▁각기	-8798
▁감각	-8799
▁감방	-8800
▁값진	-8801
▁강대	-8802
▁겁나	-8803
▁경마	-8804
▁공시	-8805
▁공헌	-8806
▁관장	-8807
▁글씨	-8808
▁급증	-8809
▁김호	-8810
▁나르	-8811
▁노트	-8812
▁놀림	-8813
▁뉴질	-8814
▁다신	-8815
▁다쳤	-8816
▁담요	-8817
▁대원	-8818
▁돌파	-8819
▁동북	-8820
▁둬야	-8821
▁떠났	-8822
▁라기	-8823
▁래퍼	-8824
▁막중	-8825
▁매춘	-8826
▁무에	-8827
▁미니	-8828
▁방황	-8829
▁배드	-8830
▁배척	-8831
▁변기	-8832
▁보직	-8833
▁부양	-8834
▁부탱	-8835
▁부하	-8836
▁비꼬	-8837
▁비비	-8838
▁상반	-8839
▁성원	-8840
▁세심	-8841
▁세운	-8842
▁섹스	-8843
▁송치	-8844
▁수습	-8845
▁순진	-8846
▁시수	-8847
▁심했	-8848
▁싸인	-8849
▁알몸	-8850
▁양자	-8851
▁여쭤	-8852
▁여타	-8853
▁연상	-8854
▁온전	-8855
▁운제	-8856
▁일회	-8857
▁자이	-8858
▁장착	-8859
▁저것	-8860
▁전선	-8861
▁제때	-8862
▁졸이	-8863
▁주취	-8864
▁진주	-8865
▁차기	-8866
▁차상	-8867
▁철도	-8868
▁치고	-8869
▁친고	-8870
▁트랙	-8871
▁편협	-8872
▁폴리	-8873
▁함양	-8874
▁획일	-8875
스티벌	-8876
▁가르침	-8877
▁가부장	-8878
▁고학년	-8879
▁김성수	-8880
▁늘어났	-8881
▁다스려	-8882
▁대표자	-8883
▁돌아다	-8884
▁돌아보	-8885
▁동호회	-8886
▁맞춤법	-8887
▁먹거리	-8888
▁무서움	-8889
▁무수히	-8890
▁미사일	-8891
▁사용료	-8892
▁스크린	-8893
▁쏟아져	-8894
▁을수록	-8895
▁이어져	-8896
▁장례식	-8897
▁제작사	-8898
▁주무관	-8899
▁집사람	-8900
▁창작자	-8901
▁프라이	-8902
▁한겨레	-8903
▁한없이	-8904
▁3040	-8905
▁뉴질랜드	-8906
▁생겼으면	-8907
▁시킨다면	-8908
▁심사숙고	-8909
▁자연스레	-8910
▁주어져야	-8911
▁페스티벌	-8912
▁받아들여야	-8913
▁올라옵니다	-8914
37	-8915
38	-8916
▁곽	-8917
▁괘	-8918
▁콤	-8919
▁킥	-8920
가짐	-8921
검사	-8922
들여	-8923
레톤	-8924
리즘	-8925
막이	-8926
사건	-8927
실히	-8928
어들	-8929
영장	-8930
전입	-8931
충분	-8932
키지	-8933
항서	-8934
▁kg	-8935
▁mc	-8936
▁가했	-8937
▁갈라	-8938
▁결실	-8939
▁경복	-8940
▁고가	-8941
▁교구	-8942
▁교제	-8943
▁김제	-8944
▁까페	-8945
▁꾸려	-8946
▁끼워	-8947
▁남겼	-8948
▁남매	-8949
▁납세	-8950
▁넥센	-8951
▁누진	-8952
▁다큐	-8953
▁더빙	-8954
▁더위	-8955
▁두드	-8956
▁로드	-8957
▁만인	-8958
▁맥락	-8959
▁몸매	-8960
▁바늘	-8961
▁반려	-8962
▁배틀	-8963
▁보듬	-8964
▁부수	-8965
▁분기	-8966
▁비춰	-8967
▁뽑히	-8968
▁사물	-8969
▁세미	-8970
▁소상	-8971
▁수법	-8972
▁수출	-8973
▁쉬워	-8974
▁스켈	-8975
▁시시	-8976
▁시중	-8977
▁실감	-8978
▁썩어	-8979
▁약화	-8980
▁양극	-8981
▁양식	-8982
▁억대	-8983
▁열차	-8984
▁외할	-8985
▁용시	-8986
▁용역	-8987
▁원했	-8988
▁유물	-8989
▁유서	-8990
▁유연	-8991
▁음지	-8992
▁의아	-8993
▁이쁜	-8994
▁일말	-8995
▁자립	-8996
▁자위	-8997
▁잠자	-8998
▁장벽	-8999
▁재활	-9000
▁저거	-9001
▁저축	-9002
▁전방	-9003
▁전산	-9004
▁조속	-9005
▁종신	-9006
▁죄수	-9007
▁주가	-9008
▁중개	-9009
▁챙길	-9010
▁천국	-9011
▁철퇴	-9012
▁캠프	-9013
▁테이	-9014
▁텔레	-9015
▁패지	-9016
▁풀리	-9017
▁필히	-9018
▁한태	-9019
▁해지	-9020
▁행패	-9021
▁bcg	-9022
▁간신히	-9023
▁갑시다	-9024
▁관리원	-9025
▁김신욱	-9026
▁끊임없	-9027
▁나눠서	-9028
▁낱낱이	-9029
▁누려야	-9030
▁동남아	-9031
▁물려주	-9032
▁박항서	-9033
▁반바지	-9034
▁백종원	-9035
▁벌어질	-9036
▁브로커	-9037
▁시간대	-9038
▁유학생	-9039
▁의정부	-9040
▁이영학	-9041
▁자신감	-9042
▁전문직	-9043
▁조합원	-9044
▁줄어든	-9045
▁짓밟히	-9046
▁처해야	-9047
▁칩시다	-9048
▁키워드	-9049
▁한가요	-9050
▁할당제	-9051
▁나갑니다	-9052
▁부끄러워	-9053
▁생긴다면	-9054
▁스켈레톤	-9055
▁시끄러운	-9056
▁심리치료	-9057
▁위장전입	-9058
▁일지라도	-9059
▁코스프레	-9060
▁한국일보	-9061
▁한답시고	-9062
▁객관적으로	-9063
▁171200	-9064
56	-9065
ig	-9066
na	-9067
yp	-9068
▁됍	-9069
▁땡	-9070
▁뺀	-9071
▁웅	-9072
▁햐	-9073
고기	-9074
고생	-9075
마블	-9076
번호	-9077
보이	-9078
사실	-9079
쓴이	-9080
일으	-9081
환자	-9082
▁53	-9083
▁im	-9084
▁or	-9085
▁감청	-9086
▁감치	-9087
▁강좌	-9088
▁검경	-9089
▁고귀	-9090
▁골든	-9091
▁과중	-9092
▁귀족	-9093
▁기생	-9094
▁깡패	-9095
▁끼친	-9096
▁대여	-9097
▁등하	-9098
▁레드	-9099
▁막혀	-9100
▁몸값	-9101
▁못생	-9102
▁무급	-9103
▁물들	-9104
▁미소	-9105
▁바치	-9106
▁방임	-9107
▁번번	-9108
▁범하	-9109
▁법리	-9110
▁보강	-9111
▁본분	-9112
▁봅슬	-9113
▁봐라	-9114
▁불우	-9115
▁산출	-9116
▁상속	-9117
▁수구	-9118
▁수명	-9119
▁승소	-9120
▁시체	-9121
▁시티	-9122
▁쌍욕	-9123
▁쓰일	-9124
▁앞당	-9125
▁여인	-9126
▁열렸	-9127
▁열풍	-9128
▁예뻐	-9129
▁음해	-9130
▁응당	-9131
▁인대	-9132
▁일기	-9133
▁일쑤	-9134
▁입찰	-9135
▁점령	-9136
▁지낸	-9137
▁지루	-9138
▁지친	-9139
▁지탄	-9140
▁쫓겨	-9141
▁찬반	-9142
▁참으	-9143
▁천차	-9144
▁총회	-9145
▁친애	-9146
▁커질	-9147
▁쿼터	-9148
▁토로	-9149
▁퇴장	-9150
▁파티	-9151
▁판국	-9152
▁패륜	-9153
▁평상	-9154
▁필자	-9155
▁헌재	-9156
▁epl	-9157
▁tvn	-9158
▁게이트	-9159
▁공모전	-9160
▁관리비	-9161
▁근무지	-9162
▁글쓴이	-9163
▁난다는	-9164
▁넷마블	-9165
▁는커녕	-9166
▁다가가	-9167
▁돌려받	-9168
▁된다니	-9169
▁듭시다	-9170
▁모자란	-9171
▁빈번히	-9172
▁성재기	-9173
▁셔야죠	-9174
▁순기능	-9175
▁시킨다	-9176
▁신청서	-9177
▁윗사람	-9178
▁의문점	-9179
▁잘잘못	-9180
▁장시간	-9181
▁재경기	-9182
▁전용주	-9183
▁정신과	-9184
▁정해서	-9185
▁친고죄	-9186
▁퍼뜨리	-9187
▁평가전	-9188
▁피아노	-9189
▁학생회	-9190
▁한국식	-9191
▁강원랜드	-9192
▁모른다는	-9193
▁봅슬레이	-9194
▁불러일으	-9195
▁스포츠맨	-9196
▁안전벨트	-9197
▁주민번호	-9198
▁지상주의	-9199
96	-9200
98	-9201
▁곪	-9202
▁껄	-9203
▁껏	-9204
▁끓	-9205
▁뚝	-9206
▁뛴	-9207
▁렵	-9208
▁밍	-9209
▁엽	-9210
다지	-9211
라면	-9212
럼프	-9213
민턴	-9214
병원	-9215
웨이	-9216
저만	-9217
트넘	-9218
티브	-9219
하장	-9220
▁강해	-9221
▁걸친	-9222
▁고수	-9223
▁교주	-9224
▁교훈	-9225
▁기를	-9226
▁기증	-9227
▁나약	-9228
▁남양	-9229
▁늦추	-9230
▁다분	-9231
▁도모	-9232
▁마셨	-9233
▁망설	-9234
▁무색	-9235
▁밀접	-9236
▁반별	-9237
▁분당	-9238
▁불교	-9239
▁비유	-9240
▁사관	-9241
▁사대	-9242
▁사로	-9243
▁살릴	-9244
▁삼촌	-9245
▁생업	-9246
▁세웠	-9247
▁수억	-9248
▁승차	-9249
▁신기	-9250
▁신나	-9251
▁알파	-9252
▁애착	-9253
▁양도	-9254
▁얼른	-9255
▁용병	-9256
▁워치	-9257
▁위증	-9258
▁융합	-9259
▁은혜	-9260
▁음료	-9261
▁이끄	-9262
▁이쁘	-9263
▁잡힌	-9264
▁재우	-9265
▁적반	-9266
▁전신	-9267
▁조화	-9268
▁종업	-9269
▁중구	-9270
▁증오	-9271
▁진리	-9272
▁천억	-9273
▁최강	-9274
▁춤추	-9275
▁통치	-9276
▁퇴색	-9277
▁퇴소	-9278
▁패턴	-9279
▁한진	-9280
▁한화	-9281
▁회유	-9282
▁효력	-9283
▁흔드	-9284
atch	-9285
▁가까워	-9286
▁가져올	-9287
▁갔다오	-9288
▁개회식	-9289
▁객관식	-9290
▁건데요	-9291
▁과학고	-9292
▁구독자	-9293
▁기관장	-9294
▁기부금	-9295
▁내려지	-9296
▁네이트	-9297
▁노약자	-9298
▁느냐고	-9299
▁대수롭	-9300
▁되돌려	-9301
▁드디어	-9302
▁라이브	-9303
▁마식령	-9304
▁망가지	-9305
▁무방비	-9306
▁부르짖	-9307
▁불충분	-9308
▁설립자	-9309
▁소용없	-9310
▁안다고	-9311
▁읍시다	-9312
▁이어진	-9313
▁조리사	-9314
▁지켜줄	-9315
▁참가자	-9316
▁토트넘	-9317
▁파트너	-9318
▁폭행죄	-9319
▁4000	-9320
▁그럴까요	-9321
▁들립니다	-9322
▁모른다고	-9323
▁배드민턴	-9324
▁슬픕니다	-9325
▁시킨다는	-9326
▁쓸데없이	-9327
▁어려워서	-9328
▁어지럽히	-9329
▁이만저만	-9330
▁전문학교	-9331
▁전통문화	-9332
▁한다던지	-9333
ul	-9334
▁ᄆ	-9335
▁밭	-9336
▁뱉	-9337
▁봣	-9338
고루	-9339
공사	-9340
국가	-9341
권자	-9342
따위	-9343
려내	-9344
르셋	-9345
백백	-9346
양호	-9347
언정	-9348
우진	-9349
천히	-9350
체류	-9351
태우	-9352
해하	-9353
ent	-9354
▁49	-9355
▁64	-9356
▁가령	-9357
▁가릴	-9358
▁각오	-9359
▁거스	-9360
▁건국	-9361
▁공예	-9362
▁과다	-9363
▁구두	-9364
▁구직	-9365
▁군림	-9366
▁그늘	-9367
▁나치	-9368
▁낙하	-9369
▁납입	-9370
▁넓혀	-9371
▁늦춰	-9372
▁독려	-9373
▁등산	-9374
▁로움	-9375
▁로워	-9376
▁맘껏	-9377
▁망친	-9378
▁맞서	-9379
▁맞춘	-9380
▁맞출	-9381
▁몰두	-9382
▁몸소	-9383
▁몹쓸	-9384
▁무장	-9385
▁민폐	-9386
▁바쳐	-9387
▁바퀴	-9388
▁박살	-9389
▁밥값	-9390
▁방출	-9391
▁벌벌	-9392
▁법체	-9393
▁변한	-9394
▁부류	-9395
▁분과	-9396
▁분배	-9397
▁비장	-9398
▁빠질	-9399
▁사내	-9400
▁상납	-9401
▁생생	-9402
▁선례	-9403
▁소극	-9404
▁소질	-9405
▁소화	-9406
▁손발	-9407
▁손주	-9408
▁시킴	-9409
▁신조	-9410
▁실검	-9411
▁싸잡	-9412
▁아선	-9413
▁약점	-9414
▁양궁	-9415
▁어땠	-9416
▁여파	-9417
▁연이	-9418
▁연체	-9419
▁열기	-9420
▁영정	-9421
▁오마	-9422
▁와도	-9423
▁외노	-9424
▁외도	-9425
▁외양	-9426
▁욱일	-9427
▁운명	-9428
▁유관	-9429
▁유인	-9430
▁인디	-9431
▁일러	-9432
▁일진	-9433
▁잠들	-9434
▁잡지	-9435
▁재임	-9436
▁전도	-9437
▁제어	-9438
▁주역	-9439
▁주전	-9440
▁중순	-9441
▁증대	-9442
▁지청	-9443
▁진위	-9444
▁집계	-9445
▁챔피	-9446
▁친분	-9447
▁탄력	-9448
▁터치	-9449
▁팀원	-9450
▁파문	-9451
▁페럴	-9452
▁표창	-9453
▁풀이	-9454
▁피나	-9455
▁허덕	-9456
▁후속	-9457
▁흔하	-9458
민정음	-9459
봅시다	-9460
▁170	-9461
▁강대국	-9462
▁공산당	-9463
▁과감히	-9464
▁교도관	-9465
▁교습소	-9466
▁김제동	-9467
▁들먹이	-9468
▁떠들썩	-9469
▁목요일	-9470
▁무작위	-9471
▁배신감	-9472
▁보이콧	-9473
▁본다고	-9474
▁부도덕	-9475
▁불리우	-9476
▁붙여서	-9477
▁브라질	-9478
▁상실감	-9479
▁생활고	-9480
▁스위스	-9481
▁스키장	-9482
▁어려웠	-9483
▁어쨌든	-9484
▁위정자	-9485
▁유아기	-9486
▁유정호	-9487
▁이명희	-9488
▁이순신	-9489
▁이스트	-9490
▁이유로	-9491
▁이토록	-9492
▁일으켰	-9493
▁장동민	-9494
▁좌절감	-9495
▁중징계	-9496
▁중환자	-9497
▁천천히	-9498
▁코르셋	-9499
▁판검사	-9500
▁패키지	-9501
▁팬클럽	-9502
▁할려는	-9503
▁행정관	-9504
▁화성시	-9505
▁1200	-9506
▁2006	-9507
▁나온다면	-9508
▁다운로드	-9509
▁마이너스	-9510
▁명명백백	-9511
▁불법체류	-9512
▁썩어빠진	-9513
▁인민재판	-9514
▁초과근무	-9515
▁해줍니다	-9516
▁훈민정음	-9517
▁어긋납니다	-9518
▁엘리베이터	-9519
57	-9520
th	-9521
▁꾀	-9522
▁닮	-9523
▁붓	-9524
▁샵	-9525
▁쌀	-9526
▁왓	-9527
▁캔	-9528
같이	-9529
라기	-9530
라스	-9531
리케	-9532
버님	-9533
버시	-9534
와야	-9535
장치	-9536
재원	-9537
주야	-9538
흡연	-9539
112	-9540
▁47	-9541
▁97	-9542
▁dm	-9543
▁가라	-9544
▁각인	-9545
▁감지	-9546
▁감출	-9547
▁개요	-9548
▁건만	-9549
▁걸까	-9550
▁경감	-9551
▁경피	-9552
▁계발	-9553
▁계승	-9554
▁고독	-9555
▁공업	-9556
▁과로	-9557
▁교리	-9558
▁구심	-9559
▁기름	-9560
▁누적	-9561
▁다투	-9562
▁대도	-9563
▁대북	-9564
▁등본	-9565
▁떠난	-9566
▁뜨겁	-9567
▁마리	-9568
▁막강	-9569
▁무법	-9570
▁반감	-9571
▁배송	-9572
▁백성	-9573
▁밴드	-9574
▁부린	-9575
▁부속	-9576
▁북부	-9577
▁분개	-9578
▁분란	-9579
▁분량	-9580
▁불철	-9581
▁뷰어	-9582
▁블럭	-9583
▁비치	-9584
▁뻔하	-9585
▁사칭	-9586
▁상가	-9587
▁상고	-9588
▁색출	-9589
▁서서	-9590
▁선입	-9591
▁성행	-9592
▁셔요	-9593
▁시발	-9594
▁쓴다	-9595
▁아부	-9596
▁악기	-9597
▁알린	-9598
▁알선	-9599
▁열등	-9600
▁영위	-9601
▁오를	-9602
▁온도	-9603
▁왠지	-9604
▁월경	-9605
▁월차	-9606
▁이룬	-9607
▁이쪽	-9608
▁자문	-9609
▁재질	-9610
▁저변	-9611
▁전범	-9612
▁전송	-9613
▁절박	-9614
▁정관	-9615
▁정립	-9616
▁정문	-9617
▁조서	-9618
▁존립	-9619
▁지리	-9620
▁진천	-9621
▁질책	-9622
▁착하	-9623
▁청취	-9624
▁축적	-9625
▁충돌	-9626
▁치를	-9627
▁태클	-9628
▁텀블	-9629
▁튼튼	-9630
▁파크	-9631
▁퍼부	-9632
▁페널	-9633
▁표적	-9634
▁피디	-9635
▁필리	-9636
▁학우	-9637
▁허벅	-9638
▁혼나	-9639
▁화두	-9640
▁휴계	-9641
▁흘렀	-9642
잖아요	-9643
▁197	-9644
▁700	-9645
▁var	-9646
▁골고루	-9647
▁관심사	-9648
▁그다지	-9649
▁낙인찍	-9650
▁녹취록	-9651
▁높여야	-9652
▁대법관	-9653
▁될까봐	-9654
▁만족도	-9655
▁미용사	-9656
▁배불리	-9657
▁보증금	-9658
▁사업체	-9659
▁사재기	-9660
▁상영관	-9661
▁스카이	-9662
▁신속히	-9663
▁아름다	-9664
▁아서요	-9665
▁아야죠	-9666
▁아파도	-9667
▁얼룩진	-9668
▁영화제	-9669
▁외양간	-9670
▁은커녕	-9671
▁응급실	-9672
▁인지도	-9673
▁입장권	-9674
▁조양호	-9675
▁존엄성	-9676
▁주소지	-9677
▁천문학	-9678
▁초상권	-9679
▁탈북자	-9680
▁포스트	-9681
▁풀려나	-9682
▁회의감	-9683
▁0000	-9684
▁6000	-9685
▁네트워크	-9686
▁밀어붙이	-9687
▁버린다면	-9688
▁분단국가	-9689
▁불철주야	-9690
▁아무쪼록	-9691
▁안전장치	-9692
▁원한다면	-9693
▁프리미어	-9694
▁watch	-9695
▁프라이버시	-9696
▁article	-9697
44	-9698
67	-9699
em	-9700
▁돔	-9701
▁밉	-9702
▁붐	-9703
▁뻥	-9704
▁졋	-9705
구려	-9706
런지	-9707
분명	-9708
시티	-9709
어로	-9710
인권	-9711
정지	-9712
지오	-9713
체어	-9714
타이	-9715
하무	-9716
▁09	-9717
▁84	-9718
▁db	-9719
▁ip	-9720
▁간음	-9721
▁감내	-9722
▁개막	-9723
▁건배	-9724
▁경시	-9725
▁고백	-9726
▁고아	-9727
▁관악	-9728
▁그럽	-9729
▁기금	-9730
▁기출	-9731
▁김종	-9732
▁꾸며	-9733
▁난동	-9734
▁날까	-9735
▁남중	-9736
▁내밀	-9737
▁내정	-9738
▁누락	-9739
▁눈뜨	-9740
▁다구	-9741
▁단단	-9742
▁달렸	-9743
▁담뱃	-9744
▁대검	-9745
▁더이	-9746
▁도립	-9747
▁독방	-9748
▁돌릴	-9749
▁리안	-9750
▁마라	-9751
▁마의	-9752
▁매치	-9753
▁무례	-9754
▁무제	-9755
▁문정	-9756
▁문책	-9757
▁문항	-9758
▁민영	-9759
▁바꿨	-9760
▁보탬	-9761
▁봐왔	-9762
▁불통	-9763
▁뺏기	-9764
▁뿌듯	-9765
▁사주	-9766
▁생색	-9767
▁선두	-9768
▁선비	-9769
▁성체	-9770
▁세트	-9771
▁수월	-9772
▁수조	-9773
▁숨지	-9774
▁숨통	-9775
▁쉼터	-9776
▁신데	-9777
▁악한	-9778
▁안달	-9779
▁약관	-9780
▁었었	-9781
▁열사	-9782
▁우상	-9783
▁우위	-9784
▁울려	-9785
▁원내	-9786
▁원분	-9787
▁원시	-9788
▁위태	-9789
▁이단	-9790
▁이문	-9791
▁인솔	-9792
▁인양	-9793
▁일터	-9794
▁일행	-9795
▁임사	-9796
▁자사	-9797
▁자처	-9798
▁장인	-9799
▁적산	-9800
▁절도	-9801
▁정통	-9802
▁제국	-9803
▁존속	-9804
▁졸속	-9805
▁종영	-9806
▁차관	-9807
▁참혹	-9808
▁총선	-9809
▁충전	-9810
▁치가	-9811
▁침략	-9812
▁카타	-9813
▁통증	-9814
▁퇴원	-9815
▁팟캐	-9816
▁표방	-9817
▁학술	-9818
▁한복	-9819
▁행적	-9820
▁혈연	-9821
▁후드	-9822
▁후퇴	-9823
계약서	-9824
▁001	-9825
▁vip	-9826
▁개발자	-9827
▁게라도	-9828
▁경범죄	-9829
▁공통점	-9830
▁기념관	-9831
▁넘어갔	-9832
▁노동청	-9833
▁뉴스룸	-9834
▁다워야	-9835
▁돌봐야	-9836
▁동대문	-9837
▁들여서	-9838
▁듭니까	-9839
▁디스크	-9840
▁목숨걸	-9841
▁문화부	-9842
▁민간인	-9843
▁방해죄	-9844
▁병무청	-9845
▁복지부	-9846
▁불분명	-9847
▁비제이	-9848
▁사고력	-9849
▁사로잡	-9850
▁사립대	-9851
▁살펴봐	-9852
▁상담원	-9853
▁시설물	-9854
▁신뢰도	-9855
▁약해서	-9856
▁어서요	-9857
▁왜냐면	-9858
▁유행어	-9859
▁으셔서	-9860
▁읍니까	-9861
▁이어졌	-9862
▁인천시	-9863
▁작곡가	-9864
▁전성기	-9865
▁치우쳐	-9866
▁표준어	-9867
▁필리핀	-9868
▁한데요	-9869
▁했어야	-9870
▁활동비	-9871
▁휠체어	-9872
▁휴게실	-9873
▁2003	-9874
▁view	-9875
▁들여다보	-9876
▁막힙니다	-9877
▁적반하장	-9878
▁팟캐스트	-9879
▁하루속히	-9880
▁근로계약서	-9881
▁모바일게임	-9882
55	-9883
ak	-9884
us	-9885
▁겜	-9886
▁궤	-9887
▁긋	-9888
▁꼰	-9889
▁됫	-9890
▁랩	-9891
▁른	-9892
▁몆	-9893
▁왈	-9894
▁큼	-9895
구리	-9896
그러	-9897
년층	-9898
노동	-9899
못해	-9900
번에	-9901
비어	-9902
승차	-9903
시설	-9904
아리	-9905
진규	-9906
처분	-9907
통일	-9908
한시	-9909
oci	-9910
▁08	-9911
▁42	-9912
▁pr	-9913
▁겹치	-9914
▁고식	-9915
▁공갈	-9916
▁괴리	-9917
▁구원	-9918
▁극대	-9919
▁나눔	-9920
▁나선	-9921
▁날개	-9922
▁남길	-9923
▁네여	-9924
▁누워	-9925
▁던진	-9926
▁동동	-9927
▁동력	-9928
▁동해	-9929
▁레스	-9930
▁로비	-9931
▁망할	-9932
▁멸시	-9933
▁묘사	-9934
▁무임	-9935
▁문과	-9936
▁박혀	-9937
▁벤치	-9938
▁보름	-9939
▁봉급	-9940
▁분담	-9941
▁분하	-9942
▁빙신	-9943
▁사생	-9944
▁산재	-9945
▁상인	-9946
▁섞인	-9947
▁소소	-9948
▁숭고	-9949
▁승객	-9950
▁시국	-9951
▁식대	-9952
▁신지	-9953
▁씌워	-9954
▁애완	-9955
▁양형	-9956
▁어딘	-9957
▁어딨	-9958
▁억장	-9959
▁연약	-9960
▁열광	-9961
▁예배	-9962
▁오케	-9963
▁외침	-9964
▁요하	-9965
▁우발	-9966
▁원감	-9967
▁위선	-9968
▁유력	-9969
▁유로	-9970
▁음모	-9971
▁이긴	-9972
▁이대	-9973
▁이불	-9974
▁인쇄	-9975
▁일깨	-9976
▁입힌	-9977
▁자백	-9978
▁장식	-9979
▁장차	-9980
▁적대	-9981
▁제로	-9982
▁제천	-9983
▁조력	-9984
▁주고	-9985
▁증서	-9986
▁지겹	-9987
▁지기	-9988
▁지날	-9989
▁질의	-9990
▁천장	-9991
▁체결	-9992
▁총수	-9993
▁최적	-9994
▁출결	-9995
▁층간	-9996
▁카르	-9997
▁코앞	-9998
▁코피	-9999
▁탄원	-10000
▁토막	-10001
▁통폐	-10002
▁퇴진	-10003
▁편들	-10004
▁포용	-10005
▁하필	-10006
▁합류	-10007
▁횡단	-10008
게이머	-10009
라이트	-10010
▁met	-10011
▁가로막	-10012
▁강간죄	-10013
▁결승전	-10014
▁경영진	-10015
▁계산기	-10016
▁광복절	-10017
▁교육열	-10018
▁국내외	-10019
▁국세청	-10020
▁그치만	-10021
▁근거리	-10022
▁낙하산	-10023
▁달려가	-10024
▁답니까	-10025
▁도려내	-10026
▁떠올리	-10027
▁메갈이	-10028
▁물타기	-10029
▁바바리	-10030
▁발표회	-10031
▁버려서	-10032
▁법률안	-10033
▁변호인	-10034
▁불가침	-10035
▁사다리	-10036
▁상담소	-10037
▁생물학	-10038
▁소송법	-10039
▁수상자	-10040
▁수천만	-10041
▁시발점	-10042
▁쓰러져	-10043
▁여서는	-10044
▁오타쿠	-10045
▁이제야	-10046
▁재방송	-10047
▁저작물	-10048
▁전문대	-10049
▁주의자	-10050
▁줄줄이	-10051
▁채워야	-10052
▁처한다	-10053
▁카타르	-10054
▁텀블러	-10055
▁필터링	-10056
▁허벅지	-10057
▁휘둘리	-10058
▁4050	-10059
▁개인주의	-10060
▁무임승차	-10061
▁바쁩니다	-10062
▁소리지르	-10063
▁앞섭니다	-10064
▁이라던지	-10065
▁중환자실	-10066
▁초등교육	-10067
▁naver	-10068
▁기다립니다	-10069
▁프로게이머	-10070
▁watchv	-10071
32	-10072
cc	-10073
qu	-10074
▁굿	-10075
▁닌	-10076
▁얹	-10077
▁옴	-10078
▁찿	-10079
가포	-10080
느님	-10081
뜨린	-10082
렉스	-10083
로이	-10084
마스	-10085
만간	-10086
여야	-10087
의지	-10088
일리	-10089
절로	-10090
토랑	-10091
투리	-10092
현민	-10093
aum	-10094
ode	-10095
oid	-10096
▁76	-10097
▁gm	-10098
▁lo	-10099
▁sh	-10100
▁ww	-10101
▁개교	-10102
▁광경	-10103
▁국악	-10104
▁귀중	-10105
▁그루	-10106
▁금강	-10107
▁기인	-10108
▁기장	-10109
▁농촌	-10110
▁뇌전	-10111
▁능욕	-10112
▁단다	-10113
▁달러	-10114
▁당원	-10115
▁도발	-10116
▁돼요	-10117
▁두서	-10118
▁든든	-10119
▁디시	-10120
▁레고	-10121
▁마찰	-10122
▁만났	-10123
▁망상	-10124
▁망칠	-10125
▁머릿	-10126
▁명지	-10127
▁무덤	-10128
▁문건	-10129
▁미납	-10130
▁미취	-10131
▁믿기	-10132
▁밀집	-10133
▁반듯	-10134
▁배고	-10135
▁배분	-10136
▁병장	-10137
▁부스	-10138
▁뽑힌	-10139
▁서예	-10140
▁서적	-10141
▁성경	-10142
▁성역	-10143
▁소란	-10144
▁수반	-10145
▁숙이	-10146
▁스캔	-10147
▁시야	-10148
▁써먹	-10149
▁아냐	-10150
▁아카	-10151
▁안경	-10152
▁알맞	-10153
▁야하	-10154
▁어둠	-10155
▁열망	-10156
▁오션	-10157
▁외롭	-10158
▁왼쪽	-10159
▁유난	-10160
▁인즉	-10161
▁임차	-10162
▁잠잠	-10163
▁저급	-10164
▁저의	-10165
▁전례	-10166
▁정국	-10167
▁조계	-10168
▁조제	-10169
▁종북	-10170
▁종용	-10171
▁줄기	-10172
▁중증	-10173
▁지민	-10174
▁진압	-10175
▁짖밟	-10176
▁챙피	-10177
▁최하	-10178
▁충성	-10179
▁치솟	-10180
▁치중	-10181
▁치킨	-10182
▁카트	-10183
▁쾌적	-10184
▁클린	-10185
▁태릉	-10186
▁통역	-10187
▁파리	-10188
▁패션	-10189
▁하찮	-10190
▁한결	-10191
▁항쟁	-10192
▁해줘	-10193
가포르	-10194
하무인	-10195
spor	-10196
▁갈아입	-10197
▁귀걸이	-10198
▁기득권	-10199
▁기뻐하	-10200
▁끌어내	-10201
▁나아질	-10202
▁놀라운	-10203
▁다던데	-10204
▁들려오	-10205
▁등한시	-10206
▁라든지	-10207
▁려는데	-10208
▁만든다	-10209
▁말아먹	-10210
▁망가져	-10211
▁멀쩡히	-10212
▁모를까	-10213
▁모자랄	-10214
▁무너진	-10215
▁무서울	-10216
▁무서웠	-10217
▁뭘까요	-10218
▁박진성	-10219
▁보여서	-10220
▁보험금	-10221
▁부적응	-10222
▁부턴가	-10223
▁살아오	-10224
▁세워진	-10225
▁소개서	-10226
▁시급히	-10227
▁신조어	-10228
▁쓰러지	-10229
▁쓴다는	-10230
▁알아내	-10231
▁엄밀히	-10232
▁업무상	-10233
▁여태껏	-10234
▁오디션	-10235
▁온다고	-10236
▁우편물	-10237
▁이만희	-10238
▁잊어버	-10239
▁자이언	-10240
▁저절로	-10241
▁조만간	-10242
▁종교인	-10243
▁주변인	-10244
▁즐거워	-10245
▁찌푸려	-10246
▁커리어	-10247
▁클래스	-10248
▁토론회	-10249
▁통폐합	-10250
▁투자자	-10251
▁트럼프	-10252
▁티셔츠	-10253
▁퍼트리	-10254
▁하느님	-10255
▁했을까	-10256
▁휴게소	-10257
▁2004	-10258
▁adhd	-10259
▁레스토랑	-10260
▁마음가짐	-10261
▁배웁니다	-10262
▁시킨다고	-10263
▁시킵시다	-10264
▁싱가포르	-10265
▁안하무인	-10266
▁오죽하면	-10267
▁이리저리	-10268
▁전라남도	-10269
▁한다면서	-10270
▁metoo	-10271
▁광주광역시	-10272
▁메달리스트	-10273
▁어긋난다고	-10274
ur	-10275
▁갯	-10276
▁걔	-10277
▁떵	-10278
▁뽀	-10279
▁얇	-10280
▁캄	-10281
▁푹	-10282
▁핏	-10283
긍긍	-10284
나도	-10285
사전	-10286
서울	-10287
설수	-10288
시점	-10289
어요	-10290
일드	-10291
주교	-10292
피스	-10293
효과	-10294
ang	-10295
▁06	-10296
▁do	-10297
▁개척	-10298
▁건장	-10299
▁결성	-10300
▁고르	-10301
▁과격	-10302
▁교총	-10303
▁구장	-10304
▁규범	-10305
▁금리	-10306
▁기고	-10307
▁기력	-10308
▁기해	-10309
▁기형	-10310
▁김구	-10311
▁김태	-10312
▁너도	-10313
▁다뇨	-10314
▁대마	-10315
▁도울	-10316
▁도제	-10317
▁도핑	-10318
▁두둔	-10319
▁득점	-10320
▁떠도	-10321
▁레인	-10322
▁리콜	-10323
▁마마	-10324
▁못난	-10325
▁묘지	-10326
▁민낯	-10327
▁반역	-10328
▁반항	-10329
▁버림	-10330
▁벼슬	-10331
▁부녀	-10332
▁비평	-10333
▁뿌려	-10334
▁상권	-10335
▁생태	-10336
▁선천	-10337
▁수모	-10338
▁수화	-10339
▁순찰	-10340
▁암담	-10341
▁야만	-10342
▁양립	-10343
▁양상	-10344
▁어겼	-10345
▁어색	-10346
▁어학	-10347
▁언사	-10348
▁외제	-10349
▁외쳤	-10350
▁우연	-10351
▁우파	-10352
▁원가	-10353
▁원상	-10354
▁윗선	-10355
▁유부	-10356
▁이산	-10357
▁인명	-10358
▁재해	-10359
▁저게	-10360
▁절약	-10361
▁점자	-10362
▁정밀	-10363
▁주당	-10364
▁주저	-10365
▁참작	-10366
▁처먹	-10367
▁처형	-10368
▁초미	-10369
▁취학	-10370
▁친화	-10371
▁캡쳐	-10372
▁탈선	-10373
▁팍팍	-10374
▁팝콘	-10375
▁펑펑	-10376
▁평점	-10377
▁포토	-10378
▁풍토	-10379
▁핑크	-10380
▁하인	-10381
▁한문	-10382
▁한시	-10383
▁해내	-10384
▁해악	-10385
▁험한	-10386
▁현수	-10387
▁환산	-10388
▁후기	-10389
▁휩싸	-10390
김없이	-10391
는데도	-10392
바이벌	-10393
스트라	-10394
lose	-10395
▁220	-10396
▁and	-10397
▁강남역	-10398
▁거리낌	-10399
▁걸어야	-10400
▁경호원	-10401
▁고독사	-10402
▁고위급	-10403
▁공연장	-10404
▁교묘히	-10405
▁그만둘	-10406
▁급격히	-10407
▁김성태	-10408
▁김호곤	-10409
▁까다롭	-10410
▁노진규	-10411
▁뇌전증	-10412
▁대학가	-10413
▁돌려서	-10414
▁됍니다	-10415
▁되돌아	-10416
▁두려운	-10417
▁들이대	-10418
▁마이크	-10419
▁면밀히	-10420
▁발걸음	-10421
▁번번히	-10422
▁빼돌리	-10423
▁뿌리깊	-10424
▁사기죄	-10425
▁사이코	-10426
▁상여금	-10427
▁선입견	-10428
▁싫어하	-10429
▁아닐지	-10430
▁아시나	-10431
▁안쓰럽	-10432
▁어쩌다	-10433
▁어찌하	-10434
▁여실히	-10435
▁올려도	-10436
▁움직일	-10437
▁의식주	-10438
▁잡아가	-10439
▁장학사	-10440
▁조희연	-10441
▁주어졌	-10442
▁줄여서	-10443
▁증거인	-10444
▁천주교	-10445
▁최상위	-10446
▁취업률	-10447
▁카르텔	-10448
▁틀림없	-10449
▁파헤쳐	-10450
▁판단력	-10451
▁팔아먹	-10452
▁할수록	-10453
▁했어도	-10454
▁확인서	-10455
▁가정주부	-10456
▁공공장소	-10457
▁그만둬야	-10458
▁너도나도	-10459
▁다스려야	-10460
▁마이스터	-10461
▁서바이벌	-10462
▁자이언츠	-10463
▁잔인무도	-10464
▁전전긍긍	-10465
▁지켜져야	-10466
▁close	-10467
▁속상합니다	-10468
ia	-10469
ls	-10470
▁곱	-10471
▁닭	-10472
▁덤	-10473
▁딘	-10474
▁떴	-10475
▁뱅	-10476
▁샌	-10477
▁숲	-10478
▁썪	-10479
▁쏴	-10480
▁킬	-10481
▁힌	-10482
각각	-10483
거즈	-10484
들인	-10485
리오	-10486
만별	-10487
모델	-10488
워드	-10489
처치	-10490
풍기	-10491
피아	-10492
하니	-10493
▁69	-10494
▁96	-10495
▁on	-10496
▁가속	-10497
▁개통	-10498
▁거품	-10499
▁겁박	-10500
▁겸직	-10501
▁고하	-10502
▁골절	-10503
▁과반	-10504
▁과일	-10505
▁교무	-10506
▁구지	-10507
▁규율	-10508
▁급진	-10509
▁기강	-10510
▁기리	-10511
▁기조	-10512
▁김부	-10513
▁깃발	-10514
▁나락	-10515
▁나옴	-10516
▁난방	-10517
▁날뛰	-10518
▁남부	-10519
▁내기	-10520
▁노란	-10521
▁높였	-10522
▁닷컴	-10523
▁동요	-10524
▁두루	-10525
▁두리	-10526
▁등지	-10527
▁떠밀	-10528
▁려던	-10529
▁마산	-10530
▁마신	-10531
▁만기	-10532
▁말투	-10533
▁맞기	-10534
▁매겨	-10535
▁모금	-10536
▁모성	-10537
▁몰락	-10538
▁무도	-10539
▁미식	-10540
▁밀수	-10541
▁반증	-10542
▁벅차	-10543
▁보답	-10544
▁본문	-10545
▁비로	-10546
▁비트	-10547
▁산다	-10548
▁삽입	-10549
▁상생	-10550
▁서장	-10551
▁서정	-10552
▁선가	-10553
▁성병	-10554
▁송환	-10555
▁신선	-10556
▁심도	-10557
▁안무	-10558
▁안위	-10559
▁앞길	-10560
▁에듀	-10561
▁여호	-10562
▁영주	-10563
▁오롯	-10564
▁오점	-10565
▁외래	-10566
▁우민	-10567
▁울림	-10568
▁육박	-10569
▁이면	-10570
▁이목	-10571
▁일거	-10572
▁입지	-10573
▁장본	-10574
▁재력	-10575
▁전지	-10576
▁점제	-10577
▁정면	-10578
▁정장	-10579
▁제소	-10580
▁중년	-10581
▁증후	-10582
▁직면	-10583
▁직속	-10584
▁질식	-10585
▁징용	-10586
▁짤라	-10587
▁찌르	-10588
▁착수	-10589
▁참된	-10590
▁천하	-10591
▁청약	-10592
▁청화	-10593
▁추잡	-10594
▁컴백	-10595
▁키웠	-10596
▁탁구	-10597
▁탈의	-10598
▁토하	-10599
▁통탄	-10600
▁트윈	-10601
▁파해	-10602
▁표지	-10603
▁하반	-10604
▁합치	-10605
▁행세	-10606
▁허구	-10607
▁현저	-10608
▁환호	-10609
▁휩쓸	-10610
▁흐려	-10611
어로즈	-10612
▁101	-10613
▁130	-10614
▁갈아엎	-10615
▁갑작스	-10616
▁경복궁	-10617
▁계열사	-10618
▁공격수	-10619
▁그지없	-10620
▁끌어올	-10621
▁남동생	-10622
▁단기간	-10623
▁달라졌	-10624
▁대체로	-10625
▁돌이킬	-10626
▁라던가	-10627
▁랍니까	-10628
▁맞춰야	-10629
▁모국어	-10630
▁미취학	-10631
▁밝혀서	-10632
▁보좌관	-10633
▁본고사	-10634
▁부적격	-10635
▁불쾌감	-10636
▁선동렬	-10637
▁소리치	-10638
▁수사대	-10639
▁슴니다	-10640
▁시끄러	-10641
▁신중히	-10642
▁아버님	-10643
▁알아듣	-10644
▁어야죠	-10645
▁여배우	-10646
▁오마이	-10647
▁음악인	-10648
▁이스라	-10649
▁이재명	-10650
▁인구수	-10651
▁일깨워	-10652
▁임금제	-10653
▁자연히	-10654
▁적나라	-10655
▁정상인	-10656
▁제작비	-10657
▁직업인	-10658
▁진술서	-10659
▁채워서	-10660
▁치뤄야	-10661
▁크리스	-10662
▁현시점	-10663
▁휴직급	-10664
▁휴직자	-10665
▁2001	-10666
▁경상북도	-10667
▁누드모델	-10668
▁떨어져서	-10669
▁블랙박스	-10670
▁쓰레기통	-10671
▁오션시티	-10672
▁오토바이	-10673
▁유흥업소	-10674
▁응급처치	-10675
▁이뤄지지	-10676
▁이제서야	-10677
▁인사이드	-10678
▁천차만별	-10679
petitions	-10680
ap	-10681
ce	-10682
ld	-10683
li	-10684
ow	-10685
▁둡	-10686
▁렷	-10687
▁맴	-10688
▁솟	-10689
▁옐	-10690
▁웨	-10691
▁찜	-10692
▁찝	-10693
▁펌	-10694
▁흰	-10695
내기	-10696
달수	-10697
데미	-10698
르몬	-10699
무기	-10700
범위	-10701
선수	-10702
시험	-10703
아닌	-10704
유포	-10705
찰청	-10706
초리	-10707
텐데	-10708
허가	-10709
▁51	-10710
▁82	-10711
▁eb	-10712
▁wh	-10713
▁거제	-10714
▁건대	-10715
▁견딜	-10716
▁고모	-10717
▁과한	-10718
▁광명	-10719
▁교차	-10720
▁군산	-10721
▁그제	-10722
▁극한	-10723
▁기입	-10724
▁기지	-10725
▁김일	-10726
▁껴야	-10727
▁꼰대	-10728
▁넘겼	-10729
▁놓인	-10730
▁다룬	-10731
▁단역	-10732
▁대박	-10733
▁대범	-10734
▁대요	-10735
▁대의	-10736
▁독박	-10737
▁동문	-10738
▁동질	-10739
▁들렸	-10740
▁리베	-10741
▁마사	-10742
▁말기	-10743
▁면책	-10744
▁모함	-10745
▁몰수	-10746
▁몸살	-10747
▁몹시	-10748
▁물으	-10749
▁밀치	-10750
▁바친	-10751
▁밤늦	-10752
▁배급	-10753
▁배임	-10754
▁백년	-10755
▁버금	-10756
▁버틸	-10757
▁범주	-10758
▁법칙	-10759
▁부임	-10760
▁분교	-10761
▁분포	-10762
▁비열	-10763
▁서른	-10764
▁서초	-10765
▁성화	-10766
▁센서	-10767
▁셔틀	-10768
▁속보	-10769
▁속칭	-10770
▁시드	-10771
▁시세	-10772
▁심할	-10773
▁쌓인	-10774
▁썬팅	-10775
▁앞선	-10776
▁여긴	-10777
▁연한	-10778
▁영이	-10779
▁오산	-10780
▁우회	-10781
▁워크	-10782
▁원만	-10783
▁원해	-10784
▁윗분	-10785
▁유언	-10786
▁의학	-10787
▁이겁	-10788
▁이룩	-10789
▁이정	-10790
▁인면	-10791
▁인턴	-10792
▁자랐	-10793
▁자석	-10794
▁작자	-10795
▁전이	-10796
▁전철	-10797
▁제왕	-10798
▁조교	-10799
▁주워	-10800
▁중상	-10801
▁지킴	-10802
▁진화	-10803
▁질질	-10804
▁짜르	-10805
▁차질	-10806
▁처장	-10807
▁충이	-10808
▁치진	-10809
▁친하	-10810
▁침범	-10811
▁파이	-10812
▁퍼트	-10813
▁페북	-10814
▁포교	-10815
▁폭동	-10816
▁플레	-10817
▁하남	-10818
▁한꺼	-10819
▁함정	-10820
▁해운	-10821
▁허물	-10822
▁허점	-10823
▁헐뜯	-10824
▁협찬	-10825
▁호적	-10826
▁후면	-10827
▁희대	-10828
간다는	-10829
라이더	-10830
▁365	-10831
▁dna	-10832
▁jyp	-10833
▁nbc	-10834
▁www	-10835
▁거쳐야	-10836
▁경희대	-10837
▁골프장	-10838
▁과거사	-10839
▁광범위	-10840
▁교육학	-10841
▁김민우	-10842
▁노벨상	-10843
▁뉴스타	-10844
▁느껴야	-10845
▁달려온	-10846
▁둘러보	-10847
▁뛰어넘	-10848
▁메이저	-10849
▁면허증	-10850
▁모니터	-10851
▁모르쇠	-10852
▁모아야	-10853
▁배워서	-10854
▁버거운	-10855
▁번역가	-10856
▁변해야	-10857
▁빠뜨리	-10858
▁서서히	-10859
▁소아과	-10860
▁쇼핑몰	-10861
▁수비수	-10862
▁스티커	-10863
▁실무자	-10864
▁여성우	-10865
▁연세대	-10866
▁오달수	-10867
▁원동력	-10868
▁유망주	-10869
▁저버린	-10870
▁적절히	-10871
▁정중히	-10872
▁조직력	-10873
▁종업원	-10874
▁지난달	-10875
▁지난주	-10876
▁지식인	-10877
▁지켜볼	-10878
▁초미세	-10879
▁치우친	-10880
▁탁현민	-10881
▁폴리스	-10882
▁플라스	-10883
▁항공기	-10884
▁호르몬	-10885
경기연맹	-10886
사실유포	-10887
▁2021	-10888
▁고사하고	-10889
▁끼칩니다	-10890
▁나쁩니다	-10891
▁만든다고	-10892
▁생각없이	-10893
▁아카데미	-10894
▁안전교육	-10895
▁위한다는	-10896
▁위한다면	-10897
▁이뤄져야	-10898
▁이스라엘	-10899
▁자유주의	-10900
▁타이거즈	-10901
▁한꺼번에	-10902
▁한다던가	-10903
▁했는데도	-10904
▁20190	-10905
▁저지릅니다	-10906
▁허위사실유포	-10907
▁readnhnmodels	-10908
35	-10909
58	-10910
ab	-10911
ey	-10912
▁꽂	-10913
▁딜	-10914
▁뜰	-10915
▁렸	-10916
▁릉	-10917
▁삿	-10918
▁쉰	-10919
▁윽	-10920
▁츠	-10921
▁틱	-10922
▁헷	-10923
겨워	-10924
구석	-10925
기수	-10926
나이	-10927
놀이	-10928
단체	-10929
데용	-10930
리그	-10931
모로	-10932
범근	-10933
보우	-10934
암리	-10935
야구	-10936
이너	-10937
자치	-10938
취업	-10939
키퍼	-10940
ama	-10941
▁66	-10942
▁68	-10943
▁가꾸	-10944
▁가늠	-10945
▁가면	-10946
▁간질	-10947
▁갑과	-10948
▁거라	-10949
▁거슬	-10950
▁경매	-10951
▁경종	-10952
▁고분	-10953
▁곰탕	-10954
▁공대	-10955
▁공로	-10956
▁과열	-10957
▁관용	-10958
▁괘씸	-10959
▁구걸	-10960
▁기쁜	-10961
▁기차	-10962
▁까봐	-10963
▁깔끔	-10964
▁날아	-10965
▁남불	-10966
▁놀음	-10967
▁눈먼	-10968
▁다지	-10969
▁단추	-10970
▁대란	-10971
▁대물	-10972
▁대장	-10973
▁대졸	-10974
▁동방	-10975
▁동종	-10976
▁드문	-10977
▁등기	-10978
▁때론	-10979
▁떵떵	-10980
▁런던	-10981
▁로리	-10982
▁마쳤	-10983
▁말려	-10984
▁망한	-10985
▁머무	-10986
▁멋있	-10987
▁메신	-10988
▁모는	-10989
▁무늬	-10990
▁물증	-10991
▁박찬	-10992
▁박힌	-10993
▁발각	-10994
▁발자	-10995
▁배기	-10996
▁베풀	-10997
▁병동	-10998
▁보류	-10999
▁복합	-11000
▁비워	-11001
▁빠짐	-11002
▁사격	-11003
▁사촌	-11004
▁사하	-11005
▁산악	-11006
▁삼가	-11007
▁선상	-11008
▁세수	-11009
▁세울	-11010
▁수거	-11011
▁순천	-11012
▁숨쉬	-11013
▁스킨	-11014
▁시나	-11015
▁시력	-11016
▁시트	-11017
▁신학	-11018
▁실책	-11019
▁안목	-11020
▁암튼	-11021
▁야스	-11022
▁양승	-11023
▁어둡	-11024
▁업데	-11025
▁없앴	-11026
▁여력	-11027
▁여사	-11028
▁연류	-11029
▁연평	-11030
▁열려	-11031
▁오너	-11032
▁외식	-11033
▁울음	-11034
▁웃돈	-11035
▁원수	-11036
▁웬만	-11037
▁유모	-11038
▁유보	-11039
▁을려	-11040
▁이간	-11041
▁이왕	-11042
▁이직	-11043
▁인승	-11044
▁일주	-11045
▁입영	-11046
▁입혀	-11047
▁자가	-11048
▁자소	-11049
▁자수	-11050
▁자취	-11051
▁저쩌	-11052
▁전사	-11053
▁전했	-11054
▁절제	-11055
▁점진	-11056
▁정액	-11057
▁제의	-11058
▁죽임	-11059
▁중위	-11060
▁직간	-11061
▁집합	-11062
▁차안	-11063
▁채운	-11064
▁처절	-11065
▁총괄	-11066
▁축내	-11067
▁치여	-11068
▁치이	-11069
▁커트	-11070
▁쾌락	-11071
▁팔굽	-11072
▁팬티	-11073
▁편중	-11074
▁편할	-11075
▁품격	-11076
▁피지	-11077
▁학제	-11078
▁학칙	-11079
▁학회	-11080
▁합숙	-11081
▁혈압	-11082
▁황제	-11083
▁회관	-11084
다못해	-11085
읍니다	-11086
조리원	-11087
▁900	-11088
▁건드리	-11089
▁고용주	-11090
▁골키퍼	-11091
▁그리구	-11092
▁기본급	-11093
▁김일성	-11094
▁나랏일	-11095
▁나타난	-11096
▁다녀서	-11097
▁다스리	-11098
▁덴마크	-11099
▁도둑놈	-11100
▁독립군	-11101
▁따라오	-11102
▁때려서	-11103
▁라이트	-11104
▁마주치	-11105
▁머릿속	-11106
▁문제지	-11107
▁바라볼	-11108
▁밥데용	-11109
▁버금가	-11110
▁변제기	-11111
▁비아냥	-11112
▁사무직	-11113
▁생겨난	-11114
▁생겨야	-11115
▁생리통	-11116
▁소중히	-11117
▁소홀히	-11118
▁수강료	-11119
▁시립대	-11120
▁싸그리	-11121
▁어워드	-11122
▁여야만	-11123
▁역효과	-11124
▁연구실	-11125
▁였으니	-11126
▁이상황	-11127
▁인서울	-11128
▁자유당	-11129
▁정의당	-11130
▁졸업식	-11131
▁줄까요	-11132
▁지나간	-11133
▁충실히	-11134
▁취해서	-11135
▁트윈스	-11136
▁한동안	-11137
▁허덕이	-11138
▁헤아리	-11139
▁현행범	-11140
▁힘든지	-11141
▁1980	-11142
▁권위주의	-11143
▁내립니다	-11144
▁대검찰청	-11145
▁뛰어다니	-11146
▁레인보우	-11147
▁리베이트	-11148
▁망가뜨리	-11149
▁미식축구	-11150
▁보호처분	-11151
▁부지기수	-11152
▁서비스업	-11153
▁어김없이	-11154
▁업데이트	-11155
▁여러모로	-11156
▁유명무실	-11157
▁이뤄지는	-11158
▁이성애자	-11159
▁이탈리아	-11160
▁일러스트	-11161
▁커집니다	-11162
▁플라스틱	-11163
▁해봅시다	-11164
▁해준다면	-11165
▁산후조리원	-11166
▁오케스트라	-11167
▁카트라이더	-11168
▁크리스마스	-11169
39	-11170
kb	-11171
lb	-11172
ly	-11173
of	-11174
ps	-11175
ᄍᄍ	-11176
▁릭	-11177
▁뺐	-11178
▁뻘	-11179
▁쏙	-11180
▁짬	-11181
▁탔	-11182
▁텅	-11183
교섭	-11184
대계	-11185
동원	-11186
드려	-11187
랑곳	-11188
랜스	-11189
려요	-11190
모습	-11191
몰라	-11192
믹스	-11193
어졌	-11194
용차	-11195
유럽	-11196
입학	-11197
코인	-11198
톨릭	-11199
파이	-11200
200	-11201
ety	-11202
▁ed	-11203
▁em	-11204
▁fm	-11205
▁각계	-11206
▁각서	-11207
▁간략	-11208
▁간병	-11209
▁강등	-11210
▁강탈	-11211
▁거둘	-11212
▁고난	-11213
▁공표	-11214
▁교비	-11215
▁국감	-11216
▁그램	-11217
▁금하	-11218
▁기둥	-11219
▁기세	-11220
▁기절	-11221
▁김동	-11222
▁김여	-11223
▁김용	-11224
▁까닭	-11225
▁끊기	-11226
▁끼얹	-11227
▁나쁨	-11228
▁나설	-11229
▁나팔	-11230
▁난도	-11231
▁납품	-11232
▁넘긴	-11233
▁노르	-11234
▁놀란	-11235
▁당진	-11236
▁당초	-11237
▁대개	-11238
▁대금	-11239
▁대동	-11240
▁도련	-11241
▁독감	-11242
▁독과	-11243
▁되새	-11244
▁뒤지	-11245
▁드론	-11246
▁뜬금	-11247
▁라구	-11248
▁로고	-11249
▁망해	-11250
▁맥주	-11251
▁면역	-11252
▁모멸	-11253
▁몸담	-11254
▁무심	-11255
▁무형	-11256
▁문명	-11257
▁바꿉	-11258
▁박영	-11259
▁박종	-11260
▁박해	-11261
▁받쳐	-11262
▁배수	-11263
▁백수	-11264
▁백억	-11265
▁법망	-11266
▁변형	-11267
▁복역	-11268
▁분경	-11269
▁사자	-11270
▁사치	-11271
▁서부	-11272
▁서해	-11273
▁선한	-11274
▁설비	-11275
▁소인	-11276
▁속여	-11277
▁스님	-11278
▁신사	-11279
▁실사	-11280
▁안동	-11281
▁애서	-11282
▁어설	-11283
▁엑스	-11284
▁열거	-11285
▁염전	-11286
▁옐로	-11287
▁옥상	-11288
▁옮길	-11289
▁외칠	-11290
▁용변	-11291
▁우주	-11292
▁위수	-11293
▁융통	-11294
▁응징	-11295
▁응하	-11296
▁인내	-11297
▁입술	-11298
▁자초	-11299
▁장단	-11300
▁재워	-11301
▁재차	-11302
▁전년	-11303
▁져도	-11304
▁조처	-11305
▁줄게	-11306
▁줘요	-11307
▁지긋	-11308
▁지네	-11309
▁지저	-11310
▁지폐	-11311
▁찌들	-11312
▁차림	-11313
▁창고	-11314
▁채울	-11315
▁초딩	-11316
▁초석	-11317
▁축복	-11318
▁취객	-11319
▁측근	-11320
▁치과	-11321
▁친자	-11322
▁친해	-11323
▁캐쉬	-11324
▁코레	-11325
▁탐색	-11326
▁태만	-11327
▁통째	-11328
▁투사	-11329
▁팔리	-11330
▁패소	-11331
▁폄훼	-11332
▁포착	-11333
▁풍요	-11334
▁한대	-11335
▁해답	-11336
▁현관	-11337
▁현송	-11338
▁혈액	-11339
▁혐한	-11340
▁화질	-11341
▁확고	-11342
▁휘말	-11343
▁흥분	-11344
구장창	-11345
레이드	-11346
봅니다	-11347
으므로	-11348
진다는	-11349
▁가르키	-11350
▁갔다온	-11351
▁강의실	-11352
▁곧바로	-11353
▁공감대	-11354
▁구설수	-11355
▁금강산	-11356
▁껍니까	-11357
▁나몰라	-11358
▁나타날	-11359
▁남학교	-11360
▁넥타이	-11361
▁다가올	-11362
▁단체장	-11363
▁당첨자	-11364
▁대리인	-11365
▁더이상	-11366
▁무자격	-11367
▁무지하	-11368
▁물으니	-11369
▁밀려나	-11370
▁베이징	-11371
▁불량자	-11372
▁불상사	-11373
▁상급자	-11374
▁수익금	-11375
▁시험관	-11376
▁신세계	-11377
▁아랑곳	-11378
▁암암리	-11379
▁어울려	-11380
▁여학교	-11381
▁완벽히	-11382
▁우리말	-11383
▁욱일기	-11384
▁유명세	-11385
▁유적지	-11386
▁의료인	-11387
▁이간질	-11388
▁이제껏	-11389
▁인라인	-11390
▁장난질	-11391
▁재취업	-11392
▁전염병	-11393
▁정해야	-11394
▁주고받	-11395
▁지방대	-11396
▁지어서	-11397
▁지으면	-11398
▁직간접	-11399
▁진정서	-11400
▁차범근	-11401
▁찹니다	-11402
▁챔피언	-11403
▁텔레비	-11404
▁특권층	-11405
▁팔굽혀	-11406
▁할까봐	-11407
▁해져서	-11408
▁행정직	-11409
▁1997	-11410
▁국가인권	-11411
▁뉴스타파	-11412
▁백년대계	-11413
▁부정입학	-11414
▁불안해하	-11415
▁비트코인	-11416
▁사학재단	-11417
▁아야지요	-11418
▁어야지요	-11419
▁으셨으면	-11420
▁주구장창	-11421
▁터집니다	-11422
▁인스타그램	-11423
ni	-11424
pn	-11425
▁궂	-11426
▁귄	-11427
▁댑	-11428
▁듦	-11429
▁딛	-11430
▁럭	-11431
▁샷	-11432
▁쥴	-11433
▁챠	-11434
▁텝	-11435
▁틴	-11436
감독	-11437
거워	-11438
대표	-11439
데이	-11440
들겨	-11441
라치	-11442
랜서	-11443
러움	-11444
먼스	-11445
멘트	-11446
비용	-11447
수심	-11448
연대	-11449
음악	-11450
의사	-11451
징금	-11452
총장	-11453
친절	-11454
커트	-11455
타임	-11456
토르	-11457
퇴직	-11458
핵화	-11459
훈련	-11460
ate	-11461
end	-11462
ore	-11463
▁04	-11464
▁bm	-11465
▁cf	-11466
▁li	-11467
▁감봉	-11468
▁개수	-11469
▁갱신	-11470
▁거들	-11471
▁거울	-11472
▁거창	-11473
▁걸레	-11474
▁게양	-11475
▁고된	-11476
▁고성	-11477
▁공군	-11478
▁과오	-11479
▁괜한	-11480
▁교문	-11481
▁구실	-11482
▁구자	-11483
▁국산	-11484
▁그대	-11485
▁김진	-11486
▁김현	-11487
▁남친	-11488
▁내수	-11489
▁넘길	-11490
▁농도	-11491
▁능동	-11492
▁다물	-11493
▁단가	-11494
▁단언	-11495
▁단편	-11496
▁달랐	-11497
▁대면	-11498
▁대세	-11499
▁독성	-11500
▁독신	-11501
▁되려	-11502
▁라던	-11503
▁마켓	-11504
▁맞대	-11505
▁면회	-11506
▁목욕	-11507
▁못된	-11508
▁무술	-11509
▁문고	-11510
▁미룬	-11511
▁바둑	-11512
▁박모	-11513
▁반짝	-11514
▁배트	-11515
▁백두	-11516
▁번갈	-11517
▁번영	-11518
▁벗겨	-11519
▁변수	-11520
▁별반	-11521
▁보물	-11522
▁보전	-11523
▁북측	-11524
▁비켜	-11525
▁상이	-11526
▁새겨	-11527
▁생체	-11528
▁샤워	-11529
▁서럽	-11530
▁소양	-11531
▁솜씨	-11532
▁수개	-11533
▁수동	-11534
▁신부	-11535
▁신정	-11536
▁아베	-11537
▁안민	-11538
▁암호	-11539
▁약사	-11540
▁약탈	-11541
▁양가	-11542
▁여섯	-11543
▁여수	-11544
▁열릴	-11545
▁열중	-11546
▁온다	-11547
▁외가	-11548
▁외압	-11549
▁워라	-11550
▁원금	-11551
▁위급	-11552
▁유래	-11553
▁유령	-11554
▁일장	-11555
▁임종	-11556
▁자며	-11557
▁자명	-11558
▁자한	-11559
▁작살	-11560
▁잡음	-11561
▁재개	-11562
▁전폭	-11563
▁족쇄	-11564
▁주방	-11565
▁주점	-11566
▁줘라	-11567
▁쫒아	-11568
▁찍혀	-11569
▁찔러	-11570
▁차치	-11571
▁찬사	-11572
▁초유	-11573
▁출마	-11574
▁치룬	-11575
▁치른	-11576
▁타운	-11577
▁타협	-11578
▁탁아	-11579
▁태국	-11580
▁패자	-11581
▁팽배	-11582
▁퍼포	-11583
▁페어	-11584
▁필터	-11585
▁한전	-11586
▁헬멧	-11587
▁헬스	-11588
▁헷갈	-11589
▁화목	-11590
▁후대	-11591
네시아	-11592
래프트	-11593
▁160	-11594
▁갖가지	-11595
▁거듭나	-11596
▁거쳐서	-11597
▁건지요	-11598
▁걸어가	-11599
▁계신데	-11600
▁고마움	-11601
▁고소득	-11602
▁구급대	-11603
▁기다린	-11604
▁김포시	-11605
▁난다면	-11606
▁날라가	-11607
▁내려서	-11608
▁넘어섰	-11609
▁놀아나	-11610
▁누진세	-11611
▁느껴졌	-11612
▁느껴질	-11613
▁는데도	-11614
▁다느니	-11615
▁다른지	-11616
▁달라서	-11617
▁대사관	-11618
▁덧붙여	-11619
▁독과점	-11620
▁동성혼	-11621
▁된다며	-11622
▁따가운	-11623
▁라이온	-11624
▁미워하	-11625
▁바가지	-11626
▁볼려고	-11627
▁분별력	-11628
▁불친절	-11629
▁비서실	-11630
▁비핵화	-11631
▁빅토르	-11632
▁빼앗기	-11633
▁생겨났	-11634
▁생계비	-11635
▁서러운	-11636
▁성적순	-11637
▁성적표	-11638
▁속상한	-11639
▁슬퍼하	-11640
▁신가요	-11641
▁아니요	-11642
▁안우진	-11643
▁알아본	-11644
▁어느덧	-11645
▁언론계	-11646
▁여의치	-11647
▁연기자	-11648
▁월등히	-11649
▁을려면	-11650
▁의료진	-11651
▁이기흥	-11652
▁이사회	-11653
▁일어서	-11654
▁자라날	-11655
▁장본인	-11656
▁저마다	-11657
▁정신력	-11658
▁지구촌	-11659
▁지저분	-11660
▁초년생	-11661
▁취해야	-11662
▁칸막이	-11663
▁크로스	-11664
▁트랜스	-11665
▁특별시	-11666
▁플랫폼	-11667
▁합쳐서	-11668
▁1001	-11669
▁daum	-11670
▁mama	-11671
▁공공연히	-11672
▁그런다고	-11673
▁깍아내리	-11674
▁깎아내리	-11675
▁다름아닌	-11676
▁다면서요	-11677
▁당한다는	-11678
▁대통령령	-11679
▁동아시아	-11680
▁디자이너	-11681
▁부끄러움	-11682
▁빠짐없이	-11683
▁실용음악	-11684
▁알려줘야	-11685
▁어서라도	-11686
▁이라든지	-11687
▁인면수심	-11688
▁자격정지	-11689
▁저작권료	-11690
▁퍼포먼스	-11691
▁프리랜서	-11692
▁한다구요	-11693
▁한다지만	-11694
ociety	-11695
▁넘어갑니다	-11696
▁넘쳐납니다	-11697
▁들어간다고	-11698
▁사라집니다	-11699
▁인도네시아	-11700
31	-11701
68	-11702
ik	-11703
▁깐	-11704
▁됄	-11705
▁릴	-11706
▁뭍	-11707
▁밎	-11708
▁쏜	-11709
▁쨰	-11710
▁찼	-11711
▁퀄	-11712
▁톱	-11713
▁풋	-11714
▁헙	-11715
▁훤	-11716
가다	-11717
겨우	-11718
논문	-11719
래곤	-11720
문제	-11721
봉주	-11722
블릿	-11723
세서	-11724
이니	-11725
장난	-11726
종일	-11727
죽이	-11728
준다	-11729
질서	-11730
청원	-11731
테나	-11732
티슈	-11733
행사	-11734
회찬	-11735
ank	-11736
arc	-11737
con	-11738
one	-11739
▁07	-11740
▁79	-11741
▁85	-11742
▁av	-11743
▁간격	-11744
▁갈까	-11745
▁갈리	-11746
▁감호	-11747
▁갖은	-11748
▁개명	-11749
▁격하	-11750
▁경중	-11751
▁경청	-11752
▁고립	-11753
▁고은	-11754
▁고함	-11755
▁공청	-11756
▁공황	-11757
▁과대	-11758
▁국경	-11759
▁군청	-11760
▁근육	-11761
▁긍지	-11762
▁기껏	-11763
▁기어	-11764
▁기직	-11765
▁깨지	-11766
▁꼬집	-11767
▁날려	-11768
▁낯선	-11769
▁냅두	-11770
▁너그	-11771
▁노원	-11772
▁농민	-11773
▁눈쌀	-11774
▁느리	-11775
▁다짐	-11776
▁다쳐	-11777
▁단연	-11778
▁당겨	-11779
▁대거	-11780
▁대주	-11781
▁더워	-11782
▁도래	-11783
▁도피	-11784
▁동창	-11785
▁두어	-11786
▁뒤로	-11787
▁떠서	-11788
▁똘똘	-11789
▁레슨	-11790
▁마자	-11791
▁망국	-11792
▁멀티	-11793
▁멍들	-11794
▁모은	-11795
▁무렵	-11796
▁무중	-11797
▁묶여	-11798
▁뭔데	-11799
▁미쳤	-11800
▁밀린	-11801
▁방편	-11802
▁방한	-11803
▁버전	-11804
▁벅찬	-11805
▁법학	-11806
▁벨벳	-11807
▁보임	-11808
▁봉투	-11809
▁부럽	-11810
▁불시	-11811
▁비만	-11812
▁비통	-11813
▁빛낸	-11814
▁사도	-11815
▁사시	-11816
▁생후	-11817
▁서요	-11818
▁석사	-11819
▁성지	-11820
▁성형	-11821
▁세분	-11822
▁소추	-11823
▁손목	-11824
▁송파	-11825
▁수직	-11826
▁숙고	-11827
▁슈팅	-11828
▁스폰	-11829
▁승선	-11830
▁시군	-11831
▁시학	-11832
▁실려	-11833
▁실은	-11834
▁싸웠	-11835
▁야죠	-11836
▁야한	-11837
▁양평	-11838
▁어는	-11839
▁어미	-11840
▁역세	-11841
▁영하	-11842
▁오명	-11843
▁외곡	-11844
▁외박	-11845
▁울릉	-11846
▁원고	-11847
▁원전	-11848
▁원통	-11849
▁월주	-11850
▁유선	-11851
▁이이	-11852
▁일절	-11853
▁자손	-11854
▁자책	-11855
▁잔뜩	-11856
▁잡아	-11857
▁장르	-11858
▁전근	-11859
▁접해	-11860
▁족보	-11861
▁졸라	-11862
▁죄지	-11863
▁지라	-11864
▁지으	-11865
▁진동	-11866
▁차분	-11867
▁척도	-11868
▁철없	-11869
▁체해	-11870
▁쳐다	-11871
▁초교	-11872
▁총무	-11873
▁추태	-11874
▁취침	-11875
▁취했	-11876
▁쾌감	-11877
▁태완	-11878
▁특근	-11879
▁퍼붓	-11880
▁표면	-11881
▁프린	-11882
▁하등	-11883
▁한몫	-11884
▁할거	-11885
▁항고	-11886
▁행여	-11887
▁형국	-11888
▁혼잡	-11889
▁홈피	-11890
▁화교	-11891
▁화살	-11892
라인드	-11893
스포츠	-11894
진다면	-11895
플러스	-11896
플렉스	-11897
흡연자	-11898
▁가져왔	-11899
▁거래소	-11900
▁건축물	-11901
▁과반수	-11902
▁괴로워	-11903
▁교육대	-11904
▁기다릴	-11905
▁기대감	-11906
▁기업인	-11907
▁꼬라지	-11908
▁꼼꼼히	-11909
▁나올지	-11910
▁노태우	-11911
▁노회찬	-11912
▁대물림	-11913
▁들어내	-11914
▁라는데	-11915
▁려다가	-11916
▁몰라요	-11917
▁몸싸움	-11918
▁물티슈	-11919
▁바쁜데	-11920
▁버젓히	-11921
▁보살피	-11922
▁사기극	-11923
▁상품권	-11924
▁소논문	-11925
▁소유자	-11926
▁손바닥	-11927
▁아니한	-11928
▁아침밥	-11929
▁안내문	-11930
▁야구팀	-11931
▁연구비	-11932
▁연년생	-11933
▁이걸로	-11934
▁이어서	-11935
▁인지요	-11936
▁입학생	-11937
▁잡아먹	-11938
▁전쟁터	-11939
▁정봉주	-11940
▁제각각	-11941
▁준비물	-11942
▁줘야지	-11943
▁증후군	-11944
▁지어도	-11945
▁지어야	-11946
▁코피노	-11947
▁태블릿	-11948
▁피임약	-11949
▁화풀이	-11950
어집니다	-11951
▁걸립니다	-11952
▁공공시설	-11953
▁귀기울이	-11954
▁기소유예	-11955
▁기울어진	-11956
▁끌어올리	-11957
▁당할까봐	-11958
▁라면서요	-11959
▁마칩니다	-11960
▁바꿉시다	-11961
▁블라인드	-11962
▁비흡연자	-11963
▁시나리오	-11964
▁시켰으면	-11965
▁안타까웠	-11966
▁열립니다	-11967
▁유언비어	-11968
▁이산가족	-11969
▁저작권법	-11970
▁지날수록	-11971
▁지켜봐야	-11972
▁체포영장	-11973
▁파렴치한	-11974
▁10000	-11975
▁이어집니다	-11976
ex	-11977
fe	-11978
os	-11979
▁겄	-11980
▁뵈	-11981
▁뷔	-11982
▁샅	-11983
▁엊	-11984
▁쟤	-11985
▁찮	-11986
감원	-11987
고가	-11988
공단	-11989
기부	-11990
다툼	-11991
단지	-11992
대상	-11993
바람	-11994
방관	-11995
버이	-11996
벼락	-11997
부름	-11998
소자	-11999
쓰기	-12000
악단	-12001
어스	-12002
오르	-12003
우리	-12004
원순	-12005
준화	-12006
지긋	-12007
지기	-12008
태프	-12009
택시	-12010
120	-12011
ard	-12012
ity	-12013
ory	-12014
▁72	-12015
▁77	-12016
▁am	-12017
▁qr	-12018
▁가를	-12019
▁각박	-12020
▁감자	-12021
▁강당	-12022
▁거르	-12023
▁거칠	-12024
▁겨루	-12025
▁결합	-12026
▁경과	-12027
▁경사	-12028
▁고국	-12029
▁고입	-12030
▁고전	-12031
▁공금	-12032
▁과시	-12033
▁관내	-12034
▁구기	-12035
▁구로	-12036
▁구상	-12037
▁구한	-12038
▁굴복	-12039
▁극성	-12040
▁김광	-12041
▁김주	-12042
▁까칠	-12043
▁꾸리	-12044
▁나눈	-12045
▁나눌	-12046
▁놀랍	-12047
▁농업	-12048
▁높인	-12049
▁뉴욕	-12050
▁단도	-12051
▁단련	-12052
▁단식	-12053
▁담합	-12054
▁당기	-12055
▁대강	-12056
▁도요	-12057
▁동경	-12058
▁된지	-12059
▁뒤따	-12060
▁드나	-12061
▁드물	-12062
▁들릴	-12063
▁라가	-12064
▁력사	-12065
▁막아	-12066
▁말미	-12067
▁맞먹	-12068
▁맞물	-12069
▁메모	-12070
▁무역	-12071
▁반갑	-12072
▁반강	-12073
▁발본	-12074
▁뱃지	-12075
▁벌리	-12076
▁병신	-12077
▁보행	-12078
▁부교	-12079
▁부친	-12080
▁불거	-12081
▁불릴	-12082
▁빨래	-12083
▁사사	-12084
▁사서	-12085
▁사적	-12086
▁사탕	-12087
▁상단	-12088
▁상부	-12089
▁상임	-12090
▁선조	-12091
▁선포	-12092
▁선후	-12093
▁설날	-12094
▁성사	-12095
▁세이	-12096
▁수뇌	-12097
▁숙식	-12098
▁승급	-12099
▁시책	-12100
▁신빙	-12101
▁실로	-12102
▁아휴	-12103
▁안방	-12104
▁암울	-12105
▁애꿎	-12106
▁약대	-12107
▁약품	-12108
▁어휘	-12109
▁엄히	-12110
▁엔지	-12111
▁여남	-12112
▁예기	-12113
▁요가	-12114
▁용이	-12115
▁우후	-12116
▁울화	-12117
▁유영	-12118
▁은근	-12119
▁이놈	-12120
▁이니	-12121
▁이원	-12122
▁인계	-12123
▁인들	-12124
▁인연	-12125
▁일인	-12126
▁입혔	-12127
▁잉태	-12128
▁자각	-12129
▁자택	-12130
▁잠수	-12131
▁잡혔	-12132
▁저격	-12133
▁적패	-12134
▁적힌	-12135
▁전치	-12136
▁전횡	-12137
▁절규	-12138
▁젊음	-12139
▁점유	-12140
▁정류	-12141
▁제반	-12142
▁조끼	-12143
▁조손	-12144
▁종환	-12145
▁주적	-12146
▁증폭	-12147
▁지켰	-12148
▁진전	-12149
▁짤리	-12150
▁찍혔	-12151
▁차릴	-12152
▁창촌	-12153
▁첫날	-12154
▁청천	-12155
▁청하	-12156
▁추종	-12157
▁캐디	-12158
▁코인	-12159
▁통로	-12160
▁통운	-12161
▁특집	-12162
▁파란	-12163
▁파파	-12164
▁플래	-12165
▁한발	-12166
▁해군	-12167
▁해양	-12168
▁해줄	-12169
▁햇볕	-12170
▁향수	-12171
▁허비	-12172
▁현충	-12173
▁혹사	-12174
▁활력	-12175
▁후임	-12176
▁희화	-12177
라우스	-12178
레이터	-12179
멋대로	-12180
▁196	-12181
▁abc	-12182
▁imf	-12183
▁kfa	-12184
▁ᄒᄒᄒ	-12185
▁가려서	-12186
▁거니와	-12187
▁고려대	-12188
▁고지서	-12189
▁공부방	-12190
▁구자철	-12191
▁국방력	-12192
▁금감원	-12193
▁끝없이	-12194
▁남양주	-12195
▁내려졌	-12196
▁냐면서	-12197
▁댑니다	-12198
▁동급생	-12199
▁동호인	-12200
▁두들겨	-12201
▁둘러싸	-12202
▁뜯어내	-12203
▁라네요	-12204
▁모욕감	-12205
▁몰고가	-12206
▁무기력	-12207
▁무사히	-12208
▁문학상	-12209
▁뮤지컬	-12210
▁미화원	-12211
▁박사모	-12212
▁박원순	-12213
▁밝혀질	-12214
▁범죄인	-12215
▁보살핌	-12216
▁볼까요	-12217
▁봅니까	-12218
▁부딪히	-12219
▁빨아먹	-12220
▁사망자	-12221
▁사용량	-12222
▁상세히	-12223
▁설거지	-12224
▁수급비	-12225
▁수면제	-12226
▁수상기	-12227
▁수유실	-12228
▁스러움	-12229
▁스토커	-12230
▁실명제	-12231
▁심해질	-12232
▁안민석	-12233
▁어버이	-12234
▁역겨운	-12235
▁오피스	-12236
▁온다는	-12237
▁울릉도	-12238
▁으셔야	-12239
▁이기심	-12240
▁이따위	-12241
▁이용료	-12242
▁이재용	-12243
▁일주일	-12244
▁임원진	-12245
▁임종석	-12246
▁장거리	-12247
▁장모님	-12248
▁정치판	-12249
▁조그마	-12250
▁차가운	-12251
▁최승호	-12252
▁크로키	-12253
▁탁아소	-12254
▁터트리	-12255
▁통일부	-12256
▁툭하면	-12257
▁페미나	-12258
▁편안히	-12259
▁플러스	-12260
▁할망정	-12261
▁할텐데	-12262
▁항공사	-12263
▁핵무기	-12264
▁헤어지	-12265
▁호흡기	-12266
▁화이트	-12267
▁1988	-12268
▁겨우겨우	-12269
▁결사반대	-12270
▁고쳐져야	-12271
▁다더군요	-12272
▁돌아와서	-12273
▁라이온즈	-12274
▁비평준화	-12275
▁수수방관	-12276
▁정치권력	-12277
▁중계방송	-12278
▁지긋지긋	-12279
sports	-12280
▁위함입니다	-12281
▁이루어집니다	-12282
▁17120047	-12283
97	-12284
mr	-12285
te	-12286
▁낄	-12287
▁닙	-12288
▁뚱	-12289
▁럽	-12290
▁밸	-12291
▁뻣	-12292
▁쎄	-12293
▁쎈	-12294
▁쑤	-12295
▁씀	-12296
▁젼	-12297
▁짠	-12298
▁핍	-12299
각화	-12300
감사	-12301
균형	-12302
꺼이	-12303
니아	-12304
듀서	-12305
든가	-12306
디움	-12307
렌트	-12308
미디	-12309
불위	-12310
수무	-12311
어주	-12312
용훈	-12313
죽순	-12314
준표	-12315
중일	-12316
지능	-12317
쨋든	-12318
치우	-12319
쿠르	-12320
합리	-12321
ers	-12322
tin	-12323
tis	-12324
▁92	-12325
▁hw	-12326
▁mt	-12327
▁us	-12328
▁가히	-12329
▁각이	-12330
▁간결	-12331
▁감행	-12332
▁갓난	-12333
▁거둬	-12334
▁거북	-12335
▁게이	-12336
▁견학	-12337
▁계도	-12338
▁계엄	-12339
▁고무	-12340
▁공주	-12341
▁공탁	-12342
▁교민	-12343
▁교학	-12344
▁구금	-12345
▁구태	-12346
▁굴욕	-12347
▁금년	-12348
▁급히	-12349
▁기물	-12350
▁기운	-12351
▁김한	-12352
▁낮출	-12353
▁내놔	-12354
▁내모	-12355
▁놀러	-12356
▁다듬	-12357
▁다룰	-12358
▁답글	-12359
▁대생	-12360
▁던졌	-12361
▁데이	-12362
▁도태	-12363
▁들키	-12364
▁등골	-12365
▁따낸	-12366
▁떠맡	-12367
▁떠안	-12368
▁띄우	-12369
▁띄워	-12370
▁런지	-12371
▁레즈	-12372
▁마실	-12373
▁맹목	-12374
▁먹먹	-12375
▁메스	-12376
▁모교	-12377
▁모녀	-12378
▁모름	-12379
▁모았	-12380
▁모친	-12381
▁무주	-12382
▁미끼	-12383
▁미대	-12384
▁미분	-12385
▁반론	-12386
▁법상	-12387
▁변동	-12388
▁복종	-12389
▁본명	-12390
▁본의	-12391
▁본청	-12392
▁분출	-12393
▁불씨	-12394
▁비겁	-12395
▁빌라	-12396
▁상점	-12397
▁생전	-12398
▁선지	-12399
▁성씨	-12400
▁셀프	-12401
▁소청	-12402
▁소향	-12403
▁속내	-12404
▁수탈	-12405
▁수포	-12406
▁숙여	-12407
▁숙지	-12408
▁숨진	-12409
▁스테	-12410
▁스팸	-12411
▁시공	-12412
▁시집	-12413
▁신안	-12414
▁신음	-12415
▁실비	-12416
▁씨름	-12417
▁아인	-12418
▁안함	-12419
▁알콜	-12420
▁애원	-12421
▁애플	-12422
▁언더	-12423
▁언성	-12424
▁얼만	-12425
▁엄단	-12426
▁여길	-12427
▁여린	-12428
▁연쇄	-12429
▁연재	-12430
▁열약	-12431
▁엽기	-12432
▁요강	-12433
▁요망	-12434
▁우개	-12435
▁울부	-12436
▁의장	-12437
▁이를	-12438
▁이종	-12439
▁익산	-12440
▁인륜	-12441
▁인제	-12442
▁일컫	-12443
▁입김	-12444
▁입단	-12445
▁재킷	-12446
▁저래	-12447
▁정했	-12448
▁죄목	-12449
▁줄까	-12450
▁줄임	-12451
▁중견	-12452
▁증권	-12453
▁지름	-12454
▁지분	-12455
▁쫓아	-12456
▁참견	-12457
▁창단	-12458
▁척추	-12459
▁천인	-12460
▁청결	-12461
▁체부	-12462
▁촌지	-12463
▁치매	-12464
▁키스	-12465
▁타파	-12466
▁탄탄	-12467
▁탐욕	-12468
▁탕진	-12469
▁통수	-12470
▁통원	-12471
▁통틀	-12472
▁퇴폐	-12473
▁투여	-12474
▁특이	-12475
▁파손	-12476
▁파열	-12477
▁폰트	-12478
▁풍부	-12479
▁피켓	-12480
▁해법	-12481
▁핸디	-12482
▁현주	-12483
▁혹독	-12484
▁화내	-12485
▁환상	-12486
▁회신	-12487
▁효광	-12488
▁훔쳐	-12489
▁흉내	-12490
▁흠집	-12491
교섭권	-12492
레이크	-12493
립시다	-12494
어리더	-12495
어머니	-12496
조무사	-12497
▁730	-12498
▁강남구	-12499
▁걸쳐서	-12500
▁고위층	-12501
▁골라서	-12502
▁관람객	-12503
▁그런가	-12504
▁기꺼이	-12505
▁김재규	-12506
▁나랏돈	-12507
▁나아진	-12508
▁낙태법	-12509
▁내국인	-12510
▁내보낸	-12511
▁노트북	-12512
▁다녀도	-12513
▁다던지	-12514
▁담뱃값	-12515
▁대치동	-12516
▁도와야	-12517
▁돌아갔	-12518
▁동북아	-12519
▁드려야	-12520
▁들으니	-12521
▁따라갈	-12522
▁때려도	-12523
▁떠오른	-12524
▁리라고	-12525
▁마음속	-12526
▁말다툼	-12527
▁메신저	-12528
▁메이크	-12529
▁무너질	-12530
▁문제삼	-12531
▁바라봐	-12532
▁박영선	-12533
▁반성문	-12534
▁받아쓰	-12535
▁방용훈	-12536
▁배달원	-12537
▁백두산	-12538
▁복무자	-12539
▁불균형	-12540
▁비합리	-12541
▁빼앗긴	-12542
▁뼈저리	-12543
▁사무장	-12544
▁사하구	-12545
▁생겨날	-12546
▁소방서	-12547
▁수개월	-12548
▁수뇌부	-12549
▁수혜자	-12550
▁스토어	-12551
▁스포트	-12552
▁스폰서	-12553
▁승용차	-12554
▁시간표	-12555
▁신축성	-12556
▁싸이코	-12557
▁아픈데	-12558
▁안테나	-12559
▁어느새	-12560
▁어떠신	-12561
▁어떻하	-12562
▁어쨋든	-12563
▁영업자	-12564
▁올라서	-12565
▁올라올	-12566
▁유모차	-12567
▁유해물	-12568
▁윤지오	-12569
▁이러면	-12570
▁이뤄졌	-12571
▁입시생	-12572
▁잠재력	-12573
▁재소자	-12574
▁재임용	-12575
▁접근성	-12576
▁정류장	-12577
▁준다며	-12578
▁집니까	-12579
▁창작물	-12580
▁찾아갔	-12581
▁찾아왔	-12582
▁치러야	-12583
▁치우치	-12584
▁카더라	-12585
▁코미디	-12586
▁콜택시	-12587
▁콩쿠르	-12588
▁토렌트	-12589
▁평상시	-12590
▁폐회식	-12591
▁해준다	-12592
▁행정력	-12593
▁허탈감	-12594
▁홍준표	-12595
▁훈련장	-12596
▁기념행사	-12597
▁늘린다고	-12598
▁다닌다는	-12599
▁된답니다	-12600
▁무소불위	-12601
▁버린다는	-12602
▁스타디움	-12603
▁엔지니어	-12604
▁연예대상	-12605
▁올린다고	-12606
▁우후죽순	-12607
▁웃음거리	-12608
▁인공지능	-12609
▁인신매매	-12610
▁일어날지	-12611
▁치어리더	-12612
▁프로듀서	-12613
▁했읍니다	-12614
▁간호조무사	-12615
▁넘어간다면	-12616
▁면접교섭권	-12617
▁스포츠조선	-12618
▁줄어듭니다	-12619
viewasp	-12620
43	-12621
pr	-12622
pt	-12623
uc	-12624
▁깁	-12625
▁깝	-12626
▁꿰	-12627
▁늑	-12628
▁뗄	-12629
▁렴	-12630
▁례	-12631
▁몬	-12632
▁붇	-12633
▁섣	-12634
▁섰	-12635
▁쑈	-12636
▁얄	-12637
결혼	-12638
구멍	-12639
그라	-12640
그래	-12641
글스	-12642
런트	-12643
례문	-12644
로힘	-12645
리트	-12646
리퍼	-12647
매장	-12648
버둥	-12649
법인	-12650
산물	-12651
석방	-12652
월드	-12653
저래	-12654
지않	-12655
차림	-12656
착오	-12657
처럼	-12658
태현	-12659
팡이	-12660
패스	-12661
필품	-12662
호식	-12663
com	-12664
ind	-12665
log	-12666
▁63	-12667
▁le	-12668
▁pe	-12669
▁가야	-12670
▁가여	-12671
▁각반	-12672
▁감상	-12673
▁갑갑	-12674
▁개시	-12675
▁검장	-12676
▁고래	-12677
▁공채	-12678
▁과천	-12679
▁관례	-12680
▁광우	-12681
▁구만	-12682
▁구비	-12683
▁그네	-12684
▁극치	-12685
▁급속	-12686
▁기뻤	-12687
▁꼭두	-12688
▁끼니	-12689
▁나사	-12690
▁나섰	-12691
▁나을	-12692
▁남고	-12693
▁내란	-12694
▁내포	-12695
▁넓히	-12696
▁녀석	-12697
▁놓이	-12698
▁다간	-12699
▁다죠	-12700
▁다칠	-12701
▁담지	-12702
▁더만	-12703
▁도마	-12704
▁독해	-12705
▁뒷바	-12706
▁따윈	-12707
▁로더	-12708
▁매력	-12709
▁먹칠	-12710
▁몇일	-12711
▁무명	-12712
▁물류	-12713
▁미련	-12714
▁미행	-12715
▁박주	-12716
▁반기	-12717
▁발사	-12718
▁방위	-12719
▁방종	-12720
▁배점	-12721
▁버겁	-12722
▁벌였	-12723
▁부나	-12724
▁부설	-12725
▁부축	-12726
▁붙인	-12727
▁비씨	-12728
▁사문	-12729
▁사제	-12730
▁산물	-12731
▁산책	-12732
▁삼진	-12733
▁상간	-12734
▁새우	-12735
▁생애	-12736
▁서글	-12737
▁서기	-12738
▁서수	-12739
▁설상	-12740
▁성전	-12741
▁성찰	-12742
▁세밀	-12743
▁세태	-12744
▁소관	-12745
▁손꼽	-12746
▁스치	-12747
▁시계	-12748
▁식욕	-12749
▁신앙	-12750
▁실리	-12751
▁싸운	-12752
▁씨방	-12753
▁아스	-12754
▁애비	-12755
▁양측	-12756
▁얽매	-12757
▁여느	-12758
▁여시	-12759
▁여직	-12760
▁여친	-12761
▁연행	-12762
▁염두	-12763
▁영달	-12764
▁오도	-12765
▁올지	-12766
▁외쳐	-12767
▁요일	-12768
▁우정	-12769
▁우호	-12770
▁울컥	-12771
▁원문	-12772
▁원성	-12773
▁위성	-12774
▁유괴	-12775
▁이효	-12776
▁인위	-12777
▁인조	-12778
▁일례	-12779
▁일사	-12780
▁일테	-12781
▁잉글	-12782
▁잘나	-12783
▁재제	-12784
▁재허	-12785
▁저건	-12786
▁저금	-12787
▁저속	-12788
▁전말	-12789
▁전망	-12790
▁전복	-12791
▁전할	-12792
▁점주	-12793
▁정운	-12794
▁정자	-12795
▁정할	-12796
▁제휴	-12797
▁조연	-12798
▁존폐	-12799
▁종현	-12800
▁주려	-12801
▁지면	-12802
▁지붕	-12803
▁짜여	-12804
▁찝찝	-12805
▁책값	-12806
▁초조	-12807
▁총알	-12808
▁최신	-12809
▁추문	-12810
▁출중	-12811
▁출현	-12812
▁치워	-12813
▁치졸	-12814
▁캐슬	-12815
▁커버	-12816
▁타의	-12817
▁타지	-12818
▁털어	-12819
▁투지	-12820
▁트집	-12821
▁특단	-12822
▁틀려	-12823
▁파인	-12824
▁편승	-12825
▁피워	-12826
▁필드	-12827
▁핍박	-12828
▁하단	-12829
▁한양	-12830
▁합작	-12831
▁행실	-12832
▁헛된	-12833
▁현질	-12834
▁홀대	-12835
▁홍콩	-12836
▁활기	-12837
▁황의	-12838
▁후자	-12839
▁훔치	-12840
▁흡사	-12841
▁힐링	-12842
선수범	-12843
수무책	-12844
자치시	-12845
▁450	-12846
▁bmx	-12847
▁xxx	-12848
▁가석방	-12849
▁갈려고	-12850
▁강사료	-12851
▁경상도	-12852
▁경찰차	-12853
▁계획안	-12854
▁고양시	-12855
▁공신력	-12856
▁관리직	-12857
▁국제법	-12858
▁군부대	-12859
▁궁금증	-12860
▁기본기	-12861
▁기생충	-12862
▁김기태	-12863
▁난도질	-12864
▁날아가	-12865
▁노가다	-12866
▁는다며	-12867
▁담당관	-12868
▁대출금	-12869
▁더럽혀	-12870
▁도리어	-12871
▁독재자	-12872
▁동작구	-12873
▁들러리	-12874
▁떠들석	-12875
▁똑똑히	-12876
▁뜯어고	-12877
▁링크제	-12878
▁마스터	-12879
▁미용실	-12880
▁민원실	-12881
▁바꿔라	-12882
▁박해민	-12883
▁반듯이	-12884
▁발버둥	-12885
▁방관자	-12886
▁방송법	-12887
▁베어스	-12888
▁보안법	-12889
▁보유자	-12890
▁부여받	-12891
▁부역자	-12892
▁빅리그	-12893
▁빠져서	-12894
▁사회인	-12895
▁생필품	-12896
▁샤이니	-12897
▁선후배	-12898
▁소유물	-12899
▁숭례문	-12900
▁스태프	-12901
▁슬리퍼	-12902
▁실습생	-12903
▁심부름	-12904
▁알아봐	-12905
▁암각화	-12906
▁앞잡이	-12907
▁엘로힘	-12908
▁여호와	-12909
▁역사관	-12910
▁오른쪽	-12911
▁왔으나	-12912
▁원거리	-12913
▁유난히	-12914
▁유아원	-12915
▁유치장	-12916
▁이문세	-12917
▁자구요	-12918
▁전염성	-12919
▁조계종	-12920
▁조사단	-12921
▁조현아	-12922
▁지나갈	-12923
▁지만원	-12924
▁지만은	-12925
▁차태현	-12926
▁통계청	-12927
▁페이크	-12928
▁해줘도	-12929
▁핸드볼	-12930
▁헛되이	-12931
▁힘드실	-12932
▁힘써야	-12933
▁1800	-12934
▁1987	-12935
▁1999	-12936
▁hwpl	-12937
▁그럽니다	-12938
▁돌려보내	-12939
▁뒷바라지	-12940
▁따라다니	-12941
▁떵떵거리	-12942
▁밝힙니다	-12943
▁보낸다고	-12944
▁보인다고	-12945
▁속수무책	-12946
▁솔선수범	-12947
▁스쿨버스	-12948
▁시행착오	-12949
▁아닐런지	-12950
▁오르내리	-12951
▁인도주의	-12952
▁장례식장	-12953
▁프리미엄	-12954
▁플레이어	-12955
▁한다는데	-12956
▁호의호식	-12957
▁떨어진다고	-12958
▁부탁드려요	-12959
▁특별자치시	-12960
49	-12961
89	-12962
gv	-12963
im	-12964
▁ᄇ	-12965
▁꿉	-12966
▁댈	-12967
▁떤	-12968
▁뵙	-12969
▁얌	-12970
▁줫	-12971
그제	-12972
날두	-12973
녀야	-12974
노총	-12975
도록	-12976
둘러	-12977
란다	-12978
마조	-12979
방울	-12980
벽력	-12981
부답	-12982
부림	-12983
분권	-12984
어트	-12985
여혐	-12986
은정	-12987
투사	-12988
회의	-12989
▁73	-12990
▁bb	-12991
▁en	-12992
▁가명	-12993
▁가위	-12994
▁가할	-12995
▁갈려	-12996
▁강박	-12997
▁강변	-12998
▁강적	-12999
▁개콘	-13000
▁고단	-13001
▁고취	-13002
▁골자	-13003
▁과고	-13004
▁관철	-13005
▁광학	-13006
▁교우	-13007
▁국인	-13008
▁금고	-13009
▁기혼	-13010
▁깔려	-13011
▁나비	-13012
▁남초	-13013
▁내걸	-13014
▁내고	-13015
▁내실	-13016
▁논조	-13017
▁높혀	-13018
▁눈빛	-13019
▁단증	-13020
▁대낮	-13021
▁대담	-13022
▁대소	-13023
▁대외	-13024
▁대할	-13025
▁도심	-13026
▁도출	-13027
▁동구	-13028
▁되살	-13029
▁뒤떨	-13030
▁뒤바	-13031
▁따질	-13032
▁딱지	-13033
▁땅콩	-13034
▁때우	-13035
▁뜻깊	-13036
▁루트	-13037
▁마취	-13038
▁만능	-13039
▁만져	-13040
▁먹인	-13041
▁먹일	-13042
▁먼가	-13043
▁명복	-13044
▁명찰	-13045
▁모둠	-13046
▁몰릴	-13047
▁못사	-13048
▁무성	-13049
▁무인	-13050
▁문양	-13051
▁문턱	-13052
▁바뀝	-13053
▁바리	-13054
▁발단	-13055
▁발뺌	-13056
▁밥통	-13057
▁배식	-13058
▁백지	-13059
▁버팀	-13060
▁벅스	-13061
▁벌려	-13062
▁벗기	-13063
▁별일	-13064
▁보석	-13065
▁볼링	-13066
▁부품	-13067
▁불감	-13068
▁불매	-13069
▁불순	-13070
▁빛낼	-13071
▁빡빡	-13072
▁빼내	-13073
▁사교	-13074
▁사임	-13075
▁상계	-13076
▁새기	-13077
▁섞여	-13078
▁성교	-13079
▁성심	-13080
▁성질	-13081
▁세세	-13082
▁소풍	-13083
▁수색	-13084
▁수작	-13085
▁스물	-13086
▁스탠	-13087
▁슬슬	-13088
▁신라	-13089
▁심이	-13090
▁악세	-13091
▁안다	-13092
▁안주	-13093
▁안팎	-13094
▁앤디	-13095
▁야단	-13096
▁약식	-13097
▁억류	-13098
▁여비	-13099
▁역전	-13100
▁연명	-13101
▁완공	-13102
▁외로	-13103
▁용자	-13104
▁원작	-13105
▁원회	-13106
▁원흉	-13107
▁위촉	-13108
▁유초	-13109
▁이끈	-13110
▁이례	-13111
▁이여	-13112
▁이현	-13113
▁자활	-13114
▁잠식	-13115
▁잡힐	-13116
▁장이	-13117
▁장충	-13118
▁적금	-13119
▁전유	-13120
▁조세	-13121
▁종로	-13122
▁주축	-13123
▁주한	-13124
▁줄였	-13125
▁중처	-13126
▁지성	-13127
▁질러	-13128
▁질투	-13129
▁집요	-13130
▁채웠	-13131
▁처할	-13132
▁체중	-13133
▁쳐야	-13134
▁초단	-13135
▁촉진	-13136
▁출간	-13137
▁커졌	-13138
▁커진	-13139
▁코칭	-13140
▁타들	-13141
▁탈피	-13142
▁태양	-13143
▁택견	-13144
▁투척	-13145
▁패악	-13146
▁편해	-13147
▁표본	-13148
▁피력	-13149
▁하로	-13150
▁학번	-13151
▁항시	-13152
▁해례	-13153
▁허망	-13154
▁현판	-13155
▁혼동	-13156
▁화순	-13157
▁환장	-13158
나라당	-13159
마조마	-13160
저장소	-13161
▁any	-13162
▁cbs	-13163
▁con	-13164
▁sni	-13165
▁ᅲᅲᅲ	-13166
▁가벼워	-13167
▁가정사	-13168
▁갈까요	-13169
▁강아지	-13170
▁개인전	-13171
▁계신지	-13172
▁계약자	-13173
▁공과금	-13174
▁공청회	-13175
▁괴롭혀	-13176
▁구해야	-13177
▁그럴싸	-13178
▁그리도	-13179
▁그림자	-13180
▁기무사	-13181
▁내년도	-13182
▁내몰린	-13183
▁는다니	-13184
▁다가왔	-13185
▁더럽히	-13186
▁던지요	-13187
▁데스크	-13188
▁도망간	-13189
▁동물원	-13190
▁뛰어들	-13191
▁렵니까	-13192
▁망가진	-13193
▁매춘부	-13194
▁모멸감	-13195
▁뮤지션	-13196
▁미필자	-13197
▁밝혀져	-13198
▁배부르	-13199
▁부주의	-13200
▁사무관	-13201
▁산다고	-13202
▁선풍기	-13203
▁소지품	-13204
▁수용소	-13205
▁숙박비	-13206
▁숨겨진	-13207
▁신학기	-13208
▁심해졌	-13209
▁아쉬워	-13210
▁안녕히	-13211
▁알아볼	-13212
▁야말로	-13213
▁양승태	-13214
▁어딘가	-13215
▁엊그제	-13216
▁에이스	-13217
▁여름철	-13218
▁열람실	-13219
▁외래어	-13220
▁용인시	-13221
▁원한다	-13222
▁이력서	-13223
▁이뤄진	-13224
▁일장기	-13225
▁일회용	-13226
▁적어지	-13227
▁전해들	-13228
▁제조사	-13229
▁조건부	-13230
▁종신형	-13231
▁지나갔	-13232
▁지역구	-13233
▁짊어질	-13234
▁집중력	-13235
▁차이점	-13236
▁참고인	-13237
▁출입국	-13238
▁충실하	-13239
▁치료사	-13240
▁터져서	-13241
▁페이커	-13242
▁프로필	-13243
▁해운대	-13244
▁행복감	-13245
▁현수막	-13246
▁호날두	-13247
▁활발히	-13248
▁횡령죄	-13249
▁훈련소	-13250
▁love	-13251
▁ᅲᅲᅲᅲ	-13252
▁걸어다니	-13253
▁국제결혼	-13254
▁그제서야	-13255
▁나몰라라	-13256
▁노르웨이	-13257
▁당한다고	-13258
▁더러워서	-13259
▁독립투사	-13260
▁드릴게요	-13261
▁묵묵부답	-13262
▁바뀝니다	-13263
▁벌어들인	-13264
▁보드게임	-13265
▁보인다는	-13266
▁부끄러웠	-13267
▁부린다고	-13268
▁브레이크	-13269
▁블라우스	-13270
▁살인사건	-13271
▁셨잖아요	-13272
▁스러워서	-13273
▁원내대표	-13274
▁전체주의	-13275
▁조마조마	-13276
▁조심스레	-13277
▁지방분권	-13278
▁청천벽력	-13279
▁태어난지	-13280
▁한나라당	-13281
▁돌아갑니다	-13282
▁어처구니없	-13283
▁외할아버지	-13284
▁일베저장소	-13285
41	-13286
51	-13287
59	-13288
61	-13289
66	-13290
cd	-13291
ip	-13292
ll	-13293
ob	-13294
oy	-13295
ss	-13296
▁ᅡ	-13297
▁꿋	-13298
▁딥	-13299
▁맟	-13300
▁멱	-13301
▁벚	-13302
▁숟	-13303
▁숱	-13304
▁슛	-13305
▁슨	-13306
▁쌔	-13307
▁젋	-13308
▁찐	-13309
▁킵	-13310
▁퉁	-13311
▁펄	-13312
균관	-13313
꼬리	-13314
대요	-13315
디아	-13316
때로	-13317
뜨렸	-13318
릭스	-13319
무새	-13320
무진	-13321
버렸	-13322
봉길	-13323
비군	-13324
비아	-13325
산동	-13326
색원	-13327
서리	-13328
안경	-13329
약금	-13330
어내	-13331
어씌	-13332
업자	-13333
음파	-13334
장구	-13335
절미	-13336
주군	-13337
중간	-13338
집트	-13339
천구	-13340
출혈	-13341
코드	-13342
큘럼	-13343
티나	-13344
형사	-13345
회사	-13346
500	-13347
ild	-13348
ter	-13349
▁93	-13350
▁ag	-13351
▁dj	-13352
▁id	-13353
▁ne	-13354
▁가가	-13355
▁가당	-13356
▁가둬	-13357
▁간편	-13358
▁갇힌	-13359
▁감점	-13360
▁강연	-13361
▁강팀	-13362
▁개무	-13363
▁검수	-13364
▁격일	-13365
▁격투	-13366
▁겸손	-13367
▁겹쳐	-13368
▁경단	-13369
▁경보	-13370
▁경재	-13371
▁고딩	-13372
▁고착	-13373
▁골드	-13374
▁공천	-13375
▁구리	-13376
▁구립	-13377
▁구사	-13378
▁군민	-13379
▁굴레	-13380
▁권하	-13381
▁그중	-13382
▁그쳤	-13383
▁근속	-13384
▁급작	-13385
▁기승	-13386
▁기약	-13387
▁기일	-13388
▁긴말	-13389
▁꼴통	-13390
▁나기	-13391
▁나지	-13392
▁낙후	-13393
▁날카	-13394
▁노하	-13395
▁놀랬	-13396
▁다각	-13397
▁다기	-13398
▁닥치	-13399
▁단결	-13400
▁달력	-13401
▁당혹	-13402
▁대문	-13403
▁대서	-13404
▁돌렸	-13405
▁동감	-13406
▁동승	-13407
▁동양	-13408
▁두세	-13409
▁둬서	-13410
▁들끓	-13411
▁들락	-13412
▁때릴	-13413
▁떠날	-13414
▁래요	-13415
▁레벨	-13416
▁렌스	-13417
▁류자	-13418
▁리스	-13419
▁마나	-13420
▁만장	-13421
▁만취	-13422
▁말문	-13423
▁망했	-13424
▁매각	-13425
▁먹히	-13426
▁멸망	-13427
▁명료	-13428
▁명사	-13429
▁박문	-13430
▁박제	-13431
▁반도	-13432
▁받들	-13433
▁발췌	-13434
▁버그	-13435
▁벌주	-13436
▁법전	-13437
▁변별	-13438
▁보모	-13439
▁봉쇄	-13440
▁부심	-13441
▁북쪽	-13442
▁불능	-13443
▁불면	-13444
▁불복	-13445
▁불태	-13446
▁뽑혔	-13447
▁삐뚤	-13448
▁사위	-13449
▁사육	-13450
▁사탐	-13451
▁사표	-13452
▁살포	-13453
▁삼수	-13454
▁삼청	-13455
▁삽질	-13456
▁상류	-13457
▁생식	-13458
▁석연	-13459
▁성수	-13460
▁성의	-13461
▁세로	-13462
▁세째	-13463
▁속담	-13464
▁순차	-13465
▁순화	-13466
▁슈틸	-13467
▁스탭	-13468
▁승패	-13469
▁시동	-13470
▁시상	-13471
▁신검	-13472
▁신년	-13473
▁신임	-13474
▁실례	-13475
▁싸울	-13476
▁아고	-13477
▁안성	-13478
▁안이	-13479
▁액션	-13480
▁양지	-13481
▁얘길	-13482
▁어면	-13483
▁어필	-13484
▁억누	-13485
▁얼렁	-13486
▁역임	-13487
▁열쇠	-13488
▁영남	-13489
▁영악	-13490
▁옆집	-13491
▁옮겼	-13492
▁옵션	-13493
▁왕국	-13494
▁외세	-13495
▁요점	-13496
▁요직	-13497
▁원사	-13498
▁월권	-13499
▁윗몸	-13500
▁유동	-13501
▁유휴	-13502
▁윤창	-13503
▁으르	-13504
▁은밀	-13505
▁의류	-13506
▁이랬	-13507
▁이양	-13508
▁이월	-13509
▁인멸	-13510
▁인접	-13511
▁일곱	-13512
▁일안	-13513
▁임상	-13514
▁입안	-13515
▁잇따	-13516
▁자만	-13517
▁재건	-13518
▁재생	-13519
▁재현	-13520
▁저널	-13521
▁저자	-13522
▁정세	-13523
▁정점	-13524
▁정형	-13525
▁조산	-13526
▁조이	-13527
▁조형	-13528
▁주객	-13529
▁주된	-13530
▁주행	-13531
▁준법	-13532
▁준엄	-13533
▁즐비	-13534
▁지른	-13535
▁진이	-13536
▁진통	-13537
▁창창	-13538
▁챙긴	-13539
▁체자	-13540
▁체조	-13541
▁최다	-13542
▁추상	-13543
▁출세	-13544
▁취사	-13545
▁치하	-13546
▁컨데	-13547
▁콜라	-13548
▁콩쿨	-13549
▁태워	-13550
▁털기	-13551
▁통령	-13552
▁특유	-13553
▁특종	-13554
▁특허	-13555
▁편도	-13556
▁포티	-13557
▁풍속	-13558
▁필연	-13559
▁학계	-13560
▁학령	-13561
▁합하	-13562
▁합헌	-13563
▁항변	-13564
▁핸들	-13565
▁허접	-13566
▁협업	-13567
▁혹자	-13568
▁혼선	-13569
▁홀수	-13570
▁홈런	-13571
▁환우	-13572
▁회부	-13573
▁훈방	-13574
립니까	-13575
컨트리	-13576
▁115	-13577
▁116	-13578
▁350	-13579
▁akb	-13580
▁can	-13581
▁isu	-13582
▁ooo	-13583
▁가해야	-13584
▁감사관	-13585
▁거주자	-13586
▁건축사	-13587
▁게이머	-13588
▁고마운	-13589
▁고아원	-13590
▁공공재	-13591
▁공용어	-13592
▁공포감	-13593
▁과징금	-13594
▁광우병	-13595
▁괴로운	-13596
▁괴로움	-13597
▁국방비	-13598
▁군대면	-13599
▁권익위	-13600
▁그리스	-13601
▁기억나	-13602
▁김재환	-13603
▁김학범	-13604
▁김학의	-13605
▁꼬리표	-13606
▁나이스	-13607
▁내려왔	-13608
▁놀라울	-13609
▁뇌출혈	-13610
▁느냐는	-13611
▁늦둥이	-13612
▁대가리	-13613
▁대대장	-13614
▁데려오	-13615
▁돌려야	-13616
▁동거녀	-13617
▁뒷거래	-13618
▁드러날	-13619
▁리라는	-13620
▁마음먹	-13621
▁맙니다	-13622
▁망가졌	-13623
▁면역력	-13624
▁모양새	-13625
▁몰아넣	-13626
▁무단결	-13627
▁물어뜯	-13628
▁민형사	-13629
▁박수진	-13630
▁반가운	-13631
▁버팀목	-13632
▁베이스	-13633
▁보너스	-13634
▁부러워	-13635
▁부유층	-13636
▁부풀리	-13637
▁불감증	-13638
▁비로소	-13639
▁사업가	-13640
▁생길까	-13641
▁생명체	-13642
▁생산직	-13643
▁생색내	-13644
▁생활지	-13645
▁서둘러	-13646
▁서수길	-13647
▁선천성	-13648
▁선택지	-13649
▁설계사	-13650
▁설득력	-13651
▁설문지	-13652
▁세워서	-13653
▁술자리	-13654
▁슈퍼맨	-13655
▁시달려	-13656
▁심해져	-13657
▁싸가지	-13658
▁쓰러진	-13659
▁아들딸	-13660
▁아셔야	-13661
▁앞당겨	-13662
▁애완견	-13663
▁앵무새	-13664
▁앵벌이	-13665
▁야구부	-13666
▁어설픈	-13667
▁여행사	-13668
▁예산안	-13669
▁옮겨야	-13670
▁옷차림	-13671
▁위약금	-13672
▁유권자	-13673
▁유사시	-13674
▁의견서	-13675
▁의료비	-13676
▁이영훈	-13677
▁이집트	-13678
▁이청원	-13679
▁인류애	-13680
▁입법부	-13681
▁장년층	-13682
▁재미없	-13683
▁재판장	-13684
▁전기료	-13685
▁졌으며	-13686
▁지름길	-13687
▁지지층	-13688
▁질식사	-13689
▁초음파	-13690
▁친부모	-13691
▁커피숍	-13692
▁통신망	-13693
▁통신부	-13694
▁파헤치	-13695
▁합의서	-13696
▁항소심	-13697
▁현대판	-13698
▁확연히	-13699
▁환경부	-13700
▁황의조	-13701
▁0010	-13702
▁1015	-13703
▁2260	-13704
▁8000	-13705
▁code	-13706
▁that	-13707
▁거두절미	-13708
▁기회비용	-13709
▁다닌다고	-13710
▁다이어트	-13711
▁당해야만	-13712
▁뒤떨어진	-13713
▁레고랜드	-13714
▁무서워요	-13715
▁물어봐도	-13716
▁미칩니다	-13717
▁받아들인	-13718
▁발본색원	-13719
▁벌어들이	-13720
▁부릅니다	-13721
▁슈틸리케	-13722
▁아름다움	-13723
▁없앤다고	-13724
▁외할머니	-13725
▁이래저래	-13726
▁이릅니다	-13727
▁잉글랜드	-13728
▁자유로이	-13729
▁전라북도	-13730
▁제국주의	-13731
▁커리큘럼	-13732
▁트레이너	-13733
▁프로그래	-13734
▁하다못해	-13735
▁히어로즈	-13736
▁떠오릅니다	-13737
▁베이비박스	-13738
▁올라갑니다	-13739
▁획기적으로	-13740
▁이루어진다면	-13741
▁크로스컨트리	-13742
ᅳᅳᅳᅳᅳᅳᅳᅳ	-13743
42	-13744
85	-13745
91	-13746
pg	-13747
▁긁	-13748
▁꾹	-13749
▁낀	-13750
▁닐	-13751
▁댜	-13752
▁밣	-13753
▁벙	-13754
▁얕	-13755
▁쩔	-13756
▁쭈	-13757
▁탱	-13758
▁톤	-13759
각시	-13760
공학	-13761
그룹	-13762
나무	-13763
는지	-13764
대접	-13765
덕제	-13766
동락	-13767
동자	-13768
러진	-13769
리티	-13770
막음	-13771
무게	-13772
버린	-13773
빙상	-13774
상조	-13775
세대	-13776
세상	-13777
속임	-13778
순간	-13779
슬론	-13780
어먹	-13781
익태	-13782
임자	-13783
재해	-13784
주국	-13785
천군	-13786
천하	-13787
파크	-13788
평구	-13789
해도	-13790
홍민	-13791
ain	-13792
aka	-13793
bes	-13794
idn	-13795
lic	-13796
▁91	-13797
▁aa	-13798
▁bl	-13799
▁gd	-13800
▁ᄋᄌ	-13801
▁가드	-13802
▁가림	-13803
▁가맹	-13804
▁가칭	-13805
▁각설	-13806
▁갈망	-13807
▁강산	-13808
▁거점	-13809
▁건네	-13810
▁건다	-13811
▁건도	-13812
▁걸치	-13813
▁결방	-13814
▁결백	-13815
▁경륜	-13816
▁경의	-13817
▁경인	-13818
▁계통	-13819
▁고여	-13820
▁골치	-13821
▁공조	-13822
▁과세	-13823
▁구르	-13824
▁구명	-13825
▁구민	-13826
▁구슬	-13827
▁구했	-13828
▁국법	-13829
▁국선	-13830
▁국화	-13831
▁귀담	-13832
▁그깟	-13833
▁기온	-13834
▁기흥	-13835
▁깊숙	-13836
▁까먹	-13837
▁까발	-13838
▁깎이	-13839
▁꼭꼭	-13840
▁꼼짝	-13841
▁꽁꽁	-13842
▁꿈꿀	-13843
▁끔직	-13844
▁나쁠	-13845
▁낮춘	-13846
▁내라	-13847
▁내준	-13848
▁농사	-13849
▁눈썹	-13850
▁늘상	-13851
▁능률	-13852
▁달랑	-13853
▁답습	-13854
▁당위	-13855
▁대명	-13856
▁더우	-13857
▁더한	-13858
▁도난	-13859
▁도통	-13860
▁돌연	-13861
▁동덕	-13862
▁동떨	-13863
▁동탄	-13864
▁되묻	-13865
▁뒤져	-13866
▁뒤처	-13867
▁드높	-13868
▁따듯	-13869
▁딱딱	-13870
▁레저	-13871
▁리버	-13872
▁리본	-13873
▁막힐	-13874
▁만졌	-13875
▁맹점	-13876
▁멘탈	-13877
▁면상	-13878
▁모로	-13879
▁모을	-13880
▁몰린	-13881
▁몰입	-13882
▁문단	-13883
▁문통	-13884
▁뭉쳐	-13885
▁미스	-13886
▁미추	-13887
▁바랬	-13888
▁반문	-13889
▁방대	-13890
▁방울	-13891
▁방화	-13892
▁버들	-13893
▁범한	-13894
▁별명	-13895
▁보배	-13896
▁보온	-13897
▁복리	-13898
▁본받	-13899
▁봉송	-13900
▁부쩍	-13901
▁부치	-13902
▁북구	-13903
▁분실	-13904
▁불응	-13905
▁불타	-13906
▁비닐	-13907
▁비등	-13908
▁비탄	-13909
▁빌리	-13910
▁사나	-13911
▁사려	-13912
▁사셨	-13913
▁사우	-13914
▁사채	-13915
▁상근	-13916
▁상보	-13917
▁상술	-13918
▁상정	-13919
▁성당	-13920
▁성도	-13921
▁소도	-13922
▁소진	-13923
▁소행	-13924
▁속속	-13925
▁손괴	-13926
▁수량	-13927
▁수자	-13928
▁숨길	-13929
▁시료	-13930
▁시자	-13931
▁시흥	-13932
▁신자	-13933
▁실린	-13934
▁실에	-13935
▁심위	-13936
▁써요	-13937
▁쓰였	-13938
▁쓰인	-13939
▁쓸쓸	-13940
▁앉혀	-13941
▁양국	-13942
▁양주	-13943
▁어겨	-13944
▁어때	-13945
▁어수	-13946
▁연달	-13947
▁연연	-13948
▁연유	-13949
▁연줄	-13950
▁열렬	-13951
▁영등	-13952
▁예견	-13953
▁오현	-13954
▁왔었	-13955
▁외유	-13956
▁외친	-13957
▁우물	-13958
▁우즈	-13959
▁우체	-13960
▁원로	-13961
▁유네	-13962
▁유대	-13963
▁유례	-13964
▁유야	-13965
▁윤환	-13966
▁응용	-13967
▁의제	-13968
▁이진	-13969
▁이태	-13970
▁인센	-13971
▁일률	-13972
▁자그	-13973
▁자도	-13974
▁자음	-13975
▁자지	-13976
▁작문	-13977
▁잔여	-13978
▁장염	-13979
▁쟁취	-13980
▁저딴	-13981
▁적국	-13982
▁전대	-13983
▁전동	-13984
▁전설	-13985
▁정수	-13986
▁정은	-13987
▁제법	-13988
▁좌시	-13989
▁주본	-13990
▁주시	-13991
▁주주	-13992
▁중한	-13993
▁즉흥	-13994
▁집필	-13995
▁쫒겨	-13996
▁차근	-13997
▁차비	-13998
▁참모	-13999
▁참신	-14000
▁채권	-14001
▁처신	-14002
▁처했	-14003
▁청자	-14004
▁체내	-14005
▁초록	-14006
▁초심	-14007
▁총체	-14008
▁최후	-14009
▁추징	-14010
▁친목	-14011
▁친선	-14012
▁침몰	-14013
▁컨셉	-14014
▁타고	-14015
▁타워	-14016
▁타자	-14017
▁탄소	-14018
▁태생	-14019
▁토크	-14020
▁통념	-14021
▁통용	-14022
▁파격	-14023
▁판타	-14024
▁편애	-14025
▁편치	-14026
▁평정	-14027
▁폐륜	-14028
▁폭리	-14029
▁풍족	-14030
▁피자	-14031
▁픽업	-14032
▁필름	-14033
▁한낱	-14034
▁한파	-14035
▁행진	-14036
▁헛점	-14037
▁현격	-14038
▁호감	-14039
▁호화	-14040
▁혼전	-14041
▁홍어	-14042
▁환급	-14043
▁황희	-14044
▁효자	-14045
▁흉흉	-14046
▁희귀	-14047
▁힙합	-14048
멘터리	-14049
문화재	-14050
애슬론	-14051
예의지	-14052
지막지	-14053
지사지	-14054
1111	-14055
live	-14056
▁125	-14057
▁425	-14058
▁613	-14059
▁633	-14060
▁com	-14061
▁가리키	-14062
▁가져온	-14063
▁가져와	-14064
▁간병인	-14065
▁개선책	-14066
▁경쟁자	-14067
▁계세요	-14068
▁계셔서	-14069
▁고조선	-14070
▁공사장	-14071
▁관계없	-14072
▁광고비	-14073
▁괴롭힌	-14074
▁교장실	-14075
▁구해서	-14076
▁깨우치	-14077
▁나와요	-14078
▁나팔수	-14079
▁날벼락	-14080
▁남겨진	-14081
▁내려온	-14082
▁내어주	-14083
▁낸다는	-14084
▁냅시다	-14085
▁넘어졌	-14086
▁노숙인	-14087
▁누리꾼	-14088
▁눈속임	-14089
▁눈초리	-14090
▁다섯째	-14091
▁단단히	-14092
▁단호히	-14093
▁답안지	-14094
▁더러워	-14095
▁도망치	-14096
▁돌아봐	-14097
▁돌이켜	-14098
▁동정심	-14099
▁뒷자리	-14100
▁등급제	-14101
▁라느니	-14102
▁말장난	-14103
▁망설이	-14104
▁맡겨서	-14105
▁매달리	-14106
▁멀리서	-14107
▁멈춰야	-14108
▁몰려가	-14109
▁몸무게	-14110
▁몸부림	-14111
▁무너졌	-14112
▁무더운	-14113
▁박찬호	-14114
▁배상금	-14115
▁배트맨	-14116
▁버러지	-14117
▁버스비	-14118
▁버텨야	-14119
▁벌어먹	-14120
▁볼거리	-14121
▁부교재	-14122
▁부풀려	-14123
▁북유럽	-14124
▁불러야	-14125
▁불면증	-14126
▁블로거	-14127
▁살려야	-14128
▁삼성전	-14129
▁상비군	-14130
▁새내기	-14131
▁색안경	-14132
▁성균관	-14133
▁성문화	-14134
▁세종시	-14135
▁소개팅	-14136
▁손홍민	-14137
▁숟가락	-14138
▁스캔들	-14139
▁쓰여야	-14140
▁쓰여진	-14141
▁아동복	-14142
▁안익태	-14143
▁알림장	-14144
▁여대생	-14145
▁영구히	-14146
▁온다면	-14147
▁온종일	-14148
▁유부녀	-14149
▁음식물	-14150
▁응시자	-14151
▁이건희	-14152
▁이나라	-14153
▁이동국	-14154
▁이뤄질	-14155
▁이만큼	-14156
▁이승만	-14157
▁입막음	-14158
▁잊혀져	-14159
▁자식이	-14160
▁작아지	-14161
▁잠자리	-14162
▁재계약	-14163
▁전유물	-14164
▁정반대	-14165
▁정운찬	-14166
▁조덕제	-14167
▁조선인	-14168
▁조형물	-14169
▁주권자	-14170
▁주재원	-14171
▁줄넘기	-14172
▁지나쳐	-14173
▁지쳐서	-14174
▁지켜질	-14175
▁집행부	-14176
▁찾아올	-14177
▁챙겨야	-14178
▁추운데	-14179
▁출연진	-14180
▁친동생	-14181
▁큰소리	-14182
▁타이트	-14183
▁파이팅	-14184
▁평화상	-14185
▁플래시	-14186
▁하반기	-14187
▁한자어	-14188
▁해로운	-14189
▁해마다	-14190
▁혐여혐	-14191
▁호주제	-14192
▁휴무일	-14193
▁힘겨운	-14194
예의지국	-14195
arcid	-14196
▁1950	-14197
▁1990	-14198
▁8090	-14199
▁갑작스런	-14200
▁꼭두각시	-14201
▁나간다고	-14202
▁남녀공학	-14203
▁대법원장	-14204
▁대한빙상	-14205
▁된다면서	-14206
▁두려워서	-14207
▁때립니다	-14208
▁만든다면	-14209
▁메이크업	-14210
▁무지막지	-14211
▁벅찹니다	-14212
▁부끄러울	-14213
▁삼성병원	-14214
▁숙박업소	-14215
▁역지사지	-14216
▁올라와서	-14217
▁월급쟁이	-14218
▁유네스코	-14219
▁이겁니다	-14220
▁인센티브	-14221
▁자연재해	-14222
▁정신없이	-14223
▁제멋대로	-14224
▁커트라인	-14225
▁키운다는	-14226
▁텔레비전	-14227
▁프로야구	-14228
▁다큐멘터리	-14229
▁달라집니다	-14230
▁바이애슬론	-14231
▁비아냥거리	-14232
▁사이코패스	-14233
▁한다더군요	-14234
▁동방예의지국	-14235
▁스포트라이트	-14236
▁대한빙상경기연맹	-14237
ᄋᄋ	-14238
▁갉	-14239
▁꼇	-14240
▁뺄	-14241
▁씸	-14242
▁웍	-14243
▁켠	-14244
▁흩	-14245
간다	-14246
거웠	-14247
교도	-14248
구구	-14249
구역	-14250
급수	-14251
나니	-14252
니깐	-14253
닉스	-14254
다간	-14255
당초	-14256
덴티	-14257
뚱땅	-14258
뜨릴	-14259
러기	-14260
무시	-14261
발전	-14262
병대	-14263
본다	-14264
비비	-14265
사업	-14266
사이	-14267
사정	-14268
산업	-14269
세포	-14270
스탄	-14271
슬링	-14272
시장	-14273
이수	-14274
준호	-14275
중독	-14276
진흥	-14277
창진	-14278
천리	-14279
크림	-14280
통령	-14281
통수	-14282
트려	-14283
프닝	-14284
are	-14285
igh	-14286
ist	-14287
oun	-14288
tor	-14289
try	-14290
▁71	-14291
▁86	-14292
▁hd	-14293
▁ot	-14294
▁te	-14295
▁tf	-14296
▁가습	-14297
▁가식	-14298
▁가제	-14299
▁가차	-14300
▁각급	-14301
▁갈기	-14302
▁갈지	-14303
▁강동	-14304
▁개똥	-14305
▁갱생	-14306
▁게요	-14307
▁결핵	-14308
▁경관	-14309
▁계장	-14310
▁계주	-14311
▁고증	-14312
▁고친	-14313
▁공략	-14314
▁공방	-14315
▁공판	-14316
▁광역	-14317
▁구출	-14318
▁군무	-14319
▁귀속	-14320
▁그로	-14321
▁글쎄	-14322
▁기댈	-14323
▁기정	-14324
▁꿋꿋	-14325
▁끈질	-14326
▁끼쳤	-14327
▁나빴	-14328
▁나왓	-14329
▁낙서	-14330
▁낙오	-14331
▁난자	-14332
▁남군	-14333
▁남산	-14334
▁노심	-14335
▁노총	-14336
▁논산	-14337
▁농후	-14338
▁느린	-14339
▁니즘	-14340
▁다라	-14341
▁단서	-14342
▁단의	-14343
▁달치	-14344
▁달했	-14345
▁당구	-14346
▁대계	-14347
▁대등	-14348
▁대조	-14349
▁대포	-14350
▁데요	-14351
▁도보	-14352
▁독촉	-14353
▁독학	-14354
▁동서	-14355
▁됐었	-14356
▁뒤돌	-14357
▁득실	-14358
▁등부	-14359
▁뚱뚱	-14360
▁라식	-14361
▁러브	-14362
▁레오	-14363
▁려나	-14364
▁리듬	-14365
▁리터	-14366
▁마니	-14367
▁말소	-14368
▁맛보	-14369
▁망쳤	-14370
▁맞췄	-14371
▁매개	-14372
▁멈출	-14373
▁면하	-14374
▁모유	-14375
▁무당	-14376
▁물결	-14377
▁물림	-14378
▁미적	-14379
▁민의	-14380
▁바꼈	-14381
▁바빴	-14382
▁바위	-14383
▁반입	-14384
▁반출	-14385
▁밤잠	-14386
▁밤중	-14387
▁배짱	-14388
▁백배	-14389
▁벌여	-14390
▁부근	-14391
▁부응	-14392
▁불로	-14393
▁불보	-14394
▁블루	-14395
▁비즈	-14396
▁비틀	-14397
▁빌딩	-14398
▁산림	-14399
▁삼각	-14400
▁서너	-14401
▁서론	-14402
▁설움	-14403
▁세포	-14404
▁소굴	-14405
▁소생	-14406
▁속아	-14407
▁손놓	-14408
▁손대	-14409
▁수순	-14410
▁수중	-14411
▁순공	-14412
▁스무	-14413
▁스컴	-14414
▁스프	-14415
▁승계	-14416
▁승률	-14417
▁승승	-14418
▁시련	-14419
▁시안	-14420
▁시진	-14421
▁식수	-14422
▁식자	-14423
▁식칼	-14424
▁신동	-14425
▁실컷	-14426
▁십수	-14427
▁아낄	-14428
▁아낌	-14429
▁아신	-14430
▁악물	-14431
▁악취	-14432
▁안가	-14433
▁안소	-14434
▁않되	-14435
▁야유	-14436
▁약학	-14437
▁얽혀	-14438
▁여민	-14439
▁여쭈	-14440
▁여쭙	-14441
▁연후	-14442
▁열심	-14443
▁영사	-14444
▁오역	-14445
▁올까	-14446
▁외파	-14447
▁용지	-14448
▁운송	-14449
▁유재	-14450
▁융자	-14451
▁윽박	-14452
▁의논	-14453
▁이견	-14454
▁이맘	-14455
▁이법	-14456
▁이점	-14457
▁인금	-14458
▁인질	-14459
▁일감	-14460
▁자나	-14461
▁잠그	-14462
▁재배	-14463
▁재편	-14464
▁저흰	-14465
▁적잖	-14466
▁젋은	-14467
▁정계	-14468
▁정선	-14469
▁정차	-14470
▁제하	-14471
▁조수	-14472
▁주눅	-14473
▁주세	-14474
▁쥐어	-14475
▁지랄	-14476
▁지탱	-14477
▁질지	-14478
▁징징	-14479
▁차인	-14480
▁찬란	-14481
▁체납	-14482
▁체면	-14483
▁초보	-14484
▁총량	-14485
▁추우	-14486
▁치뤘	-14487
▁치적	-14488
▁커야	-14489
▁탈취	-14490
▁터전	-14491
▁테크	-14492
▁토플	-14493
▁투철	-14494
▁튜닝	-14495
▁트럭	-14496
▁특활	-14497
▁파주	-14498
▁판가	-14499
▁편차	-14500
▁평론	-14501
▁평판	-14502
▁포승	-14503
▁포자	-14504
▁포주	-14505
▁폭넓	-14506
▁하대	-14507
▁학예	-14508
▁한게	-14509
▁한샘	-14510
▁한잔	-14511
▁한층	-14512
▁할애	-14513
▁합반	-14514
▁해낼	-14515
▁해왔	-14516
▁행방	-14517
▁혐을	-14518
▁호법	-14519
▁환기	-14520
▁흉터	-14521
▁희희	-14522
▁힘입	-14523
덴티티	-14524
어져야	-14525
으리라	-14526
폭력배	-14527
ener	-14528
qual	-14529
▁148	-14530
▁419	-14531
▁for	-14532
▁gir	-14533
▁omr	-14534
▁sch	-14535
▁sid	-14536
▁top	-14537
▁감기약	-14538
▁감독원	-14539
▁갖춰야	-14540
▁개인사	-14541
▁거스르	-14542
▁건국대	-14543
▁걷어가	-14544
▁고구려	-14545
▁고속도	-14546
▁고쳐서	-14547
▁교재비	-14548
▁그니까	-14549
▁김보람	-14550
▁김상훈	-14551
▁꿉니다	-14552
▁끼어들	-14553
▁나무라	-14554
▁남아도	-14555
▁내려진	-14556
▁뉘우침	-14557
▁는가요	-14558
▁는대도	-14559
▁다닌다	-14560
▁다쳐서	-14561
▁단시간	-14562
▁당연시	-14563
▁대마초	-14564
▁데일리	-14565
▁뒤통수	-14566
▁든다는	-14567
▁들어줄	-14568
▁등록세	-14569
▁따져서	-14570
▁뜻대로	-14571
▁로워야	-14572
▁맞물려	-14573
▁머리채	-14574
▁몰아내	-14575
▁몰아세	-14576
▁못생겼	-14577
▁못생긴	-14578
▁무더위	-14579
▁무차별	-14580
▁미니스	-14581
▁미룬다	-14582
▁미추홀	-14583
▁민노총	-14584
▁민영화	-14585
▁박살내	-14586
▁백승호	-14587
▁보호관	-14588
▁불거지	-14589
▁불거진	-14590
▁비상벨	-14591
▁빈자리	-14592
▁사물함	-14593
▁사업비	-14594
▁사투리	-14595
▁상상도	-14596
▁상한선	-14597
▁소변기	-14598
▁수요자	-14599
▁스러우	-14600
▁스쿨링	-14601
▁스타크	-14602
▁시부모	-14603
▁심심찮	-14604
▁싸구려	-14605
▁싸워야	-14606
▁쓰러졌	-14607
▁아까워	-14608
▁아무개	-14609
▁어수선	-14610
▁어쩌구	-14611
▁엎드려	-14612
▁여지껏	-14613
▁예선전	-14614
▁예정자	-14615
▁올린다	-14616
▁울부짖	-14617
▁위로금	-14618
▁유영철	-14619
▁윤봉길	-14620
▁으라면	-14621
▁음료수	-14622
▁이기전	-14623
▁이래야	-14624
▁이재정	-14625
▁잊혀질	-14626
▁자가용	-14627
▁자료실	-14628
▁재판관	-14629
▁점수제	-14630
▁접어들	-14631
▁정치색	-14632
▁조무사	-14633
▁주거지	-14634
▁주관식	-14635
▁지역민	-14636
▁지점장	-14637
▁쫓겨나	-14638
▁차일드	-14639
▁창원시	-14640
▁챙겨서	-14641
▁처참히	-14642
▁캐스터	-14643
▁클래식	-14644
▁탄원서	-14645
▁탈의실	-14646
▁탐지기	-14647
▁통지서	-14648
▁페널티	-14649
▁포커스	-14650
▁표지판	-14651
▁프린트	-14652
▁필수품	-14653
▁하남시	-14654
▁합격률	-14655
▁해져야	-14656
▁해프닝	-14657
▁헤아릴	-14658
▁형사법	-14659
▁흘러나	-14660
리케이션	-14661
▁1700	-14662
▁5060	-14663
▁고서라도	-14664
▁고속버스	-14665
▁국민학교	-14666
▁균형발전	-14667
▁기하급수	-14668
▁누군가의	-14669
▁달라져야	-14670
▁당한다면	-14671
▁따른다는	-14672
▁망합니다	-14673
▁무궁무진	-14674
▁무단결석	-14675
▁무서워하	-14676
▁무시무시	-14677
▁삼성전자	-14678
▁생긴다고	-14679
▁셔틀버스	-14680
▁승승장구	-14681
▁시시비비	-14682
▁악세사리	-14683
▁어려운데	-14684
▁얼렁뚱땅	-14685
▁여깁니다	-14686
▁여민동락	-14687
▁오피스텔	-14688
▁이라던가	-14689
▁잊어버리	-14690
▁주먹구구	-14691
▁파파라치	-14692
▁페미나치	-14693
▁학부모회	-14694
▁회계감사	-14695
▁12322	-14696
▁댄스스포츠	-14697
▁불러일으키	-14698
▁살아간다는	-14699
▁아이덴티티	-14700
▁일어난다고	-14701
▁조직폭력배	-14702
▁페어플레이	-14703
▁201811	-14704
87	-14705
▁넋	-14706
▁녕	-14707
▁뒀	-14708
▁땃	-14709
▁뜹	-14710
▁럼	-14711
▁뻐	-14712
▁쌈	-14713
▁씹	-14714
▁콧	-14715
▁퓨	-14716
▁헉	-14717
거름	-14718
경찰	-14719
관리	-14720
길동	-14721
난방	-14722
넥션	-14723
노조	-14724
당토	-14725
더기	-14726
동기	-14727
드리	-14728
러워	-14729
루스	-14730
마니	-14731
무야	-14732
문점	-14733
벗고	-14734
부치	-14735
사항	-14736
생긴	-14737
소문	-14738
수정	-14739
승부	-14740
시스	-14741
시안	-14742
아웃	-14743
어치	-14744
일치	-14745
잇감	-14746
재주	-14747
전력	-14748
점프	-14749
정권	-14750
정신	-14751
조각	-14752
준희	-14753
지도	-14754
지변	-14755
차근	-14756
창기	-14757
철수	-14758
154	-14759
180	-14760
and	-14761
ide	-14762
ith	-14763
pnv	-14764
ung	-14765
yst	-14766
▁be	-14767
▁co	-14768
▁cs	-14769
▁de	-14770
▁ᄍᄍ	-14771
▁가분	-14772
▁가증	-14773
▁감격	-14774
▁감명	-14775
▁감투	-14776
▁강매	-14777
▁강전	-14778
▁강퇴	-14779
▁개미	-14780
▁개장	-14781
▁걸요	-14782
▁겨냥	-14783
▁결산	-14784
▁결의	-14785
▁경멸	-14786
▁경품	-14787
▁고범	-14788
▁고심	-14789
▁고조	-14790
▁곰곰	-14791
▁공법	-14792
▁공석	-14793
▁공적	-14794
▁관청	-14795
▁광기	-14796
▁군의	-14797
▁궁지	-14798
▁권순	-14799
▁궤변	-14800
▁근심	-14801
▁글구	-14802
▁글러	-14803
▁급자	-14804
▁기모	-14805
▁기법	-14806
▁기찬	-14807
▁기호	-14808
▁꼬마	-14809
▁꾸중	-14810
▁낄낄	-14811
▁나두	-14812
▁나발	-14813
▁나위	-14814
▁나찌	-14815
▁남대	-14816
▁내딛	-14817
▁내비	-14818
▁내심	-14819
▁논할	-14820
▁놓친	-14821
▁놔서	-14822
▁능가	-14823
▁니들	-14824
▁니스	-14825
▁단돈	-14826
▁당면	-14827
▁당함	-14828
▁대디	-14829
▁대목	-14830
▁대위	-14831
▁대청	-14832
▁더케	-14833
▁덕목	-14834
▁도가	-14835
▁도왔	-14836
▁독식	-14837
▁독전	-14838
▁독제	-14839
▁독창	-14840
▁두꺼	-14841
▁뒷담	-14842
▁들먹	-14843
▁따구	-14844
▁래도	-14845
▁루지	-14846
▁루타	-14847
▁마르	-14848
▁마셔	-14849
▁멱살	-14850
▁면밀	-14851
▁명소	-14852
▁모기	-14853
▁모드	-14854
▁모래	-14855
▁모씨	-14856
▁모토	-14857
▁목회	-14858
▁무뎌	-14859
▁문예	-14860
▁문우	-14861
▁물고	-14862
▁미처	-14863
▁반경	-14864
▁반년	-14865
▁반란	-14866
▁반반	-14867
▁반시	-14868
▁반전	-14869
▁발라	-14870
▁발맞	-14871
▁발신	-14872
▁방만	-14873
▁배재	-14874
▁백과	-14875
▁버텼	-14876
▁범람	-14877
▁별장	-14878
▁보금	-14879
▁봐주	-14880
▁부감	-14881
▁부검	-14882
▁부랴	-14883
▁부렸	-14884
▁불어	-14885
▁비대	-14886
▁비명	-14887
▁사방	-14888
▁산이	-14889
▁산전	-14890
▁산지	-14891
▁산학	-14892
▁살라	-14893
▁삿대	-14894
▁상봉	-14895
▁서남	-14896
▁서두	-14897
▁서방	-14898
▁석탄	-14899
▁선박	-14900
▁선팅	-14901
▁섭취	-14902
▁성고	-14903
▁성급	-14904
▁성동	-14905
▁세븐	-14906
▁세제	-14907
▁소린	-14908
▁소시	-14909
▁송금	-14910
▁쇼타	-14911
▁수성	-14912
▁수컷	-14913
▁수평	-14914
▁순국	-14915
▁순회	-14916
▁숭배	-14917
▁승화	-14918
▁시한	-14919
▁실세	-14920
▁실신	-14921
▁심재	-14922
▁씨앗	-14923
▁아랍	-14924
▁아량	-14925
▁아레	-14926
▁아보	-14927
▁아토	-14928
▁아트	-14929
▁안식	-14930
▁앉히	-14931
▁애청	-14932
▁양대	-14933
▁양면	-14934
▁어로	-14935
▁어물	-14936
▁얼토	-14937
▁여덟	-14938
▁여려	-14939
▁역설	-14940
▁연동	-14941
▁연해	-14942
▁염증	-14943
▁영영	-14944
▁옥죄	-14945
▁와라	-14946
▁외곽	-14947
▁욕할	-14948
▁우라	-14949
▁원격	-14950
▁원대	-14951
▁원색	-14952
▁원형	-14953
▁위신	-14954
▁위압	-14955
▁유년	-14956
▁유수	-14957
▁으란	-14958
▁의결	-14959
▁의향	-14960
▁이공	-14961
▁이규	-14962
▁이빨	-14963
▁이체	-14964
▁이토	-14965
▁인출	-14966
▁일대	-14967
▁일임	-14968
▁일화	-14969
▁자재	-14970
▁저력	-14971
▁저울	-14972
▁저촉	-14973
▁전광	-14974
▁전권	-14975
▁전보	-14976
▁전승	-14977
▁절개	-14978
▁정무	-14979
▁정읍	-14980
▁조문	-14981
▁조준	-14982
▁종식	-14983
▁중동	-14984
▁중범	-14985
▁증액	-14986
▁지독	-14987
▁지드	-14988
▁지로	-14989
▁직계	-14990
▁직렬	-14991
▁직선	-14992
▁질려	-14993
▁집유	-14994
▁차명	-14995
▁차제	-14996
▁착복	-14997
▁천부	-14998
▁철원	-14999
▁청운	-15000
▁청해	-15001
▁초본	-15002
▁추신	-15003
▁추이	-15004
▁추한	-15005
▁치닫	-15006
▁치도	-15007
▁친가	-15008
▁친모	-15009
▁친밀	-15010
▁친할	-15011
▁침탈	-15012
▁카운	-15013
▁캄캄	-15014
▁코딩	-15015
▁쿠폰	-15016
▁키로	-15017
▁태그	-15018
▁투니	-15019
▁트릭	-15020
▁특화	-15021
▁티브	-15022
▁판권	-15023
▁판별	-15024
▁펜션	-15025
▁펼친	-15026
▁포경	-15027
▁풍자	-15028
▁피운	-15029
▁필두	-15030
▁하수	-15031
▁하여	-15032
▁하자	-15033
▁학도	-15034
▁한라	-15035
▁할땐	-15036
▁해놨	-15037
▁해롭	-15038
▁해맑	-15039
▁해바	-15040
▁해짐	-15041
▁향유	-15042
▁험담	-15043
▁혁파	-15044
▁혐사	-15045
▁호남	-15046
▁혼신	-15047
▁회자	-15048
▁흐릿	-15049
간다고	-15050
갑시다	-15051
니다만	-15052
디스크	-15053
로이드	-15054
akao	-15055
▁005	-15056
▁109	-15057
▁157	-15058
▁190	-15059
▁193	-15060
▁234	-15061
▁240	-15062
▁307	-15063
▁340	-15064
▁533	-15065
▁780	-15066
▁ktx	-15067
▁usb	-15068
▁가톨릭	-15069
▁갇혀서	-15070
▁값어치	-15071
▁갔다왔	-15072
▁개구리	-15073
▁개헌안	-15074
▁검사장	-15075
▁겉모습	-15076
▁계약금	-15077
▁고라도	-15078
▁관세청	-15079
▁광고주	-15080
▁교학사	-15081
▁그래왔	-15082
▁기념일	-15083
▁김주혁	-15084
▁나란히	-15085
▁낮춰야	-15086
▁낸다고	-15087
▁넘겨서	-15088
▁노하우	-15089
▁늘어지	-15090
▁달라야	-15091
▁달려왔	-15092
▁대항전	-15093
▁되돌릴	-15094
▁될수록	-15095
▁둘러싼	-15096
▁둡니다	-15097
▁들어선	-15098
▁때때로	-15099
▁떠올랐	-15100
▁똘마니	-15101
▁뜹니다	-15102
▁라이프	-15103
▁리스크	-15104
▁마셔서	-15105
▁마십쇼	-15106
▁막혀서	-15107
▁말미암	-15108
▁매니아	-15109
▁머지않	-15110
▁메이커	-15111
▁명세서	-15112
▁무지한	-15113
▁물어볼	-15114
▁밑거름	-15115
▁발벗고	-15116
▁발자국	-15117
▁방문객	-15118
▁배급사	-15119
▁버려진	-15120
▁번다고	-15121
▁보낼까	-15122
▁보호막	-15123
▁부딪혀	-15124
▁부총장	-15125
▁부축이	-15126
▁불명예	-15127
▁불합리	-15128
▁살아나	-15129
▁삽시다	-15130
▁상대편	-15131
▁생겨도	-15132
▁선언문	-15133
▁설자리	-15134
▁소득세	-15135
▁소외감	-15136
▁수천억	-15137
▁시드니	-15138
▁시멘트	-15139
▁시위자	-15140
▁실까요	-15141
▁심해서	-15142
▁쏟아부	-15143
▁아이콘	-15144
▁안겨준	-15145
▁안녕하	-15146
▁안무가	-15147
▁안정환	-15148
▁알려서	-15149
▁알파벳	-15150
▁어울릴	-15151
▁연령층	-15152
▁였음을	-15153
▁영등포	-15154
▁영부인	-15155
▁우체국	-15156
▁운전사	-15157
▁울화통	-15158
▁원동기	-15159
▁은행원	-15160
▁음악가	-15161
▁이맘때	-15162
▁이영표	-15163
▁이용해	-15164
▁일간지	-15165
▁일거리	-15166
▁일회성	-15167
▁임은정	-15168
▁임차인	-15169
▁자그마	-15170
▁자습서	-15171
▁잘생긴	-15172
▁장애자	-15173
▁재료비	-15174
▁적대감	-15175
▁정신없	-15176
▁정한다	-15177
▁줄려고	-15178
▁줍니까	-15179
▁쥐꼬리	-15180
▁증거물	-15181
▁지도부	-15182
▁지휘관	-15183
▁차려라	-15184
▁청렴도	-15185
▁초창기	-15186
▁추워서	-15187
▁추첨제	-15188
▁충청도	-15189
▁칼퇴근	-15190
▁커넥션	-15191
▁퀄리티	-15192
▁털어놓	-15193
▁판가름	-15194
▁판매량	-15195
▁판문점	-15196
▁편입학	-15197
▁편향성	-15198
▁포스터	-15199
▁프런트	-15200
▁피임법	-15201
▁할께요	-15202
▁해야함	-15203
▁현역병	-15204
▁혐오감	-15205
▁협박죄	-15206
▁황금기	-15207
▁회의록	-15208
bestp	-15209
ublic	-15210
▁1600	-15211
▁6112	-15212
▁utor	-15213
▁가진다고	-15214
▁가집니다	-15215
▁걸린다고	-15216
▁교대근무	-15217
▁교직이수	-15218
▁구속영장	-15219
▁구합니다	-15220
▁기출문제	-15221
▁끝납니다	-15222
▁늘린다는	-15223
▁들어간다	-15224
▁마이크로	-15225
▁만드세요	-15226
▁바이러스	-15227
▁밝혀져야	-15228
▁보금자리	-15229
▁사로잡혀	-15230
▁서러운데	-15231
▁스키점프	-15232
▁아랫사람	-15233
▁압니다만	-15234
▁어습니다	-15235
▁얼토당토	-15236
▁없앤다는	-15237
▁유야무야	-15238
▁재능기부	-15239
▁전합니다	-15240
▁정년퇴직	-15241
▁중등교육	-15242
▁지냅니다	-15243
▁지드래곤	-15244
▁차근차근	-15245
▁천재지변	-15246
▁체크카드	-15247
▁통합교육	-15248
▁하나같이	-15249
▁한국전력	-15250
▁해바라기	-15251
▁호주머니	-15252
eneral	-15253
▁child	-15254
▁equal	-15255
▁girls	-15256
▁kakao	-15257
▁골든디스크	-15258
▁떨어진다는	-15259
▁무형문화재	-15260
▁시달립니다	-15261
▁일어난다는	-15262
▁찢어집니다	-15263
▁스타크래프트	-15264
viewasparcid	-15265
bestpetitions	-15266
53	-15267
86	-15268
94	-15269
bl	-15270
bo	-15271
▁눕	-15272
▁뭇	-15273
▁뽕	-15274
▁읺	-15275
▁첩	-15276
▁켯	-15277
▁턴	-15278
▁톨	-15279
▁홧	-15280
가리	-15281
고짜	-15282
공노	-15283
굣길	-15284
군분	-15285
균등	-15286
극물	-15287
금니	-15288
깨비	-15289
날리	-15290
더미	-15291
데요	-15292
도리	-15293
라는	-15294
렘방	-15295
를린	-15296
마을	-15297
바탕	-15298
부랴	-15299
빨간	-15300
암동	-15301
인물	-15302
임시	-15303
자매	-15304
자식	-15305
지션	-15306
차대	-15307
착순	-15308
츄리	-15309
태경	-15310
테일	-15311
트니	-15312
티켓	-15313
평균	-15314
현진	-15315
110	-15316
ail	-15317
elf	-15318
ong	-15319
ure	-15320
▁61	-15321
▁94	-15322
▁ac	-15323
▁ai	-15324
▁la	-15325
▁mm	-15326
▁nh	-15327
▁가감	-15328
▁가공	-15329
▁가린	-15330
▁가점	-15331
▁간직	-15332
▁갈구	-15333
▁감춰	-15334
▁감탄	-15335
▁개년	-15336
▁거실	-15337
▁거쳤	-15338
▁걷잡	-15339
▁결핍	-15340
▁결함	-15341
▁경솔	-15342
▁계류	-15343
▁고달	-15344
▁고운	-15345
▁공안	-15346
▁관문	-15347
▁구여	-15348
▁구인	-15349
▁국세	-15350
▁국호	-15351
▁군중	-15352
▁굴러	-15353
▁굴리	-15354
▁귀신	-15355
▁귀엽	-15356
▁균열	-15357
▁그립	-15358
▁극기	-15359
▁금정	-15360
▁급감	-15361
▁기른	-15362
▁기점	-15363
▁기질	-15364
▁김석	-15365
▁꺼지	-15366
▁끄집	-15367
▁끝맺	-15368
▁난폭	-15369
▁농지	-15370
▁놓였	-15371
▁누려	-15372
▁누이	-15373
▁누출	-15374
▁눈길	-15375
▁능사	-15376
▁다짜	-15377
▁대들	-15378
▁대역	-15379
▁더하	-15380
▁도인	-15381
▁도주	-15382
▁독선	-15383
▁돌린	-15384
▁동국	-15385
▁동향	-15386
▁된단	-15387
▁뒤흔	-15388
▁뒷짐	-15389
▁등용	-15390
▁런닝	-15391
▁로우	-15392
▁리뷰	-15393
▁마블	-15394
▁막혔	-15395
▁만주	-15396
▁매몰	-15397
▁매연	-15398
▁맹세	-15399
▁머들	-15400
▁명기	-15401
▁명함	-15402
▁모면	-15403
▁무거	-15404
▁무근	-15405
▁무드	-15406
▁무신	-15407
▁물음	-15408
▁미룰	-15409
▁믹스	-15410
▁민속	-15411
▁바닷	-15412
▁바쳤	-15413
▁반가	-15414
▁반품	-15415
▁발짝	-15416
▁밥상	-15417
▁방산	-15418
▁방정	-15419
▁벤츠	-15420
▁벨트	-15421
▁병실	-15422
▁복식	-15423
▁본디	-15424
▁부셔	-15425
▁부흥	-15426
▁불꽃	-15427
▁비수	-15428
▁비오	-15429
▁빈도	-15430
▁사령	-15431
▁사재	-15432
▁삭막	-15433
▁산산	-15434
▁살균	-15435
▁삼국	-15436
▁생도	-15437
▁생사	-15438
▁생소	-15439
▁선심	-15440
▁성상	-15441
▁성탄	-15442
▁세입	-15443
▁소감	-15444
▁소대	-15445
▁수박	-15446
▁수배	-15447
▁순경	-15448
▁순순	-15449
▁스리	-15450
▁스코	-15451
▁슬그	-15452
▁승격	-15453
▁시경	-15454
▁시피	-15455
▁심상	-15456
▁아드	-15457
▁아아	-15458
▁악수	-15459
▁안구	-15460
▁안기	-15461
▁알지	-15462
▁야권	-15463
▁어벤	-15464
▁어영	-15465
▁어질	-15466
▁어쩜	-15467
▁여왕	-15468
▁였었	-15469
▁영예	-15470
▁오바	-15471
▁옮긴	-15472
▁왔다	-15473
▁왕성	-15474
▁외톨	-15475
▁용가	-15476
▁용감	-15477
▁원단	-15478
▁원부	-15479
▁유념	-15480
▁유성	-15481
▁육법	-15482
▁윤택	-15483
▁음향	-15484
▁의성	-15485
▁이경	-15486
▁이국	-15487
▁이별	-15488
▁이뻐	-15489
▁이지	-15490
▁일파	-15491
▁임곡	-15492
▁임창	-15493
▁자야	-15494
▁잠정	-15495
▁잡다	-15496
▁잡일	-15497
▁장창	-15498
▁재계	-15499
▁저걸	-15500
▁저주	-15501
▁적출	-15502
▁적화	-15503
▁전격	-15504
▁전인	-15505
▁절단	-15506
▁절절	-15507
▁절친	-15508
▁점장	-15509
▁접목	-15510
▁정인	-15511
▁정진	-15512
▁정호	-15513
▁제창	-15514
▁젤리	-15515
▁존귀	-15516
▁종량	-15517
▁종자	-15518
▁죄명	-15519
▁주임	-15520
▁줄곧	-15521
▁줄서	-15522
▁지껄	-15523
▁진안	-15524
▁짜집	-15525
▁찔리	-15526
▁차츰	-15527
▁처가	-15528
▁처제	-15529
▁천박	-15530
▁청법	-15531
▁체격	-15532
▁체당	-15533
▁초동	-15534
▁초임	-15535
▁촉발	-15536
▁최전	-15537
▁추산	-15538
▁취도	-15539
▁침투	-15540
▁캠핑	-15541
▁코트	-15542
▁탈모	-15543
▁투석	-15544
▁파라	-15545
▁펼쳤	-15546
▁평안	-15547
▁포천	-15548
▁포퓰	-15549
▁플렛	-15550
▁피트	-15551
▁한솔	-15552
▁한식	-15553
▁한텐	-15554
▁한판	-15555
▁합세	-15556
▁항거	-15557
▁항일	-15558
▁행인	-15559
▁헌팅	-15560
▁혐이	-15561
▁형상	-15562
▁호수	-15563
▁홍상	-15564
▁홍수	-15565
▁확연	-15566
▁후방	-15567
▁후안	-15568
▁훤히	-15569
▁희박	-15570
군분투	-15571
꾸라지	-15572
미디어	-15573
어씌우	-15574
이글스	-15575
준다는	-15576
헨티나	-15577
1000	-15578
▁280	-15579
▁315	-15580
▁cgv	-15581
▁cor	-15582
▁obs	-15583
▁sat	-15584
▁sky	-15585
▁who	-15586
▁가습기	-15587
▁가정집	-15588
▁가져갈	-15589
▁감호자	-15590
▁개고생	-15591
▁개최지	-15592
▁거들떠	-15593
▁거듭날	-15594
▁건설업	-15595
▁걸어도	-15596
▁겠지만	-15597
▁격투기	-15598
▁경기청	-15599
▁경영자	-15600
▁고위험	-15601
▁고학생	-15602
▁골머리	-15603
▁관리법	-15604
▁광고료	-15605
▁광고판	-15606
▁광주시	-15607
▁괴롭혔	-15608
▁교사제	-15609
▁구도심	-15610
▁국가관	-15611
▁급속도	-15612
▁기관지	-15613
▁기념품	-15614
▁기뻐할	-15615
▁기성용	-15616
▁기준점	-15617
▁길바닥	-15618
▁김한수	-15619
▁깨어나	-15620
▁꼬투리	-15621
▁나빠서	-15622
▁남겨야	-15623
▁내다보	-15624
▁내보낼	-15625
▁노원구	-15626
▁다더라	-15627
▁다른가	-15628
▁단체전	-15629
▁당할까	-15630
▁당할지	-15631
▁대감독	-15632
▁독극물	-15633
▁됐으며	-15634
▁둔다면	-15635
▁뒤쳐진	-15636
▁뒷조사	-15637
▁드나들	-15638
▁드려도	-15639
▁들여야	-15640
▁디테일	-15641
▁따돌리	-15642
▁떠올라	-15643
▁라거나	-15644
▁로리타	-15645
▁마라톤	-15646
▁만화가	-15647
▁매개체	-15648
▁머물러	-15649
▁모쪼록	-15650
▁무승부	-15651
▁무허가	-15652
▁문우람	-15653
▁문제없	-15654
▁물으면	-15655
▁밀어내	-15656
▁반도체	-15657
▁배기량	-15658
▁법체계	-15659
▁베를린	-15660
▁보여줌	-15661
▁보온성	-15662
▁분풀이	-15663
▁불이행	-15664
▁비웃음	-15665
▁빠트리	-15666
▁빨간색	-15667
▁뺏어가	-15668
▁산업체	-15669
▁생산자	-15670
▁서대문	-15671
▁서라도	-15672
▁서러움	-15673
▁서술형	-15674
▁선착순	-15675
▁소상히	-15676
▁수신기	-15677
▁수원시	-15678
▁순찰차	-15679
▁쉽사리	-15680
▁시진핑	-15681
▁신입생	-15682
▁신정환	-15683
▁심각히	-15684
▁심리학	-15685
▁아레나	-15686
▁아이오	-15687
▁알려질	-15688
▁앞당기	-15689
▁앞자리	-15690
▁야구단	-15691
▁양성애	-15692
▁어금니	-15693
▁엄청날	-15694
▁연습장	-15695
▁옥살이	-15696
▁올바로	-15697
▁와일드	-15698
▁울산시	-15699
▁움직여	-15700
▁월평균	-15701
▁이러한	-15702
▁이뤄낸	-15703
▁이름표	-15704
▁이원화	-15705
▁인허가	-15706
▁임대업	-15707
▁임해야	-15708
▁작업장	-15709
▁잠재우	-15710
▁잡니다	-15711
▁잡혀가	-15712
▁장단점	-15713
▁재심사	-15714
▁적임자	-15715
▁전광판	-15716
▁정겨운	-15717
▁정경두	-15718
▁정보력	-15719
▁정해졌	-15720
▁좋아할	-15721
▁죽여야	-15722
▁중차대	-15723
▁지나칠	-15724
▁진료비	-15725
▁질수록	-15726
▁찾아온	-15727
▁출발선	-15728
▁출생률	-15729
▁출입구	-15730
▁치료실	-15731
▁키보드	-15732
▁타고난	-15733
▁테이블	-15734
▁통신문	-15735
▁투데이	-15736
▁튀어나	-15737
▁특기생	-15738
▁티브이	-15739
▁파란색	-15740
▁팔렘방	-15741
▁포지션	-15742
▁피부색	-15743
▁하태경	-15744
▁한다던	-15745
▁할게요	-15746
▁할라면	-15747
▁해병대	-15748
▁핸디캡	-15749
▁향해서	-15750
▁헤어진	-15751
▁현주소	-15752
▁혐오자	-15753
▁호소문	-15754
▁홍길동	-15755
▁화요일	-15756
▁휘날리	-15757
▁힘드신	-15758
임시정부	-15759
재판주의	-15760
thing	-15761
▁1100	-15762
▁1970	-15763
▁1995	-15764
▁7000	-15765
▁cpnv	-15766
▁cube	-15767
▁read	-15768
▁가정교육	-15769
▁고군분투	-15770
▁괴로워하	-15771
▁기다려온	-15772
▁기회균등	-15773
▁끌어들이	-15774
▁논란거리	-15775
▁다녀와서	-15776
▁다짜고짜	-15777
▁들어와도	-15778
▁들여보내	-15779
▁떨어진다	-15780
▁떨어트리	-15781
▁라더군요	-15782
▁마음고생	-15783
▁만장일치	-15784
▁무서운지	-15785
▁바뀐다면	-15786
▁부랴부랴	-15787
▁불공정성	-15788
▁슬그머니	-15789
▁시내버스	-15790
▁애국지사	-15791
▁어려워하	-15792
▁옐로카드	-15793
▁인사이트	-15794
▁잃어버렸	-15795
▁저널리즘	-15796
▁조롱거리	-15797
▁좋아해서	-15798
▁준다거나	-15799
▁준다는데	-15800
▁지킨다는	-15801
▁짊어져야	-15802
▁집어던지	-15803
▁천인공노	-15804
▁테니스장	-15805
▁트레이드	-15806
▁포퓰리즘	-15807
▁한다느니	-15808
▁형제자매	-15809
▁olive	-15810
▁schoo	-15811
▁늘어납니다	-15812
▁들어간다는	-15813
▁불러일으킬	-15814
▁아르헨티나	-15815
▁어떠신지요	-15816
▁주먹구구식	-15817
▁주어집니다	-15818
▁한화이글스	-15819
▁상해임시정부	-15820
▁증거재판주의	-15821
00000000	-15822
newsview	-15823
▁국가인권위원회	-15824
▁61121111	-15825
▁newsview	-15826
64	-15827
93	-15828
cn	-15829
ep	-15830
he	-15831
mp	-15832
ri	-15833
to	-15834
vd	-15835
▁ᄁ	-15836
▁굵	-15837
▁깽	-15838
▁껌	-15839
▁넨	-15840
▁늬	-15841
▁닳	-15842
▁뒹	-15843
▁딫	-15844
▁룡	-15845
▁릅	-15846
▁맵	-15847
▁뽐	-15848
▁섯	-15849
▁숏	-15850
▁쑥	-15851
▁찡	-15852
▁쿵	-15853
▁풉	-15854
▁햄	-15855
갔다	-15856
강간	-15857
거든	-15858
고소	-15859
꽁초	-15860
대기	-15861
들갑	-15862
딤돌	-15863
량진	-15864
러져	-15865
렌징	-15866
로윈	-15867
루션	-15868
매김	-15869
무치	-15870
바꿈	-15871
받이	-15872
버릴	-15873
버섯	-15874
벌레	-15875
보냈	-15876
부른	-15877
부족	-15878
블스	-15879
비싼	-15880
빠지	-15881
새끼	-15882
선언	-15883
성장	-15884
스팅	-15885
안일	-15886
어서	-15887
웨어	-15888
이용	-15889
일러	-15890
장판	-15891
저곳	-15892
정리	-15893
증명	-15894
직입	-15895
축제	-15896
카스	-15897
튀기	-15898
포터	-15899
합차	-15900
213	-15901
act	-15902
ise	-15903
vel	-15904
▁74	-15905
▁81	-15906
▁83	-15907
▁87	-15908
▁af	-15909
▁jk	-15910
▁md	-15911
▁su	-15912
▁가창	-15913
▁갈고	-15914
▁값싼	-15915
▁강령	-15916
▁강인	-15917
▁거늘	-15918
▁거뒀	-15919
▁거머	-15920
▁겨레	-15921
▁결말	-15922
▁결손	-15923
▁겸하	-15924
▁경유	-15925
▁고처	-15926
▁공명	-15927
▁공해	-15928
▁과체	-15929
▁관현	-15930
▁교란	-15931
▁교향	-15932
▁구내	-15933
▁국자	-15934
▁군수	-15935
▁그른	-15936
▁그자	-15937
▁그해	-15938
▁극렬	-15939
▁근력	-15940
▁근성	-15941
▁근접	-15942
▁금새	-15943
▁급수	-15944
▁기망	-15945
▁기수	-15946
▁기식	-15947
▁기왕	-15948
▁기죽	-15949
▁기침	-15950
▁김수	-15951
▁김우	-15952
▁김창	-15953
▁까놓	-15954
▁꺼라	-15955
▁꼽히	-15956
▁꾀하	-15957
▁끊긴	-15958
▁끝낼	-15959
▁났었	-15960
▁낯설	-15961
▁내편	-15962
▁냉방	-15963
▁너스	-15964
▁노령	-15965
▁놓쳐	-15966
▁놔야	-15967
▁느닷	-15968
▁느슨	-15969
▁늘렸	-15970
▁닐로	-15971
▁다독	-15972
▁다발	-15973
▁다져	-15974
▁다중	-15975
▁닥친	-15976
▁단골	-15977
▁단발	-15978
▁단수	-15979
▁담장	-15980
▁답계	-15981
▁답사	-15982
▁당락	-15983
▁대나	-15984
▁대본	-15985
▁더디	-15986
▁덩치	-15987
▁도끼	-15988
▁도맡	-15989
▁도운	-15990
▁도의	-15991
▁도저	-15992
▁독약	-15993
▁돌변	-15994
▁동지	-15995
▁두르	-15996
▁둔다	-15997
▁들썩	-15998
▁딸리	-15999
▁떠받	-16000
▁떼쓰	-16001
▁라틴	-16002
▁래야	-16003
▁로마	-16004
▁리틀	-16005
▁마술	-16006
▁마칠	-16007
▁막지	-16008
▁만삭	-16009
▁망명	-16010
▁매자	-16011
▁매표	-16012
▁매해	-16013
▁멘토	-16014
▁면피	-16015
▁면학	-16016
▁명곡	-16017
▁명동	-16018
▁명상	-16019
▁명색	-16020
▁목동	-16021
▁못살	-16022
▁무릇	-16023
▁무턱	-16024
▁문맥	-16025
▁묻힌	-16026
▁뭉치	-16027
▁미얀	-16028
▁미온	-16029
▁미워	-16030
▁미인	-16031
▁미팅	-16032
▁민병	-16033
▁바주	-16034
▁발간	-16035
▁발길	-16036
▁발동	-16037
▁발명	-16038
▁발병	-16039
▁발주	-16040
▁방망	-16041
▁방방	-16042
▁벌일	-16043
▁벚꽃	-16044
▁벽지	-16045
▁변사	-16046
▁변신	-16047
▁변할	-16048
▁보냄	-16049
▁보컬	-16050
▁복습	-16051
▁복제	-16052
▁본교	-16053
▁본데	-16054
▁봤었	-16055
▁부시	-16056
▁부안	-16057
▁부원	-16058
▁북대	-16059
▁분간	-16060
▁분만	-16061
▁분식	-16062
▁불모	-16063
▁불사	-16064
▁블록	-16065
▁비약	-16066
▁비우	-16067
▁비운	-16068
▁빈약	-16069
▁빗발	-16070
▁뽀뽀	-16071
▁사체	-16072
▁산소	-16073
▁상공	-16074
▁상도	-16075
▁새삼	-16076
▁생부	-16077
▁서산	-16078
▁서운	-16079
▁석면	-16080
▁선뜻	-16081
▁선점	-16082
▁설레	-16083
▁설장	-16084
▁성모	-16085
▁성신	-16086
▁성품	-16087
▁성함	-16088
▁세관	-16089
▁섹시	-16090
▁송도	-16091
▁수다	-16092
▁수처	-16093
▁스면	-16094
▁스쳐	-16095
▁승강	-16096
▁승낙	-16097
▁승려	-16098
▁승마	-16099
▁시구	-16100
▁신곡	-16101
▁실외	-16102
▁실전	-16103
▁심기	-16104
▁써라	-16105
▁쓰래	-16106
▁쓰임	-16107
▁아원	-16108
▁아키	-16109
▁아홉	-16110
▁안도	-16111
▁야욕	-16112
▁약국	-16113
▁약할	-16114
▁약했	-16115
▁얄팍	-16116
▁양말	-16117
▁양치	-16118
▁양현	-16119
▁어그	-16120
▁어길	-16121
▁어눌	-16122
▁어여	-16123
▁어판	-16124
▁얼음	-16125
▁업장	-16126
▁엔진	-16127
▁여간	-16128
▁여든	-16129
▁여소	-16130
▁여정	-16131
▁역풍	-16132
▁예습	-16133
▁온당	-16134
▁완치	-16135
▁왕래	-16136
▁우루	-16137
▁우매	-16138
▁원조	-16139
▁원청	-16140
▁원폭	-16141
▁월간	-16142
▁유격	-16143
▁유방	-16144
▁육대	-16145
▁은연	-16146
▁응분	-16147
▁이병	-16148
▁이석	-16149
▁인적	-16150
▁인회	-16151
▁일궈	-16152
▁일류	-16153
▁임할	-16154
▁임해	-16155
▁입문	-16156
▁자모	-16157
▁잔업	-16158
▁장녀	-16159
▁장만	-16160
▁장발	-16161
▁장성	-16162
▁장흥	-16163
▁재물	-16164
▁재인	-16165
▁재탕	-16166
▁저는	-16167
▁저들	-16168
▁저럴	-16169
▁저서	-16170
▁절호	-16171
▁접신	-16172
▁정우	-16173
▁제이	-16174
▁제쳐	-16175
▁조강	-16176
▁존치	-16177
▁죄악	-16178
▁주야	-16179
▁중부	-16180
▁중죄	-16181
▁지려	-16182
▁지쳤	-16183
▁직관	-16184
▁짝퉁	-16185
▁쪽팔	-16186
▁찌든	-16187
▁찍힐	-16188
▁책자	-16189
▁처녀	-16190
▁천정	-16191
▁철수	-16192
▁청시	-16193
▁체온	-16194
▁체질	-16195
▁초라	-16196
▁총학	-16197
▁최영	-16198
▁추돌	-16199
▁축배	-16200
▁출금	-16201
▁치렀	-16202
▁치장	-16203
▁치켜	-16204
▁친근	-16205
▁친지	-16206
▁칠레	-16207
▁캄보	-16208
▁코자	-16209
▁탁월	-16210
▁토해	-16211
▁통감	-16212
▁통관	-16213
▁트릴	-16214
▁특색	-16215
▁특전	-16216
▁틀어	-16217
▁파생	-16218
▁패인	-16219
▁편취	-16220
▁포럼	-16221
▁폭설	-16222
▁폭주	-16223
▁표석	-16224
▁품목	-16225
▁풍경	-16226
▁피쉬	-16227
▁피싱	-16228
▁하구	-16229
▁하한	-16230
▁학구	-16231
▁한건	-16232
▁한눈	-16233
▁한술	-16234
▁한인	-16235
▁할매	-16236
▁함도	-16237
▁항간	-16238
▁해봐	-16239
▁해피	-16240
▁행군	-16241
▁허정	-16242
▁험하	-16243
▁헤드	-16244
▁현준	-16245
▁혐호	-16246
▁협정	-16247
▁호응	-16248
▁호통	-16249
▁혹한	-16250
▁화물	-16251
▁화법	-16252
▁환승	-16253
▁황사	-16254
▁황폐	-16255
▁회항	-16256
▁횡행	-16257
▁효용	-16258
▁흥청	-16259
▁히든	-16260
▁히히	-16261
거래위	-16262
나이티	-16263
냅시다	-16264
레이션	-16265
사건건	-16266
시대회	-16267
일리지	-16268
입니까	-16269
orld	-16270
▁025	-16271
▁158	-16272
▁510	-16273
▁gmo	-16274
▁led	-16275
▁가라앉	-16276
▁가르쳤	-16277
▁가출소	-16278
▁갈아타	-16279
▁감수성	-16280
▁값비싼	-16281
▁건설사	-16282
▁검색창	-16283
▁겠다고	-16284
▁겠다는	-16285
▁계산법	-16286
▁고스톱	-16287
▁고용인	-16288
▁골목길	-16289
▁곰곰히	-16290
▁과로사	-16291
▁관악구	-16292
▁관중석	-16293
▁관찰자	-16294
▁괴로웠	-16295
▁교육장	-16296
▁국경일	-16297
▁권리와	-16298
▁그랜드	-16299
▁그만한	-16300
▁기능사	-16301
▁기록물	-16302
▁기상청	-16303
▁기술력	-16304
▁기술직	-16305
▁긴장감	-16306
▁김기식	-16307
▁김성호	-16308
▁김여사	-16309
▁김여정	-16310
▁김준호	-16311
▁난장판	-16312
▁내보냈	-16313
▁내세운	-16314
▁낸다면	-16315
▁너그럽	-16316
▁넘어져	-16317
▁노년층	-16318
▁노량진	-16319
▁높여서	-16320
▁다가갈	-16321
▁다더니	-16322
▁다던가	-16323
▁다뤄야	-16324
▁다분히	-16325
▁다쳐도	-16326
▁달려들	-16327
▁대명사	-16328
▁덧붙였	-16329
▁데블스	-16330
▁돌아서	-16331
▁둔다는	-16332
▁뒤바뀌	-16333
▁디딤돌	-16334
▁땀방울	-16335
▁떠나가	-16336
▁떠밀려	-16337
▁레이스	-16338
▁만드신	-16339
▁만천하	-16340
▁망나니	-16341
▁맞고소	-16342
▁매달려	-16343
▁먹여살	-16344
▁모셔오	-16345
▁목적지	-16346
▁무리수	-16347
▁무사증	-16348
▁무제한	-16349
▁무주택	-16350
▁물어본	-16351
▁밑바닥	-16352
▁바라본	-16353
▁바빠서	-16354
▁반역자	-16355
▁방망이	-16356
▁배워도	-16357
▁번호판	-16358
▁법무사	-16359
▁벗어났	-16360
▁보여도	-16361
▁보일러	-16362
▁보행자	-16363
▁봐야지	-16364
▁부녀자	-16365
▁부산진	-16366
▁부상자	-16367
▁부정과	-16368
▁부정수	-16369
▁분열증	-16370
▁불러올	-16371
▁불명확	-16372
▁불법성	-16373
▁빠져들	-16374
▁뻥튀기	-16375
▁사무국	-16376
▁사문서	-16377
▁사용법	-16378
▁산업재	-16379
▁살균제	-16380
▁살아날	-16381
▁상반기	-16382
▁상습범	-16383
▁생긴다	-16384
▁서민층	-16385
▁서울역	-16386
▁선지급	-16387
▁성탄절	-16388
▁소방차	-16389
▁소속감	-16390
▁솔루션	-16391
▁수험장	-16392
▁순순히	-16393
▁숨죽이	-16394
▁쉽니다	-16395
▁스커트	-16396
▁스탠드	-16397
▁스티브	-16398
▁승합차	-16399
▁시급제	-16400
▁시달렸	-16401
▁시켜도	-16402
▁식중독	-16403
▁신문지	-16404
▁신청인	-16405
▁쏟아졌	-16406
▁쓰러질	-16407
▁아우디	-16408
▁아토피	-16409
▁아파요	-16410
▁안전망	-16411
▁안철수	-16412
▁애청자	-16413
▁야스오	-16414
▁어떤가	-16415
▁어려도	-16416
▁여의도	-16417
▁여행지	-16418
▁역이용	-16419
▁연극인	-16420
▁연속극	-16421
▁오랜만	-16422
▁오스트	-16423
▁외로움	-16424
▁외톨이	-16425
▁워크숍	-16426
▁유재석	-16427
▁유지비	-16428
▁이겨낼	-16429
▁이세상	-16430
▁이정부	-16431
▁이현주	-16432
▁일반직	-16433
▁임창용	-16434
▁잔소리	-16435
▁잘라야	-16436
▁잡아내	-16437
▁재건축	-16438
▁전근대	-16439
▁전해졌	-16440
▁조합장	-16441
▁종주국	-16442
▁주어질	-16443
▁준강간	-16444
▁줄인다	-16445
▁중앙선	-16446
▁진학률	-16447
▁진행할	-16448
▁쫓아내	-16449
▁차분히	-16450
▁참정권	-16451
▁찾아갈	-16452
▁체당금	-16453
▁최고형	-16454
▁추천서	-16455
▁치료제	-16456
▁클렌징	-16457
▁통행료	-16458
▁투기꾼	-16459
▁퍼뜨려	-16460
▁편한지	-16461
▁포항시	-16462
▁프레스	-16463
▁할로윈	-16464
▁해설자	-16465
▁해지지	-16466
▁호들갑	-16467
▁홍상수	-16468
▁후보자	-16469
▁흘려야	-16470
체육진흥	-16471
ender	-16472
ystem	-16473
▁1300	-16474
▁1945	-16475
▁1996	-16476
▁1998	-16477
▁5050	-16478
▁6070	-16479
▁dmac	-16480
▁your	-16481
▁경상남도	-16482
▁경시대회	-16483
▁교원노조	-16484
▁교향악단	-16485
▁국민은행	-16486
▁나갔으면	-16487
▁내용증명	-16488
▁다를까요	-16489
▁단도직입	-16490
▁담배꽁초	-16491
▁대리운전	-16492
▁덧붙여서	-16493
▁뜬금없이	-16494
▁마일리지	-16495
▁모른다면	-16496
▁무법천지	-16497
▁무사안일	-16498
▁보낸다는	-16499
▁보호관찰	-16500
▁빨리빨리	-16501
▁사사건건	-16502
▁산산조각	-16503
▁생길까봐	-16504
▁시어머니	-16505
▁어려운게	-16506
▁어버이날	-16507
▁였으므로	-16508
▁올린다는	-16509
▁왔다갔다	-16510
▁요구사항	-16511
▁유나이티	-16512
▁윽박지르	-16513
▁이곳저곳	-16514
▁자리매김	-16515
▁적화통일	-16516
▁전지훈련	-16517
▁찾아와서	-16518
▁캄보디아	-16519
▁파렴치범	-16520
▁평화통일	-16521
▁한탄스럽	-16522
▁후안무치	-16523
▁11218	-16524
▁artis	-16525
▁가르친다는	-16526
▁가르칩니다	-16527
▁공정거래위	-16528
▁들어옵니다	-16529
▁라디오스타	-16530
▁마이크로닷	-16531
▁명명백백히	-16532
▁아이스크림	-16533
▁하이라이트	-16534
general	-16535
▁gender	-16536
▁system	-16537
▁국민체육진흥	-16538
▁무서워서라도	-16539
▁1232213	-16540
▁anything	-16541
▁artisociety	-16542
62	-16543
69	-16544
73	-16545
95	-16546
af	-16547
dc	-16548
hy	-16549
nn	-16550
oa	-16551
og	-16552
ra	-16553
sh	-16554
xx	-16555
▁갰	-16556
▁갸	-16557
▁겻	-16558
▁긱	-16559
▁끙	-16560
▁댐	-16561
▁띵	-16562
▁믄	-16563
▁봇	-16564
▁뺴	-16565
▁샐	-16566
▁셰	-16567
▁숀	-16568
▁쉐	-16569
▁싣	-16570
▁싯	-16571
▁쌩	-16572
▁쐬	-16573
▁잎	-16574
▁쥬	-16575
▁퀘	-16576
▁훼	-16577
걸레	-16578
겨울	-16579
결승	-16580
고요	-16581
곡절	-16582
구치	-16583
끼리	-16584
나갔	-16585
나나	-16586
노이	-16587
대고	-16588
댓말	-16589
데기	-16590
동강	-16591
디스	-16592
리어	-16593
림동	-16594
마킹	-16595
만파	-16596
만한	-16597
말까	-16598
미널	-16599
미애	-16600
미화	-16601
배상	-16602
백과	-16603
번스	-16604
본부	-16605
부영	-16606
분간	-16607
사상	-16608
삼촌	-16609
생민	-16610
서도	-16611
세스	-16612
숭이	-16613
실현	-16614
야제	-16615
여비	-16616
연재	-16617
외과	-16618
원수	-16619
유업	-16620
이즈	-16621
익부	-16622
익빈	-16623
인구	-16624
인명	-16625
자루	-16626
잔디	-16627
장고	-16628
지심	-16629
지종	-16630
진창	-16631
질방	-16632
채무	-16633
초사	-16634
치병	-16635
코바	-16636
코지	-16637
테크	-16638
평생	-16639
하러	-16640
학력	-16641
회전	-16642
후년	-16643
225	-16644
800	-16645
ery	-16646
est	-16647
ism	-16648
oll	-16649
▁cl	-16650
▁ok	-16651
▁sa	-16652
▁ᄋ양	-16653
▁가즈	-16654
▁가책	-16655
▁가학	-16656
▁각별	-16657
▁간당	-16658
▁갑옷	-16659
▁강은	-16660
▁개망	-16661
▁객체	-16662
▁거금	-16663
▁걸포	-16664
▁결격	-16665
▁결속	-16666
▁겸임	-16667
▁경산	-16668
▁경연	-16669
▁경적	-16670
▁경정	-16671
▁계몽	-16672
▁고름	-16673
▁고배	-16674
▁고압	-16675
▁고척	-16676
▁고추	-16677
▁곧이	-16678
▁공경	-16679
▁관두	-16680
▁괴담	-16681
▁괴뢰	-16682
▁구구	-16683
▁구정	-16684
▁국빈	-16685
▁군입	-16686
▁군장	-16687
▁궁리	-16688
▁그친	-16689
▁그칠	-16690
▁글귀	-16691
▁기우	-16692
▁기치	-16693
▁길시	-16694
▁김밥	-16695
▁김아	-16696
▁김흥	-16697
▁깔보	-16698
▁꿈꿔	-16699
▁끙끙	-16700
▁나다	-16701
▁나리	-16702
▁나야	-16703
▁나옵	-16704
▁나태	-16705
▁난립	-16706
▁날인	-16707
▁남남	-16708
▁남존	-16709
▁남침	-16710
▁내서	-16711
▁내장	-16712
▁낸다	-16713
▁냉철	-16714
▁노모	-16715
▁논평	-16716
▁놔둘	-16717
▁누설	-16718
▁눌렀	-16719
▁늘이	-16720
▁단면	-16721
▁달아	-16722
▁당정	-16723
▁대륙	-16724
▁대못	-16725
▁더듬	-16726
▁더치	-16727
▁도약	-16728
▁돌만	-16729
▁동선	-16730
▁동전	-16731
▁되파	-16732
▁되팔	-16733
▁된장	-16734
▁뒤덮	-16735
▁뒤섞	-16736
▁뒷배	-16737
▁드시	-16738
▁드실	-16739
▁들인	-16740
▁들일	-16741
▁들추	-16742
▁들통	-16743
▁디피	-16744
▁따내	-16745
▁딸린	-16746
▁라온	-16747
▁련관	-16748
▁련지	-16749
▁로션	-16750
▁리메	-16751
▁리트	-16752
▁막판	-16753
▁만한	-16754
▁말지	-16755
▁맥시	-16756
▁메가	-16757
▁메르	-16758
▁면모	-16759
▁면직	-16760
▁모종	-16761
▁목마	-16762
▁몽땅	-16763
▁무감	-16764
▁무릅	-16765
▁무해	-16766
▁묻힐	-16767
▁뭉클	-16768
▁미드	-16769
▁미션	-16770
▁미운	-16771
▁밀실	-16772
▁밀착	-16773
▁바짝	-16774
▁박경	-16775
▁반쪽	-16776
▁발기	-16777
▁발등	-16778
▁발발	-16779
▁밤샘	-16780
▁밥줄	-16781
▁방북	-16782
▁방시	-16783
▁배열	-16784
▁백계	-16785
▁백업	-16786
▁백일	-16787
▁버나	-16788
▁벡터	-16789
▁벤트	-16790
▁변변	-16791
▁보신	-16792
▁본전	-16793
▁볼펜	-16794
▁봉담	-16795
▁봉화	-16796
▁부릴	-16797
▁분분	-16798
▁분수	-16799
▁불찰	-16800
▁붙히	-16801
▁블리	-16802
▁비굴	-16803
▁비젼	-16804
▁빵빵	-16805
▁빼주	-16806
▁뽑혀	-16807
▁사본	-16808
▁산적	-16809
▁상표	-16810
▁생가	-16811
▁생년	-16812
▁생신	-16813
▁서신	-16814
▁서체	-16815
▁서툴	-16816
▁선원	-16817
▁설렁	-16818
▁성대	-16819
▁성불	-16820
▁성토	-16821
▁소릴	-16822
▁속인	-16823
▁속임	-16824
▁속초	-16825
▁손질	-16826
▁솔로	-16827
▁솔빛	-16828
▁쇄신	-16829
▁쇼크	-16830
▁수간	-16831
▁수근	-16832
▁수락	-16833
▁수식	-16834
▁순방	-16835
▁술수	-16836
▁스며	-16837
▁스터	-16838
▁스텔	-16839
▁스페	-16840
▁슬펐	-16841
▁슬플	-16842
▁승하	-16843
▁시그	-16844
▁시끌	-16845
▁시요	-16846
▁시전	-16847
▁식량	-16848
▁식물	-16849
▁신재	-16850
▁신진	-16851
▁실속	-16852
▁실점	-16853
▁실화	-16854
▁심문	-16855
▁심증	-16856
▁심폐	-16857
▁싱어	-16858
▁써내	-16859
▁아뇨	-16860
▁악해	-16861
▁안면	-16862
▁애라	-16863
▁야마	-16864
▁얘긴	-16865
▁어묵	-16866
▁어휴	-16867
▁언스	-16868
▁여객	-16869
▁여상	-16870
▁여신	-16871
▁여제	-16872
▁여하	-16873
▁역자	-16874
▁연막	-16875
▁염치	-16876
▁예보	-16877
▁예언	-16878
▁예컨	-16879
▁옛말	-16880
▁오며	-16881
▁오용	-16882
▁오인	-16883
▁오판	-16884
▁외비	-16885
▁외설	-16886
▁우여	-16887
▁운지	-16888
▁워터	-16889
▁원도	-16890
▁원점	-16891
▁위시	-16892
▁유라	-16893
▁음서	-16894
▁의약	-16895
▁이뤘	-16896
▁이콜	-16897
▁이트	-16898
▁인큐	-16899
▁일국	-16900
▁일면	-16901
▁임했	-16902
▁입수	-16903
▁입실	-16904
▁자들	-16905
▁자력	-16906
▁자판	-16907
▁작당	-16908
▁잘리	-16909
▁장황	-16910
▁저감	-16911
▁적립	-16912
▁전관	-16913
▁전일	-16914
▁전진	-16915
▁절로	-16916
▁점거	-16917
▁정독	-16918
▁정모	-16919
▁정전	-16920
▁정파	-16921
▁정학	-16922
▁제방	-16923
▁제복	-16924
▁제산	-16925
▁제치	-16926
▁조달	-16927
▁조르	-16928
▁조코	-16929
▁존칭	-16930
▁종속	-16931
▁주물	-16932
▁주파	-16933
▁준거	-16934
▁중공	-16935
▁중세	-16936
▁즐겼	-16937
▁지새	-16938
▁지운	-16939
▁지킵	-16940
▁지푸	-16941
▁지현	-16942
▁직군	-16943
▁쪽지	-16944
▁찌질	-16945
▁차린	-16946
▁차시	-16947
▁차차	-16948
▁찬스	-16949
▁창립	-16950
▁채취	-16951
▁챙겼	-16952
▁처남	-16953
▁쳐넣	-16954
▁총살	-16955
▁추궁	-16956
▁축전	-16957
▁춘추	-16958
▁출혈	-16959
▁치룰	-16960
▁친생	-16961
▁침체	-16962
▁칼럼	-16963
▁콘크	-16964
▁쾌거	-16965
▁킬로	-16966
▁타개	-16967
▁타율	-16968
▁탈법	-16969
▁탈탈	-16970
▁탐사	-16971
▁탱크	-16972
▁톡톡	-16973
▁통칭	-16974
▁투숙	-16975
▁투스	-16976
▁특진	-16977
▁특출	-16978
▁티슈	-16979
▁판다	-16980
▁포화	-16981
▁푸른	-16982
▁풍기	-16983
▁풍습	-16984
▁프랜	-16985
▁프레	-16986
▁플랜	-16987
▁플로	-16988
▁피멍	-16989
▁필력	-16990
▁하급	-16991
▁한방	-16992
▁함량	-16993
▁함성	-16994
▁합계	-16995
▁합심	-16996
▁해칠	-16997
▁행운	-16998
▁허허	-16999
▁헬기	-17000
▁혈통	-17001
▁호신	-17002
▁홍군	-17003
▁회차	-17004
▁후스	-17005
▁휘슬	-17006
▁흐른	-17007
▁흑백	-17008
▁흑자	-17009
▁흰색	-17010
간다면	-17011
교도소	-17012
다는데	-17013
레이트	-17014
키스탄	-17015
테이션	-17016
페이스	-17017
code	-17018
ents	-17019
ited	-17020
▁014	-17021
▁105	-17022
▁108	-17023
▁113	-17024
▁117	-17025
▁178	-17026
▁akr	-17027
▁bul	-17028
▁hot	-17029
▁ifa	-17030
▁가로채	-17031
▁가르켜	-17032
▁가여운	-17033
▁가져도	-17034
▁가져서	-17035
▁갈까봐	-17036
▁강정호	-17037
▁건드렸	-17038
▁게스트	-17039
▁겨울철	-17040
▁견뎌야	-17041
▁결단코	-17042
▁결혼식	-17043
▁고마워	-17044
▁관악산	-17045
▁광명시	-17046
▁구급차	-17047
▁군의관	-17048
▁그리워	-17049
▁글쓰기	-17050
▁글재주	-17051
▁기업가	-17052
▁김기창	-17053
▁김부선	-17054
▁김생민	-17055
▁김성룡	-17056
▁까내리	-17057
▁까말까	-17058
▁꿋꿋이	-17059
▁끊어진	-17060
▁나아졌	-17061
▁낙동강	-17062
▁남아공	-17063
▁납니까	-17064
▁내보이	-17065
▁내정자	-17066
▁내후년	-17067
▁냉난방	-17068
▁노인정	-17069
▁놨는데	-17070
▁누진제	-17071
▁늘어남	-17072
▁다가와	-17073
▁달라붙	-17074
▁달려드	-17075
▁당분간	-17076
▁대구시	-17077
▁대행사	-17078
▁더운데	-17079
▁더하기	-17080
▁도가니	-17081
▁도박성	-17082
▁돌려놓	-17083
▁두꺼운	-17084
▁두드리	-17085
▁둘째치	-17086
▁뒤로하	-17087
▁뒤로한	-17088
▁드러낸	-17089
▁든다면	-17090
▁들여가	-17091
▁듦니다	-17092
▁등록비	-17093
▁라인업	-17094
▁레이싱	-17095
▁려는지	-17096
▁렵니다	-17097
▁마침내	-17098
▁막노동	-17099
▁말레이	-17100
▁머무르	-17101
▁멍청이	-17102
▁명문화	-17103
▁몰려들	-17104
▁무심코	-17105
▁물러서	-17106
▁뭣하러	-17107
▁므로서	-17108
▁미국인	-17109
▁미술관	-17110
▁밑바탕	-17111
▁바닷가	-17112
▁바이럴	-17113
▁바코드	-17114
▁박종훈	-17115
▁박지원	-17116
▁발자취	-17117
▁배울까	-17118
▁버텨왔	-17119
▁법질서	-17120
▁변함없	-17121
▁보조인	-17122
▁보호사	-17123
▁부익부	-17124
▁분해서	-17125
▁불모지	-17126
▁빈곤층	-17127
▁빈익빈	-17128
▁빼앗겼	-17129
▁사고파	-17130
▁사세요	-17131
▁사정관	-17132
▁생식기	-17133
▁생활관	-17134
▁선거철	-17135
▁선교사	-17136
▁섣부른	-17137
▁설레임	-17138
▁섭니다	-17139
▁세계관	-17140
▁세계사	-17141
▁세탁기	-17142
▁셨으니	-17143
▁소나무	-17144
▁소모적	-17145
▁소모품	-17146
▁소방대	-17147
▁소트니	-17148
▁속상해	-17149
▁손연재	-17150
▁수시도	-17151
▁스타쉽	-17152
▁시너지	-17153
▁시위대	-17154
▁시작점	-17155
▁식자재	-17156
▁신중절	-17157
▁실랑이	-17158
▁아쉬웠	-17159
▁안다면	-17160
▁알아들	-17161
▁알파인	-17162
▁양현석	-17163
▁언젠간	-17164
▁얼룩져	-17165
▁에스컬	-17166
▁영업소	-17167
▁예고편	-17168
▁예정일	-17169
▁왔으며	-17170
▁외교부	-17171
▁운동회	-17172
▁월급제	-17173
▁유관순	-17174
▁유부남	-17175
▁은연중	-17176
▁을려는	-17177
▁이기홍	-17178
▁이래라	-17179
▁이마트	-17180
▁이미란	-17181
▁이태원	-17182
▁이해력	-17183
▁임채무	-17184
▁입주자	-17185
▁자살자	-17186
▁자퇴서	-17187
▁잔다고	-17188
▁장차관	-17189
▁재산세	-17190
▁전단지	-17191
▁전야제	-17192
▁정당히	-17193
▁정재원	-17194
▁제게는	-17195
▁조원태	-17196
▁존댓말	-17197
▁종량제	-17198
▁준다던	-17199
▁중간기	-17200
▁중개사	-17201
▁쥐어짜	-17202
▁진입로	-17203
▁진천군	-17204
▁짜여진	-17205
▁짜집기	-17206
▁쫒겨나	-17207
▁쫓아가	-17208
▁찍혀서	-17209
▁찜질방	-17210
▁차선책	-17211
▁채점표	-17212
▁추미애	-17213
▁출연자	-17214
▁출전권	-17215
▁클라이	-17216
▁타이밍	-17217
▁탈바꿈	-17218
▁터미널	-17219
▁트레스	-17220
▁펼쳐야	-17221
▁펼쳐지	-17222
▁풀타임	-17223
▁프로토	-17224
▁피해야	-17225
▁하노이	-17226
▁하도급	-17227
▁하반신	-17228
▁하수인	-17229
▁하여튼	-17230
▁한데도	-17231
▁한테서	-17232
▁해코지	-17233
▁현시대	-17234
▁협동심	-17235
▁홍보물	-17236
▁후반전	-17237
▁훈련생	-17238
▁휩싸여	-17239
▁휩쓸려	-17240
▁흘려온	-17241
▁힘겨워	-17242
인명사전	-17243
htmld	-17244
▁0011	-17245
▁1991	-17246
▁3050	-17247
▁with	-17248
▁가차없이	-17249
▁갑작스레	-17250
▁거립니다	-17251
▁구석구석	-17252
▁기껏해야	-17253
▁까다로운	-17254
▁끌어내리	-17255
▁끝난다고	-17256
▁나간다면	-17257
▁나올까요	-17258
▁나옵니까	-17259
▁남양유업	-17260
▁남존여비	-17261
▁노심초사	-17262
▁느닷없이	-17263
▁당했으며	-17264
▁돌아다닌	-17265
▁동떨어져	-17266
▁되돌아보	-17267
▁된다구요	-17268
▁떨어뜨려	-17269
▁마스터즈	-17270
▁못할망정	-17271
▁무턱대고	-17272
▁문화방송	-17273
▁미꾸라지	-17274
▁바란다고	-17275
▁배운다고	-17276
▁버렸으면	-17277
▁벤치마킹	-17278
▁분합니다	-17279
▁비즈니스	-17280
▁빅토르안	-17281
▁살림살이	-17282
▁속상해서	-17283
▁손해배상	-17284
▁시킬려고	-17285
▁어긋난다	-17286
▁어영부영	-17287
▁엉망진창	-17288
▁와이번스	-17289
▁우여곡절	-17290
▁유플러스	-17291
▁으신다면	-17292
▁이래서야	-17293
▁인조잔디	-17294
▁일파만파	-17295
▁자초지종	-17296
▁지푸라기	-17297
▁찾아다니	-17298
▁콘크리트	-17299
▁콤플렉스	-17300
▁트레이닝	-17301
▁퍼레이드	-17302
▁플레디스	-17303
▁한다든지	-17304
▁할지언정	-17305
▁25000	-17306
▁갑작스러운	-17307
▁국가인권위	-17308
▁그래서인지	-17309
▁나타납니다	-17310
▁물어봅니다	-17311
▁벌어집니다	-17312
▁보여준다면	-17313
▁사라진다면	-17314
▁소트니코바	-17315
▁올림픽경기	-17316
▁인큐베이터	-17317
▁프로그래밍	-17318
▁201710	-17319
▁201803	-17320
▁nation	-17321
▁금메달리스트	-17322
▁스마트미디어	-17323
▁에스컬레이터	-17324
▁친일인명사전	-17325
▁esports	-17326
newsviewphp	-17327
54	-17328
84	-17329
ae	-17330
cr	-17331
iv	-17332
tm	-17333
tz	-17334
ud	-17335
ue	-17336
▁겅	-17337
▁깬	-17338
▁꼐	-17339
▁꽈	-17340
▁꿔	-17341
▁댔	-17342
▁댕	-17343
▁돗	-17344
▁됏	-17345
▁뗀	-17346
▁럴	-17347
▁렉	-17348
▁릿	-17349
▁먄	-17350
▁몃	-17351
▁뭅	-17352
▁뿔	-17353
▁앖	-17354
▁옭	-17355
▁윌	-17356
▁윙	-17357
▁잼	-17358
▁젓	-17359
▁좇	-17360
▁짭	-17361
▁쩌	-17362
▁첼	-17363
▁쳣	-17364
▁콕	-17365
▁탤	-17366
▁탬	-17367
▁팁	-17368
▁팻	-17369
▁펀	-17370
▁퐁	-17371
가방	-17372
가스	-17373
간히	-17374
거렸	-17375
관위	-17376
기구	-17377
나갈	-17378
나물	-17379
낙락	-17380
난다	-17381
디다	-17382
러블	-17383
러서	-17384
마개	-17385
망상	-17386
망청	-17387
맹랑	-17388
명수	-17389
몰래	-17390
무공	-17391
문가	-17392
바퀴	-17393
배기	-17394
부지	-17395
불명	-17396
비언	-17397
뿌리	-17398
사태	-17399
선열	-17400
설렁	-17401
수영	-17402
앙스	-17403
엄마	-17404
업체	-17405
연수	-17406
은색	-17407
이스	-17408
인다	-17409
잔치	-17410
장면	-17411
제국	-17412
제이	-17413
짓기	-17414
체포	-17415
컬링	-17416
코올	-17417
퀘어	-17418
터스	-17419
턴트	-17420
통제	-17421
특권	-17422
특정	-17423
폭탄	-17424
폭풍	-17425
해전	-17426
212	-17427
278	-17428
440	-17429
605	-17430
ace	-17431
ata	-17432
ear	-17433
eca	-17434
iew	-17435
ill	-17436
inp	-17437
les	-17438
ofi	-17439
oft	-17440
ook	-17441
oul	-17442
▁cd	-17443
▁gg	-17444
▁my	-17445
▁nb	-17446
▁pm	-17447
▁we	-17448
▁ᅲᅮ	-17449
▁가래	-17450
▁가망	-17451
▁가비	-17452
▁가실	-17453
▁가십	-17454
▁가자	-17455
▁가전	-17456
▁간지	-17457
▁갈팡	-17458
▁갔었	-17459
▁강성	-17460
▁강정	-17461
▁강호	-17462
▁갖출	-17463
▁개과	-17464
▁개도	-17465
▁개소	-17466
▁개패	-17467
▁객실	-17468
▁거침	-17469
▁건방	-17470
▁걷어	-17471
▁게으	-17472
▁게을	-17473
▁계양	-17474
▁고나	-17475
▁고루	-17476
▁고만	-17477
▁고비	-17478
▁고층	-17479
▁곡동	-17480
▁공허	-17481
▁과분	-17482
▁교관	-17483
▁교보	-17484
▁교부	-17485
▁교외	-17486
▁교평	-17487
▁구렁	-17488
▁구박	-17489
▁구애	-17490
▁구절	-17491
▁구토	-17492
▁국물	-17493
▁국유	-17494
▁군경	-17495
▁군내	-17496
▁굶주	-17497
▁굽신	-17498
▁그기	-17499
▁금토	-17500
▁기권	-17501
▁기려	-17502
▁기로	-17503
▁기막	-17504
▁기습	-17505
▁김선	-17506
▁김은	-17507
▁깁스	-17508
▁깜지	-17509
▁껄끄	-17510
▁꽃피	-17511
▁끝판	-17512
▁끼쳐	-17513
▁나고	-17514
▁나면	-17515
▁나전	-17516
▁난관	-17517
▁날씬	-17518
▁남들	-17519
▁내사	-17520
▁냉전	-17521
▁냐구	-17522
▁네임	-17523
▁노년	-17524
▁노비	-17525
▁논점	-17526
▁놀래	-17527
▁놔둔	-17528
▁누굽	-17529
▁는개	-17530
▁는단	-17531
▁니놈	-17532
▁니라	-17533
▁다달	-17534
▁단과	-17535
▁단군	-17536
▁달기	-17537
▁달달	-17538
▁달장	-17539
▁답장	-17540
▁대려	-17541
▁대지	-17542
▁대필	-17543
▁던질	-17544
▁도봉	-17545
▁돌림	-17546
▁동내	-17547
▁동맹	-17548
▁동심	-17549
▁동점	-17550
▁두껍	-17551
▁두뇌	-17552
▁두둑	-17553
▁드니	-17554
▁딸랑	-17555
▁떨쳐	-17556
▁떨치	-17557
▁뛰쳐	-17558
▁띄어	-17559
▁라라	-17560
▁랄지	-17561
▁래스	-17562
▁러서	-17563
▁러지	-17564
▁로맨	-17565
▁로선	-17566
▁로썬	-17567
▁마곡	-17568
▁마누	-17569
▁마는	-17570
▁막연	-17571
▁만국	-17572
▁만진	-17573
▁말단	-17574
▁말라	-17575
▁맞교	-17576
▁메리	-17577
▁명박	-17578
▁모레	-17579
▁모음	-17580
▁몸통	-17581
▁무가	-17582
▁무로	-17583
▁무모	-17584
▁문드	-17585
▁물린	-17586
▁물정	-17587
▁뭉개	-17588
▁미끄	-17589
▁미덕	-17590
▁미천	-17591
▁민우	-17592
▁바쁠	-17593
▁바야	-17594
▁박기	-17595
▁박차	-17596
▁박태	-17597
▁박판	-17598
▁반디	-17599
▁반팔	-17600
▁발레	-17601
▁발현	-17602
▁방기	-17603
▁방도	-17604
▁방책	-17605
▁배변	-17606
▁배아	-17607
▁배지	-17608
▁백석	-17609
▁뱅크	-17610
▁번져	-17611
▁번질	-17612
▁벌렁	-17613
▁법강	-17614
▁법복	-17615
▁벼랑	-17616
▁변조	-17617
▁별의	-17618
▁병든	-17619
▁병명	-17620
▁병변	-17621
▁병영	-17622
▁보라	-17623
▁보루	-17624
▁보아	-17625
▁복판	-17626
▁본국	-17627
▁부로	-17628
▁부영	-17629
▁북송	-17630
▁분신	-17631
▁불똥	-17632
▁붙들	-17633
▁붙일	-17634
▁비공	-17635
▁비나	-17636
▁비좁	-17637
▁비쳐	-17638
▁빌붙	-17639
▁빗대	-17640
▁빼놓	-17641
▁뻣뻣	-17642
▁사금	-17643
▁사드	-17644
▁사모	-17645
▁사절	-17646
▁살상	-17647
▁살장	-17648
▁상수	-17649
▁상피	-17650
▁생수	-17651
▁생중	-17652
▁서식	-17653
▁서야	-17654
▁서이	-17655
▁서투	-17656
▁서툰	-17657
▁선교	-17658
▁선명	-17659
▁선보	-17660
▁섭리	-17661
▁성금	-17662
▁성능	-17663
▁성징	-17664
▁소동	-17665
▁소량	-17666
▁소매	-17667
▁소자	-17668
▁속국	-17669
▁손톱	-17670
▁송구	-17671
▁송정	-17672
▁쇠퇴	-17673
▁수질	-17674
▁수칙	-17675
▁수퍼	-17676
▁순리	-17677
▁스윙	-17678
▁스팀	-17679
▁시가	-17680
▁시늉	-17681
▁식별	-17682
▁식상	-17683
▁식충	-17684
▁신병	-17685
▁신창	-17686
▁실물	-17687
▁실버	-17688
▁실재	-17689
▁실존	-17690
▁심경	-17691
▁심대	-17692
▁싸늘	-17693
▁썩히	-17694
▁씌운	-17695
▁아만	-17696
▁아비	-17697
▁아셨	-17698
▁아크	-17699
▁알기	-17700
▁알펜	-17701
▁애틋	-17702
▁얌체	-17703
▁양모	-17704
▁어께	-17705
▁어룡	-17706
▁어엿	-17707
▁에고	-17708
▁엠알	-17709
▁여념	-17710
▁엮이	-17711
▁연녀	-17712
▁연도	-17713
▁연산	-17714
▁연초	-17715
▁열매	-17716
▁영생	-17717
▁예금	-17718
▁오더	-17719
▁오물	-17720
▁온데	-17721
▁왜국	-17722
▁외동	-17723
▁욕한	-17724
▁욕했	-17725
▁용량	-17726
▁용모	-17727
▁우세	-17728
▁움츠	-17729
▁웍스	-17730
▁원심	-17731
▁월반	-17732
▁웹젠	-17733
▁위독	-17734
▁윗물	-17735
▁유달	-17736
▁유머	-17737
▁윤석	-17738
▁으냐	-17739
▁으리	-17740
▁은어	-17741
▁의리	-17742
▁의외	-17743
▁이닝	-17744
▁이달	-17745
▁이완	-17746
▁이요	-17747
▁이입	-17748
▁인감	-17749
▁인본	-17750
▁인부	-17751
▁인스	-17752
▁인자	-17753
▁일념	-17754
▁일동	-17755
▁일색	-17756
▁일컬	-17757
▁임박	-17758
▁임한	-17759
▁자성	-17760
▁자조	-17761
▁작작	-17762
▁잠잘	-17763
▁장구	-17764
▁장부	-17765
▁쟁점	-17766
▁저곳	-17767
▁적다	-17768
▁전처	-17769
▁전출	-17770
▁점퍼	-17771
▁정교	-17772
▁정량	-17773
▁정예	-17774
▁조신	-17775
▁족벌	-17776
▁종원	-17777
▁좌표	-17778
▁주홍	-17779
▁중하	-17780
▁증여	-17781
▁지고	-17782
▁지부	-17783
▁지와	-17784
▁직함	-17785
▁진해	-17786
▁질렸	-17787
▁집사	-17788
▁짜내	-17789
▁짝수	-17790
▁짧아	-17791
▁짱구	-17792
▁차액	-17793
▁착공	-17794
▁찰나	-17795
▁참나	-17796
▁참다	-17797
▁천명	-17798
▁청부	-17799
▁체우	-17800
▁체증	-17801
▁촉박	-17802
▁총신	-17803
▁최장	-17804
▁추스	-17805
▁출구	-17806
▁출력	-17807
▁출품	-17808
▁충고	-17809
▁치만	-17810
▁친숙	-17811
▁칠판	-17812
▁칭송	-17813
▁카피	-17814
▁캐시	-17815
▁큐브	-17816
▁클라	-17817
▁타박	-17818
▁태영	-17819
▁태평	-17820
▁토요	-17821
▁토의	-17822
▁퇴행	-17823
▁투병	-17824
▁특위	-17825
▁틈틈	-17826
▁틴트	-17827
▁파기	-17828
▁파멸	-17829
▁파행	-17830
▁팝업	-17831
▁패러	-17832
▁팽팽	-17833
▁퍼진	-17834
▁퍼질	-17835
▁평온	-17836
▁폐막	-17837
▁폐인	-17838
▁폐하	-17839
▁포섭	-17840
▁포트	-17841
▁폭우	-17842
▁표식	-17843
▁푸념	-17844
▁풀릴	-17845
▁풍계	-17846
▁피폭	-17847
▁하리	-17848
▁하사	-17849
▁하얀	-17850
▁한옥	-17851
▁할께	-17852
▁합병	-17853
▁해괴	-17854
▁해남	-17855
▁해다	-17856
▁해시	-17857
▁해전	-17858
▁해직	-17859
▁해촉	-17860
▁햇빛	-17861
▁행원	-17862
▁허상	-17863
▁헌금	-17864
▁헌정	-17865
▁헤매	-17866
▁현존	-17867
▁화백	-17868
▁화산	-17869
▁확진	-17870
▁환송	-17871
▁환희	-17872
▁황산	-17873
▁회귀	-17874
▁훨훨	-17875
▁훼방	-17876
▁흐를	-17877
▁흑발	-17878
▁희안	-17879
▁희한	-17880
▁히터	-17881
갈수록	-17882
고사직	-17883
덩어리	-17884
데스크	-17885
스코트	-17886
어져서	-17887
우리말	-17888
콘서트	-17889
1005	-17890
aspx	-17891
ecom	-17892
self	-17893
sidx	-17894
▁210	-17895
▁325	-17896
▁910	-17897
▁dvd	-17898
▁goo	-17899
▁key	-17900
▁nap	-17901
▁ppt	-17902
▁sam	-17903
▁가려내	-17904
▁가려져	-17905
▁가림막	-17906
▁갈고닦	-17907
▁감사히	-17908
▁갔으며	-17909
▁걸려도	-17910
▁걸린다	-17911
▁결정짓	-17912
▁경력자	-17913
▁경영인	-17914
▁경험담	-17915
▁계산대	-17916
▁계획서	-17917
▁고시원	-17918
▁고준희	-17919
▁공포심	-17920
▁관리사	-17921
▁괘씸죄	-17922
▁교환대	-17923
▁권순태	-17924
▁그러다	-17925
▁그럴까	-17926
▁그럴듯	-17927
▁그리곤	-17928
▁그만둔	-17929
▁그만둬	-17930
▁급체포	-17931
▁기념식	-17932
▁기다림	-17933
▁기술자	-17934
▁기준치	-17935
▁김기춘	-17936
▁김민희	-17937
▁깊숙히	-17938
▁껍데기	-17939
▁남겨져	-17940
▁낮춘다	-17941
▁내려와	-17942
▁내린다	-17943
▁내세울	-17944
▁냈으면	-17945
▁넥센히	-17946
▁노란색	-17947
▁녹음기	-17948
▁놀러갔	-17949
▁누워서	-17950
▁뉘앙스	-17951
▁느껴져	-17952
▁느라고	-17953
▁는대요	-17954
▁늘려라	-17955
▁니스트	-17956
▁달아나	-17957
▁담아내	-17958
▁당구장	-17959
▁당국자	-17960
▁당한다	-17961
▁대소변	-17962
▁대응책	-17963
▁대표단	-17964
▁더니만	-17965
▁독버섯	-17966
▁돌아볼	-17967
▁되도록	-17968
▁두서없	-17969
▁뒤따라	-17970
▁뒤쳐져	-17971
▁딴다고	-17972
▁떠올려	-17973
▁라스트	-17974
▁라틴어	-17975
▁려거든	-17976
▁릅니다	-17977
▁리스닝	-17978
▁리포트	-17979
▁마사지	-17980
▁마포구	-17981
▁막아서	-17982
▁막연히	-17983
▁말없이	-17984
▁매표소	-17985
▁먹잇감	-17986
▁모티브	-17987
▁목포시	-17988
▁못해도	-17989
▁무력감	-17990
▁무릅쓰	-17991
▁무성의	-17992
▁무신경	-17993
▁문지르	-17994
▁뭅니다	-17995
▁밀려서	-17996
▁바나나	-17997
▁바래요	-17998
▁박경미	-17999
▁반대표	-18000
▁반영구	-18001
▁반정부	-18002
▁발맞춰	-18003
▁발전소	-18004
▁밝혀라	-18005
▁배고프	-18006
▁범죄시	-18007
▁보내왔	-18008
▁보낸다	-18009
▁보도국	-18010
▁보상비	-18011
▁보안관	-18012
▁본회의	-18013
▁볼수록	-18014
▁부러지	-18015
▁불특정	-18016
▁사유지	-18017
▁살려서	-18018
▁상류층	-18019
▁상식선	-18020
▁상해죄	-18021
▁새로이	-18022
▁성관계	-18023
▁성남시	-18024
▁성수기	-18025
▁성취감	-18026
▁소재지	-18027
▁속바지	-18028
▁송파구	-18029
▁수감자	-18030
▁수년전	-18031
▁수술비	-18032
▁수술실	-18033
▁수식어	-18034
▁수학원	-18035
▁숨소리	-18036
▁스퀘어	-18037
▁스파이	-18038
▁스페셜	-18039
▁시그널	-18040
▁시흥시	-18041
▁실직자	-18042
▁쓴다면	-18043
▁쓸쓸히	-18044
▁씁니까	-18045
▁아산시	-18046
▁아우르	-18047
▁아이유	-18048
▁안전도	-18049
▁알코올	-18050
▁애당초	-18051
▁어두워	-18052
▁어때요	-18053
▁어물쩡	-18054
▁억누르	-18055
▁역부족	-18056
▁연장선	-18057
▁연주자	-18058
▁예방법	-18059
▁오른손	-18060
▁오리발	-18061
▁외삼촌	-18062
▁요양원	-18063
▁우스운	-18064
▁운전석	-18065
▁원작자	-18066
▁유치진	-18067
▁으셨고	-18068
▁으실까	-18069
▁음란죄	-18070
▁응답자	-18071
▁응원가	-18072
▁이모님	-18073
▁이민자	-18074
▁이승기	-18075
▁이영자	-18076
▁이영주	-18077
▁이해도	-18078
▁이해찬	-18079
▁인문학	-18080
▁인솔자	-18081
▁일본식	-18082
▁일시금	-18083
▁일어남	-18084
▁일일히	-18085
▁일제히	-18086
▁임명장	-18087
▁작사가	-18088
▁작업자	-18089
▁잦아지	-18090
▁저질르	-18091
▁전교생	-18092
▁전용석	-18093
▁전자책	-18094
▁정정보	-18095
▁조원진	-18096
▁좋아했	-18097
▁좌회전	-18098
▁주무르	-18099
▁주파수	-18100
▁중대장	-18101
▁지켜본	-18102
▁지켜서	-18103
▁지팡이	-18104
▁직선제	-18105
▁질까봐	-18106
▁짓밟혀	-18107
▁짓밟힌	-18108
▁찮가지	-18109
▁채권자	-18110
▁천안시	-18111
▁청년층	-18112
▁청동기	-18113
▁청장년	-18114
▁추락사	-18115
▁출근길	-18116
▁출석부	-18117
▁친권자	-18118
▁친다고	-18119
▁카톨릭	-18120
▁콩나물	-18121
▁키워서	-18122
▁터뜨리	-18123
▁터져라	-18124
▁트러블	-18125
▁파닉스	-18126
▁포스코	-18127
▁폴란드	-18128
▁표준시	-18129
▁피부과	-18130
▁한라산	-18131
▁한양대	-18132
▁합해서	-18133
▁허가제	-18134
▁허정무	-18135
▁헷갈리	-18136
▁황연대	-18137
▁회초리	-18138
▁후원자	-18139
▁후폭풍	-18140
▁흡연권	-18141
▁히히덕	-18142
▁1011	-18143
▁1992	-18144
▁coun	-18145
▁ifaf	-18146
▁iptv	-18147
▁oooo	-18148
▁간접흡연	-18149
▁계신가요	-18150
▁국가원수	-18151
▁권고사직	-18152
▁그러니깐	-18153
▁그럴만한	-18154
▁그럴싸한	-18155
▁끌어들여	-18156
▁내린다는	-18157
▁넘어뜨리	-18158
▁누굽니까	-18159
▁는다거나	-18160
▁는다면서	-18161
▁달립니다	-18162
▁대한컬링	-18163
▁더치페이	-18164
▁독립군가	-18165
▁뒤떨어지	-18166
▁드릴께요	-18167
▁등장인물	-18168
▁레즈비언	-18169
▁마스코트	-18170
▁면책특권	-18171
▁바뀐다고	-18172
▁바라봐야	-18173
▁바란다면	-18174
▁방패막이	-18175
▁배웠으면	-18176
▁변호사법	-18177
▁보냅시다	-18178
▁비전문가	-18179
▁사라져서	-18180
▁사사로운	-18181
▁설렁설렁	-18182
▁순간순간	-18183
▁순우리말	-18184
▁아신다면	-18185
▁알펜시아	-18186
▁어려워졌	-18187
▁어렵사리	-18188
▁연평해전	-18189
▁열린다고	-18190
▁외칩니다	-18191
▁움직여야	-18192
▁위키백과	-18193
▁으십시오	-18194
▁이겁니까	-18195
▁이어져야	-18196
▁인공수정	-18197
▁일사천리	-18198
▁자아실현	-18199
▁전대통령	-18200
▁줄인다는	-18201
▁중등학교	-18202
▁집어치우	-18203
▁충청북도	-18204
▁친선경기	-18205
▁팀플레이	-18206
▁판타지오	-18207
▁페널티킥	-18208
▁한다고요	-18209
▁해합니다	-18210
▁허무맹랑	-18211
▁흔합니다	-18212
▁흥청망청	-18213
▁희희낙락	-18214
000000	-18215
ection	-18216
▁00028	-18217
▁19327	-18218
▁20160	-18219
▁30000	-18220
▁satan	-18221
▁거리낌없이	-18222
▁뉴스데스크	-18223
▁다가옵니다	-18224
▁들어간다면	-18225
▁말레이시아	-18226
▁미니스커트	-18227
▁생각납니다	-18228
▁생겨납니다	-18229
▁소프트웨어	-18230
▁스트레이트	-18231
▁어긋난다는	-18232
▁엄청납니다	-18233
▁일어난다면	-18234
▁조선일보사	-18235
▁줄어든다고	-18236
▁지나칩니다	-18237
▁테러리스트	-18238
▁201807	-18239
▁넥센히어로즈	-18240
▁대한컬링경기연맹	-18241
▁ᅳᅳᅳᅳᅳᅳᅳᅳᅳᅳ	-18242
81	-18243
ai	-18244
ax	-18245
co	-18246
fr	-18247
iz	-18248
js	-18249
py	-18250
rl	-18251
tl	-18252
wo	-18253
▁곘	-18254
▁괸	-18255
▁뎅	-18256
▁돠	-18257
▁렘	-18258
▁뮈	-18259
▁빤	-18260
▁쒸	-18261
▁앴	-18262
▁잤	-18263
▁쟎	-18264
▁쩍	-18265
▁쯔	-18266
▁찻	-18267
▁챌	-18268
▁첵	-18269
▁쳇	-18270
▁툴	-18271
▁펨	-18272
▁힉	-18273
갈기	-18274
갈리	-18275
감치	-18276
개발	-18277
고로	-18278
공원	-18279
금리	-18280
금속	-18281
급적	-18282
기도	-18283
기에	-18284
꼬꼬	-18285
네스	-18286
년간	-18287
노스	-18288
다임	-18289
담패	-18290
덕선	-18291
돋움	-18292
따로	-18293
라임	-18294
락펴	-18295
량감	-18296
렁이	-18297
레마	-18298
렌드	-18299
리우	-18300
링크	-18301
말라	-18302
미경	-18303
미현	-18304
박이	-18305
버리	-18306
보잡	-18307
보험	-18308
복지	-18309
부절	-18310
분서	-18311
상간	-18312
생명	-18313
셔도	-18314
손손	-18315
수일	-18316
스로	-18317
승천	-18318
신창	-18319
심쩍	-18320
아비	-18321
안전	-18322
오프	-18323
용식	-18324
울증	-18325
월일	-18326
은영	-18327
이러	-18328
이츠	-18329
일절	-18330
자랑	-18331
제철	-18332
져스	-18333
주류	-18334
주사	-18335
죽음	-18336
중지	-18337
참다	-18338
코더	-18339
투맨	-18340
투족	-18341
트로	-18342
특별	-18343
특필	-18344
퍼니	-18345
페라	-18346
현동	-18347
화가	-18348
회원	-18349
300	-18350
ack	-18351
for	-18352
gle	-18353
ily	-18354
oon	-18355
ren	-18356
▁ap	-18357
▁pk	-18358
▁pl	-18359
▁se	-18360
▁wc	-18361
▁ᄁ팝	-18362
▁가닥	-18363
▁가람	-18364
▁각도	-18365
▁간녀	-18366
▁간대	-18367
▁갈색	-18368
▁감언	-18369
▁갑사	-18370
▁강타	-18371
▁개관	-18372
▁개악	-18373
▁개업	-18374
▁개진	-18375
▁건당	-18376
▁건성	-18377
▁건조	-18378
▁건진	-18379
▁검침	-18380
▁격분	-18381
▁격해	-18382
▁경차	-18383
▁경합	-18384
▁고를	-18385
▁고안	-18386
▁고현	-18387
▁곤욕	-18388
▁골대	-18389
▁공수	-18390
▁공언	-18391
▁과소	-18392
▁광진	-18393
▁구대	-18394
▁구류	-18395
▁구부	-18396
▁국과	-18397
▁국운	-18398
▁궁굼	-18399
▁규격	-18400
▁그땐	-18401
▁그르	-18402
▁근근	-18403
▁글꼴	-18404
▁급박	-18405
▁기이	-18406
▁기주	-18407
▁김윤	-18408
▁김형	-18409
▁깜빡	-18410
▁깨워	-18411
▁깽판	-18412
▁꺼꾸	-18413
▁꺼낼	-18414
▁꺼져	-18415
▁껴서	-18416
▁꾸지	-18417
▁꿀꺽	-18418
▁끝마	-18419
▁낙이	-18420
▁난국	-18421
▁날렸	-18422
▁남구	-18423
▁남쪽	-18424
▁내가	-18425
▁내미	-18426
▁내분	-18427
▁내재	-18428
▁내쫓	-18429
▁넷플	-18430
▁노사	-18431
▁농간	-18432
▁높히	-18433
▁늑대	-18434
▁다트	-18435
▁단란	-18436
▁단칸	-18437
▁달콤	-18438
▁당뇨	-18439
▁대권	-18440
▁대뜸	-18441
▁대분	-18442
▁대성	-18443
▁대열	-18444
▁대질	-18445
▁덜덜	-18446
▁데모	-18447
▁도급	-18448
▁동족	-18449
▁돼도	-18450
▁둔기	-18451
▁드셨	-18452
▁들춰	-18453
▁들판	-18454
▁등쳐	-18455
▁따끔	-18456
▁딴다	-18457
▁땅값	-18458
▁라야	-18459
▁렌즈	-18460
▁련단	-18461
▁만끽	-18462
▁만물	-18463
▁말썽	-18464
▁매정	-18465
▁명맥	-18466
▁명퇴	-18467
▁모모	-18468
▁모진	-18469
▁모형	-18470
▁목자	-18471
▁문외	-18472
▁미움	-18473
▁민초	-18474
▁박성	-18475
▁박세	-18476
▁박이	-18477
▁밖엔	-18478
▁반공	-18479
▁반목	-18480
▁반지	-18481
▁반차	-18482
▁받치	-18483
▁발산	-18484
▁발육	-18485
▁발칵	-18486
▁밤도	-18487
▁방광	-18488
▁방수	-18489
▁배꼽	-18490
▁배너	-18491
▁배반	-18492
▁백날	-18493
▁백제	-18494
▁번돈	-18495
▁범벅	-18496
▁변론	-18497
▁변모	-18498
▁변상	-18499
▁변죽	-18500
▁병기	-18501
▁병합	-18502
▁복면	-18503
▁볼지	-18504
▁봉입	-18505
▁봉지	-18506
▁부계	-18507
▁부드	-18508
▁부업	-18509
▁부제	-18510
▁분도	-18511
▁분장	-18512
▁불벌	-18513
▁붐비	-18514
▁붙혀	-18515
▁뷔페	-18516
▁브베	-18517
▁빙판	-18518
▁빨대	-18519
▁뽐내	-18520
▁사귈	-18521
▁사당	-18522
▁사막	-18523
▁사야	-18524
▁사와	-18525
▁사욕	-18526
▁사흘	-18527
▁산만	-18528
▁살벌	-18529
▁삼척	-18530
▁상명	-18531
▁상설	-18532
▁새워	-18533
▁생김	-18534
▁샤오	-18535
▁서거	-18536
▁서든	-18537
▁서진	-18538
▁서핑	-18539
▁서훈	-18540
▁석자	-18541
▁섬기	-18542
▁섬세	-18543
▁성가	-18544
▁성악	-18545
▁성정	-18546
▁성판	-18547
▁세비	-18548
▁세쌍	-18549
▁세용	-18550
▁세전	-18551
▁소사	-18552
▁속셈	-18553
▁손보	-18554
▁송이	-18555
▁쇼파	-18556
▁수교	-18557
▁수납	-18558
▁수돗	-18559
▁수송	-18560
▁숙의	-18561
▁숙직	-18562
▁순열	-18563
▁순응	-18564
▁순조	-18565
▁술값	-18566
▁숨긴	-18567
▁숨졌	-18568
▁쉬우	-18569
▁승자	-18570
▁시녀	-18571
▁시아	-18572
▁시초	-18573
▁식견	-18574
▁식판	-18575
▁신가	-18576
▁신탁	-18577
▁신한	-18578
▁실까	-18579
▁심혈	-18580
▁싸개	-18581
▁쌓일	-18582
▁쏠림	-18583
▁쑤셔	-18584
▁아다	-18585
▁아머	-18586
▁아물	-18587
▁아일	-18588
▁아자	-18589
▁악하	-18590
▁안절	-18591
▁안쪽	-18592
▁알람	-18593
▁압축	-18594
▁애도	-18595
▁애자	-18596
▁애지	-18597
▁양시	-18598
▁어다	-18599
▁어럽	-18600
▁어플	-18601
▁언쟁	-18602
▁업그	-18603
▁에러	-18604
▁에휴	-18605
▁여겼	-18606
▁여관	-18607
▁여주	-18608
▁역경	-18609
▁역고	-18610
▁역도	-18611
▁역습	-18612
▁연방	-18613
▁연임	-18614
▁연필	-18615
▁영도	-18616
▁오줌	-18617
▁오탈	-18618
▁온갓	-18619
▁온난	-18620
▁완강	-18621
▁완수	-18622
▁완장	-18623
▁외대	-18624
▁요령	-18625
▁욕해	-18626
▁우방	-18627
▁우터	-18628
▁워드	-18629
▁원님	-18630
▁원우	-18631
▁원이	-18632
▁원자	-18633
▁원초	-18634
▁위중	-18635
▁위층	-18636
▁윤서	-18637
▁율동	-18638
▁을가	-18639
▁의병	-18640
▁이따	-18641
▁이롭	-18642
▁이식	-18643
▁이우	-18644
▁이율	-18645
▁이질	-18646
▁인걸	-18647
▁인시	-18648
▁일리	-18649
▁일차	-18650
▁입비	-18651
▁입힐	-18652
▁잉여	-18653
▁자선	-18654
▁자작	-18655
▁자중	-18656
▁자포	-18657
▁자필	-18658
▁작은	-18659
▁잔득	-18660
▁잠든	-18661
▁잡무	-18662
▁장가	-18663
▁장내	-18664
▁장동	-18665
▁장로	-18666
▁장제	-18667
▁재명	-18668
▁재작	-18669
▁재전	-18670
▁재주	-18671
▁저도	-18672
▁저열	-18673
▁적재	-18674
▁전법	-18675
▁점철	-18676
▁정과	-18677
▁정박	-18678
▁정발	-18679
▁정쟁	-18680
▁정조	-18681
▁정종	-18682
▁정태	-18683
▁조약	-18684
▁조짐	-18685
▁존나	-18686
▁좀더	-18687
▁종과	-18688
▁종중	-18689
▁종착	-18690
▁주정	-18691
▁주후	-18692
▁주휴	-18693
▁중식	-18694
▁중임	-18695
▁중퇴	-18696
▁중화	-18697
▁증과	-18698
▁증기	-18699
▁증식	-18700
▁증이	-18701
▁지질	-18702
▁지참	-18703
▁직사	-18704
▁진데	-18705
▁진범	-18706
▁진절	-18707
▁진하	-18708
▁징검	-18709
▁짜깁	-18710
▁차감	-18711
▁차체	-18712
▁착실	-18713
▁창간	-18714
▁처서	-18715
▁처치	-18716
▁천시	-18717
▁철구	-18718
▁철자	-18719
▁철철	-18720
▁첫발	-18721
▁청룡	-18722
▁체인	-18723
▁체재	-18724
▁초상	-18725
▁초소	-18726
▁초안	-18727
▁초토	-18728
▁총독	-18729
▁총액	-18730
▁최진	-18731
▁추서	-18732
▁출사	-18733
▁치미	-18734
▁치아	-18735
▁치한	-18736
▁침뱉	-18737
▁칼날	-18738
▁큰딸	-18739
▁타가	-18740
▁타살	-18741
▁타석	-18742
▁탐폰	-18743
▁태전	-18744
▁택한	-18745
▁택했	-18746
▁토시	-18747
▁토일	-18748
▁통곡	-18749
▁통쾌	-18750
▁퇴교	-18751
▁투구	-18752
▁툭툭	-18753
▁트윗	-18754
▁티나	-18755
▁틱톡	-18756
▁파시	-18757
▁팔찌	-18758
▁패기	-18759
▁팩스	-18760
▁팻말	-18761
▁퍼졌	-18762
▁평수	-18763
▁폐과	-18764
▁포옹	-18765
▁폭식	-18766
▁폭파	-18767
▁풀린	-18768
▁풀어	-18769
▁피웠	-18770
▁피치	-18771
▁하염	-18772
▁하지	-18773
▁하층	-18774
▁하하	-18775
▁학내	-18776
▁한수	-18777
▁한집	-18778
▁해년	-18779
▁해수	-18780
▁해아	-18781
▁해안	-18782
▁행성	-18783
▁행안	-18784
▁행할	-18785
▁허수	-18786
▁현업	-18787
▁혈족	-18788
▁협소	-18789
▁형수	-18790
▁호위	-18791
▁호평	-18792
▁혼수	-18793
▁화곡	-18794
▁화랑	-18795
▁화생	-18796
▁환갑	-18797
▁회개	-18798
▁회상	-18799
▁회천	-18800
▁효도	-18801
▁후생	-18802
▁휴장	-18803
▁흉상	-18804
▁흠결	-18805
갯소리	-18806
공화국	-18807
담패설	-18808
락펴락	-18809
리우드	-18810
[...]
