[UNK]	0
[PAD]	0
▁이	-0
▁는	-1
▁하	-2
니다	-3
▁을	-4
▁에	-5
▁고	-6
▁가	-7
▁의	-8
▁들	-9
▁은	-10
▁를	-11
▁지	-12
▁도	-13
▁아	-14
▁한	-15
▁있	-16
▁다	-17
▁습	-18
▁어	-19
▁사	-20
▁습니다	-21
▁으	-22
▁그	-23
▁대	-24
▁해	-25
▁수	-26
▁인	-27
▁시	-28
▁기	-29
▁주	-30
▁보	-31
▁게	-32
▁으로	-33
▁합	-34
▁입	-35
▁라	-36
▁나	-37
▁것	-38
▁여	-39
▁되	-40
▁학	-41
▁합니다	-42
▁에서	-43
▁만	-44
▁정	-45
▁자	-46
▁부	-47
▁로	-48
▁적	-49
▁일	-50
▁생	-51
▁없	-52
▁국	-53
▁과	-54
▁입니다	-55
▁면	-56
▁교	-57
▁제	-58
▁세	-59
▁않	-60
▁할	-61
▁안	-62
▁저	-63
▁선	-64
▁성	-65
▁위	-66
▁전	-67
▁생각	-68
▁1	-69
▁아이	-70
▁공	-71
▁조	-72
▁청	-73
▁모	-74
▁문	-75
▁더	-76
▁거	-77
▁받	-78
▁경	-79
▁말	-80
▁우	-81
▁많	-82
▁었	-83
▁방	-84
▁대한	-85
▁중	-86
▁유	-87
▁2	-88
▁남	-89
▁무	-90
▁바	-91
▁사람	-92
▁내	-93
▁와	-94
▁에게	-95
▁마	-96
▁세요	-97
▁국민	-98
▁상	-99
▁때	-100
▁등	-101
▁처	-102
▁같	-103
▁했	-104
니까	-105
▁비	-106
▁개	-107
▁겠	-108
▁교육	-109
▁학교	-110
▁못	-111
▁서	-112
▁된	-113
▁다고	-114
▁우리	-115
▁는데	-116
▁관	-117
▁현	-118
▁학생	-119
▁라고	-120
▁불	-121
▁법	-122
▁분	-123
▁님	-124
▁나라	-125
▁지만	-126
▁소	-127
▁원	-128
▁년	-129
▁신	-130
▁한다	-131
▁요	-132
▁피	-133
▁당	-134
▁아니	-135
▁까	-136
▁라는	-137
▁올	-138
▁며	-139
▁실	-140
▁선수	-141
▁미	-142
▁또	-143
▁살	-144
▁까지	-145
▁강	-146
▁동	-147
▁오	-148
▁스	-149
▁평	-150
▁차	-151
▁건	-152
▁여성	-153
▁감	-154
▁좋	-155
▁연	-156
▁알	-157
▁해야	-158
▁문제	-159
▁반	-160
▁진	-161
▁3	-162
▁이런	-163
▁명	-164
▁장	-165
▁행	-166
▁으면	-167
▁단	-168
▁잘	-169
민국	-170
▁구	-171
▁피해	-172
▁계	-173
▁시간	-174
▁영	-175
▁너	-176
▁국가	-177
▁청원	-178
▁위해	-179
▁발	-180
▁대한민국	-181
▁해서	-182
▁화	-183
▁다는	-184
▁심	-185
▁던	-186
▁노	-187
▁너무	-188
▁그리	-189
▁예	-190
▁왜	-191
범죄	-192
▁사회	-193
▁어린	-194
▁권	-195
▁니	-196
▁지금	-197
▁도록	-198
▁면서	-199
▁결	-200
▁았	-201
▁그런	-202
▁언	-203
▁통	-204
▁처벌	-205
▁그리고	-206
▁교사	-207
▁직	-208
▁재	-209
소년	-210
▁폭	-211
▁집	-212
▁야	-213
▁네	-214
▁사건	-215
▁20	-216
▁드	-217
▁최	-218
▁힘	-219
▁십	-220
▁대통	-221
▁대통령	-222
▁출	-223
▁됩	-224
▁필	-225
▁운	-226
▁때문	-227
▁폐	-228
▁간	-229
▁만들	-230
▁정부	-231
▁특	-232
▁월	-233
▁근	-234
▁군	-235
▁배	-236
▁싶	-237
▁초	-238
립니다	-239
▁아닌	-240
▁이나	-241
▁따	-242
▁맞	-243
▁될	-244
▁번	-245
▁물	-246
▁이유	-247
▁부터	-248
▁였	-249
▁됩니다	-250
▁후	-251
▁어린이	-252
▁매	-253
▁청소년	-254
▁부모	-255
▁이상	-256
▁엄	-257
▁한국	-258
▁범죄	-259
▁누	-260
▁필요	-261
렇게	-262
▁정말	-263
▁대학	-264
▁외	-265
▁는지	-266
▁다른	-267
▁글	-268
▁인권	-269
▁현재	-270
▁두	-271
▁회	-272
▁길	-273
▁돈	-274
▁4	-275
▁걸	-276
▁본	-277
▁보다	-278
▁어야	-279
▁죠	-280
지만	-281
▁그러	-282
▁임	-283
▁유치	-284
▁판	-285
▁달	-286
▁피해자	-287
▁추	-288
▁지원	-289
▁함	-290
▁5	-291
▁치	-292
▁및	-293
▁모든	-294
▁방송	-295
▁경우	-296
▁여자	-297
▁유치원	-298
▁양	-299
▁줄	-300
▁축	-301
▁종	-302
▁된다	-303
랍니다	-304
▁한다고	-305
▁또한	-306
▁확	-307
▁참	-308
▁하지만	-309
▁남성	-310
▁대해	-311
▁음	-312
▁폐지	-313
▁데	-314
▁체	-315
▁돌	-316
▁어서	-317
▁많이	-318
▁10	-319
대로	-320
▁바랍니다	-321
▁부탁	-322
▁어린이집	-323
▁네요	-324
▁애	-325
▁려	-326
▁점	-327
▁저희	-328
▁취	-329
▁못하	-330
▁자신	-331
▁금	-332
▁버	-333
▁십시	-334
▁민	-335
까요	-336
림픽	-337
▁다시	-338
▁언론	-339
▁남자	-340
▁검	-341
▁얼	-342
▁포	-343
▁형	-344
▁선생	-345
▁보호	-346
▁올림픽	-347
▁기사	-348
▁정책	-349
▁질	-350
▁상황	-351
▁쓰	-352
▁겁	-353
▁병	-354
▁하나	-355
▁사실	-356
학교	-357
▁대표	-358
▁친	-359
▁가지	-360
▁뿐	-361
▁제도	-362
▁경찰	-363
▁책	-364
▁앞	-365
▁없이	-366
▁조사	-367
▁아닙	-368
▁역	-369
▁인데	-370
▁정도	-371
▁제발	-372
▁열	-373
▁아무	-374
▁김	-375
▁박	-376
▁이번	-377
▁작	-378
▁라도	-379
▁관련	-380
▁사이	-381
▁복	-382
▁이렇게	-383
▁축구	-384
▁뉴	-385
▁곳	-386
▁벌	-387
▁셨	-388
▁습니까	-389
▁가해	-390
▁모두	-391
▁게임	-392
▁처럼	-393
▁초등	-394
▁준	-395
▁그래	-396
가요	-397
▁내용	-398
▁마음	-399
▁좀	-400
▁가족	-401
▁경기	-402
▁위한	-403
▁몇	-404
▁막	-405
▁뉴스	-406
▁모르	-407
▁여러	-408
▁201	-409
▁거나	-410
▁나요	-411
▁편	-412
▁활	-413
▁큰	-414
▁평등	-415
▁잘못	-416
▁문화	-417
▁키	-418
▁느	-419
▁손	-420
▁존	-421
▁목	-422
▁넘	-423
▁안녕	-424
▁휴	-425
▁협	-426
▁아야	-427
▁이러	-428
▁답	-429
▁다면	-430
▁6	-431
▁봅	-432
▁공부	-433
▁파	-434
▁절	-435
▁약	-436
▁가정	-437
▁시키	-438
▁요즘	-439
▁고등	-440
▁억	-441
▁그런데	-442
▁해도	-443
▁프	-444
▁죄	-445
▁봅니다	-446
▁인지	-447
▁갈	-448
▁먹	-449
▁께	-450
▁허	-451
▁규	-452
▁가해자	-453
▁변	-454
▁생활	-455
▁감사	-456
▁사용	-457
▁들어	-458
▁죽	-459
▁의무	-460
▁어떻	-461
▁태	-462
▁각	-463
▁채	-464
▁팀	-465
▁책임	-466
▁악	-467
▁자유	-468
▁개인	-469
▁설	-470
▁증	-471
▁날	-472
▁이제	-473
▁업	-474
▁아닙니다	-475
▁현실	-476
▁환	-477
▁몰	-478
학생	-479
▁얼마	-480
▁식	-481
▁시험	-482
▁든	-483
▁다니	-484
▁폭행	-485
▁운영	-486
▁시켜	-487
▁속	-488
▁십시오	-489
▁가능	-490
다고	-491
▁담	-492
▁폭력	-493
▁감독	-494
▁엄마	-495
▁겁니다	-496
▁제대로	-497
▁그렇	-498
▁꼭	-499
▁밖	-500
▁투	-501
▁늘	-502
▁표	-503
▁페	-504
▁인해	-505
▁갑	-506
▁나오	-507
라도	-508
▁드립니다	-509
▁물론	-510
▁수업	-511
▁이해	-512
▁볼	-513
▁이용	-514
00	-515
▁눈	-516
▁한다는	-517
포츠	-518
▁정치	-519
▁따라	-520
▁프로	-521
▁어떻게	-522
▁사이트	-523
▁스포츠	-524
어나	-525
▁학년	-526
▁자기	-527
▁타	-528
▁인터	-529
▁충	-530
▁온	-531
▁운동	-532
▁계속	-533
▁용	-534
▁해결	-535
▁으며	-536
▁차별	-537
▁보내	-538
▁힘들	-539
▁위해서	-540
▁봐	-541
▁7	-542
▁관리	-543
▁난	-544
다는	-545
▁듯	-546
▁반대	-547
▁어떤	-548
▁순	-549
▁문재	-550
▁보육	-551
▁성폭	-552
▁통해	-553
▁육	-554
▁놓	-555
▁학원	-556
▁광	-557
▁아동	-558
▁북	-559
▁욕	-560
▁중요	-561
▁아직	-562
▁가장	-563
▁그것	-564
▁정신	-565
▁끝	-566
▁높	-567
아가	-568
▁급	-569
▁누구	-570
▁같이	-571
▁세계	-572
▁수능	-573
▁행위	-574
다면	-575
▁8	-576
▁호	-577
▁다가	-578
▁학부	-579
▁그래서	-580
▁고등학교	-581
▁독	-582
▁부탁드	-583
▁동안	-584
▁항	-585
▁잡	-586
▁미래	-587
▁접	-588
▁바로	-589
▁권리	-590
▁란	-591
▁지역	-592
▁군대	-593
▁찾	-594
▁장애	-595
▁활동	-596
▁영어	-597
교육	-598
▁입니까	-599
▁노력	-600
▁이것	-601
▁라면	-602
▁징	-603
▁아서	-604
▁그냥	-605
▁냐	-606
▁평가	-607
▁행동	-608
▁혜	-609
▁부탁드립니다	-610
▁세금	-611
▁기관	-612
▁수사	-613
▁학부모	-614
▁강력	-615
▁하루	-616
▁자녀	-617
▁키우	-618
▁산	-619
▁관계	-620
▁친구	-621
▁일부	-622
▁9	-623
▁부분	-624
▁과정	-625
▁이미	-626
▁일반	-627
▁새	-628
▁근무	-629
▁입장	-630
▁댓	-631
▁철	-632
▁리	-633
▁뭐	-634
▁희	-635
▁결과	-636
▁논	-637
▁기준	-638
▁본인	-639
▁기간	-640
▁메	-641
▁인터넷	-642
▁불법	-643
▁지요	-644
어지	-645
▁니까	-646
▁발생	-647
▁방법	-648
▁어요	-649
▁이야	-650
▁비리	-651
▁공무	-652
▁카	-653
▁된다고	-654
▁해당	-655
▁혜택	-656
▁침	-657
부분	-658
▁자격	-659
▁시작	-660
▁혼	-661
▁신고	-662
▁대부분	-663
▁당연	-664
▁어려	-665
▁회사	-666
▁공정	-667
▁씨	-668
▁12	-669
▁일본	-670
▁체육	-671
▁낳	-672
▁세상	-673
▁이루	-674
▁먼	-675
▁서울	-676
▁별	-677
▁댓글	-678
▁뒤	-679
▁사고	-680
▁그러나	-681
▁개선	-682
▁을까요	-683
▁강제	-684
▁이게	-685
▁시대	-686
▁북한	-687
▁어느	-688
▁기회	-689
▁성범죄	-690
▁나이	-691
▁그렇게	-692
▁연맹	-693
▁꿈	-694
▁협회	-695
▁이야기	-696
▁무슨	-697
▁빙	-698
▁페미	-699
▁조금	-700
▁환경	-701
▁천	-702
▁공무원	-703
▁빠	-704
▁보여	-705
▁퇴	-706
▁또는	-707
▁대해서	-708
▁외국	-709
▁당하	-710
▁요구	-711
▁준비	-712
▁셔	-713
▁인간	-714
▁도와	-715
▁얼마나	-716
▁무엇	-717
▁께서	-718
▁함께	-719
▁살인	-720
▁짓	-721
▁크	-722
▁출산	-723
▁인정	-724
▁최근	-725
▁관심	-726
▁마다	-727
▁믿	-728
▁보도	-729
주의	-730
▁요청	-731
▁듣	-732
▁혹	-733
▁오늘	-734
▁모습	-735
▁기자	-736
▁나가	-737
▁정보	-738
▁려고	-739
▁떨	-740
▁청와	-741
▁적폐	-742
▁보이	-743
▁청와대	-744
▁만큼	-745
▁억울	-746
▁지켜	-747
▁범죄자	-748
▁밝	-749
▁한테	-750
▁직장	-751
▁고통	-752
▁진행	-753
▁문재인	-754
듭니다	-755
▁성적	-756
▁의견	-757
▁교복	-758
▁단체	-759
▁방탄	-760
▁더라도	-761
▁왔	-762
▁기본	-763
▁특히	-764
▁사립	-765
▁둘	-766
▁너무나	-767
▁육아	-768
▁엔	-769
▁커	-770
▁뽑	-771
▁오히	-772
▁30	-773
▁망	-774
▁오히려	-775
▁병역	-776
▁도움	-777
▁여기	-778
▁응	-779
▁바라	-780
심히	-781
▁으로서	-782
▁평창	-783
▁금지	-784
▁확인	-785
▁똑	-786
▁중학교	-787
▁저지	-788
▁창	-789
▁열심히	-790
▁심각	-791
▁혐	-792
▁개월	-793
▁수시	-794
▁어디	-795
▁위원	-796
▁떠	-797
▁공개	-798
▁더욱	-799
▁선택	-800
▁K	-801
▁무시	-802
▁시행	-803
▁놀	-804
▁십시요	-805
▁워	-806
▁이건	-807
스트	-808
▁납	-809
▁없애	-810
▁헌	-811
▁기업	-812
▁주장	-813
▁대상	-814
군요	-815
▁한다면	-816
▁합니까	-817
▁민주	-818
▁연예	-819
▁자리	-820
▁경제	-821
▁진짜	-822
▁성인	-823
▁이후	-824
▁능	-825
▁갖	-826
▁남녀	-827
▁못한	-828
▁올라	-829
▁딸	-830
▁시민	-831
▁원장	-832
▁지난	-833
▁양육	-834
▁신청	-835
▁먼저	-836
▁교육부	-837
▁사교육	-838
▁안전	-839
▁존재	-840
▁잠	-841
▁어도	-842
▁일어나	-843
▁토	-844
▁말씀	-845
▁조치	-846
▁배우	-847
▁단일	-848
▁불구	-849
▁트	-850
▁11	-851
▁이름	-852
▁침해	-853
▁소년	-854
▁쉽	-855
▁입학	-856
▁들어가	-857
▁강화	-858
▁그럼	-859
▁패	-860
▁줘	-861
▁100	-862
▁범	-863
▁훈	-864
▁절대	-865
▁싸	-866
▁직접	-867
▁터	-868
▁직원	-869
드시	-870
▁씩	-871
▁반드시	-872
▁귀	-873
▁과연	-874
▁올리	-875
합니다	-876
▁삼	-877
▁읽	-878
▁수준	-879
▁지나	-880
▁걱	-881
▁백	-882
▁결국	-883
▁드리	-884
▁베	-885
▁빙상	-886
▁성폭행	-887
져야	-888
▁2018	-889
▁자체	-890
▁걱정	-891
▁다음	-892
▁코	-893
▁행복	-894
▁상태	-895
▁부담	-896
▁싫	-897
▁보장	-898
▁역사	-899
▁더군요	-900
▁부족	-901
▁어른	-902
▁똑같	-903
TV	-904
▁매우	-905
▁발전	-906
▁으니	-907
▁전문	-908
▁낮	-909
▁페미니	-910
▁시설	-911
▁화장	-912
▁머	-913
▁학대	-914
▁어렵	-915
▁조차	-916
▁팬	-917
▁단일팀	-918
▁맡	-919
▁노동	-920
▁봤	-921
▁등등	-922
▁아기	-923
벌이	-924
▁처리	-925
▁승	-926
▁전혀	-927
▁얘	-928
▁업무	-929
▁현장	-930
▁몸	-931
▁국회	-932
▁능력	-933
없이	-934
▁여러분	-935
▁소리	-936
▁총	-937
시다	-938
▁쉬	-939
▁월드	-940
▁측	-941
▁결정	-942
▁누가	-943
▁상대	-944
▁끼	-945
▁면제	-946
▁그만	-947
▁맘	-948
▁사랑	-949
▁야구	-950
▁로서	-951
▁복지	-952
▁의해	-953
▁고자	-954
▁교실	-955
▁버리	-956
▁장관	-957
▁최소	-958
▁스럽	-959
▁행정	-960
▁지급	-961
▁으로써	-962
▁즉	-963
▁시청	-964
▁부산	-965
▁분명	-966
▁봉	-967
▁규정	-968
▁광고	-969
▁영상	-970
▁극	-971
▁십니까	-972
▁긴	-973
▁써	-974
▁언제	-975
▁프로그	-976
▁판단	-977
▁답변	-978
▁마련	-979
▁월드컵	-980
▁유아	-981
▁정시	-982
▁건가요	-983
▁영화	-984
▁대학교	-985
▁입시	-986
▁연예인	-987
▁건강	-988
▁동의	-989
▁개정	-990
▁힘든	-991
▁해외	-992
▁프로그램	-993
▁부디	-994
▁성추	-995
▁러	-996
▁포함	-997
▁심지	-998
▁성추행	-999
▁무고	-1000
▁심지어	-1001
▁방학	-1002
▁병원	-1003
▁검사	-1004
▁제한	-1005
▁인가요	-1006
▁졸	-1007
▁완	-1008
▁자살	-1009
▁압	-1010
머니	-1011
▁티	-1012
▁판결	-1013
▁비용	-1014
▁성폭력	-1015
▁대회	-1016
▁진정	-1017
소년단	-1018
▁방탄소년단	-1019
▁빨	-1020
▁맞벌이	-1021
▁근로	-1022
▁정상	-1023
▁돌봄	-1024
▁은데	-1025
▁울	-1026
▁가르	-1027
▁당장	-1028
▁철저	-1029
▁얘기	-1030
▁적용	-1031
▁조선	-1032
▁표현	-1033
▁서로	-1034
▁처음	-1035
▁전화	-1036
▁시스	-1037
▁S	-1038
▁셔서	-1039
▁조작	-1040
▁술	-1041
▁헌법	-1042
▁첫	-1043
▁교육청	-1044
▁규제	-1045
▁실제	-1046
▁겁니까	-1047
▁미투	-1048
▁생리	-1049
▁증거	-1050
▁시스템	-1051
▁알려	-1052
▁남북	-1053
BS	-1054
▁결혼	-1055
▁우선	-1056
▁만약	-1057
▁거의	-1058
▁스트	-1059
▁집단	-1060
▁실시	-1061
▁사업	-1062
러운	-1063
▁직업	-1064
▁상처	-1065
므로	-1066
▁구요	-1067
▁즐	-1068
▁당시	-1069
▁자식	-1070
▁대로	-1071
▁아무리	-1072
▁지방	-1073
▁희망	-1074
▁바뀌	-1075
▁아주	-1076
▁200	-1077
▁아시	-1078
▁의미	-1079
▁듭니다	-1080
▁목적	-1081
▁가진	-1082
▁풀	-1083
▁불편	-1084
▁을까	-1085
▁건지	-1086
▁홍	-1087
▁충분	-1088
▁사과	-1089
▁인생	-1090
▁넣	-1091
▁경쟁	-1092
▁전국	-1093
▁낙	-1094
▁째	-1095
▁효	-1096
▁혹은	-1097
▁아빠	-1098
▁훈련	-1099
▁엄청	-1100
▁사진	-1101
▁종목	-1102
▁참여	-1103
▁테	-1104
▁대책	-1105
▁등록	-1106
▁과거	-1107
▁15	-1108
▁여론	-1109
▁정당	-1110
▁근데	-1111
▁행사	-1112
레스	-1113
▁센	-1114
▁항상	-1115
▁도대	-1116
▁전형	-1117
▁소년법	-1118
▁삶	-1119
▁과목	-1120
조건	-1121
▁나와	-1122
▁느끼	-1123
▁으나	-1124
▁당신	-1125
▁무조건	-1126
▁생기	-1127
▁인가	-1128
▁각종	-1129
▁도대체	-1130
▁올립니다	-1131
▁줘야	-1132
▁거짓	-1133
▁대체	-1134
▁혼자	-1135
▁아닌가요	-1136
▁됐	-1137
▁만드	-1138
▁예산	-1139
▁려는	-1140
▁심판	-1141
▁안타	-1142
▁겨	-1143
▁잔	-1144
▁방과	-1145
▁된다면	-1146
▁보호법	-1147
▁교수	-1148
▁학습	-1149
▁묻	-1150
▁다양	-1151
▁박탈	-1152
▁밖에	-1153
▁플	-1154
▁더라	-1155
부터	-1156
▁부정	-1157
▁올해	-1158
▁뛰	-1159
▁인한	-1160
▁수많	-1161
▁이익	-1162
▁살아가	-1163
▁돼	-1164
▁탈	-1165
▁실력	-1166
▁일어	-1167
▁지키	-1168
▁고소	-1169
▁인식	-1170
▁권력	-1171
▁아요	-1172
▁당연히	-1173
▁영향	-1174
▁갔	-1175
▁농	-1176
▁아닐	-1177
▁19	-1178
▁의원	-1179
▁0	-1180
▁스스	-1181
▁최저	-1182
▁봉사	-1183
▁스트레스	-1184
▁선발	-1185
▁수당	-1186
▁내려	-1187
▁휴직	-1188
▁얼굴	-1189
▁특별	-1190
▁정권	-1191
▁소득	-1192
▁링	-1193
▁졸업	-1194
▁꺼	-1195
▁아파	-1196
▁국내	-1197
▁바꿔	-1198
▁스스로	-1199
▁늦	-1200
▁정의	-1201
▁발언	-1202
▁지지	-1203
▁위원회	-1204
▁마시	-1205
▁제안	-1206
▁얻	-1207
▁빼	-1208
▁네이	-1209
▁방식	-1210
▁사라	-1211
▁돌아	-1212
▁확대	-1213
▁둔	-1214
▁특정	-1215
▁아닙니까	-1216
출산	-1217
▁따라서	-1218
▁저출산	-1219
▁아들	-1220
▁솔	-1221
▁수정	-1222
으면	-1223
▁밝혀	-1224
▁판매	-1225
▁50	-1226
▁밀	-1227
▁제공	-1228
▁취업	-1229
▁검찰	-1230
▁A	-1231
▁생명	-1232
▁바꾸	-1233
▁주변	-1234
▁지도	-1235
▁향	-1236
▁국방	-1237
▁불안	-1238
▁TV	-1239
▁찍	-1240
▁넘어	-1241
버지	-1242
▁깨	-1243
▁센터	-1244
▁히	-1245
▁외국인	-1246
▁가요	-1247
▁교과	-1248
▁월급	-1249
▁청년	-1250
▁포기	-1251
▁평화	-1252
▁거부	-1253
▁예술	-1254
▁네이버	-1255
▁젊	-1256
▁마드	-1257
▁매일	-1258
▁징역	-1259
▁단순	-1260
▁숨	-1261
자리	-1262
▁조두	-1263
소리	-1264
▁담당	-1265
▁듯이	-1266
비스	-1267
▁된다는	-1268
▁아무런	-1269
▁흘	-1270
▁혐오	-1271
▁그대로	-1272
▁어려운	-1273
▁조두순	-1274
▁아래	-1275
▁유지	-1276
▁는데요	-1277
▁중국	-1278
▁c	-1279
▁미국	-1280
▁보상	-1281
▁복무	-1282
▁역시	-1283
▁분노	-1284
▁서비스	-1285
▁M	-1286
나라	-1287
▁머리	-1288
▁쪽	-1289
▁미성	-1290
▁분위	-1291
▁겪	-1292
매매	-1293
▁기록	-1294
▁사형	-1295
▁응원	-1296
▁점점	-1297
▁괴	-1298
▁차이	-1299
▁암	-1300
▁고민	-1301
▁대하	-1302
▁올바	-1303
▁저런	-1304
▁더니	-1305
▁밥	-1306
▁쓸	-1307
구요	-1308
▁국제	-1309
▁특수	-1310
▁부당	-1311
▁재판	-1312
▁사항	-1313
▁임금	-1314
튜브	-1315
▁임신	-1316
▁설치	-1317
▁양성	-1318
▁아도	-1319
▁착	-1320
▁존경	-1321
▁청산	-1322
▁최소한	-1323
▁궁	-1324
▁나온	-1325
▁성매매	-1326
▁부부	-1327
▁새로	-1328
▁올려	-1329
▁게시	-1330
▁해체	-1331
▁다르	-1332
▁유튜브	-1333
▁출전	-1334
▁계약	-1335
▁격	-1336
▁종교	-1337
▁차량	-1338
▁서류	-1339
▁만든	-1340
▁의사	-1341
▁웃	-1342
▁논란	-1343
▁방안	-1344
가지	-1345
▁사례	-1346
▁옳	-1347
▁그래도	-1348
▁거리	-1349
▁구성	-1350
▁링크	-1351
▁아시안	-1352
▁위험	-1353
메달	-1354
▁정확	-1355
▁인성	-1356
▁치료	-1357
▁그저	-1358
▁민원	-1359
▁비하	-1360
▁저지르	-1361
▁잃	-1362
▁수행	-1363
▁가짜	-1364
▁확실	-1365
▁업체	-1366
▁밤	-1367
▁는가	-1368
▁가슴	-1369
▁당했	-1370
▁으면서	-1371
▁난민	-1372
▁미성년	-1373
▁가치	-1374
▁짜	-1375
▁간곡	-1376
▁발표	-1377
이트	-1378
▁솔직	-1379
▁틀	-1380
▁정작	-1381
▁고려	-1382
▁여중	-1383
흥민	-1384
▁추가	-1385
▁손흥민	-1386
▁명예	-1387
▁시위	-1388
▁학기	-1389
▁메달	-1390
▁어떠	-1391
▁퍼	-1392
▁떨어	-1393
▁산업	-1394
▁평생	-1395
▁뜻	-1396
▁노출	-1397
▁관한	-1398
▁법안	-1399
▁조직	-1400
▁페미니즘	-1401
▁찬	-1402
▁기다	-1403
▁자료	-1404
▁기에	-1405
▁작성	-1406
▁시기	-1407
▁졌	-1408
▁답답	-1409
▁에선	-1410
▁잖	-1411
▁팔	-1412
전히	-1413
▁점수	-1414
▁군인	-1415
▁골	-1416
거리	-1417
▁우리나라	-1418
▁희생	-1419
▁관계자	-1420
id	-1421
▁공공	-1422
릅니다	-1423
▁탄	-1424
의원	-1425
▁기대	-1426
▁상담	-1427
▁왕	-1428
▁법원	-1429
▁예전	-1430
▁적극	-1431
▁국공	-1432
▁양육비	-1433
▁언론사	-1434
▁C	-1435
▁고요	-1436
▁마땅	-1437
▁법률	-1438
BC	-1439
아이	-1440
▁인원	-1441
▁나왔	-1442
집니다	-1443
▁국공립	-1444
▁당한	-1445
▁국회의원	-1446
▁챙	-1447
▁18	-1448
▁동성	-1449
▁전부	-1450
▁김보	-1451
▁숙	-1452
▁로써	-1453
▁언어	-1454
▁의심	-1455
▁랑	-1456
▁이전	-1457
▁빨리	-1458
▁간곡히	-1459
▁제외	-1460
▁아침	-1461
▁재산	-1462
▁고등학생	-1463
▁끊	-1464
▁이슈	-1465
▁려면	-1466
▁순간	-1467
▁40	-1468
▁꾸	-1469
▁s	-1470
▁인사	-1471
입니다	-1472
▁화장실	-1473
▁붙	-1474
▁김보름	-1475
세요	-1476
▁여야	-1477
▁자율	-1478
▁초등학생	-1479
▁차단	-1480
지막	-1481
▁악용	-1482
▁존중	-1483
▁케	-1484
해서	-1485
호사	-1486
▁멀	-1487
▁무서	-1488
▁솔직히	-1489
▁아버지	-1490
▁와서	-1491
▁위하	-1492
▁삭	-1493
▁노선	-1494
▁계획	-1495
▁낙태	-1496
▁으려	-1497
ti	-1498
▁누군	-1499
▁니다	-1500
▁약자	-1501
▁인기	-1502
▁됩니까	-1503
▁노래	-1504
▁욕설	-1505
▁지속	-1506
▁미성년자	-1507
▁단지	-1508
▁등급	-1509
▁이하	-1510
▁인증	-1511
▁추진	-1512
▁인하	-1513
▁차원	-1514
▁판사	-1515
▁잇	-1516
으나	-1517
▁마지막	-1518
▁디	-1519
▁거기	-1520
▁위배	-1521
▁협박	-1522
▁검토	-1523
▁금액	-1524
▁리그	-1525
▁세대	-1526
▁사법	-1527
▁선거	-1528
▁소중	-1529
▁수학	-1530
▁전체	-1531
tv	-1532
▁걸로	-1533
▁그게	-1534
▁관리자	-1535
▁좌	-1536
▁따른	-1537
까운	-1538
▁충분히	-1539
▁져	-1540
어도	-1541
▁둘째	-1542
▁그걸	-1543
▁보조	-1544
▁집행	-1545
▁노선영	-1546
▁빌	-1547
▁클	-1548
▁보험	-1549
▁벌금	-1550
▁성장	-1551
▁비율	-1552
▁상관	-1553
▁반복	-1554
▁나쁜	-1555
▁내신	-1556
▁마저	-1557
▁마치	-1558
▁조건	-1559
000	-1560
▁서민	-1561
▁문제점	-1562
▁뭔	-1563
훼손	-1564
▁의문	-1565
▁공연	-1566
▁기억	-1567
▁여학생	-1568
▁값	-1569
▁벗	-1570
▁소수	-1571
▁신문	-1572
▁어찌	-1573
▁자랑	-1574
▁쳐	-1575
▁가격	-1576
▁마찬	-1577
▁목소리	-1578
▁촬	-1579
▁남편	-1580
▁신체	-1581
레기	-1582
▁아이스	-1583
▁슬	-1584
▁간절	-1585
▁이루어지	-1586
▁궁금	-1587
▁찾아	-1588
▁마찬가지	-1589
▁민주주의	-1590
▁아파트	-1591
▁롭	-1592
▁공평	-1593
▁사태	-1594
▁소속	-1595
▁의식	-1596
▁가져	-1597
▁분야	-1598
▁위치	-1599
▁강간	-1600
▁채용	-1601
▁율	-1602
▁허위	-1603
▁일자리	-1604
▁비판	-1605
▁시절	-1606
▁아프	-1607
▁요건	-1608
▁봐야	-1609
▁반성	-1610
▁16	-1611
▁근거	-1612
▁대신	-1613
▁는다	-1614
▁양심	-1615
▁투표	-1616
▁살아	-1617
▁자라	-1618
▁연기	-1619
▁줄어	-1620
▁평범	-1621
▁구속	-1622
▁신경	-1623
▁도입	-1624
▁텐	-1625
▁던지	-1626
▁무기	-1627
▁방치	-1628
▁이혼	-1629
▁몰카	-1630
▁중계	-1631
▁m	-1632
▁비난	-1633
▁자는	-1634
▁취지	-1635
▁KBS	-1636
▁연락	-1637
▁낭	-1638
▁사기	-1639
▁알아	-1640
▁태극	-1641
▁포털	-1642
▁는다고	-1643
▁강요	-1644
▁근로자	-1645
▁뿌	-1646
▁개혁	-1647
▁갈등	-1648
▁a	-1649
▁갑니다	-1650
▁똑같이	-1651
라리	-1652
▁진실	-1653
▁상당	-1654
▁담배	-1655
▁변화	-1656
▁원하	-1657
▁촬영	-1658
▁취소	-1659
▁효과	-1660
▁할까요	-1661
▁흔	-1662
▁공간	-1663
▁급여	-1664
▁납니다	-1665
다수	-1666
▁오래	-1667
▁시급	-1668
▁생리대	-1669
▁스러운	-1670
▁올바른	-1671
▁인천	-1672
▁B	-1673
▁대우	-1674
▁합리	-1675
▁는다는	-1676
반도	-1677
▁경험	-1678
▁다름	-1679
▁변경	-1680
▁그룹	-1681
▁일정	-1682
▁가르치	-1683
▁민국	-1684
▁실수	-1685
▁비롯	-1686
▁주민	-1687
▁대다수	-1688
▁일까요	-1689
▁앉	-1690
▁가수	-1691
▁차라리	-1692
▁14	-1693
▁23	-1694
▁단어	-1695
▁으시	-1696
▁한반도	-1697
다가	-1698
▁동일	-1699
▁률	-1700
▁예방	-1701
▁음악	-1702
▁보입니다	-1703
▁검색	-1704
▁휴가	-1705
옵니다	-1706
라인	-1707
수록	-1708
▁늘려	-1709
▁텐데	-1710
▁실제로	-1711
▁촉	-1712
▁교원	-1713
▁땅	-1714
자기	-1715
▁내년	-1716
▁누군가	-1717
▁끌	-1718
레이	-1719
▁방지	-1720
▁2017	-1721
동안	-1722
▁이사	-1723
▁일으	-1724
▁혈	-1725
▁소통	-1726
▁연구	-1727
▁져야	-1728
▁갑자기	-1729
▁적어도	-1730
사자	-1731
▁라며	-1732
▁부끄	-1733
▁합의	-1734
워서	-1735
▁도박	-1736
▁따르	-1737
▁성희	-1738
▁수험	-1739
▁아이돌	-1740
▁윤	-1741
▁감정	-1742
▁설명	-1743
▁줬	-1744
▁바람	-1745
▁성희롱	-1746
▁동계	-1747
▁페미니스트	-1748
▁합법	-1749
▁짧	-1750
▁다며	-1751
▁삭제	-1752
▁스타	-1753
▁13	-1754
▁드라	-1755
▁작년	-1756
▁다녀	-1757
▁훼손	-1758
▁어머니	-1759
생활	-1760
▁낭비	-1761
▁황	-1762
▁도시	-1763
▁홍보	-1764
▁원합니다	-1765
▁k	-1766
어난	-1767
▁그때	-1768
▁순위	-1769
▁정해	-1770
▁블	-1771
▁택	-1772
▁제목	-1773
▁돌아가	-1774
▁더불	-1775
▁새로운	-1776
▁형사	-1777
▁분위기	-1778
▁경력	-1779
▁냐고	-1780
▁알리	-1781
▁철저히	-1782
▁배려	-1783
▁제재	-1784
▁중고	-1785
▁전용	-1786
▁지원금	-1787
하키	-1788
▁그럴	-1789
▁아이스하키	-1790
▁연금	-1791
▁장학	-1792
▁충격	-1793
▁금메달	-1794
▁눈물	-1795
▁선진	-1796
▁집중	-1797
으며	-1798
▁상식	-1799
요일	-1800
▁나올	-1801
▁다수	-1802
▁못했	-1803
▁어쩔	-1804
▁시물	-1805
▁원칙	-1806
▁구조	-1807
▁끼리	-1808
▁심사	-1809
▁동성애	-1810
▁장려	-1811
▁최고	-1812
마트	-1813
▁한데	-1814
▁회장	-1815
▁기존	-1816
▁버스	-1817
▁퇴근	-1818
▁옷	-1819
▁모욕	-1820
▁라서	-1821
▁사망	-1822
▁ᅲ	-1823
▁구매	-1824
▁방해	-1825
▁소비	-1826
▁고용	-1827
▁괜	-1828
▁개최	-1829
▁무고죄	-1830
▁쓰레기	-1831
▁봐도	-1832
▁사유	-1833
▁줄이	-1834
▁드라마	-1835
▁떠나	-1836
▁엄중	-1837
▁계시	-1838
▁원인	-1839
▁17	-1840
▁참가	-1841
▁최대	-1842
▁출근	-1843
▁엄청난	-1844
▁아예	-1845
▁허용	-1846
▁활용	-1847
▁자연	-1848
▁자격증	-1849
▁단속	-1850
▁몇몇	-1851
▁뻔	-1852
▁스마트	-1853
▁중학생	-1854
▁빈	-1855
▁줍	-1856
▁쓴	-1857
▁재학	-1858
▁괴롭	-1859
▁저지른	-1860
▁박지	-1861
▁투명	-1862
▁쇼	-1863
▁제작	-1864
▁투자	-1865
▁훨	-1866
▁아마	-1867
▁역할	-1868
▁잖아	-1869
▁지정	-1870
디어	-1871
▁반영	-1872
▁불가	-1873
▁어제	-1874
▁거주	-1875
▁시장	-1876
▁제정	-1877
▁고발	-1878
▁유명	-1879
▁인터뷰	-1880
▁나서	-1881
▁출소	-1882
▁통신	-1883
▁태극기	-1884
▁무죄	-1885
▁행태	-1886
▁필수	-1887
▁더라구요	-1888
▁셧	-1889
▁익	-1890
다운	-1891
▁급식	-1892
▁빠른	-1893
▁제기	-1894
▁따로	-1895
▁의혹	-1896
▁시켜야	-1897
▁죽이	-1898
▁폐쇄	-1899
▁시점	-1900
▁저질	-1901
▁읍	-1902
▁비해	-1903
▁로부터	-1904
▁강사	-1905
▁왜곡	-1906
▁늘어나	-1907
▁안타깝	-1908
어진	-1909
▁므로	-1910
▁의도	-1911
▁꼴	-1912
▁염	-1913
▁잊	-1914
▁무섭	-1915
▁합격	-1916
▁해요	-1917
▁담임	-1918
▁방향	-1919
▁자주	-1920
▁종합	-1921
▁합시다	-1922
▁층	-1923
▁건데	-1924
▁컨	-1925
▁공감	-1926
▁태도	-1927
▁민족	-1928
▁견	-1929
▁는다면	-1930
ns	-1931
▁셋	-1932
저히	-1933
▁눈치	-1934
▁장소	-1935
▁간절히	-1936
▁징계	-1937
▁훨씬	-1938
▁경기도	-1939
▁브	-1940
▁쯤	-1941
▁헤	-1942
일보	-1943
▁뿌리	-1944
▁교과서	-1945
▁끝나	-1946
▁박근	-1947
▁설립	-1948
▁촉구	-1949
▁떨어지	-1950
▁신뢰	-1951
▁예비	-1952
▁진학	-1953
▁당당	-1954
▁소식	-1955
▁조장	-1956
▁아닌가	-1957
▁방문	-1958
▁일단	-1959
▁강력히	-1960
▁이라도	-1961
▁ᄏ	-1962
▁명백	-1963
▁선동	-1964
▁어려움	-1965
▁깊	-1966
▁동영	-1967
▁전쟁	-1968
▁출연	-1969
▁코치	-1970
▁특성	-1971
▁문화재	-1972
▁굳	-1973
▁공동	-1974
▁두려	-1975
▁무상	-1976
▁선정	-1977
▁소송	-1978
▁일방	-1979
▁통과	-1980
▁할지	-1981
▁교장	-1982
▁모자	-1983
▁라니	-1984
▁자면	-1985
▁동영상	-1986
▁스마트폰	-1987
20	-1988
▁척	-1989
▁컬	-1990
▁콘	-1991
▁위안	-1992
▁청소	-1993
▁공교육	-1994
▁변호사	-1995
▁기술	-1996
▁논리	-1997
▁불리	-1998
▁제출	-1999
▁중심	-2000
▁취급	-2001
▁박근혜	-2002
▁보수	-2003
▁접하	-2004
▁힘듭니다	-2005
▁놈	-2006
▁드러	-2007
▁으라	-2008
▁달라	-2009
▁에요	-2010
▁우려	-2011
▁인격	-2012
▁자세	-2013
▁나아가	-2014
▁시킨	-2015
▁에겐	-2016
▁이거	-2017
▁p	-2018
▁절차	-2019
▁주일	-2020
▁형량	-2021
▁돌려	-2022
▁위주	-2023
▁페이	-2024
▁한번	-2025
▁줄어들	-2026
▁e	-2027
▁25	-2028
▁도서	-2029
▁실망	-2030
▁종일	-2031
▁혐의	-2032
▁곧	-2033
▁묵	-2034
▁시킬	-2035
▁위반	-2036
▁는지요	-2037
▁고생	-2038
▁동시	-2039
▁오후	-2040
▁유포	-2041
▁선진국	-2042
▁온갖	-2043
▁추구	-2044
▁정치인	-2045
▁홈	-2046
▁21	-2047
▁미세	-2048
▁첫째	-2049
▁여중생	-2050
▁횡	-2051
나마	-2052
▁지식	-2053
▁낸	-2054
▁뒷	-2055
▁광주	-2056
▁실정	-2057
▁증가	-2058
▁그나마	-2059
▁장학금	-2060
▁났	-2061
▁유린	-2062
으로	-2063
▁받아	-2064
▁성공	-2065
▁어리	-2066
▁24	-2067
▁대중	-2068
▁등교	-2069
▁쌓	-2070
▁세력	-2071
▁한지	-2072
▁잖아요	-2073
ctv	-2074
▁시도	-2075
▁안정	-2076
▁이랑	-2077
▁장난	-2078
▁교육감	-2079
▁방송사	-2080
▁든지	-2081
▁세월	-2082
▁채널	-2083
▁학업	-2084
▁끔	-2085
▁국정	-2086
▁내부	-2087
▁진심	-2088
▁레	-2089
▁달리	-2090
▁이기	-2091
▁인재	-2092
▁경찰서	-2093
▁등록금	-2094
▁대입	-2095
▁그동안	-2096
▁카드	-2097
▁아무것	-2098
▁P	-2099
▁생겨	-2100
▁셔야	-2101
▁카페	-2102
▁위안부	-2103
▁동생	-2104
▁성과	-2105
▁중간	-2106
▁2019	-2107
시아	-2108
▁비슷	-2109
▁어떨	-2110
▁왕따	-2111
▁인상	-2112
▁전하	-2113
▁주말	-2114
▁느껴	-2115
▁만나	-2116
▁부르	-2117
▁접수	-2118
▁제일	-2119
▁흐	-2120
▁목숨	-2121
▁의한	-2122
▁컬링	-2123
▁E	-2124
▁맨	-2125
▁내리	-2126
▁성별	-2127
▁치마	-2128
▁덜	-2129
▁겨울	-2130
▁교통	-2131
▁게시판	-2132
▁썩	-2133
▁무너	-2134
▁통합	-2135
▁당사자	-2136
▁다운	-2137
▁배정	-2138
▁약속	-2139
▁티비	-2140
▁어쩌	-2141
▁을지	-2142
▁뜨	-2143
▁송	-2144
▁개발	-2145
▁독립	-2146
▁도저히	-2147
▁ᄏᄏ	-2148
▁기분	-2149
▁사장	-2150
려고	-2151
▁부여	-2152
▁수단	-2153
▁혹시	-2154
▁SN	-2155
▁보통	-2156
▁실질	-2157
▁받아들	-2158
▁석	-2159
▁캐	-2160
워야	-2161
▁인구	-2162
▁임용	-2163
▁cctv	-2164
▁대화	-2165
▁수십	-2166
▁여행	-2167
▁혁	-2168
▁흡	-2169
먼지	-2170
▁고객	-2171
▁다만	-2172
▁당해	-2173
▁이젠	-2174
▁줄여	-2175
▁매년	-2176
▁으신	-2177
▁처우	-2178
▁넘어가	-2179
▁미세먼지	-2180
▁국어	-2181
▁핸	-2182
▁누리	-2183
▁사무	-2184
▁신분	-2185
▁I	-2186
▁옆	-2187
▁근본	-2188
▁실명	-2189
려서	-2190
▁나중	-2191
▁굳이	-2192
▁기부	-2193
▁미약	-2194
▁애국	-2195
▁못할	-2196
▁의지	-2197
의자	-2198
▁60	-2199
▁기능	-2200
▁보낼	-2201
▁중단	-2202
▁집니다	-2203
▁굉	-2204
▁뭘	-2205
▁촛	-2206
▁공기	-2207
▁수신	-2208
▁위협	-2209
▁노동자	-2210
▁사라지	-2211
에도	-2212
▁기초	-2213
▁심하	-2214
▁박지우	-2215
▁여전히	-2216
▁통해서	-2217
▁o	-2218
▁품	-2219
▁노인	-2220
▁늘리	-2221
▁대출	-2222
▁전환	-2223
▁현상	-2224
▁MBC	-2225
▁굉장	-2226
▁던데	-2227
▁음란	-2228
▁혼란	-2229
▁녹	-2230
▁딱	-2231
▁심한	-2232
▁운전	-2233
▁지내	-2234
▁게다가	-2235
▁버린	-2236
ew	-2237
▁n	-2238
▁과학	-2239
▁나타	-2240
▁선고	-2241
▁수치	-2242
▁신상	-2243
▁유해	-2244
▁특혜	-2245
▁대구	-2246
▁아님	-2247
▁저작	-2248
▁일반인	-2249
▁번호	-2250
▁사정	-2251
▁증명	-2252
▁SNS	-2253
▁움	-2254
▁70	-2255
▁놀이	-2256
▁언급	-2257
▁여부	-2258
▁제시	-2259
▁짐	-2260
▁불만	-2261
▁촛불	-2262
▁마세요	-2263
▁한반도기	-2264
▁ᅳ	-2265
▁끔찍	-2266
▁독일	-2267
▁애기	-2268
▁축제	-2269
▁키울	-2270
▁타인	-2271
▁판정	-2272
▁후보	-2273
▁대학생	-2274
▁펼	-2275
▁괜찮	-2276
▁통제	-2277
고사	-2278
▁사상	-2279
▁휴게	-2280
▁허가	-2281
▁땀	-2282
▁흉	-2283
텐츠	-2284
▁이행	-2285
▁편하	-2286
▁분명히	-2287
▁전문가	-2288
▁솜	-2289
▁계기	-2290
▁느라	-2291
▁죽음	-2292
▁흥	-2293
딩크	-2294
려야	-2295
▁맞춰	-2296
▁버렸	-2297
▁잔인	-2298
▁기다리	-2299
▁꼬	-2300
▁국립	-2301
▁납득	-2302
▁맡기	-2303
▁비교	-2304
▁여서	-2305
▁정규	-2306
▁단순히	-2307
▁권한	-2308
▁의료	-2309
▁그건	-2310
▁수용	-2311
▁무료	-2312
▁일삼	-2313
▁입대	-2314
▁지상	-2315
▁매체	-2316
▁읍니다	-2317
▁관광	-2318
▁손해	-2319
▁못합니다	-2320
▁일상	-2321
▁저녁	-2322
▁전달	-2323
▁추월	-2324
▁한글	-2325
▁나와서	-2326
▁할머니	-2327
▁대처	-2328
▁삼성	-2329
▁히딩크	-2330
깁니다	-2331
▁대응	-2332
▁사안	-2333
▁소방	-2334
▁정서	-2335
▁통하	-2336
▁십니다	-2337
▁동네	-2338
▁마약	-2339
▁비싼	-2340
▁아내	-2341
▁연습	-2342
▁조정	-2343
▁온라인	-2344
▁어린아이	-2345
▁겟	-2346
▁풍	-2347
▁건물	-2348
▁기타	-2349
▁다닐	-2350
▁용기	-2351
폭력	-2352
▁집안	-2353
▁출신	-2354
▁해라	-2355
▁감시	-2356
▁공익	-2357
▁대기	-2358
▁로운	-2359
▁진술	-2360
▁게끔	-2361
▁공식	-2362
▁음주	-2363
▁임산	-2364
▁객	-2365
평가	-2366
▁참고	-2367
▁처분	-2368
▁관람	-2369
▁모아	-2370
▁못해	-2371
▁생겼	-2372
▁원래	-2373
▁주차	-2374
▁즐기	-2375
▁찬성	-2376
▁천만	-2377
▁확률	-2378
▁굉장히	-2379
현수	-2380
▁유리	-2381
▁자국	-2382
▁태어나	-2383
▁웹	-2384
▁ᅲᅲ	-2385
▁거래	-2386
▁민간	-2387
▁예정	-2388
▁이끌	-2389
▁전공	-2390
▁짓밟	-2391
▁편파	-2392
▁임산부	-2393
▁옛	-2394
▁구분	-2395
▁문자	-2396
▁심신	-2397
▁차례	-2398
▁형평	-2399
▁셧다운	-2400
▁곤	-2401
▁가리	-2402
▁다자	-2403
▁명시	-2404
▁수익	-2405
▁심리	-2406
▁엄벌	-2407
▁정원	-2408
▁한국인	-2409
▁아닐까요	-2410
re	-2411
▁O	-2412
▁핵	-2413
▁다를	-2414
▁실업	-2415
▁이어	-2416
▁인력	-2417
▁자동	-2418
▁때리	-2419
▁몰라	-2420
▁수입	-2421
▁뇌	-2422
▁고교	-2423
▁외치	-2424
▁자꾸	-2425
▁한마	-2426
▁다자녀	-2427
▁이미지	-2428
▁그러므로	-2429
▁가만	-2430
▁체험	-2431
▁으니까	-2432
▁됬	-2433
▁개념	-2434
▁계신	-2435
▁스러	-2436
▁좋아	-2437
▁파악	-2438
▁미디어	-2439
▁덕	-2440
▁됨	-2441
▁CC	-2442
▁걸리	-2443
▁시청자	-2444
▁불러	-2445
▁실행	-2446
▁야간	-2447
▁걸까요	-2448
▁수행평가	-2449
▁씁	-2450
▁진로	-2451
▁퇴출	-2452
▁학급	-2453
▁거짓말	-2454
▁참으로	-2455
망이	-2456
▁모집	-2457
▁무리	-2458
십니까	-2459
▁한마디	-2460
▁재수	-2461
▁현행	-2462
30	-2463
▁높이	-2464
▁올린	-2465
▁체력	-2466
▁최선	-2467
▁토론	-2468
▁사법부	-2469
▁80	-2470
▁국위	-2471
▁도덕	-2472
▁싸움	-2473
▁자고	-2474
▁장면	-2475
▁수신료	-2476
▁이루어	-2477
▁성범죄자	-2478
▁가입	-2479
▁핑	-2480
▁지인	-2481
▁챙기	-2482
▁그래야	-2483
연히	-2484
▁22	-2485
▁몰래	-2486
▁보건	-2487
▁여름	-2488
▁일제	-2489
▁핸드	-2490
▁형편	-2491
▁니까요	-2492
▁아닌지	-2493
▁겨우	-2494
▁명목	-2495
▁시달	-2496
▁했었	-2497
▁나갈	-2498
▁선양	-2499
▁연령	-2500
▁지하	-2501
▁혈세	-2502
▁일어난	-2503
▁CCTV	-2504
▁만족	-2505
▁부서	-2506
▁조롱	-2507
▁지자	-2508
▁료	-2509
▁탓	-2510
▁햇	-2511
▁목표	-2512
▁비중	-2513
▁이뤄	-2514
▁정지	-2515
▁통일	-2516
▁민주당	-2517
▁J	-2518
▁00	-2519
▁명확	-2520
▁태권	-2521
방망이	-2522
▁어떨까	-2523
▁모릅니다	-2524
▁음식	-2525
▁형성	-2526
▁엉	-2527
▁고쳐	-2528
▁느낌	-2529
▁환불	-2530
▁엘	-2531
거운	-2532
▁나머	-2533
▁만화	-2534
▁이르	-2535
▁환자	-2536
▁소비자	-2537
▁올라가	-2538
▁책임지	-2539
▁솜방망이	-2540
▁컴	-2541
▁사전	-2542
▁전학	-2543
▁통한	-2544
▁사생활	-2545
▁탁	-2546
메라	-2547
▁결론	-2548
▁진출	-2549
▁티켓	-2550
▁폭언	-2551
▁그러면	-2552
▁그럼에도	-2553
▁D	-2554
▁맞추	-2555
▁지적	-2556
▁회원	-2557
▁경기장	-2558
▁러시아	-2559
▁빛	-2560
▁쌍	-2561
▁쏟	-2562
하면	-2563
▁고서	-2564
▁들여	-2565
▁발달	-2566
▁불과	-2567
▁시켰	-2568
▁케이	-2569
▁아닌데	-2570
▁2016	-2571
18	-2572
▁물질	-2573
▁시선	-2574
▁어이	-2575
▁남학생	-2576
▁밑	-2577
▁휘	-2578
▁국기	-2579
▁외면	-2580
▁통보	-2581
▁신다면	-2582
▁지자체	-2583
in	-2584
▁가산	-2585
▁면접	-2586
▁미안	-2587
▁생길	-2588
▁스케	-2589
▁일찍	-2590
▁자극	-2591
▁중독	-2592
▁징병	-2593
▁찌	-2594
▁공소	-2595
▁오로	-2596
▁제품	-2597
▁휴대	-2598
▁경찰관	-2599
▁나머지	-2600
▁나옵니다	-2601
10	-2602
bs	-2603
▁획	-2604
▁공영	-2605
▁매번	-2606
▁장기	-2607
▁적절	-2608
▁주인	-2609
▁가까운	-2610
▁그만큼	-2611
▁객관	-2612
▁대안	-2613
▁실현	-2614
▁아미	-2615
▁지불	-2616
▁평소	-2617
▁지상파	-2618
▁덮	-2619
페이	-2620
▁아픈	-2621
▁억지	-2622
▁엄격	-2623
▁유도	-2624
▁이래	-2625
▁커녕	-2626
▁형태	-2627
▁피의자	-2628
▁첨	-2629
▁더러	-2630
▁부처	-2631
▁학과	-2632
▁확보	-2633
▁될까요	-2634
▁낼	-2635
▁간단	-2636
▁올라오	-2637
으니	-2638
▁교도	-2639
▁상품	-2640
▁세우	-2641
▁오로지	-2642
▁Y	-2643
▁살펴	-2644
▁안심	-2645
▁움직	-2646
▁이곳	-2647
▁키워	-2648
▁평균	-2649
▁현대	-2650
▁색	-2651
다니	-2652
▁기획	-2653
▁오르	-2654
▁자원	-2655
▁취하	-2656
▁b	-2657
▁흡연	-2658
▁칼	-2659
랜드	-2660
리아	-2661
▁34	-2662
▁감옥	-2663
▁공사	-2664
▁애초	-2665
▁들어오	-2666
▁벌어지	-2667
▁인데요	-2668
▁동아	-2669
▁매달	-2670
▁미리	-2671
▁더라고	-2672
▁t	-2673
▁강남	-2674
▁공립	-2675
▁공유	-2676
▁구입	-2677
▁모른	-2678
▁바지	-2679
▁벌써	-2680
▁새벽	-2681
십니다	-2682
▁정말로	-2683
▁조선일보	-2684
▁구단	-2685
▁일으키	-2686
▁건의	-2687
▁단축	-2688
▁모독	-2689
▁밝히	-2690
▁방관	-2691
▁용서	-2692
▁정하	-2693
▁호소	-2694
▁방송국	-2695
▁핸드폰	-2696
▁옮	-2697
보드	-2698
▁대전	-2699
▁동등	-2700
▁빼앗	-2701
▁어긋	-2702
▁이걸	-2703
▁점심	-2704
▁청구	-2705
▁답니다	-2706
▁U	-2707
▁걷	-2708
▁건전	-2709
▁빠져	-2710
▁편의	-2711
▁교육비	-2712
▁부끄럽	-2713
▁으로부터	-2714
▁여고	-2715
▁완전	-2716
▁우울	-2717
▁재미	-2718
▁준다고	-2719
▁훌	-2720
분별	-2721
▁내놓	-2722
▁인물	-2723
▁철회	-2724
▁무분별	-2725
tio	-2726
▁근절	-2727
▁활성	-2728
▁생산	-2729
▁수상	-2730
▁여경	-2731
▁N	-2732
▁교직	-2733
▁교체	-2734
▁깨끗	-2735
▁배치	-2736
▁수술	-2737
▁임원	-2738
▁특례	-2739
▁갈수록	-2740
▁줍니다	-2741
▁옹	-2742
▁고위	-2743
▁데리	-2744
▁상위	-2745
▁심의	-2746
▁연합	-2747
▁이렇	-2748
▁정리	-2749
▁조항	-2750
▁채우	-2751
▁통학	-2752
▁고작	-2753
▁그분	-2754
▁물건	-2755
▁왜냐	-2756
갑니다	-2757
▁SBS	-2758
▁이대로	-2759
▁문체	-2760
▁보훈	-2761
▁접근	-2762
▁조성	-2763
▁회의	-2764
▁알아보	-2765
▁지하철	-2766
▁개입	-2767
▁돌보	-2768
▁비싸	-2769
▁심정	-2770
▁합당	-2771
▁여성부	-2772
▁안타까운	-2773
▁공원	-2774
▁법정	-2775
▁실패	-2776
▁압박	-2777
▁연장	-2778
▁제주	-2779
▁가산점	-2780
▁도서관	-2781
운데	-2782
▁보복	-2783
▁연봉	-2784
▁예상	-2785
25	-2786
▁팩	-2787
▁차지	-2788
▁해소	-2789
▁상당히	-2790
▁감형	-2791
▁미혼	-2792
▁수급	-2793
▁여도	-2794
▁외부	-2795
▁기간제	-2796
▁계산	-2797
▁규모	-2798
▁발견	-2799
▁세워	-2800
▁승리	-2801
▁축소	-2802
페이지	-2803
▁대학원	-2804
▁홈페이지	-2805
▁홀	-2806
디오	-2807
▁미치	-2808
▁수도	-2809
▁연수	-2810
▁전기	-2811
▁지시	-2812
▁결코	-2813
▁작가	-2814
▁학점	-2815
▁항의	-2816
▁효율	-2817
▁실시간	-2818
상식	-2819
▁가까	-2820
▁느냐	-2821
▁되게	-2822
▁리라	-2823
▁망신	-2824
▁우월	-2825
▁윤리	-2826
▁지진	-2827
▁마이	-2828
▁연차	-2829
▁오전	-2830
▁익명	-2831
▁F	-2832
웨덴	-2833
▁상상	-2834
▁어차	-2835
▁여가	-2836
▁유럽	-2837
▁가정폭력	-2838
▁노예	-2839
▁법인	-2840
▁재정	-2841
▁스웨덴	-2842
▁좋아하	-2843
▁캠	-2844
▁31	-2845
▁시즌	-2846
▁영업	-2847
▁주택	-2848
▁추천	-2849
▁가만히	-2850
▁그만두	-2851
해야	-2852
▁전자	-2853
▁중소	-2854
▁향상	-2855
▁바라보	-2856
▁어차피	-2857
▁사교육비	-2858
▁루	-2859
▁나누	-2860
▁도우	-2861
▁핑계	-2862
50	-2863
차별	-2864
▁내일	-2865
▁농구	-2866
▁생계	-2867
▁출입	-2868
▁하늘	-2869
▁절대로	-2870
이팅	-2871
▁문의	-2872
▁버젓	-2873
▁수고	-2874
▁진상	-2875
▁빌보드	-2876
▁생긴	-2877
▁앞서	-2878
▁주위	-2879
▁하원	-2880
▁멋	-2881
▁감소	-2882
▁동료	-2883
▁무대	-2884
▁보고	-2885
▁부적	-2886
▁사퇴	-2887
▁영역	-2888
▁이동	-2889
▁이성	-2890
▁질문	-2891
▁상대방	-2892
하루	-2893
▁가질	-2894
▁던가	-2895
▁범위	-2896
▁빙산	-2897
▁시정	-2898
▁약하	-2899
▁열리	-2900
▁옹호	-2901
▁유출	-2902
▁죄송	-2903
▁파벌	-2904
▁담당자	-2905
▁하루하루	-2906
▁꽃	-2907
구니	-2908
져서	-2909
▁고시	-2910
▁유저	-2911
▁임대	-2912
▁직무	-2913
▁출제	-2914
납니다	-2915
▁사실상	-2916
▁합법화	-2917
▁ᅮ	-2918
뜨리	-2919
▁실태	-2920
▁이명	-2921
▁전면	-2922
▁전반	-2923
▁중앙	-2924
▁였으나	-2925
▁논의	-2926
▁심해	-2927
▁워킹	-2928
▁유기	-2929
ht	-2930
▁나무	-2931
▁대비	-2932
▁돌리	-2933
▁동참	-2934
▁안내	-2935
▁옛날	-2936
▁의하	-2937
▁정정	-2938
▁학력	-2939
▁공약	-2940
▁반면	-2941
▁신태	-2942
▁암표	-2943
▁어처	-2944
▁이럴	-2945
▁sns	-2946
▁X	-2947
은이	-2948
▁90	-2949
▁군요	-2950
▁따지	-2951
▁별로	-2952
▁빠지	-2953
▁실습	-2954
▁약한	-2955
▁유일	-2956
▁추첨	-2957
▁떳	-2958
행위	-2959
▁개편	-2960
▁유공	-2961
▁후원	-2962
▁딸아이	-2963
▁어이없	-2964
▁강의	-2965
▁불쌍	-2966
▁형식	-2967
▁흘리	-2968
▁했으나	-2969
▁어처구니	-2970
▁오랜	-2971
▁강한	-2972
▁구하	-2973
▁싸우	-2974
▁시달리	-2975
▁씁니다	-2976
▁지켜보	-2977
▁체육계	-2978
▁강조	-2979
▁무서운	-2980
▁벗어나	-2981
▁완전히	-2982
▁쉴	-2983
▁내보	-2984
▁맡길	-2985
▁셋째	-2986
▁일지	-2987
▁체계	-2988
▁허락	-2989
▁교도소	-2990
▁신태용	-2991
▁역차별	-2992
▁더라고요	-2993
▁왜냐하면	-2994
▁폰	-2995
뮤니	-2996
체육	-2997
▁당할	-2998
▁동물	-2999
▁소위	-3000
▁재능	-3001
▁친일	-3002
▁한심	-3003
▁커뮤니	-3004
▁태어난	-3005
▁넷	-3006
▁탐	-3007
석희	-3008
▁과도	-3009
▁국적	-3010
▁기념	-3011
▁와이	-3012
▁작업	-3013
▁경찰청	-3014
▁마음대로	-3015
▁긍	-3016
▁구나	-3017
▁잠재	-3018
▁창의	-3019
▁으려고	-3020
12	-3021
어날	-3022
▁오직	-3023
▁절실	-3024
▁한두	-3025
▁휴대폰	-3026
퓨터	-3027
▁그랬	-3028
▁단계	-3029
▁병설	-3030
▁분열	-3031
▁L	-3032
▁멤	-3033
빨리	-3034
▁부활	-3035
▁아실	-3036
▁영구	-3037
▁은행	-3038
▁작품	-3039
▁죄인	-3040
▁주로	-3041
▁챙겨	-3042
▁서울시	-3043
▁컴퓨터	-3044
▁상관없이	-3045
조리	-3046
▁공격	-3047
▁수백	-3048
▁어릴	-3049
▁취득	-3050
▁협의	-3051
▁가르쳐	-3052
▁커뮤니티	-3053
▁KB	-3054
▁배울	-3055
▁사냥	-3056
▁수위	-3057
▁현역	-3058
▁확정	-3059
▁가운데	-3060
▁유공자	-3061
▁젊은이	-3062
▁평창동	-3063
▁주도	-3064
▁으라고	-3065
▁지나가	-3066
er	-3067
▁떼	-3068
▁감당	-3069
▁강원	-3070
▁공인	-3071
▁근처	-3072
▁대답	-3073
▁명절	-3074
▁주관	-3075
▁도우미	-3076
▁어려워	-3077
▁놔	-3078
▁빚	-3079
권력	-3080
▁두렵	-3081
▁명령	-3082
▁몰랐	-3083
▁미만	-3084
▁이외	-3085
▁통화	-3086
▁훌륭	-3087
▁저질렀	-3088
둥이	-3089
자연	-3090
▁개개	-3091
▁나쁘	-3092
▁남겨	-3093
▁납부	-3094
▁니깐	-3095
▁바쁘	-3096
▁성실	-3097
▁아름	-3098
▁주요	-3099
▁초중	-3100
▁축협	-3101
▁음란물	-3102
▁균	-3103
▁기울	-3104
▁멤버	-3105
▁바램	-3106
▁여유	-3107
▁열정	-3108
▁자금	-3109
▁재단	-3110
▁포르	-3111
▁일어날	-3112
▁준다는	-3113
▁넓	-3114
▁소개	-3115
▁이득	-3116
▁확실히	-3117
▁칭	-3118
▁컵	-3119
▁강하	-3120
▁등원	-3121
▁시각	-3122
▁집회	-3123
▁추정	-3124
▁더욱더	-3125
▁바로잡	-3126
▁버젓이	-3127
▁그렇지만	-3128
▁ᄋ	-3129
▁28	-3130
▁남용	-3131
▁대단	-3132
▁동원	-3133
▁자질	-3134
소득	-3135
체능	-3136
▁구체	-3137
▁꾸준	-3138
▁법무	-3139
▁지구	-3140
▁짜리	-3141
▁하고	-3142
▁예체능	-3143
▁포르노	-3144
▁느꼈	-3145
▁만행	-3146
▁선배	-3147
▁순수	-3148
▁신설	-3149
▁이수	-3150
▁일관	-3151
▁장치	-3152
▁조용	-3153
▁퇴직	-3154
▁포항	-3155
냅니다	-3156
체육회	-3157
픕니다	-3158
▁500	-3159
▁다시피	-3160
▁널	-3161
▁멍	-3162
▁보단	-3163
▁요원	-3164
▁장자연	-3165
▁대한체육회	-3166
▁족	-3167
기업	-3168
라이	-3169
▁구글	-3170
▁기여	-3171
▁대변	-3172
▁보냈	-3173
▁조심	-3174
▁즉각	-3175
▁후배	-3176
▁저소득	-3177
▁하루빨리	-3178
▁T	-3179
희정	-3180
▁바른	-3181
▁올렸	-3182
▁지경	-3183
▁최초	-3184
▁탄압	-3185
▁혁명	-3186
▁개개인	-3187
한다	-3188
▁발급	-3189
▁애니	-3190
▁아동학	-3191
▁안희정	-3192
▁이나마	-3193
▁지도자	-3194
▁냈	-3195
▁닫	-3196
▁쥐	-3197
▁헛	-3198
유예	-3199
▁가득	-3200
▁기계	-3201
▁무능	-3202
▁우수	-3203
▁전통	-3204
▁기록부	-3205
▁아시아	-3206
▁2014	-3207
휴일	-3208
▁라인	-3209
▁비록	-3210
▁짜증	-3211
▁현금	-3212
▁돌아오	-3213
▁소수자	-3214
▁우울증	-3215
▁페이스	-3216
▁플레이	-3217
▁건설	-3218
▁기득	-3219
▁독도	-3220
▁미친	-3221
▁복귀	-3222
▁수강	-3223
▁열악	-3224
▁자행	-3225
▁지위	-3226
▁치르	-3227
▁편히	-3228
▁허나	-3229
▁회복	-3230
▁직장인	-3231
▁겸	-3232
▁45	-3233
▁기만	-3234
▁더더	-3235
▁부대	-3236
▁성향	-3237
▁수영	-3238
▁우승	-3239
▁제제	-3240
▁주제	-3241
▁공휴일	-3242
▁보조금	-3243
▁살아갈	-3244
▁시켜서	-3245
▁해야지	-3246
le	-3247
▁멈	-3248
▁윗	-3249
▁검증	-3250
▁김정	-3251
▁명분	-3252
▁악의	-3253
▁정식	-3254
▁첨부	-3255
▁겉	-3256
▁뺏	-3257
스크	-3258
▁각자	-3259
▁남기	-3260
▁단절	-3261
▁모여	-3262
▁바란	-3263
▁부인	-3264
▁임시	-3265
▁접속	-3266
▁클럽	-3267
▁간호사	-3268
▁소방관	-3269
이드	-3270
쳐서	-3271
축구	-3272
▁계층	-3273
▁교회	-3274
▁떠들	-3275
▁마녀	-3276
▁미술	-3277
▁유사	-3278
▁자치	-3279
▁지향	-3280
▁참석	-3281
▁황당	-3282
ar	-3283
부로	-3284
어야	-3285
▁27	-3286
▁명칭	-3287
▁위기	-3288
▁조재	-3289
▁종편	-3290
▁더더욱	-3291
▁자라나	-3292
시효	-3293
▁격차	-3294
▁계정	-3295
▁다루	-3296
▁잠시	-3297
▁최대한	-3298
▁컨텐츠	-3299
▁함부로	-3300
22	-3301
▁땐	-3302
▁큽	-3303
라우	-3304
명규	-3305
트리	-3306
TBC	-3307
▁끼치	-3308
▁도로	-3309
▁입원	-3310
▁테러	-3311
▁낙태죄	-3312
▁아니면	-3313
▁썼	-3314
▁경비	-3315
▁고사	-3316
▁독재	-3317
▁변명	-3318
▁소문	-3319
▁지연	-3320
▁공권력	-3321
▁일어났	-3322
▁중소기업	-3323
▁갓	-3324
▁그거	-3325
▁극단	-3326
▁내세	-3327
▁달려	-3328
▁뛰어	-3329
▁비방	-3330
▁연결	-3331
▁체크	-3332
▁탈락	-3333
▁해고	-3334
칩니다	-3335
▁아무렇	-3336
▁인권위	-3337
▁징병제	-3338
▁v	-3339
▁가끔	-3340
▁군복	-3341
▁노무	-3342
▁떳떳	-3343
▁만연	-3344
▁배제	-3345
▁복직	-3346
▁써야	-3347
▁피땀	-3348
▁대상자	-3349
▁큽니다	-3350
▁해결책	-3351
▁앱	-3352
▁칠	-3353
▁공지	-3354
▁나아	-3355
▁나영	-3356
▁도망	-3357
▁빠르	-3358
▁요금	-3359
▁이리	-3360
▁점검	-3361
▁한자	-3362
▁300	-3363
▁사이버	-3364
▁정확히	-3365
▁빅	-3366
▁가난	-3367
▁느낄	-3368
▁며칠	-3369
▁모를	-3370
▁선량	-3371
▁아픔	-3372
▁영아	-3373
▁예능	-3374
▁징수	-3375
▁호칭	-3376
▁가까이	-3377
▁전명규	-3378
▁튜	-3379
무리	-3380
십시	-3381
은혜	-3382
▁가중	-3383
▁고의	-3384
▁고인	-3385
▁반응	-3386
▁야동	-3387
▁요소	-3388
▁이란	-3389
▁자부	-3390
▁즉시	-3391
▁두려워	-3392
▁바꿔야	-3393
▁특별법	-3394
▁공소시효	-3395
▁칸	-3396
까봐	-3397
ews	-3398
▁교시	-3399
▁기재	-3400
▁기피	-3401
▁블랙	-3402
▁소지	-3403
▁출판	-3404
▁휴식	-3405
▁들어와	-3406
▁긍정	-3407
▁대놓	-3408
▁본질	-3409
▁식사	-3410
▁질서	-3411
▁착용	-3412
▁편성	-3413
▁해명	-3414
▁1000	-3415
▁곡	-3416
▁깜	-3417
협회	-3418
▁경영	-3419
▁바르	-3420
▁살려	-3421
▁악마	-3422
▁억압	-3423
▁초과	-3424
십시오	-3425
▁라니요	-3426
▁아이템	-3427
▁유은혜	-3428
▁카메라	-3429
▁아십니까	-3430
rea	-3431
▁규칙	-3432
▁냐는	-3433
▁다행	-3434
▁망치	-3435
▁살해	-3436
▁수면	-3437
▁스피	-3438
▁아울	-3439
▁여건	-3440
▁인맥	-3441
▁지킬	-3442
▁택시	-3443
▁터지	-3444
▁올바르	-3445
▁장려금	-3446
▁체육관	-3447
▁2015	-3448
▁JTBC	-3449
▁푼	-3450
▁대리	-3451
▁데려	-3452
▁뭔가	-3453
▁진보	-3454
▁창출	-3455
▁회견	-3456
▁경쟁력	-3457
▁들어간	-3458
▁정규직	-3459
▁x	-3460
리카	-3461
▁26	-3462
▁교권	-3463
▁방통	-3464
▁벌어	-3465
▁선임	-3466
▁신중	-3467
▁퇴사	-3468
▁으므로	-3469
▁페이스북	-3470
po	-3471
se	-3472
▁돕	-3473
게임	-3474
조사	-3475
▁BJ	-3476
▁개설	-3477
▁경고	-3478
▁그곳	-3479
▁배운	-3480
▁사설	-3481
▁악질	-3482
▁으셨	-3483
▁한참	-3484
▁힘없	-3485
▁괴롭히	-3486
▁더러운	-3487
▁라면서	-3488
▁억지로	-3489
▁지나치	-3490
▁찾아가	-3491
▁검열	-3492
▁보낸	-3493
▁부리	-3494
▁불쾌	-3495
▁선행	-3496
▁소재	-3497
▁우롱	-3498
▁존엄	-3499
▁지출	-3500
▁추방	-3501
▁아울러	-3502
▁장현수	-3503
▁2002	-3504
▁다릅니다	-3505
▁갚	-3506
▁가혹	-3507
▁공포	-3508
▁난무	-3509
▁무지	-3510
▁방영	-3511
▁사행	-3512
▁속상	-3513
▁유죄	-3514
▁임명	-3515
▁주입	-3516
▁폐원	-3517
▁노무현	-3518
▁심석희	-3519
11	-3520
던지	-3521
즈음	-3522
▁가벼	-3523
▁공산	-3524
▁공직	-3525
▁기숙	-3526
▁부패	-3527
▁살리	-3528
▁외모	-3529
▁피부	-3530
▁한계	-3531
▁회피	-3532
▁흔히	-3533
▁힘써	-3534
▁맛	-3535
▁가볍	-3536
▁날짜	-3537
▁높여	-3538
▁맡겨	-3539
▁매장	-3540
▁영양	-3541
습니다	-3542
▁ᄏᄏᄏ	-3543
▁애국가	-3544
▁계십니다	-3545
de	-3546
▁낫	-3547
▁삽	-3548
▁36	-3549
▁tv	-3550
▁비밀	-3551
▁앞두	-3552
▁인도	-3553
▁주소	-3554
▁표준	-3555
▁회수	-3556
▁횡포	-3557
리스트	-3558
▁안타까	-3559
▁영향력	-3560
▁집행유예	-3561
▁꾼	-3562
무니	-3563
▁난리	-3564
▁먹이	-3565
▁실천	-3566
▁어마	-3567
▁예요	-3568
▁중대	-3569
▁진단	-3570
▁깁니다	-3571
▁뭡	-3572
▁좁	-3573
▁감동	-3574
▁군사	-3575
▁기반	-3576
▁기소	-3577
▁오해	-3578
▁위로	-3579
▁재벌	-3580
▁제보	-3581
▁구성원	-3582
▁나타나	-3583
▁뭡니까	-3584
▁찾아보	-3585
▁체육회	-3586
속히	-3587
이터	-3588
▁간부	-3589
▁다치	-3590
▁스토	-3591
▁응시	-3592
▁조기	-3593
▁주의	-3594
▁최악	-3595
▁표기	-3596
▁관련자	-3597
▁두려움	-3598
▁랍니다	-3599
▁수시로	-3600
▁위원장	-3601
▁아프리카	-3602
▁딴	-3603
바일	-3604
▁29	-3605
▁감수	-3606
▁권고	-3607
▁다리	-3608
▁버티	-3609
▁보였	-3610
▁복잡	-3611
▁부과	-3612
▁쉬운	-3613
▁양산	-3614
▁체제	-3615
▁출생	-3616
▁해석	-3617
▁획득	-3618
▁운동장	-3619
▁인정받	-3620
▁지켜야	-3621
▁터무니	-3622
신문	-3623
작용	-3624
▁각각	-3625
▁공중	-3626
▁나경	-3627
▁노조	-3628
▁매트	-3629
▁목격	-3630
▁바닥	-3631
▁부지	-3632
▁상징	-3633
▁식당	-3634
▁오보	-3635
▁외교	-3636
▁유발	-3637
▁자존	-3638
▁투입	-3639
▁파괴	-3640
▁꾸준히	-3641
▁모바일	-3642
▁스케이팅	-3643
PO	-3644
▁w	-3645
교사	-3646
▁멀리	-3647
▁벌점	-3648
▁부추	-3649
▁숙제	-3650
▁전수	-3651
▁특목	-3652
▁폭로	-3653
▁휴교	-3654
▁들어갈	-3655
▁마무리	-3656
▁탑	-3657
회장	-3658
▁가구	-3659
▁감히	-3660
▁건축	-3661
▁나름	-3662
▁신입	-3663
▁유통	-3664
▁적응	-3665
▁항공	-3666
▁흘려	-3667
▁계약직	-3668
▁떨어진	-3669
▁저소득층	-3670
이션	-3671
▁거든	-3672
▁거절	-3673
▁끝난	-3674
▁대충	-3675
▁따뜻	-3676
▁막말	-3677
▁범인	-3678
▁베트	-3679
▁상승	-3680
▁십쇼	-3681
▁입법	-3682
▁입증	-3683
▁취해	-3684
▁모자라	-3685
▁아닐까	-3686
▁주차장	-3687
동산	-3688
▁나눠	-3689
▁누릴	-3690
▁연계	-3691
▁출석	-3692
▁나경원	-3693
▁세계인	-3694
▁아픕니다	-3695
▁옥	-3696
▁펜	-3697
막식	-3698
서트	-3699
▁기원	-3700
▁대형	-3701
▁아가	-3702
▁연애	-3703
▁육성	-3704
▁취재	-3705
▁회계	-3706
▁교직원	-3707
▁언론인	-3708
▁이명박	-3709
▁인해서	-3710
축구협회	-3711
▁대한축구협회	-3712
여행	-3713
▁갖추	-3714
▁구역	-3715
▁권위	-3716
▁모순	-3717
▁아르	-3718
▁이승	-3719
▁즐겁	-3720
▁추행	-3721
▁통계	-3722
▁피하	-3723
▁휴일	-3724
라우마	-3725
▁선수단	-3726
▁트라우마	-3727
▁력	-3728
▁론	-3729
▁콜	-3730
▁가하	-3731
▁걸린	-3732
▁결제	-3733
▁교감	-3734
▁길래	-3735
▁마냥	-3736
▁사학	-3737
▁영원	-3738
▁우습	-3739
▁자제	-3740
▁전교	-3741
▁주체	-3742
▁차리	-3743
▁택배	-3744
▁확산	-3745
▁기숙사	-3746
▁사무실	-3747
▁엄연히	-3748
▁밟	-3749
▁액	-3750
▁엇	-3751
▁찢	-3752
▁그림	-3753
▁금전	-3754
▁당일	-3755
▁몰아	-3756
▁선언	-3757
▁성립	-3758
▁쓰이	-3759
▁약물	-3760
▁에어	-3761
▁웹툰	-3762
▁저렴	-3763
▁포상	-3764
▁학자	-3765
▁회생	-3766
아버지	-3767
▁법무부	-3768
면제	-3769
▁강릉	-3770
▁그날	-3771
▁나간	-3772
▁놀라	-3773
▁도구	-3774
▁바꿀	-3775
▁발휘	-3776
▁실상	-3777
▁와중	-3778
▁입주	-3779
▁편견	-3780
▁하키	-3781
▁협력	-3782
▁부작용	-3783
▁스피드	-3784
▁진정한	-3785
tions	-3786
▁병역면제	-3787
80	-3788
다나	-3789
말로	-3790
iew	-3791
▁내내	-3792
▁디자	-3793
▁막대	-3794
▁뭔지	-3795
▁욕구	-3796
▁원치	-3797
▁인건	-3798
▁조카	-3799
▁치밀	-3800
▁하교	-3801
▁데이트	-3802
▁몰라도	-3803
▁베스트	-3804
▁이어지	-3805
▁G	-3806
▁벤	-3807
우스	-3808
▁더군	-3809
▁망가	-3810
▁보인	-3811
▁언니	-3812
▁연관	-3813
▁프리	-3814
▁허리	-3815
▁횡령	-3816
▁힘드	-3817
▁바란다	-3818
▁부동산	-3819
▁자국민	-3820
▁저렇게	-3821
▁씻	-3822
▁엑	-3823
▁팝	-3824
혐오	-3825
▁감싸	-3826
▁부상	-3827
▁소외	-3828
▁소유	-3829
▁이때	-3830
▁이분	-3831
▁자퇴	-3832
▁좌절	-3833
▁시청료	-3834
▁자동차	-3835
▁특목고	-3836
40	-3837
▁벽	-3838
▁슈	-3839
▁푸	-3840
렴치	-3841
운전	-3842
▁35	-3843
▁구제	-3844
▁낮추	-3845
▁덕분	-3846
▁바보	-3847
▁변질	-3848
▁사소	-3849
▁쇼트	-3850
▁이웃	-3851
▁편향	-3852
▁현직	-3853
▁배우자	-3854
▁부회장	-3855
▁인건비	-3856
▁파렴치	-3857
▁남성혐오	-3858
oo	-3859
▁빽	-3860
▁앗	-3861
▁헬	-3862
가락	-3863
환경	-3864
▁교내	-3865
▁대법	-3866
▁성기	-3867
▁정황	-3868
▁조절	-3869
▁화면	-3870
eti	-3871
▁ᅮᅮ	-3872
▁검정	-3873
▁느낀	-3874
▁대가	-3875
▁배상	-3876
▁별도	-3877
▁보완	-3878
▁뻔뻔	-3879
▁상실	-3880
▁인종	-3881
▁종료	-3882
▁종사	-3883
▁창작	-3884
▁패럴	-3885
▁편안	-3886
신문고	-3887
▁거든요	-3888
▁콘서트	-3889
▁국민신문고	-3890
학년	-3891
▁넘쳐	-3892
▁드릴	-3893
▁마구	-3894
▁명단	-3895
▁모의	-3896
▁목사	-3897
▁소녀	-3898
▁압수	-3899
▁어째	-3900
▁여겨	-3901
▁중지	-3902
▁진료	-3903
▁탁상	-3904
▁표시	-3905
▁다녀야	-3906
▁더군다나	-3907
▁H	-3908
▁냉	-3909
▁룰	-3910
▁싱	-3911
카오	-3912
퇴근	-3913
▁공문	-3914
▁과제	-3915
▁대대	-3916
▁될지	-3917
▁비서	-3918
▁시끄	-3919
▁전원	-3920
▁카톡	-3921
▁흉악	-3922
▁동아리	-3923
▁바람직	-3924
etitions	-3925
▁f	-3926
▁녀	-3927
▁털	-3928
정부	-3929
▁끊임	-3930
▁미달	-3931
▁바탕	-3932
▁부를	-3933
▁수요	-3934
▁영국	-3935
▁완화	-3936
▁재발	-3937
▁조국	-3938
▁타당	-3939
▁해임	-3940
▁518	-3941
▁자세히	-3942
▁콘텐츠	-3943
▁립	-3944
▁규명	-3945
▁도중	-3946
▁독서	-3947
▁드려	-3948
▁맞춤	-3949
▁변하	-3950
▁생존	-3951
▁세기	-3952
▁언행	-3953
▁위상	-3954
▁육체	-3955
▁음원	-3956
▁준다	-3957
▁증언	-3958
▁짐승	-3959
▁튜버	-3960
▁펼치	-3961
▁상관없	-3962
▁카카오	-3963
▁학기제	-3964
▁굴	-3965
▁띄	-3966
▁래	-3967
트랙	-3968
▁내린	-3969
▁사찰	-3970
▁서슴	-3971
▁수원	-3972
▁원아	-3973
▁조현	-3974
▁형벌	-3975
▁흔들	-3976
바이트	-3977
▁쌍둥이	-3978
▁은메달	-3979
▁한국어	-3980
▁받아들이	-3981
▁턱	-3982
여금	-3983
티즌	-3984
▁구청	-3985
▁더럽	-3986
▁미루	-3987
▁민정	-3988
▁버려	-3989
▁베이	-3990
▁보충	-3991
▁야근	-3992
▁용품	-3993
▁이념	-3994
▁항목	-3995
▁드러나	-3996
▁미혼모	-3997
▁였으면	-3998
▁쇼트트랙	-3999
▁아르바이트	-4000
bc	-4001
공정	-4002
구나	-4003
▁서버	-4004
▁소용	-4005
▁써서	-4006
▁아라	-4007
▁원서	-4008
▁장사	-4009
▁재량	-4010
▁내보내	-4011
▁무너지	-4012
▁올라온	-4013
▁와이프	-4014
▁정신병	-4015
▁무서워서	-4016
▁패럴림픽	-4017
▁득	-4018
▁뮤	-4019
지부	-4020
▁경악	-4021
▁고정	-4022
▁마디	-4023
▁분리	-4024
▁불신	-4025
▁중립	-4026
▁지사	-4027
▁추억	-4028
▁한정	-4029
▁할려	-4030
낍니다	-4031
▁KBO	-4032
▁다니요	-4033
▁대놓고	-4034
▁몫	-4035
▁섬	-4036
▁거쳐	-4037
▁때려	-4038
▁반고	-4039
▁수수	-4040
▁운운	-4041
▁유학	-4042
▁이내	-4043
▁패널	-4044
▁홀로	-4045
▁후회	-4046
▁보호자	-4047
▁정해진	-4048
▁느낍니다	-4049
머님	-4050
▁간통	-4051
▁고문	-4052
▁관대	-4053
▁김기	-4054
▁바뀐	-4055
▁새끼	-4056
▁주기	-4057
▁지났	-4058
▁취미	-4059
▁베트남	-4060
▁뜯	-4061
거나	-4062
▁권익	-4063
▁너희	-4064
▁본다	-4065
▁승부	-4066
▁용어	-4067
▁유료	-4068
▁저하	-4069
▁차트	-4070
▁199	-4071
▁김정은	-4072
▁어쩌면	-4073
▁저질러	-4074
▁친환경	-4075
▁2020	-4076
▁깔	-4077
▁킹	-4078
가족	-4079
정기	-4080
지대	-4081
▁ht	-4082
▁강도	-4083
▁돌봐	-4084
▁무한	-4085
▁빈번	-4086
▁야기	-4087
▁엄연	-4088
▁창피	-4089
▁체벌	-4090
▁학비	-4091
▁활약	-4092
▁kbs	-4093
▁교육자	-4094
▁길거리	-4095
▁으니까요	-4096
▁이루어져야	-4097
총리	-4098
▁교류	-4099
▁방조	-4100
▁비정	-4101
▁아쉬	-4102
▁야자	-4103
▁운행	-4104
▁착취	-4105
▁철학	-4106
▁태아	-4107
▁피임	-4108
▁흘러	-4109
▁마땅히	-4110
▁수치심	-4111
▁안현수	-4112
▁이용자	-4113
▁꼼	-4114
민주	-4115
바로	-4116
혜원	-4117
▁관행	-4118
▁끝내	-4119
▁논술	-4120
▁물리	-4121
▁세종	-4122
▁수차	-4123
▁스런	-4124
▁실험	-4125
▁어울	-4126
▁여대	-4127
▁울산	-4128
▁유총	-4129
▁투기	-4130
▁호봉	-4131
en	-4132
▁꽤	-4133
리라	-4134
어마	-4135
프트	-4136
▁과장	-4137
▁관념	-4138
▁널리	-4139
▁맨날	-4140
▁무릎	-4141
▁앞장	-4142
▁어라	-4143
▁오류	-4144
▁의구	-4145
▁잠깐	-4146
▁지옥	-4147
▁출동	-4148
▁한쪽	-4149
▁휴지	-4150
▁가벼운	-4151
▁가치관	-4152
▁강원도	-4153
▁기획사	-4154
▁네티즌	-4155
▁다면서	-4156
▁불공정	-4157
▁자부심	-4158
▁2000	-4159
tp	-4160
▁i	-4161
▁숫	-4162
▁썬	-4163
▁날씨	-4164
▁누굴	-4165
▁사각	-4166
▁수년	-4167
▁승진	-4168
▁절반	-4169
▁혁신	-4170
▁옵니다	-4171
▁의구심	-4172
▁장애인	-4173
▁출산율	-4174
▁출퇴근	-4175
▁어마어마	-4176
▁빵	-4177
▁잣	-4178
규직	-4179
마자	-4180
이도	-4181
▁강국	-4182
▁고치	-4183
▁드렸	-4184
▁들리	-4185
▁마당	-4186
▁범법	-4187
▁법치	-4188
▁설문	-4189
▁시킵	-4190
▁엘리	-4191
▁이중	-4192
▁접할	-4193
▁지침	-4194
▁할까	-4195
▁사회생활	-4196
▁음주운전	-4197
▁싹	-4198
▁깊이	-4199
▁다녔	-4200
▁마루	-4201
▁밀어	-4202
▁벌이	-4203
▁보일	-4204
▁부실	-4205
▁부장	-4206
▁성격	-4207
▁시인	-4208
▁예외	-4209
▁욕심	-4210
▁은폐	-4211
▁입국	-4212
▁죽여	-4213
▁즐길	-4214
▁처사	-4215
▁최종	-4216
▁한편	-4217
▁행하	-4218
▁디자인	-4219
▁무서워	-4220
▁양육자	-4221
▁어째서	-4222
▁영원히	-4223
▁움직이	-4224
▁자마자	-4225
▁2012	-4226
▁받아들여	-4227
▁비정규직	-4228
▁맙	-4229
▁등장	-4230
▁면허	-4231
▁미수	-4232
▁밝혔	-4233
▁사죄	-4234
▁실적	-4235
▁인문	-4236
▁적당	-4237
▁특검	-4238
▁화합	-4239
▁떨어져	-4240
▁생활비	-4241
▁연예계	-4242
▁요즈음	-4243
▁태권도	-4244
▁하우스	-4245
▁사각지대	-4246
an	-4247
hn	-4248
▁ᄒ	-4249
▁닿	-4250
▁봄	-4251
▁거론	-4252
▁곳곳	-4253
▁넘기	-4254
▁막상	-4255
▁에이	-4256
▁올림	-4257
▁자막	-4258
▁작용	-4259
▁잣대	-4260
▁접종	-4261
▁줘서	-4262
▁출처	-4263
▁치우	-4264
▁침묵	-4265
▁케어	-4266
▁난이도	-4267
▁저지를	-4268
▁증명서	-4269
▁토요일	-4270
▁우월주의	-4271
▁d	-4272
▁PC	-4273
▁가려	-4274
▁대폭	-4275
▁명문	-4276
▁발상	-4277
▁발의	-4278
▁블로	-4279
▁숫자	-4280
▁스키	-4281
▁실장	-4282
▁예고	-4283
▁인척	-4284
▁입소	-4285
▁사업자	-4286
▁손혜원	-4287
▁넥	-4288
▁류	-4289
▁씌	-4290
란히	-4291
사고	-4292
ode	-4293
▁가게	-4294
▁끌려	-4295
▁남여	-4296
▁모델	-4297
▁모양	-4298
▁배웠	-4299
▁성욕	-4300
▁쏟아	-4301
▁염색	-4302
▁완벽	-4303
▁위함	-4304
▁유독	-4305
▁유투	-4306
▁학연	-4307
▁화폐	-4308
▁강력범	-4309
▁올라왔	-4310
▁이뤄지	-4311
▁학교장	-4312
13	-4313
or	-4314
▁롯	-4315
영향	-4316
페인	-4317
▁개성	-4318
▁걸려	-4319
▁고스	-4320
▁당국	-4321
▁명의	-4322
▁손실	-4323
▁여혐	-4324
▁예약	-4325
▁용납	-4326
▁위법	-4327
▁일가	-4328
▁전해	-4329
▁져서	-4330
▁초래	-4331
▁출발	-4332
▁타이	-4333
▁헌신	-4334
read	-4335
▁가이드	-4336
▁라고요	-4337
▁살펴보	-4338
▁수차례	-4339
▁악영향	-4340
▁알아주	-4341
▁어긋나	-4342
▁종사자	-4343
60	-4344
▁묶	-4345
벤트	-4346
▁거듭	-4347
▁극악	-4348
▁무관	-4349
▁번역	-4350
▁아깝	-4351
▁은지	-4352
▁제명	-4353
▁처해	-4354
▁탄핵	-4355
▁폐기	-4356
▁해질	-4357
▁현명	-4358
▁뛰어난	-4359
▁아이디	-4360
▁이벤트	-4361
▁부끄러운	-4362
19	-4363
▁냄	-4364
무실	-4365
바지	-4366
▁52	-4367
▁격려	-4368
▁김상	-4369
▁꿈꾸	-4370
▁법조	-4371
▁였을	-4372
▁오지	-4373
▁위탁	-4374
▁이른	-4375
▁이슬	-4376
▁지문	-4377
▁지우	-4378
▁커서	-4379
▁한창	-4380
▁핵심	-4381
▁괴롭힘	-4382
▁들어야	-4383
▁애니메	-4384
▁조용히	-4385
▁20180	-4386
▁기구	-4387
▁당제	-4388
▁도둑	-4389
▁로스	-4390
▁바뀔	-4391
▁사료	-4392
▁웃음	-4393
▁이재	-4394
▁자영	-4395
▁전락	-4396
▁취직	-4397
▁프랑	-4398
▁였으며	-4399
민주주의	-4400
▁자유민주주의	-4401
▁맹	-4402
▁왠	-4403
무도	-4404
▁강서	-4405
▁마트	-4406
▁법제	-4407
▁용인	-4408
▁종이	-4409
▁종종	-4410
▁즐거	-4411
▁채택	-4412
▁체포	-4413
▁추세	-4414
▁트위	-4415
▁향해	-4416
▁금지법	-4417
▁명백히	-4418
▁으려면	-4419
▁자영업	-4420
▁프랑스	-4421
▁한게임	-4422
▁2030	-4423
▁j	-4424
▁둥	-4425
두리	-4426
▁경남	-4427
▁내몰	-4428
▁데뷔	-4429
▁들이	-4430
▁또래	-4431
▁롯데	-4432
▁무단	-4433
▁세무	-4434
▁여지	-4435
▁일간	-4436
▁조례	-4437
▁종류	-4438
▁향후	-4439
▁확신	-4440
▁졌으면	-4441
▁아름다운	-4442
▁애니메이션	-4443
시고	-4444
▁교재	-4445
▁내주	-4446
▁단기	-4447
▁막막	-4448
▁상습	-4449
▁상영	-4450
▁상해	-4451
▁성숙	-4452
▁소음	-4453
▁수저	-4454
▁언젠	-4455
▁열람	-4456
▁오빠	-4457
▁우대	-4458
▁위장	-4459
▁장점	-4460
▁적발	-4461
▁전남	-4462
▁전담	-4463
▁측면	-4464
▁공직자	-4465
▁이슬람	-4466
▁지나친	-4467
▁청정기	-4468
▁2013	-4469
EC	-4470
at	-4471
he	-4472
▁랍	-4473
▁맥	-4474
▁엠	-4475
▁춤	-4476
방위	-4477
어났	-4478
tic	-4479
▁가량	-4480
▁가사	-4481
▁공고	-4482
▁공단	-4483
▁관할	-4484
▁노리	-4485
▁독점	-4486
▁무려	-4487
▁바쁜	-4488
▁반박	-4489
▁양보	-4490
▁으실	-4491
▁전역	-4492
▁커지	-4493
▁평양	-4494
▁관광객	-4495
▁예비군	-4496
▁트위터	-4497
▁이루어진	-4498
70	-4499
▁닝	-4500
▁가방	-4501
▁가상	-4502
▁공론	-4503
▁대국	-4504
▁동기	-4505
▁될까	-4506
▁묵인	-4507
▁보편	-4508
▁수천	-4509
▁여당	-4510
▁줄일	-4511
▁체하	-4512
▁특기	-4513
▁파면	-4514
▁한류	-4515
▁로스쿨	-4516
▁부적절	-4517
▁으리라	-4518
▁제주도	-4519
al	-4520
▁짝	-4521
▁펴	-4522
풀이	-4523
▁김성	-4524
▁김지	-4525
▁낙인	-4526
▁대선	-4527
▁뒤집	-4528
▁마을	-4529
▁멀쩡	-4530
▁민사	-4531
▁보안	-4532
▁선물	-4533
▁선출	-4534
▁아쉽	-4535
▁어렸	-4536
▁오염	-4537
▁일수	-4538
▁정착	-4539
▁특권	-4540
▁현제	-4541
▁게시물	-4542
▁스러워	-4543
▁준다면	-4544
무지	-4545
POP	-4546
▁교대	-4547
▁구축	-4548
▁구타	-4549
▁균형	-4550
▁도전	-4551
▁따위	-4552
▁매수	-4553
▁밀려	-4554
▁사명	-4555
▁상무	-4556
▁쓰여	-4557
▁어르	-4558
▁역량	-4559
▁연속	-4560
▁자본	-4561
▁조리	-4562
▁좌석	-4563
▁책상	-4564
▁초기	-4565
▁치부	-4566
▁파탄	-4567
▁호텔	-4568
▁000	-4569
▁간다고	-4570
▁몰라라	-4571
▁손가락	-4572
▁엄청나	-4573
▁동성애자	-4574
ml	-4575
스럽	-4576
nhn	-4577
▁공장	-4578
▁기저	-4579
▁무용	-4580
▁복장	-4581
▁봐서	-4582
▁붙여	-4583
▁쓸데	-4584
▁어떡	-4585
▁업소	-4586
▁제거	-4587
▁추운	-4588
▁클릭	-4589
▁편집	-4590
▁피우	-4591
답니다	-4592
▁aid	-4593
▁검색어	-4594
▁부추기	-4595
▁지지자	-4596
▁하여금	-4597
▁블랙리스트	-4598
▁V	-4599
▁뼈	-4600
▁쫓	-4601
다보	-4602
문화	-4603
일비	-4604
▁거두	-4605
▁계실	-4606
▁금융	-4607
▁기량	-4608
▁끌어	-4609
▁떠오	-4610
▁문학	-4611
▁붙이	-4612
▁비행	-4613
▁실형	-4614
▁엑소	-4615
▁예의	-4616
▁유승	-4617
▁재심	-4618
▁주사	-4619
▁진다	-4620
▁포장	-4621
▁110	-4622
▁남북한	-4623
▁에게서	-4624
▁깎	-4625
▁흙	-4626
뉴스	-4627
주부	-4628
▁간식	-4629
▁내역	-4630
▁단위	-4631
▁도착	-4632
▁박수	-4633
▁에다	-4634
▁으론	-4635
▁이자	-4636
▁인류	-4637
▁자전	-4638
▁적합	-4639
▁정직	-4640
▁정체	-4641
▁진지	-4642
▁통장	-4643
▁할인	-4644
▁회담	-4645
▁후손	-4646
▁기저귀	-4647
▁아마도	-4648
▁의해서	-4649
▁주어지	-4650
15	-4651
on	-4652
ou	-4653
보기	-4654
아먹	-4655
역시	-4656
저기	-4657
화문	-4658
▁격리	-4659
▁그녀	-4660
▁급급	-4661
▁김연	-4662
▁마감	-4663
▁맞이	-4664
▁발탁	-4665
▁비단	-4666
▁소설	-4667
▁실기	-4668
▁아웃	-4669
▁예매	-4670
▁의자	-4671
▁이듭	-4672
▁자분	-4673
▁정한	-4674
▁페지	-4675
▁편한	-4676
▁허세	-4677
일비재	-4678
▁EBS	-4679
▁간통죄	-4680
▁들어온	-4681
▁맙시다	-4682
▁무거운	-4683
▁신문사	-4684
▁위해선	-4685
▁자전거	-4686
▁KPOP	-4687
▁고스란히	-4688
▁비일비재	-4689
▁여기저기	-4690
경기	-4691
란드	-4692
스터	-4693
책감	-4694
▁in	-4695
▁경질	-4696
▁교칙	-4697
▁다닌	-4698
▁되돌	-4699
▁물러	-4700
▁백만	-4701
▁성관	-4702
▁식구	-4703
▁쓰러	-4704
▁열린	-4705
▁욕하	-4706
▁인신	-4707
▁입양	-4708
▁총장	-4709
▁폐교	-4710
닙니다	-4711
0000	-4712
▁당당히	-4713
▁들으면	-4714
▁부끄러	-4715
▁서울대	-4716
▁편의점	-4717
▁할려고	-4718
HD	-4719
▁런	-4720
사관	-4721
와서	-4722
터링	-4723
▁경향	-4724
▁국당	-4725
▁기르	-4726
▁나갔	-4727
▁다스	-4728
▁목포	-4729
▁악행	-4730
▁연말	-4731
▁올릴	-4732
▁요새	-4733
▁유착	-4734
▁이겨	-4735
▁이영	-4736
▁저항	-4737
▁처지	-4738
▁출장	-4739
▁평일	-4740
▁후반	-4741
▁엄중히	-4742
▁재미있	-4743
▁주입식	-4744
▁news	-4745
OC	-4746
▁y	-4747
▁횟	-4748
내리	-4749
부패	-4750
사람	-4751
▁관해	-4752
▁긴급	-4753
▁김민	-4754
▁놀랐	-4755
▁물가	-4756
▁민감	-4757
▁배구	-4758
▁보미	-4759
▁산하	-4760
▁소장	-4761
▁승인	-4762
▁실무	-4763
▁심히	-4764
▁업계	-4765
▁원비	-4766
▁이만	-4767
▁입히	-4768
▁청춘	-4769
▁치루	-4770
▁태풍	-4771
▁해설	-4772
▁들어갔	-4773
▁봉사자	-4774
▁블로그	-4775
▁여고생	-4776
▁으라는	-4777
▁재수사	-4778
▁한다니	-4779
▁부정부패	-4780
▁갇	-4781
▁젠	-4782
▁픽	-4783
▁군데	-4784
▁기도	-4785
▁기말	-4786
▁방침	-4787
▁사리	-4788
▁신용	-4789
▁신장	-4790
▁여군	-4791
▁영장	-4792
▁자발	-4793
▁주부	-4794
▁헤아	-4795
▁형제	-4796
▁대법원	-4797
▁어야지	-4798
▁죄책감	-4799
▁행정부	-4800
▁버립니다	-4801
▁할아버지	-4802
et	-4803
▁l	-4804
▁떄	-4805
이크	-4806
쟁이	-4807
혀서	-4808
▁개방	-4809
▁걸음	-4810
▁도리	-4811
▁모니	-4812
▁부도	-4813
▁숨기	-4814
▁악화	-4815
▁은퇴	-4816
▁인근	-4817
▁저번	-4818
▁참담	-4819
▁키즈	-4820
▁횟수	-4821
▁흐름	-4822
카메라	-4823
▁625	-4824
▁도무지	-4825
▁비디오	-4826
▁어르신	-4827
▁일요일	-4828
▁친일파	-4829
▁학자금	-4830
▁보냅니다	-4831
▁몰래카메라	-4832
▁뉘	-4833
▁맺	-4834
시코	-4835
화점	-4836
pop	-4837
▁걸어	-4838
▁구해	-4839
▁국무	-4840
▁메인	-4841
▁문구	-4842
▁사범	-4843
▁상사	-4844
▁소망	-4845
▁입금	-4846
▁잔치	-4847
▁주어	-4848
▁지장	-4849
▁피고	-4850
▁한남	-4851
▁허다	-4852
▁협조	-4853
▁호주	-4854
▁흥미	-4855
▁노동부	-4856
▁몰아가	-4857
▁사라진	-4858
▁생겨나	-4859
▁언젠가	-4860
▁유승준	-4861
▁지난해	-4862
▁힘든데	-4863
readnhn	-4864
▁petitions	-4865
▁쇠	-4866
▁욱	-4867
센트	-4868
워크	-4869
지현	-4870
sid	-4871
▁33	-4872
▁PD	-4873
▁감안	-4874
▁개학	-4875
▁글자	-4876
▁금수	-4877
▁김영	-4878
▁깨닫	-4879
▁둘러	-4880
▁립니	-4881
▁매스	-4882
▁모임	-4883
▁법령	-4884
▁실격	-4885
▁심화	-4886
▁전업	-4887
▁집값	-4888
▁초반	-4889
▁형법	-4890
▁혜화	-4891
▁강서구	-4892
▁개막식	-4893
▁광화문	-4894
▁김연아	-4895
▁불안감	-4896
▁수없이	-4897
▁지지율	-4898
▁코리아	-4899
▁돌아다니	-4900
▁큐	-4901
▁공통	-4902
▁괴로	-4903
▁는대	-4904
▁따돌	-4905
▁라뇨	-4906
▁라이	-4907
▁마크	-4908
▁멈추	-4909
▁미용	-4910
▁불량	-4911
▁시비	-4912
▁엔터	-4913
▁오죽	-4914
▁유니	-4915
▁전과	-4916
▁최순	-4917
▁크림	-4918
▁하물	-4919
▁후진	-4920
tion	-4921
▁검찰청	-4922
▁시상식	-4923
▁일부러	-4924
▁조재범	-4925
▁끊임없이	-4926
▁생깁니다	-4927
▁보여집니다	-4928
▁멕	-4929
나다	-4930
운동	-4931
천지	-4932
tps	-4933
▁pc	-4934
▁금치	-4935
▁내렸	-4936
▁뇌물	-4937
▁다소	-4938
▁당선	-4939
▁묵살	-4940
▁생일	-4941
▁시효	-4942
▁아나	-4943
▁알림	-4944
▁오른	-4945
▁유행	-4946
▁이틀	-4947
▁재직	-4948
▁조회	-4949
▁주거	-4950
▁질병	-4951
▁청문	-4952
▁행해	-4953
▁150	-4954
▁경기력	-4955
▁달라지	-4956
▁똑바로	-4957
▁백화점	-4958
▁시험지	-4959
▁하물며	-4960
▁시킵니다	-4961
▁연합뉴스	-4962
SD	-4963
▁껍	-4964
▁섭	-4965
▁셈	-4966
▁앵	-4967
임금	-4968
잡이	-4969
크로	-4970
▁과외	-4971
▁기독	-4972
▁단정	-4973
▁망하	-4974
▁보살	-4975
▁분석	-4976
▁약간	-4977
▁옮겨	-4978
▁의존	-4979
▁지망	-4980
▁채무	-4981
▁해택	-4982
▁확충	-4983
▁성교육	-4984
▁이래서	-4985
▁못한다면	-4986
▁짖	-4987
▁쾌	-4988
니스	-4989
▁32	-4990
▁가졌	-4991
▁공급	-4992
▁박정	-4993
▁분류	-4994
▁업적	-4995
▁오심	-4996
▁입사	-4997
▁직종	-4998
▁충남	-4999
▁취약	-5000
▁패딩	-5001
▁한들	-5002
▁IOC	-5003
▁가져가	-5004
▁부조리	-5005
▁소프트	-5006
▁책임자	-5007
▁퍼센트	-5008
▁학년도	-5009
▁한다며	-5010
▁했으며	-5011
ticle	-5012
▁똥	-5013
▁벅	-5014
▁킴	-5015
어버	-5016
mid	-5017
▁48	-5018
▁간접	-5019
▁결승	-5020
▁기각	-5021
▁농단	-5022
▁당황	-5023
▁만만	-5024
▁무작	-5025
▁반하	-5026
▁빠진	-5027
▁상호	-5028
▁수렴	-5029
▁수장	-5030
▁아산	-5031
▁안일	-5032
▁여태	-5033
▁연극	-5034
▁예선	-5035
▁올랐	-5036
▁우린	-5037
▁재범	-5038
▁정가	-5039
▁제사	-5040
▁젠더	-5041
▁증인	-5042
▁추석	-5043
▁충족	-5044
▁친정	-5045
▁화고	-5046
▁감독관	-5047
▁멕시코	-5048
▁오늘날	-5049
▁오지환	-5050
▁마십시오	-5051
▁최저임금	-5052
▁합니다만	-5053
90	-5054
TN	-5055
동생	-5056
부모	-5057
순환	-5058
▁건가	-5059
▁건립	-5060
▁경북	-5061
▁계좌	-5062
▁마주	-5063
▁무자	-5064
▁물어	-5065
▁배움	-5066
▁부가	-5067
▁부자	-5068
▁불행	-5069
▁사복	-5070
▁소급	-5071
▁수립	-5072
▁시원	-5073
▁오랫	-5074
▁응급	-5075
▁점차	-5076
▁정기	-5077
▁조합	-5078
▁주권	-5079
▁지능	-5080
▁지수	-5081
▁직권	-5082
▁혼인	-5083
▁개정안	-5084
▁당해야	-5085
▁서지현	-5086
▁악순환	-5087
▁에어컨	-5088
▁케이블	-5089
▁흉악범	-5090
▁에서부터	-5091
▁짊	-5092
디션	-5093
로드	-5094
▁공모	-5095
▁관여	-5096
▁그치	-5097
▁끊이	-5098
▁나빠	-5099
▁로또	-5100
▁설득	-5101
▁알바	-5102
▁업종	-5103
▁작금	-5104
▁즐겨	-5105
▁총리	-5106
▁측정	-5107
▁칭찬	-5108
▁패스	-5109
▁공기업	-5110
▁내세우	-5111
▁다가오	-5112
▁마스크	-5113
▁벌금형	-5114
▁신다고	-5115
▁조속히	-5116
▁앨	-5117
소연	-5118
화국	-5119
▁거대	-5120
▁견디	-5121
▁극복	-5122
▁남발	-5123
▁무언	-5124
▁발굴	-5125
▁발령	-5126
▁본래	-5127
▁서술	-5128
▁숙명	-5129
▁시일	-5130
▁신성	-5131
▁유전	-5132
▁이라	-5133
▁장비	-5134
▁차마	-5135
▁향한	-5136
mode	-5137
▁대국민	-5138
▁돌려주	-5139
▁언제나	-5140
▁외국어	-5141
▁유가족	-5142
▁현행법	-5143
▁량	-5144
▁멘	-5145
▁융	-5146
버스	-5147
조작	-5148
sec	-5149
▁거치	-5150
▁김경	-5151
▁드립	-5152
▁따름	-5153
▁매주	-5154
▁문서	-5155
▁법규	-5156
▁병사	-5157
▁오픈	-5158
▁적성	-5159
▁전술	-5160
▁제약	-5161
▁질환	-5162
▁추악	-5163
▁타투	-5164
▁토토	-5165
▁편입	-5166
▁활발	-5167
▁본보기	-5168
▁어려서	-5169
▁자존심	-5170
▁저학년	-5171
▁책임질	-5172
▁다닙니다	-5173
▁만듭니다	-5174
▁모의고사	-5175
▁승부조작	-5176
▁오랫동안	-5177
ᅳᅳ	-5178
▁앓	-5179
덩이	-5180
방송	-5181
ECD	-5182
▁LG	-5183
▁갑작	-5184
▁고령	-5185
▁관점	-5186
▁국익	-5187
▁기쁨	-5188
▁놔두	-5189
▁누명	-5190
▁만일	-5191
▁먼지	-5192
▁무척	-5193
▁버릴	-5194
▁본론	-5195
▁설정	-5196
▁역대	-5197
▁월세	-5198
▁일원	-5199
▁자비	-5200
▁전북	-5201
▁주먹	-5202
▁채워	-5203
▁청장	-5204
▁추후	-5205
▁파견	-5206
▁피곤	-5207
▁나와야	-5208
▁일으킨	-5209
▁정교사	-5210
▁하소연	-5211
modeL	-5212
readnhnmodeL	-5213
14	-5214
FA	-5215
▁댄	-5216
▁뭉	-5217
▁섞	-5218
▁숭	-5219
네요	-5220
린다	-5221
▁고집	-5222
▁관중	-5223
▁관찰	-5224
▁나마	-5225
▁단독	-5226
▁동반	-5227
▁먹여	-5228
▁박사	-5229
▁변제	-5230
▁분쟁	-5231
▁비웃	-5232
▁숙박	-5233
▁스펙	-5234
▁전두	-5235
▁절망	-5236
▁정현	-5237
▁지극	-5238
▁지대	-5239
▁훈장	-5240
▁노래방	-5241
▁는군요	-5242
▁돈벌이	-5243
▁박정희	-5244
▁앞장서	-5245
▁엘리트	-5246
▁영화관	-5247
▁턱없이	-5248
▁OECD	-5249
readnhnmodeLSD	-5250
17	-5251
▁쪼	-5252
▁촌	-5253
저씨	-5254
하고	-5255
▁강점	-5256
▁기성	-5257
▁나날	-5258
▁몰려	-5259
▁무식	-5260
▁속이	-5261
▁시합	-5262
▁안중	-5263
▁욕먹	-5264
▁일선	-5265
▁전세	-5266
▁정년	-5267
▁주년	-5268
▁추적	-5269
▁추측	-5270
▁치열	-5271
▁평준	-5272
▁화재	-5273
▁흘린	-5274
▁교육법	-5275
▁기독교	-5276
▁늘어날	-5277
▁아저씨	-5278
▁체육복	-5279
▁페이지	-5280
▁눌	-5281
▁폼	-5282
시대	-5283
▁ᄒᄒ	-5284
▁갈아	-5285
▁고맙	-5286
▁고양	-5287
▁국영	-5288
▁김포	-5289
▁납치	-5290
▁뉘우	-5291
▁다섯	-5292
▁레기	-5293
▁반발	-5294
▁발찌	-5295
▁방어	-5296
▁부러	-5297
▁안겨	-5298
▁입맛	-5299
▁저해	-5300
▁전략	-5301
▁파일	-5302
▁교무실	-5303
▁국정원	-5304
▁그런지	-5305
▁명확히	-5306
▁살인자	-5307
▁어긋난	-5308
▁아이디어	-5309
▁유치원생	-5310
▁으십니다	-5311
33	-5312
▁멸	-5313
▁묘	-5314
던가	-5315
들이	-5316
항공	-5317
▁견제	-5318
▁골프	-5319
▁공제	-5320
▁돼야	-5321
▁보유	-5322
▁복수	-5323
▁부합	-5324
▁상업	-5325
▁실내	-5326
▁커피	-5327
▁파업	-5328
▁패배	-5329
▁폐간	-5330
▁학군	-5331
▁해제	-5332
▁혹여	-5333
▁힘쓰	-5334
▁국방부	-5335
▁김상곤	-5336
▁더구나	-5337
▁물어야	-5338
▁박탈감	-5339
▁삽니다	-5340
▁어려울	-5341
▁이사장	-5342
▁전두환	-5343
▁지극히	-5344
▁캐나다	-5345
▁https	-5346
47	-5347
st	-5348
▁r	-5349
▁덧	-5350
▁붕	-5351
별력	-5352
봐도	-5353
세지	-5354
토록	-5355
▁각하	-5356
▁고충	-5357
▁관공	-5358
▁구멍	-5359
▁구별	-5360
▁그간	-5361
▁꺼내	-5362
▁농어	-5363
▁물려	-5364
▁물품	-5365
▁설계	-5366
▁수록	-5367
▁요인	-5368
▁원망	-5369
▁이윤	-5370
▁임기	-5371
▁전시	-5372
▁조중	-5373
▁중시	-5374
▁차등	-5375
▁착각	-5376
▁한숨	-5377
▁화나	-5378
▁맘대로	-5379
▁배워야	-5380
▁올라와	-5381
▁으려는	-5382
▁g	-5383
▁잦	-5384
▁젖	-5385
▁틈	-5386
▁험	-5387
갈이	-5388
운서	-5389
인트	-5390
줘야	-5391
퍼스	-5392
하나	-5393
▁감금	-5394
▁걸맞	-5395
▁계열	-5396
▁고유	-5397
▁관하	-5398
▁괜히	-5399
▁꽃뱀	-5400
▁꾸미	-5401
▁담사	-5402
▁돼지	-5403
▁드루	-5404
▁들려	-5405
▁성민	-5406
▁소홀	-5407
▁신생	-5408
▁아끼	-5409
▁압력	-5410
▁야당	-5411
▁용도	-5412
▁위조	-5413
▁잔혹	-5414
▁저렇	-5415
▁전직	-5416
▁조상	-5417
▁추락	-5418
▁포탈	-5419
▁해킹	-5420
▁oid	-5421
▁간다는	-5422
▁김지은	-5423
▁다름없	-5424
▁따돌림	-5425
▁알려진	-5426
▁혹시나	-5427
▁기말고사	-5428
▁대한항공	-5429
it	-5430
▁깍	-5431
▁뱃	-5432
▁엿	-5433
물관	-5434
▁강압	-5435
▁광부	-5436
▁냄새	-5437
▁당첨	-5438
▁동포	-5439
▁배워	-5440
▁신규	-5441
▁알렸	-5442
▁애인	-5443
▁어기	-5444
▁염원	-5445
▁이민	-5446
▁잊혀	-5447
▁주심	-5448
▁천사	-5449
▁펜스	-5450
▁학문	-5451
▁해선	-5452
▁UHD	-5453
▁YTN	-5454
▁공화국	-5455
▁관공서	-5456
▁급식비	-5457
▁기다려	-5458
▁농어촌	-5459
▁다고요	-5460
▁야구장	-5461
▁에다가	-5462
▁줍시다	-5463
▁극악무도	-5464
▁독립운동	-5465
▁아나운서	-5466
midsec	-5467
▁혀	-5468
고리	-5469
눈물	-5470
지르	-5471
▁ᅳᅳ	-5472
▁가로	-5473
▁간섭	-5474
▁개별	-5475
▁과감	-5476
▁보존	-5477
▁불륜	-5478
▁비례	-5479
▁신념	-5480
▁영웅	-5481
▁전력	-5482
▁조폭	-5483
▁좌파	-5484
▁코스	-5485
▁홍대	-5486
▁112	-5487
▁기울여	-5488
▁다는데	-5489
▁떨어졌	-5490
▁메세지	-5491
▁보여준	-5492
▁보험료	-5493
▁사라졌	-5494
▁수수료	-5495
▁신천지	-5496
▁피눈물	-5497
▁사라져야	-5498
▁수학여행	-5499
▁랭	-5500
고시	-5501
▁나뉘	-5502
▁뒤늦	-5503
▁매진	-5504
▁모으	-5505
▁유산	-5506
▁자랄	-5507
▁자르	-5508
▁접했	-5509
▁지니	-5510
▁책정	-5511
▁청탁	-5512
▁호흡	-5513
▁강점기	-5514
▁나온다	-5515
▁들어왔	-5516
▁뭔가요	-5517
▁으세요	-5518
▁은데요	-5519
▁5000	-5520
▁공산주의	-5521
▁교통사고	-5522
▁느껴집니다	-5523
16	-5524
TS	-5525
▁W	-5526
▁놨	-5527
▁닉	-5528
▁짤	-5529
▁켜	-5530
수색	-5531
어리	-5532
준영	-5533
▁02	-5534
▁갔다	-5535
▁걸쳐	-5536
▁광장	-5537
▁국격	-5538
▁극심	-5539
▁낮춰	-5540
▁묵묵	-5541
▁미숙	-5542
▁미지	-5543
▁박스	-5544
▁서명	-5545
▁선전	-5546
▁세여	-5547
▁신속	-5548
▁알릴	-5549
▁애매	-5550
▁앨범	-5551
▁염려	-5552
▁워너	-5553
▁으러	-5554
▁장교	-5555
▁정답	-5556
▁지배	-5557
▁치안	-5558
▁편법	-5559
▁펼쳐	-5560
▁화해	-5561
▁방송인	-5562
▁봅시다	-5563
▁사이비	-5564
▁조재현	-5565
▁검정고시	-5566
▁문화재청	-5567
▁전업주부	-5568
▁카카오톡	-5569
ch	-5570
▁끄	-5571
▁56	-5572
▁공항	-5573
▁까진	-5574
▁꼬박	-5575
▁누나	-5576
▁모병	-5577
▁무사	-5578
▁미사	-5579
▁범행	-5580
▁선도	-5581
▁소원	-5582
▁수석	-5583
▁쉬쉬	-5584
▁시리	-5585
▁신혼	-5586
▁엉망	-5587
▁옮기	-5588
▁자산	-5589
▁준하	-5590
▁지표	-5591
▁크리	-5592
▁틀린	-5593
▁하위	-5594
▁할당	-5595
▁합성	-5596
▁환영	-5597
▁드러내	-5598
▁모조리	-5599
▁몰라서	-5600
▁박물관	-5601
▁우선시	-5602
▁관계없이	-5603
▁심합니다	-5604
▁하나하나	-5605
▁R	-5606
▁윈	-5607
▁콩	-5608
든지	-5609
슬림	-5610
추어	-5611
▁경각	-5612
▁고개	-5613
▁교묘	-5614
▁글로	-5615
▁내릴	-5616
▁넘겨	-5617
▁단점	-5618
▁대접	-5619
▁마인	-5620
▁멍청	-5621
▁무궁	-5622
▁비자	-5623
▁사비	-5624
▁사직	-5625
▁술집	-5626
▁시골	-5627
▁앞둔	-5628
▁외벌	-5629
▁일까	-5630
▁잡혀	-5631
▁전주	-5632
▁전파	-5633
▁팬덤	-5634
▁풍선	-5635
▁피파	-5636
▁해진	-5637
▁무슬림	-5638
▁성실히	-5639
▁어머님	-5640
▁어울리	-5641
▁정해져	-5642
▁줄어드	-5643
▁테스트	-5644
▁피고인	-5645
▁했으니	-5646
ation	-5647
▁2022	-5648
▁아니한다	-5649
▁압수수색	-5650
23	-5651
om	-5652
▁랜	-5653
▁옵	-5654
▁춘	-5655
셔츠	-5656
▁41	-5657
▁99	-5658
▁개그	-5659
▁구현	-5660
▁농락	-5661
▁눈감	-5662
▁무게	-5663
▁문법	-5664
▁스쿨	-5665
▁슬픈	-5666
▁영광	-5667
▁응답	-5668
▁의대	-5669
▁이관	-5670
▁일시	-5671
▁정산	-5672
▁지명	-5673
▁충실	-5674
▁캐릭	-5675
▁토록	-5676
▁히트	-5677
▁경각심	-5678
▁관람료	-5679
▁불가피	-5680
▁수사관	-5681
▁시끄럽	-5682
▁싸이트	-5683
▁유니폼	-5684
▁할려면	-5685
▁이루어질	-5686
27	-5687
▁셀	-5688
▁쭉	-5689
는데	-5690
▁UN	-5691
▁YG	-5692
▁과금	-5693
▁날조	-5694
▁낮잠	-5695
▁노릇	-5696
▁떠올	-5697
▁메뉴	-5698
▁반인	-5699
▁배경	-5700
▁배신	-5701
▁불문	-5702
▁사원	-5703
▁사후	-5704
▁신랑	-5705
▁악법	-5706
▁영리	-5707
▁저버	-5708
▁지체	-5709
▁초범	-5710
▁타격	-5711
▁특강	-5712
▁학위	-5713
▁현황	-5714
▁글로벌	-5715
▁매크로	-5716
▁에이즈	-5717
▁조중동	-5718
▁출판사	-5719
▁프로젝	-5720
▁대학원생	-5721
▁아마추어	-5722
midsecsid	-5723
no	-5724
▁u	-5725
▁둬	-5726
▁땜	-5727
▁렀	-5728
▁팅	-5729
▁핀	-5730
갱이	-5731
무원	-5732
▁감기	-5733
▁감추	-5734
▁갖춘	-5735
▁단설	-5736
▁미명	-5737
▁미칠	-5738
▁분단	-5739
▁비상	-5740
▁사연	-5741
▁상주	-5742
▁설마	-5743
▁스승	-5744
▁업주	-5745
▁였음	-5746
▁인민	-5747
▁절감	-5748
▁접촉	-5749
▁토대	-5750
▁환수	-5751
린다고	-5752
복지부	-5753
▁갈리아	-5754
▁따라가	-5755
▁뜨거운	-5756
▁무언가	-5757
▁박지성	-5758
▁브랜드	-5759
▁스토킹	-5760
▁쓸데없	-5761
▁우연히	-5762
▁캠페인	-5763
▁학부형	-5764
▁kpop	-5765
▁그러니까	-5766
▁명예훼손	-5767
▁모니터링	-5768
▁프로젝트	-5769
▁보건복지부	-5770
av	-5771
▁쫒	-5772
너무	-5773
▁강행	-5774
▁건너	-5775
▁고지	-5776
▁금방	-5777
▁까요	-5778
▁깨달	-5779
▁노후	-5780
▁부딪	-5781
▁성년	-5782
▁수여	-5783
▁순서	-5784
▁심심	-5785
▁안보	-5786
▁어지	-5787
▁원한	-5788
▁적시	-5789
▁지르	-5790
▁체전	-5791
▁취한	-5792
▁크기	-5793
▁탄생	-5794
▁학사	-5795
▁가져야	-5796
▁김기덕	-5797
▁다녀오	-5798
▁상당수	-5799
▁신생아	-5800
▁아파서	-5801
▁주인공	-5802
▁청문회	-5803
▁키워야	-5804
▁통신사	-5805
▁포인트	-5806
▁국무총리	-5807
▁모자이크	-5808
▁쿠	-5809
급식	-5810
재단	-5811
종환	-5812
▁가관	-5813
▁갈취	-5814
▁경상	-5815
▁공범	-5816
▁귀한	-5817
▁그야	-5818
▁김치	-5819
▁내지	-5820
▁녹음	-5821
▁도배	-5822
▁때로	-5823
▁메일	-5824
▁미흡	-5825
▁배출	-5826
▁볼모	-5827
▁봐요	-5828
▁부재	-5829
▁불합	-5830
▁새롭	-5831
▁시범	-5832
▁실용	-5833
▁실효	-5834
▁심장	-5835
▁쓸모	-5836
▁안락	-5837
▁어깨	-5838
▁일자	-5839
▁일종	-5840
▁장병	-5841
▁주목	-5842
▁중반	-5843
▁직위	-5844
▁치뤄	-5845
▁풀려	-5846
▁한가	-5847
▁현지	-5848
▁간다면	-5849
▁넘쳐나	-5850
▁당해도	-5851
▁드려요	-5852
▁마인드	-5853
▁바꿔서	-5854
▁빨갱이	-5855
▁스러웠	-5856
▁암표상	-5857
▁엔트리	-5858
▁영양사	-5859
▁예술인	-5860
▁정준영	-5861
▁찾아볼	-5862
▁혜화역	-5863
▁2011	-5864
▁꽉	-5865
▁춥	-5866
교통	-5867
지사	-5868
▁가계	-5869
▁가깝	-5870
▁군가	-5871
▁대만	-5872
▁댄스	-5873
▁모범	-5874
▁변호	-5875
▁별거	-5876
▁복원	-5877
▁색깔	-5878
▁수첩	-5879
▁연일	-5880
▁의뢰	-5881
▁작전	-5882
▁정비	-5883
▁종결	-5884
▁지쳐	-5885
▁직전	-5886
▁청렴	-5887
▁축하	-5888
▁파트	-5889
▁하도	-5890
▁해졌	-5891
▁해치	-5892
▁198	-5893
▁가르칠	-5894
▁라디오	-5895
▁몰상식	-5896
▁살인죄	-5897
▁지금껏	-5898
▁징역형	-5899
▁채무자	-5900
▁책임감	-5901
▁2010	-5902
▁무상급식	-5903
▁책임져야	-5904
▁쏘	-5905
▁폴	-5906
▁OO	-5907
▁경계	-5908
▁경호	-5909
▁구독	-5910
▁동조	-5911
▁매출	-5912
▁메시	-5913
▁병들	-5914
▁선처	-5915
▁세뇌	-5916
▁속도	-5917
▁아팠	-5918
▁어선	-5919
▁요리	-5920
▁우익	-5921
▁울리	-5922
▁위생	-5923
▁의거	-5924
▁죄질	-5925
▁주간	-5926
▁주최	-5927
▁지휘	-5928
▁창원	-5929
▁천안	-5930
▁플랫	-5931
▁하락	-5932
▁학창	-5933
▁호도	-5934
▁휴업	-5935
▁경비원	-5936
▁계약서	-5937
▁도종환	-5938
▁리스트	-5939
▁벗어난	-5940
▁본다면	-5941
▁재조사	-5942
▁한국사	-5943
▁흡연자	-5944
26	-5945
▁ᄌ	-5946
▁곰	-5947
▁덩	-5948
레임	-5949
커녕	-5950
프라	-5951
▁37	-5952
▁65	-5953
▁IT	-5954
▁국고	-5955
▁노고	-5956
▁똑똑	-5957
▁멋진	-5958
▁바우	-5959
▁소름	-5960
▁손님	-5961
▁아리	-5962
▁앞뒤	-5963
▁연루	-5964
▁온상	-5965
▁완성	-5966
▁유예	-5967
▁유흥	-5968
▁이룰	-5969
▁이탈	-5970
▁자니	-5971
▁자란	-5972
▁자매	-5973
▁전념	-5974
▁전액	-5975
▁제자	-5976
▁증설	-5977
▁지목	-5978
▁찌푸	-5979
▁찬양	-5980
▁폭위	-5981
▁표출	-5982
▁화학	-5983
▁더라면	-5984
▁못해서	-5985
▁민방위	-5986
▁월요일	-5987
▁입장료	-5988
▁짓거리	-5989
▁캐릭터	-5990
▁화장품	-5991
▁너무너무	-5992
▁굶	-5993
▁껀	-5994
▁꿇	-5995
▁끈	-5996
▁뜬	-5997
▁튀	-5998
다른	-5999
부인	-6000
저리	-6001
▁38	-6002
▁55	-6003
▁XX	-6004
▁가스	-6005
▁간호	-6006
▁고는	-6007
▁공학	-6008
▁광복	-6009
▁귀기	-6010
▁깜짝	-6011
▁놓여	-6012
▁달성	-6013
▁뒤쳐	-6014
▁만점	-6015
▁모텔	-6016
▁민심	-6017
▁배달	-6018
▁배포	-6019
▁본사	-6020
▁산모	-6021
▁산후	-6022
▁수호	-6023
▁시사	-6024
▁암기	-6025
▁예쁜	-6026
▁이론	-6027
▁일치	-6028
▁전무	-6029
▁증진	-6030
▁지워	-6031
▁진입	-6032
▁채점	-6033
▁철거	-6034
▁폐해	-6035
▁항소	-6036
▁공동체	-6037
▁관해서	-6038
▁떠오르	-6039
▁사라질	-6040
▁성과급	-6041
▁재수생	-6042
▁진다고	-6043
▁캠퍼스	-6044
▁퇴직금	-6045
▁포상금	-6046
▁후진국	-6047
▁3000	-6048
▁그야말로	-6049
▁대중교통	-6050
▁해외여행	-6051
▁꿀	-6052
▁듀	-6053
▁듭	-6054
▁칩	-6055
광고	-6056
셔서	-6057
스레	-6058
워하	-6059
의식	-6060
재기	-6061
▁39	-6062
▁가출	-6063
▁강구	-6064
▁결재	-6065
▁고리	-6066
▁교화	-6067
▁귀하	-6068
▁극우	-6069
▁금품	-6070
▁남한	-6071
▁누르	-6072
▁되찾	-6073
▁든가	-6074
▁딱히	-6075
▁메이	-6076
▁몰이	-6077
▁무마	-6078
▁물의	-6079
▁반납	-6080
▁반말	-6081
▁반칙	-6082
▁방금	-6083
▁병행	-6084
▁본부	-6085
▁부득	-6086
▁분통	-6087
▁산정	-6088
▁수비	-6089
▁신변	-6090
▁안양	-6091
▁이딴	-6092
▁장악	-6093
▁지필	-6094
▁징집	-6095
▁최우	-6096
▁친절	-6097
▁카시	-6098
▁탐구	-6099
▁합산	-6100
▁흥원	-6101
힙니다	-6102
▁120	-6103
▁국기원	-6104
▁내려야	-6105
▁따라야	-6106
▁마음놓	-6107
▁벌어진	-6108
▁사업장	-6109
▁성행위	-6110
▁스트리	-6111
▁아야지	-6112
▁아이즈	-6113
▁인프라	-6114
▁일본어	-6115
▁정현백	-6116
▁팀워크	-6117
▁해야죠	-6118
▁2009	-6119
as	-6120
▁겹	-6121
▁늙	-6122
▁룸	-6123
▁멜	-6124
▁벨	-6125
긍심	-6126
래도	-6127
바닥	-6128
행정	-6129
▁가시	-6130
▁간다	-6131
▁귀찮	-6132
▁근대	-6133
▁길러	-6134
▁논문	-6135
▁놓치	-6136
▁늘어	-6137
▁대사	-6138
▁랭킹	-6139
▁려니	-6140
▁몰리	-6141
▁못지	-6142
▁믿음	-6143
▁발목	-6144
▁복권	-6145
▁붙잡	-6146
▁빈부	-6147
▁산점	-6148
▁세부	-6149
▁속옷	-6150
▁식민	-6151
▁연대	-6152
▁위대	-6153
▁위자	-6154
▁유엔	-6155
▁이모	-6156
▁재고	-6157
▁재원	-6158
▁제압	-6159
▁죽인	-6160
▁집어	-6161
▁착오	-6162
▁착한	-6163
▁쳐먹	-6164
▁치유	-6165
▁해져	-6166
▁확립	-6167
▁가져오	-6168
▁냅니다	-6169
▁떨어질	-6170
▁모욕죄	-6171
▁아니하	-6172
▁안락사	-6173
▁운영비	-6174
▁이승훈	-6175
▁자긍심	-6176
▁조선족	-6177
▁즐거운	-6178
▁창의력	-6179
▁해서라도	-6180
▁닥	-6181
▁림	-6182
▁컷	-6183
▁폄	-6184
넘기	-6185
봐야	-6186
운드	-6187
하여	-6188
ing	-6189
▁SK	-6190
▁bj	-6191
▁강자	-6192
▁근래	-6193
▁금연	-6194
▁급하	-6195
▁꼼수	-6196
▁녹색	-6197
▁담보	-6198
▁디지	-6199
▁리얼	-6200
▁말살	-6201
▁문신	-6202
▁별개	-6203
▁보급	-6204
▁불이	-6205
▁사단	-6206
▁선호	-6207
▁속히	-6208
▁싸이	-6209
▁외투	-6210
▁유감	-6211
▁유형	-6212
▁적정	-6213
▁전적	-6214
▁정몽	-6215
▁쳐도	-6216
▁충당	-6217
▁충북	-6218
▁카테	-6219
▁큰일	-6220
▁팀장	-6221
▁편리	-6222
▁피시	-6223
▁흉기	-6224
▁가진다	-6225
▁권력자	-6226
▁되풀이	-6227
▁라구요	-6228
▁바우처	-6229
▁밝혀진	-6230
▁부담감	-6231
▁사회악	-6232
▁살아남	-6233
▁일본인	-6234
▁카시트	-6235
▁떨어뜨리	-6236
▁못한다는	-6237
▁중간고사	-6238
▁카테고리	-6239
▁탁상행정	-6240
es	-6241
▁ᄀ	-6242
▁껴	-6243
러리	-6244
로운	-6245
머리	-6246
이나	-6247
▁75	-6248
▁과밀	-6249
▁과실	-6250
▁근간	-6251
▁기미	-6252
▁노벨	-6253
▁도청	-6254
▁매매	-6255
▁문장	-6256
▁미뤄	-6257
▁보관	-6258
▁보태	-6259
▁비참	-6260
▁빌미	-6261
▁빨간	-6262
▁수감	-6263
▁쌍방	-6264
▁야외	-6265
▁여아	-6266
▁웃기	-6267
▁위력	-6268
▁은닉	-6269
▁인공	-6270
▁인체	-6271
▁재밌	-6272
▁주무	-6273
▁체대	-6274
▁토익	-6275
▁파헤	-6276
▁하차	-6277
▁휴전	-6278
쁩니다	-6279
html	-6280
▁180	-6281
▁강간범	-6282
▁밝혀졌	-6283
▁생겨서	-6284
▁움직임	-6285
▁위자료	-6286
▁일본군	-6287
▁중국인	-6288
▁태어났	-6289
▁가르쳐야	-6290
▁일어납니다	-6291
ig	-6292
il	-6293
oc	-6294
▁뚜	-6295
▁몹	-6296
▁줌	-6297
▁튼	-6298
공격	-6299
너지	-6300
러스	-6301
선미	-6302
유산	-6303
터리	-6304
▁43	-6305
▁간청	-6306
▁거세	-6307
▁검출	-6308
▁경주	-6309
▁구미	-6310
▁구형	-6311
▁그쪽	-6312
▁다툼	-6313
▁드림	-6314
▁만지	-6315
▁무겁	-6316
▁미개	-6317
▁비소	-6318
▁사춘	-6319
▁상장	-6320
▁슬프	-6321
▁양아	-6322
▁없앤	-6323
▁외고	-6324
▁요양	-6325
▁우편	-6326
▁자아	-6327
▁종전	-6328
▁청각	-6329
▁타임	-6330
▁틀리	-6331
▁퍼져	-6332
▁피겨	-6333
▁피로	-6334
▁피할	-6335
▁필기	-6336
▁합창	-6337
View	-6338
▁010	-6339
▁귀기울	-6340
▁드러났	-6341
▁라지만	-6342
▁미지급	-6343
▁베이비	-6344
▁속상하	-6345
▁어리석	-6346
▁엄격히	-6347
▁엉덩이	-6348
▁컨디션	-6349
▁타이틀	-6350
▁학년제	-6351
▁인신공격	-6352
▁중간광고	-6353
▁낯	-6354
▁냅	-6355
▁샤	-6356
▁즈	-6357
다리	-6358
돼지	-6359
라고	-6360
철기	-6361
▁67	-6362
▁가담	-6363
▁걸림	-6364
▁그릇	-6365
▁긴장	-6366
▁대략	-6367
▁대인	-6368
▁돼서	-6369
▁매도	-6370
▁묻히	-6371
▁뮤직	-6372
▁민망	-6373
▁바래	-6374
▁사병	-6375
▁쇼핑	-6376
▁신축	-6377
▁아까	-6378
▁아티	-6379
▁연휴	-6380
▁영유	-6381
▁유적	-6382
▁음성	-6383
▁잡히	-6384
▁쟁이	-6385
▁조취	-6386
▁체류	-6387
▁판독	-6388
▁한때	-6389
▁행보	-6390
▁400	-6391
▁sbs	-6392
▁개돼지	-6393
▁근무자	-6394
▁달라진	-6395
▁대해선	-6396
▁더욱이	-6397
▁디지털	-6398
▁물러나	-6399
▁보고서	-6400
▁부사관	-6401
▁사춘기	-6402
▁살아왔	-6403
▁살인범	-6404
▁유소년	-6405
▁잃어버	-6406
▁제자리	-6407
▁중범죄	-6408
▁체육인	-6409
▁최우선	-6410
▁롱	-6411
▁몽	-6412
▁휩	-6413
거지	-6414
기심	-6415
네임	-6416
라지	-6417
벤지	-6418
시간	-6419
학습	-6420
▁ar	-6421
▁고액	-6422
▁고향	-6423
▁국장	-6424
▁께선	-6425
▁날라	-6426
▁냐며	-6427
▁넘치	-6428
▁노골	-6429
▁당직	-6430
▁덧붙	-6431
▁따져	-6432
▁망언	-6433
▁면담	-6434
▁모호	-6435
▁무수	-6436
▁바이	-6437
▁소모	-6438
▁소요	-6439
▁수령	-6440
▁슈퍼	-6441
▁스튜	-6442
▁시립	-6443
▁쌓이	-6444
▁악랄	-6445
▁앞세	-6446
▁어두	-6447
▁영진	-6448
▁예시	-6449
▁외우	-6450
▁장래	-6451
▁전후	-6452
▁제대	-6453
▁조그	-6454
▁처참	-6455
▁청사	-6456
▁크로	-6457
▁탈세	-6458
▁퍼지	-6459
▁폭염	-6460
▁허탈	-6461
▁회화	-6462
▁휘두	-6463
▁휘둘	-6464
▁BTS	-6465
▁냐고요	-6466
▁냐구요	-6467
▁닉네임	-6468
▁리벤지	-6469
▁맞춰서	-6470
▁메시지	-6471
▁백철기	-6472
▁변별력	-6473
▁비상식	-6474
▁애국심	-6475
▁즐거움	-6476
▁칩니다	-6477
▁호기심	-6478
▁아무래도	-6479
▁주십시오	-6480
▁체험학습	-6481
▁가이드라인	-6482
▁들어갑니다	-6483
am	-6484
▁낚	-6485
▁낱	-6486
▁뺨	-6487
▁섹	-6488
▁웬	-6489
▁찰	-6490
▁팟	-6491
▁힙	-6492
기사	-6493
성이	-6494
여서	-6495
▁05	-6496
▁95	-6497
▁개탄	-6498
▁고질	-6499
▁국사	-6500
▁꼬리	-6501
▁남아	-6502
▁남충	-6503
▁로그	-6504
▁망정	-6505
▁매국	-6506
▁모색	-6507
▁발음	-6508
▁발행	-6509
▁복용	-6510
▁부문	-6511
▁부위	-6512
▁붕괴	-6513
▁빌려	-6514
▁빠졌	-6515
▁상하	-6516
▁식품	-6517
▁양해	-6518
▁엉뚱	-6519
▁엘지	-6520
▁요약	-6521
▁유용	-6522
▁인용	-6523
▁일일	-6524
▁장수	-6525
▁접대	-6526
▁제게	-6527
▁직후	-6528
▁초청	-6529
▁파출	-6530
▁합쳐	-6531
▁휴무	-6532
▁도박장	-6533
▁마음껏	-6534
▁무작정	-6535
▁범법자	-6536
▁사리사	-6537
▁사명감	-6538
▁선수촌	-6539
▁스타트	-6540
▁신분증	-6541
▁아리랑	-6542
▁이바지	-6543
▁장난감	-6544
▁마구잡이	-6545
▁아티스트	-6546
article	-6547
▁h	-6548
▁뚫	-6549
▁찔	-6550
가운	-6551
밀히	-6552
▁CJ	-6553
▁MB	-6554
▁걸릴	-6555
▁고마	-6556
▁괴물	-6557
▁구석	-6558
▁극소	-6559
▁극히	-6560
▁누드	-6561
▁단죄	-6562
▁단호	-6563
▁도용	-6564
▁도장	-6565
▁돌볼	-6566
▁동호	-6567
▁멈춰	-6568
▁명심	-6569
▁소아	-6570
▁시댁	-6571
▁실추	-6572
▁운용	-6573
▁위키	-6574
▁일전	-6575
▁자궁	-6576
▁작곡	-6577
▁저조	-6578
▁전전	-6579
▁종시	-6580
▁주범	-6581
▁중복	-6582
▁증원	-6583
▁초대	-6584
▁치러	-6585
▁투쟁	-6586
▁허술	-6587
▁협상	-6588
▁경조사	-6589
▁고위직	-6590
▁기본법	-6591
▁놀이터	-6592
▁뛰어놀	-6593
▁모아서	-6594
▁양아치	-6595
▁영상물	-6596
▁을려고	-6597
▁지구대	-6598
▁진선미	-6599
▁태어날	-6600
▁부탁드리	-6601
▁사리사욕	-6602
▁으십니까	-6603
▁저질러도	-6604
▁청소년기	-6605
▁한답니다	-6606
29	-6607
lo	-6608
▁넉	-6609
▁넌	-6610
▁돋	-6611
버려	-6612
을까	-6613
▁거지	-6614
▁걸러	-6615
▁경위	-6616
▁과태	-6617
▁교단	-6618
▁교양	-6619
▁균등	-6620
▁그라	-6621
▁그지	-6622
▁기뻐	-6623
▁눌러	-6624
▁다뤄	-6625
▁막히	-6626
▁매월	-6627
▁반사	-6628
▁방패	-6629
▁버튼	-6630
▁변태	-6631
▁사면	-6632
▁상기	-6633
▁성비	-6634
▁습관	-6635
▁식비	-6636
▁아플	-6637
▁역행	-6638
▁예민	-6639
▁완료	-6640
▁외신	-6641
▁이길	-6642
▁지각	-6643
▁지치	-6644
▁참조	-6645
▁채팅	-6646
▁출국	-6647
▁치사	-6648
▁친부	-6649
▁표절	-6650
▁한도	-6651
뜩이나	-6652
▁거주지	-6653
▁고쳐야	-6654
▁금요일	-6655
▁내려가	-6656
▁민원인	-6657
▁스타킹	-6658
▁전기세	-6659
▁주세요	-6660
▁중국어	-6661
▁테두리	-6662
▁특례법	-6663
▁피시방	-6664
▁합격자	-6665
▁그리하여	-6666
▁들어와서	-6667
28	-6668
VE	-6669
▁곁	-6670
▁됀	-6671
▁롤	-6672
▁뷰	-6673
▁샘	-6674
▁컸	-6675
▁팽	-6676
겨운	-6677
괴감	-6678
바이	-6679
토토	-6680
▁NC	-6681
▁각성	-6682
▁간첩	-6683
▁결사	-6684
▁결석	-6685
▁관료	-6686
▁국군	-6687
▁권장	-6688
▁기하	-6689
▁길이	-6690
▁도데	-6691
▁두산	-6692
▁망쳐	-6693
▁멜론	-6694
▁무방	-6695
▁미미	-6696
▁배팅	-6697
▁벤투	-6698
▁복도	-6699
▁본선	-6700
▁부천	-6701
▁상응	-6702
▁세반	-6703
▁암묵	-6704
▁업자	-6705
▁연가	-6706
▁연간	-6707
▁열받	-6708
▁영수	-6709
▁예쁘	-6710
▁외화	-6711
▁원리	-6712
▁원활	-6713
▁자습	-6714
▁재난	-6715
▁적자	-6716
▁좌우	-6717
▁진흥	-6718
▁처하	-6719
▁파마	-6720
▁펼칠	-6721
▁폐업	-6722
▁해산	-6723
▁걸림돌	-6724
▁과태료	-6725
▁기다렸	-6726
▁넘어갈	-6727
▁다행히	-6728
▁랍시고	-6729
▁모여서	-6730
▁묵묵히	-6731
▁바라지	-6732
▁온전히	-6733
▁올려서	-6734
▁운전자	-6735
▁응원단	-6736
▁자괴감	-6737
▁1102	-6738
▁가뜩이나	-6739
▁언어폭력	-6740
▁해집니다	-6741
▁스포츠토토	-6742
34	-6743
▁ᄂ	-6744
▁띠	-6745
▁벼	-6746
▁엎	-6747
▁잉	-6748
▁쳤	-6749
▁헐	-6750
▁흑	-6751
조합	-6752
▁FI	-6753
▁간주	-6754
▁골목	-6755
▁공짜	-6756
▁금일	-6757
▁끼칠	-6758
▁노역	-6759
▁달하	-6760
▁대두	-6761
▁더운	-6762
▁때렸	-6763
▁로울	-6764
▁면죄	-6765
▁반환	-6766
▁설사	-6767
▁실체	-6768
▁여권	-6769
▁원천	-6770
▁유족	-6771
▁유혹	-6772
▁임의	-6773
▁자해	-6774
▁장례	-6775
▁재혼	-6776
▁적혀	-6777
▁전투	-6778
▁정유	-6779
▁중도	-6780
▁척결	-6781
▁취할	-6782
▁친척	-6783
▁칭하	-6784
▁할꺼	-6785
▁화성	-6786
▁119	-6787
▁고발자	-6788
▁공정성	-6789
▁끌려가	-6790
▁늘려야	-6791
▁다시금	-6792
▁당해서	-6793
▁도데체	-6794
▁무자비	-6795
▁불합격	-6796
▁스타일	-6797
▁실업자	-6798
▁전교조	-6799
▁기다려야	-6800
▁문화유산	-6801
▁부정행위	-6802
▁아닌지요	-6803
21	-6804
▁갤	-6805
▁갱	-6806
▁냥	-6807
▁닦	-6808
▁슴	-6809
▁앙	-6810
니지	-6811
무가	-6812
어준	-6813
▁ᄋᄋ	-6814
▁갖춰	-6815
▁개종	-6816
▁개헌	-6817
▁계급	-6818
▁골라	-6819
▁권유	-6820
▁노숙	-6821
▁달린	-6822
▁대립	-6823
▁동사	-6824
▁두발	-6825
▁디스	-6826
▁레이	-6827
▁마친	-6828
▁만난	-6829
▁무참	-6830
▁방사	-6831
▁비속	-6832
▁비제	-6833
▁뻔한	-6834
▁성남	-6835
▁슬로	-6836
▁써도	-6837
▁애쓰	-6838
▁야지	-6839
▁오버	-6840
▁유능	-6841
▁유무	-6842
▁이과	-6843
▁인강	-6844
▁잘라	-6845
▁죽일	-6846
▁창녀	-6847
▁치명	-6848
▁친권	-6849
▁키운	-6850
▁탈북	-6851
▁터진	-6852
▁mbc	-6853
▁the	-6854
▁공공연	-6855
▁광역시	-6856
▁극소수	-6857
▁김어준	-6858
▁넘어서	-6859
▁뉘우치	-6860
▁늘어난	-6861
▁동메달	-6862
▁맡겨야	-6863
▁몰아주	-6864
▁별다른	-6865
▁보인다	-6866
▁사기업	-6867
▁아무튼	-6868
▁어린애	-6869
▁절실히	-6870
▁진다면	-6871
▁쳐다보	-6872
▁헤아려	-6873
▁불법행위	-6874
▁스튜디오	-6875
▁이야말로	-6876
24	-6877
▁웁	-6878
▁톡	-6879
느니	-6880
당당	-6881
려면	-6882
아지	-6883
▁간혹	-6884
▁개판	-6885
▁건드	-6886
▁걸렸	-6887
▁결여	-6888
▁귀가	-6889
▁김대	-6890
▁김학	-6891
▁녹화	-6892
▁다던	-6893
▁목록	-6894
▁무효	-6895
▁미쳐	-6896
▁박상	-6897
▁박용	-6898
▁보증	-6899
▁분산	-6900
▁상세	-6901
▁수리	-6902
▁숨겨	-6903
▁시오	-6904
▁없앨	-6905
▁역활	-6906
▁연설	-6907
▁이날	-6908
▁이스	-6909
▁일괄	-6910
▁자정	-6911
▁자칫	-6912
▁재료	-6913
▁전날	-6914
▁제지	-6915
▁지법	-6916
▁참전	-6917
▁쳐서	-6918
▁추위	-6919
▁충원	-6920
▁허무	-6921
▁훈육	-6922
▁힘겹	-6923
▁힘내	-6924
떨어진	-6925
▁다네요	-6926
▁리니지	-6927
▁무궁화	-6928
▁부득이	-6929
▁부총리	-6930
▁살아온	-6931
▁생각나	-6932
▁시리즈	-6933
▁양육권	-6934
▁재판부	-6935
▁테니스	-6936
▁투성이	-6937
▁파출소	-6938
▁휴교령	-6939
ac	-6940
ed	-6941
ts	-6942
▁르	-6943
▁썰	-6944
▁앤	-6945
나큰	-6946
노소	-6947
높이	-6948
무소	-6949
지노	-6950
카드	-6951
xno	-6952
▁78	-6953
▁88	-6954
▁감면	-6955
▁감성	-6956
▁개봉	-6957
▁고급	-6958
▁곤란	-6959
▁김재	-6960
▁낱낱	-6961
▁내뱉	-6962
▁담긴	-6963
▁때린	-6964
▁루머	-6965
▁명명	-6966
▁박진	-6967
▁반해	-6968
▁버텨	-6969
▁살피	-6970
▁성취	-6971
▁소변	-6972
▁소신	-6973
▁소집	-6974
▁슬픔	-6975
▁습니	-6976
▁시술	-6977
▁씁쓸	-6978
▁씌우	-6979
▁악습	-6980
▁엄정	-6981
▁엄한	-6982
▁오프	-6983
▁외출	-6984
▁은가	-6985
▁일개	-6986
▁저기	-6987
▁절벽	-6988
▁줘도	-6989
▁질까	-6990
▁최상	-6991
▁투신	-6992
▁폐단	-6993
▁한당	-6994
▁해방	-6995
▁헌데	-6996
▁회식	-6997
적으로	-6998
▁강제성	-6999
▁교통비	-7000
▁기울이	-7001
▁눈치보	-7002
▁도망가	-7003
▁라던지	-7004
▁본다는	-7005
▁비속어	-7006
▁빠져나	-7007
▁수용자	-7008
▁승무원	-7009
▁안중근	-7010
▁운동부	-7011
▁죄의식	-7012
▁찾아내	-7013
▁출연료	-7014
▁크나큰	-7015
▁탈북자	-7016
▁프레임	-7017
▁후원금	-7018
▁희생자	-7019
▁남녀노소	-7020
▁터무니없	-7021
ec	-7022
▁빡	-7023
▁캡	-7024
▁훔	-7025
먹이	-7026
북도	-7027
쳐야	-7028
타리	-7029
▁겠죠	-7030
▁과언	-7031
▁구경	-7032
▁넉넉	-7033
▁동작	-7034
▁랜덤	-7035
▁만날	-7036
▁무력	-7037
▁바꾼	-7038
▁비극	-7039
▁상의	-7040
▁서점	-7041
▁선별	-7042
▁스카	-7043
▁양질	-7044
▁오니	-7045
▁이력	-7046
▁일각	-7047
▁입력	-7048
▁재검	-7049
▁전라	-7050
▁중등	-7051
▁증축	-7052
▁지낼	-7053
▁지울	-7054
▁탑승	-7055
▁파울	-7056
▁편지	-7057
▁학벌	-7058
▁해온	-7059
▁회비	-7060
습니까	-7061
news	-7062
▁그래요	-7063
▁독서실	-7064
▁돌아갈	-7065
▁들어서	-7066
▁스케줄	-7067
▁에너지	-7068
▁이윤택	-7069
▁일으켜	-7070
▁전라도	-7071
▁합의금	-7072
▁FIFA	-7073
▁정정당당	-7074
ub	-7075
▁ᅵ	-7076
▁락	-7077
▁랄	-7078
▁맏	-7079
▁샀	-7080
▁텍	-7081
▁핫	-7082
거품	-7083
구장	-7084
아내	-7085
제도	-7086
회식	-7087
▁간판	-7088
▁검거	-7089
▁고속	-7090
▁고장	-7091
▁교습	-7092
▁교정	-7093
▁국보	-7094
▁국한	-7095
▁근친	-7096
▁금할	-7097
▁기한	-7098
▁논하	-7099
▁도쿄	-7100
▁만료	-7101
▁설령	-7102
▁세탁	-7103
▁손상	-7104
▁수긍	-7105
▁앞날	-7106
▁앵커	-7107
▁양쪽	-7108
▁여초	-7109
▁오타	-7110
▁온통	-7111
▁을시	-7112
▁일용	-7113
▁좌지	-7114
▁질타	-7115
▁차려	-7116
▁처단	-7117
▁충동	-7118
▁취임	-7119
▁커져	-7120
▁나아갈	-7121
▁로그인	-7122
▁물갈이	-7123
▁물거품	-7124
▁비해서	-7125
▁사무소	-7126
▁수요일	-7127
▁알려졌	-7128
▁업로드	-7129
▁이어질	-7130
▁주머니	-7131
▁협의회	-7132
▁법치주의	-7133
▁였음에도	-7134
▁꺾	-7135
▁련	-7136
▁쉼	-7137
▁탕	-7138
대문	-7139
랑이	-7140
▁03	-7141
▁KT	-7142
▁ex	-7143
▁가을	-7144
▁고도	-7145
▁꺼리	-7146
▁냐면	-7147
▁넥슨	-7148
▁라곤	-7149
▁리원	-7150
▁매기	-7151
▁매니	-7152
▁문득	-7153
▁미필	-7154
▁반값	-7155
▁배부	-7156
▁분유	-7157
▁불려	-7158
▁삭감	-7159
▁상한	-7160
▁생물	-7161
▁선의	-7162
▁세습	-7163
▁속하	-7164
▁역겹	-7165
▁와야	-7166
▁용산	-7167
▁유급	-7168
▁유익	-7169
▁인과	-7170
▁일벌	-7171
▁입구	-7172
▁재기	-7173
▁적법	-7174
▁제고	-7175
▁주식	-7176
▁코드	-7177
▁통지	-7178
▁하복	-7179
▁해준	-7180
▁현혹	-7181
▁활개	-7182
부인과	-7183
▁nav	-7184
▁경제력	-7185
▁구시대	-7186
▁내버려	-7187
▁넘어선	-7188
▁다녀온	-7189
▁돌아왔	-7190
▁멋대로	-7191
▁벌어졌	-7192
▁법조인	-7193
▁사업주	-7194
▁신문고	-7195
▁알려져	-7196
▁울타리	-7197
▁적당히	-7198
▁전남편	-7199
▁조현우	-7200
▁주어진	-7201
▁카지노	-7202
▁큰아이	-7203
▁했으면	-7204
▁현저히	-7205
idxno	-7206
▁나온다고	-7207
▁산부인과	-7208
▁아주머니	-7209
▁오릅니다	-7210
▁독립운동가	-7211
▁ᄅ	-7212
▁깡	-7213
▁션	-7214
▁휠	-7215
▁힐	-7216
걸이	-7217
공론	-7218
그릇	-7219
우지	-7220
재판	-7221
조선	-7222
100	-7223
▁AB	-7224
▁가두	-7225
▁감축	-7226
▁결단	-7227
▁경로	-7228
▁고선	-7229
▁관객	-7230
▁그딴	-7231
▁깜깜	-7232
▁꺼려	-7233
▁내외	-7234
▁단합	-7235
▁망각	-7236
▁명성	-7237
▁미러	-7238
▁민법	-7239
▁바깥	-7240
▁병폐	-7241
▁부각	-7242
▁소환	-7243
▁손쉽	-7244
▁숙소	-7245
▁순번	-7246
▁스티	-7247
▁식단	-7248
▁실지	-7249
▁연인	-7250
▁영혼	-7251
▁예측	-7252
▁우기	-7253
▁의회	-7254
▁이치	-7255
▁일과	-7256
▁일명	-7257
▁임하	-7258
▁재외	-7259
▁전입	-7260
▁조명	-7261
▁참사	-7262
▁친한	-7263
▁투약	-7264
▁하드	-7265
▁호구	-7266
지부지	-7267
▁800	-7268
▁고학년	-7269
▁그걸로	-7270
▁데이터	-7271
▁모른다	-7272
▁미성숙	-7273
▁밀어주	-7274
▁밥그릇	-7275
▁벗어날	-7276
▁보육원	-7277
▁불이익	-7278
▁슬로건	-7279
▁실망감	-7280
▁아세요	-7281
▁어려우	-7282
▁정몽규	-7283
▁폐막식	-7284
▁휘두르	-7285
▁희생양	-7286
▁2008	-7287
▁렀습니다	-7288
▁운전기사	-7289
▁탁상공론	-7290
▁흐지부지	-7291
PL	-7292
ic	-7293
▁꼽	-7294
▁뛸	-7295
▁랴	-7296
▁렌	-7297
▁짱	-7298
기소	-7299
낙연	-7300
너스	-7301
셔야	-7302
▁44	-7303
▁cm	-7304
▁계셨	-7305
▁공분	-7306
▁국토	-7307
▁극장	-7308
▁급격	-7309
▁낚시	-7310
▁난다	-7311
▁날리	-7312
▁노름	-7313
▁다둥	-7314
▁다이	-7315
▁대수	-7316
▁독자	-7317
▁드린	-7318
▁든다	-7319
▁들으	-7320
▁뚜렷	-7321
▁뜯어	-7322
▁마비	-7323
▁막론	-7324
▁말리	-7325
▁멀다	-7326
▁명장	-7327
▁바다	-7328
▁병력	-7329
▁보드	-7330
▁복구	-7331
▁복학	-7332
▁불참	-7333
▁석방	-7334
▁소견	-7335
▁얼룩	-7336
▁용돈	-7337
▁위헌	-7338
▁인형	-7339
▁일조	-7340
▁장담	-7341
▁조민	-7342
▁차출	-7343
▁출시	-7344
▁친족	-7345
▁틀렸	-7346
▁틀림	-7347
▁판례	-7348
▁표명	-7349
▁품위	-7350
▁하이	-7351
▁흐리	-7352
릅니까	-7353
▁KBL	-7354
▁고소인	-7355
▁나날이	-7356
▁내려오	-7357
▁면죄부	-7358
▁모병제	-7359
▁박용진	-7360
▁반인륜	-7361
▁버려야	-7362
▁비행기	-7363
▁아쉬운	-7364
▁야구팬	-7365
▁여동생	-7366
▁연구원	-7367
▁연합회	-7368
▁영수증	-7369
▁이낙연	-7370
▁일일이	-7371
▁정유라	-7372
▁지원자	-7373
▁찾아오	-7374
▁책임져	-7375
▁청소부	-7376
▁특정인	-7377
▁프리미	-7378
▁할머님	-7379
▁계십니까	-7380
▁멀다하고	-7381
▁받아들일	-7382
▁정신병자	-7383
▁좌지우지	-7384
▁델	-7385
▁듬	-7386
▁퀴	-7387
근무	-7388
남도	-7389
망정	-7390
받침	-7391
어질	-7392
▁46	-7393
▁겉옷	-7394
▁교환	-7395
▁구할	-7396
▁그놈	-7397
▁남긴	-7398
▁내면	-7399
▁달래	-7400
▁돌이	-7401
▁등수	-7402
▁떄문	-7403
▁마십	-7404
▁만남	-7405
▁면은	-7406
▁미비	-7407
▁미연	-7408
▁반장	-7409
▁밝힌	-7410
▁뱃속	-7411
▁보람	-7412
▁부채	-7413
▁셔도	-7414
▁소라	-7415
▁수만	-7416
▁수역	-7417
▁신세	-7418
▁쌓여	-7419
▁악성	-7420
▁안산	-7421
▁여럿	-7422
▁영토	-7423
▁온몸	-7424
▁유입	-7425
▁이의	-7426
▁일보	-7427
▁일체	-7428
▁자진	-7429
▁장군	-7430
▁재롱	-7431
▁저리	-7432
▁정화	-7433
▁체감	-7434
▁침입	-7435
▁통행	-7436
▁파장	-7437
▁하청	-7438
▁흐르	-7439
▁흔적	-7440
▁흥행	-7441
광역시	-7442
더군요	-7443
▁껍니다	-7444
▁나타났	-7445
▁넘어간	-7446
▁누군지	-7447
▁다구요	-7448
▁다녀왔	-7449
▁다지만	-7450
▁뒷받침	-7451
▁서부터	-7452
▁소년원	-7453
▁신다는	-7454
▁인원수	-7455
▁재검토	-7456
▁제작진	-7457
▁찢어지	-7458
▁흘러가	-7459
▁노동조합	-7460
▁사회주의	-7461
▁스케이트	-7462
▁와이셔츠	-7463
▁살아갑니다	-7464
78	-7465
▁령	-7466
▁린	-7467
▁맑	-7468
▁얽	-7469
▁죗	-7470
▁툭	-7471
꾸로	-7472
뉴얼	-7473
박스	-7474
붙이	-7475
의미	-7476
저것	-7477
▁각지	-7478
▁건수	-7479
▁고로	-7480
▁구호	-7481
▁넷째	-7482
▁논쟁	-7483
▁농협	-7484
▁단원	-7485
▁대결	-7486
▁던져	-7487
▁동상	-7488
▁떨리	-7489
▁매입	-7490
▁머니	-7491
▁문란	-7492
▁민중	-7493
▁밀리	-7494
▁박장	-7495
▁법관	-7496
▁비추	-7497
▁뻔히	-7498
▁소서	-7499
▁손자	-7500
▁수집	-7501
▁신발	-7502
▁십사	-7503
▁여과	-7504
▁우스	-7505
▁유시	-7506
▁전가	-7507
▁죗값	-7508
▁중산	-7509
▁직결	-7510
▁찍히	-7511
▁창구	-7512
▁처한	-7513
▁터져	-7514
▁하향	-7515
▁협동	-7516
▁협약	-7517
view	-7518
▁too	-7519
▁거꾸로	-7520
▁그토록	-7521
▁노동법	-7522
▁도시락	-7523
▁매뉴얼	-7524
▁방지법	-7525
▁비서관	-7526
▁사과문	-7527
▁사이즈	-7528
▁아까운	-7529
▁예술가	-7530
▁예술단	-7531
▁임대료	-7532
▁입학금	-7533
▁재판소	-7534
▁저버리	-7535
▁조부모	-7536
▁축구단	-7537
▁텐데요	-7538
▁하나님	-7539
▁할당제	-7540
▁합창단	-7541
▁화이팅	-7542
▁안타까움	-7543
▁이것저것	-7544
▁이루어져	-7545
▁잖습니까	-7546
▁떨어집니다	-7547
45	-7548
▁빗	-7549
▁쌤	-7550
▁쏠	-7551
계약	-7552
르타	-7553
불리	-7554
불성	-7555
소통	-7556
스티	-7557
어져	-7558
줌마	-7559
지물	-7560
▁57	-7561
▁vs	-7562
▁계단	-7563
▁고대	-7564
▁국력	-7565
▁그램	-7566
▁그려	-7567
▁근원	-7568
▁금번	-7569
▁까다	-7570
▁끝날	-7571
▁네덜	-7572
▁담겨	-7573
▁듀스	-7574
▁밀양	-7575
▁바랄	-7576
▁발암	-7577
▁밤새	-7578
▁법대	-7579
▁병무	-7580
▁부진	-7581
▁부풀	-7582
▁불상	-7583
▁살짝	-7584
▁섬김	-7585
▁성명	-7586
▁수두	-7587
▁수혜	-7588
▁신원	-7589
▁안건	-7590
▁았었	-7591
▁연세	-7592
▁영입	-7593
▁오가	-7594
▁오만	-7595
▁원생	-7596
▁위축	-7597
▁음반	-7598
▁자칭	-7599
▁잔재	-7600
▁전염	-7601
▁전한	-7602
▁조별	-7603
▁죽였	-7604
▁지검	-7605
▁지냈	-7606
▁천지	-7607
▁청주	-7608
▁취향	-7609
▁한탄	-7610
▁화제	-7611
▁후유	-7612
▁흡수	-7613
아내리	-7614
웁니다	-7615
▁140	-7616
▁you	-7617
▁간단히	-7618
▁넘어지	-7619
▁노리개	-7620
▁들어도	-7621
▁리얼돌	-7622
▁미래인	-7623
▁병역법	-7624
▁소년단	-7625
▁수업료	-7626
▁시행령	-7627
▁신청자	-7628
▁아줌마	-7629
▁어두운	-7630
▁연락처	-7631
▁이른바	-7632
▁제정신	-7633
▁조민기	-7634
▁진짜로	-7635
▁짊어지	-7636
▁크리에	-7637
▁학습지	-7638
▁그라운드	-7639
▁네덜란드	-7640
▁무용지물	-7641
▁사형제도	-7642
▁의사소통	-7643
▁중앙일보	-7644
articleView	-7645
▁뭣	-7646
▁즘	-7647
▁쿼	-7648
▁훗	-7649
▁흠	-7650
도전	-7651
서야	-7652
싸움	-7653
이머	-7654
장소	-7655
직원	-7656
치소	-7657
▁개천	-7658
▁공과	-7659
▁과자	-7660
▁구간	-7661
▁남경	-7662
▁눈살	-7663
▁느니	-7664
▁대행	-7665
▁떠돌	-7666
▁리더	-7667
▁막내	-7668
▁모시	-7669
▁민생	-7670
▁방면	-7671
▁부조	-7672
▁상금	-7673
▁속출	-7674
▁수갑	-7675
▁슬퍼	-7676
▁신호	-7677
▁여의	-7678
▁위계	-7679
▁의경	-7680
▁이주	-7681
▁이화	-7682
▁익숙	-7683
▁일당	-7684
▁일탈	-7685
▁자카	-7686
▁재앙	-7687
▁저러	-7688
▁전제	-7689
▁정녕	-7690
▁죄다	-7691
▁주지	-7692
▁지닌	-7693
▁지킨	-7694
▁직책	-7695
▁차장	-7696
▁차후	-7697
▁철폐	-7698
▁초점	-7699
▁커리	-7700
▁타락	-7701
▁특징	-7702
▁판치	-7703
▁하계	-7704
▁하의	-7705
▁화려	-7706
▁확장	-7707
쌉니다	-7708
▁123	-7709
▁개그맨	-7710
▁고소장	-7711
▁구매자	-7712
▁대단히	-7713
▁데려다	-7714
▁돌아와	-7715
▁방사능	-7716
▁보건소	-7717
▁불기소	-7718
▁세워야	-7719
▁실업팀	-7720
▁쏟아지	-7721
▁어떤지	-7722
▁임직원	-7723
▁장수지	-7724
▁저작권	-7725
▁폭력범	-7726
▁혹여나	-7727
▁흔들리	-7728
▁2007	-7729
▁7080	-7730
▁동아일보	-7731
▁무한도전	-7732
▁자카르타	-7733
▁할지라도	-7734
▁여겨집니다	-7735
46	-7736
99	-7737
▁덴	-7738
▁륜	-7739
▁뺑	-7740
▁쫌	-7741
관계	-7742
꼬박	-7743
년생	-7744
드백	-7745
살이	-7746
스코	-7747
시마	-7748
진다	-7749
짜피	-7750
패치	-7751
▁of	-7752
▁개국	-7753
▁겨자	-7754
▁공백	-7755
▁공용	-7756
▁기용	-7757
▁날로	-7758
▁대관	-7759
▁랜드	-7760
▁모이	-7761
▁무산	-7762
▁미터	-7763
▁방세	-7764
▁백신	-7765
▁본연	-7766
▁부착	-7767
▁불렀	-7768
▁살림	-7769
▁새해	-7770
▁생략	-7771
▁서양	-7772
▁서열	-7773
▁선사	-7774
▁수지	-7775
▁스크	-7776
▁스텝	-7777
▁시내	-7778
▁연출	-7779
▁영문	-7780
▁오브	-7781
▁원정	-7782
▁육군	-7783
▁이권	-7784
▁입건	-7785
▁족구	-7786
▁증빙	-7787
▁지점	-7788
▁진도	-7789
▁창문	-7790
▁처방	-7791
▁초빙	-7792
▁콘돔	-7793
▁터졌	-7794
▁투어	-7795
▁파워	-7796
▁포괄	-7797
▁표정	-7798
▁한단	-7799
▁헛되	-7800
▁홍익	-7801
▁흔한	-7802
▁희롱	-7803
불성설	-7804
▁가져다	-7805
▁갑니까	-7806
▁고사장	-7807
▁김민정	-7808
▁나아지	-7809
▁내려놓	-7810
▁노동력	-7811
▁눈높이	-7812
▁돌아온	-7813
▁뛰어나	-7814
▁문정부	-7815
▁살인마	-7816
▁소라넷	-7817
▁수두룩	-7818
▁어지럽	-7819
▁어짜피	-7820
▁연습생	-7821
▁올라갈	-7822
▁의정부	-7823
▁이래도	-7824
▁이승우	-7825
▁인지라	-7826
▁중고생	-7827
▁찾아와	-7828
▁케이스	-7829
▁1500	-7830
▁꼬박꼬박	-7831
▁디스패치	-7832
▁스트라이	-7833
▁어불성설	-7834
▁크리에이터	-7835
48	-7836
▁ᄉ	-7837
▁깃	-7838
▁덥	-7839
▁람	-7840
▁팍	-7841
빠진	-7842
아나	-7843
연맹	-7844
인지	-7845
쪼록	-7846
▁EC	-7847
▁가옥	-7848
▁감찰	-7849
▁개원	-7850
▁거액	-7851
▁게재	-7852
▁기기	-7853
▁나랏	-7854
▁내요	-7855
▁노약	-7856
▁다움	-7857
▁다친	-7858
▁뒷돈	-7859
▁맛있	-7860
▁모방	-7861
▁모셔	-7862
▁미화	-7863
▁배당	-7864
▁불명	-7865
▁사귀	-7866
▁상급	-7867
▁셔츠	-7868
▁소명	-7869
▁수련	-7870
▁순직	-7871
▁실직	-7872
▁안태	-7873
▁압류	-7874
▁애정	-7875
▁어긴	-7876
▁어딜	-7877
▁예우	-7878
▁오토	-7879
▁옳바	-7880
▁욕망	-7881
▁울분	-7882
▁위임	-7883
▁유교	-7884
▁자의	-7885
▁잘난	-7886
▁중학	-7887
▁지혜	-7888
▁퀴어	-7889
▁클래	-7890
▁태형	-7891
▁한겨	-7892
▁한답	-7893
▁환원	-7894
▁획기	-7895
▁난다고	-7896
▁는구나	-7897
▁던데요	-7898
▁드러난	-7899
▁등록증	-7900
▁떠넘기	-7901
▁매스컴	-7902
▁밝혀야	-7903
▁보살펴	-7904
▁부산시	-7905
▁성년자	-7906
▁손석희	-7907
▁스러울	-7908
▁스페인	-7909
▁쓴다고	-7910
▁앞세워	-7911
▁엉터리	-7912
▁여교사	-7913
▁예비역	-7914
▁일용직	-7915
▁장애아	-7916
▁지도층	-7917
▁진단서	-7918
▁치료비	-7919
▁트레이	-7920
▁특히나	-7921
▁판매자	-7922
▁당합니다	-7923
▁동사무소	-7924
▁두려워하	-7925
▁들으면서	-7926
▁못한다고	-7927
▁서슴없이	-7928
▁이뤄지고	-7929
▁특수교육	-7930
▁스트라이크	-7931
ph	-7932
▁딩	-7933
▁똘	-7934
니어	-7935
러니	-7936
세청	-7937
업소	-7938
정자	-7939
정호	-7940
tbc	-7941
▁km	-7942
▁가부	-7943
▁가한	-7944
▁각국	-7945
▁간과	-7946
▁갇혀	-7947
▁견뎌	-7948
▁궁극	-7949
▁규탄	-7950
▁급한	-7951
▁기상	-7952
▁꼴찌	-7953
▁대왕	-7954
▁대자	-7955
▁대피	-7956
▁대항	-7957
▁도제	-7958
▁도주	-7959
▁동복	-7960
▁동행	-7961
▁등재	-7962
▁따를	-7963
▁막장	-7964
▁맡긴	-7965
▁먹방	-7966
▁못함	-7967
▁무전	-7968
▁묵과	-7969
▁백종	-7970
▁법위	-7971
▁부유	-7972
▁브라	-7973
▁빠듯	-7974
▁빼돌	-7975
▁사지	-7976
▁소액	-7977
▁속해	-7978
▁신화	-7979
▁싱글	-7980
▁안티	-7981
▁약해	-7982
▁에스	-7983
▁예원	-7984
▁워낙	-7985
▁원주	-7986
▁이강	-7987
▁이송	-7988
▁임무	-7989
▁자숙	-7990
▁작태	-7991
▁진급	-7992
▁진영	-7993
▁찍힌	-7994
▁척하	-7995
▁총재	-7996
▁태우	-7997
▁퇴보	-7998
▁트리	-7999
▁한하	-8000
▁합동	-8001
▁호의	-8002
▁후쿠	-8003
▁훗날	-8004
무가내	-8005
베이터	-8006
▁가르친	-8007
▁국립대	-8008
▁김대중	-8009
▁김영란	-8010
▁늘어놓	-8011
▁대변인	-8012
▁데려가	-8013
▁들어올	-8014
▁무너져	-8015
▁문제집	-8016
▁밝혀내	-8017
▁부적합	-8018
▁사형수	-8019
▁아름답	-8020
▁안태근	-8021
▁알려야	-8022
▁압박감	-8023
▁용의자	-8024
▁원해서	-8025
▁입주민	-8026
▁전과자	-8027
▁조현민	-8028
▁청원서	-8029
▁판결문	-8030
▁핀란드	-8031
▁학점제	-8032
▁후유증	-8033
▁2500	-8034
▁귀기울여	-8035
▁나온다는	-8036
▁막무가내	-8037
▁아이러니	-8038
bo	-8039
▁굽	-8040
▁닷	-8041
▁떡	-8042
▁랏	-8043
▁텔	-8044
거래	-8045
느리	-8046
동민	-8047
방식	-8048
장학	-8049
지요	-8050
케팅	-8051
트롤	-8052
asp	-8053
por	-8054
▁01	-8055
▁공존	-8056
▁기아	-8057
▁기적	-8058
▁깨우	-8059
▁남짓	-8060
▁내게	-8061
▁높일	-8062
▁대량	-8063
▁독단	-8064
▁동거	-8065
▁동급	-8066
▁멋지	-8067
▁명회	-8068
▁부려	-8069
▁부른	-8070
▁부턴	-8071
▁분양	-8072
▁불미	-8073
▁브리	-8074
▁사익	-8075
▁수료	-8076
▁스위	-8077
▁실종	-8078
▁썰매	-8079
▁아우	-8080
▁아웅	-8081
▁안쓰	-8082
▁어의	-8083
▁엄두	-8084
▁여직	-8085
▁예멘	-8086
▁예수	-8087
▁예절	-8088
▁왕복	-8089
▁요번	-8090
▁우유	-8091
▁웃긴	-8092
▁원동	-8093
▁의아	-8094
▁이순	-8095
▁일련	-8096
▁작동	-8097
▁조희	-8098
▁주자	-8099
▁중점	-8100
▁지칭	-8101
▁직시	-8102
▁충청	-8103
▁코너	-8104
▁탈출	-8105
▁택하	-8106
▁통상	-8107
▁퇴학	-8108
▁파산	-8109
▁피아	-8110
▁혈안	-8111
▁화상	-8112
린다는	-8113
▁250	-8114
▁600	-8115
▁가입자	-8116
▁걸어서	-8117
▁고양이	-8118
▁나와도	-8119
▁대자보	-8120
▁들으며	-8121
▁사라져	-8122
▁수십만	-8123
▁스토리	-8124
▁시켜라	-8125
▁아파하	-8126
▁어떨지	-8127
▁유전자	-8128
▁장난치	-8129
▁진다는	-8130
▁특별히	-8131
▁한해서	-8132
장학재단	-8133
▁비쌉니다	-8134
▁사고방식	-8135
▁이기주의	-8136
▁한국장학재단	-8137
76	-8138
AN	-8139
▁걍	-8140
▁땄	-8141
▁밴	-8142
▁삐	-8143
▁왼	-8144
께요	-8145
다란	-8146
메일	-8147
명보	-8148
바리	-8149
어가	-8150
지각	-8151
▁89	-8152
▁개조	-8153
▁과잉	-8154
▁과하	-8155
▁구급	-8156
▁군기	-8157
▁군필	-8158
▁그름	-8159
▁극도	-8160
▁기쁘	-8161
▁꼼꼼	-8162
▁난임	-8163
▁내국	-8164
▁놀리	-8165
▁눈앞	-8166
▁뒷전	-8167
▁떠드	-8168
▁만인	-8169
▁명품	-8170
▁무소	-8171
▁발판	-8172
▁벌레	-8173
▁변했	-8174
▁북미	-8175
▁분할	-8176
▁불의	-8177
▁불화	-8178
▁비호	-8179
▁새싹	-8180
▁서면	-8181
▁소멸	-8182
▁손길	-8183
▁습득	-8184
▁신도	-8185
▁심야	-8186
▁씨씨	-8187
▁액수	-8188
▁연고	-8189
▁원룸	-8190
▁원본	-8191
▁원할	-8192
▁유망	-8193
▁유신	-8194
▁유효	-8195
▁의상	-8196
▁의의	-8197
▁익히	-8198
▁입각	-8199
▁정성	-8200
▁제조	-8201
▁조각	-8202
▁주문	-8203
▁증상	-8204
▁직급	-8205
▁짐작	-8206
▁쪼개	-8207
▁창설	-8208
▁창업	-8209
▁천재	-8210
▁충주	-8211
▁치욕	-8212
▁컨설	-8213
▁타령	-8214
▁탈퇴	-8215
▁터질	-8216
▁항문	-8217
▁행각	-8218
▁황금	-8219
▁후세	-8220
▁개소리	-8221
▁결과물	-8222
▁김경두	-8223
▁내세워	-8224
▁던가요	-8225
▁뒤쳐지	-8226
▁들여서	-8227
▁몰지각	-8228
▁부조금	-8229
▁사직서	-8230
▁산다는	-8231
▁수백만	-8232
▁시험장	-8233
▁운동가	-8234
▁이강인	-8235
▁이메일	-8236
▁이어져	-8237
▁일으킬	-8238
▁죽여도	-8239
▁중독자	-8240
▁지난번	-8241
▁진행자	-8242
▁축구팀	-8243
▁피드백	-8244
▁갑작스럽	-8245
▁오프라인	-8246
▁20170	-8247
op	-8248
▁댁	-8249
▁뻗	-8250
▁쇄	-8251
▁싼	-8252
▁엮	-8253
가르	-8254
그리	-8255
기야	-8256
러지	-8257
마다	-8258
보내	-8259
상권	-8260
스타	-8261
전드	-8262
전입	-8263
진호	-8264
치기	-8265
화감	-8266
▁54	-8267
▁59	-8268
▁an	-8269
▁xx	-8270
▁검진	-8271
▁결심	-8272
▁경미	-8273
▁고기	-8274
▁교포	-8275
▁국비	-8276
▁국외	-8277
▁냉정	-8278
▁농담	-8279
▁당부	-8280
▁대치	-8281
▁데로	-8282
▁독거	-8283
▁동부	-8284
▁마침	-8285
▁마포	-8286
▁만세	-8287
▁맘놓	-8288
▁무더	-8289
▁묻혀	-8290
▁밝힐	-8291
▁버릇	-8292
▁번복	-8293
▁번지	-8294
▁변해	-8295
▁볼일	-8296
▁불평	-8297
▁브로	-8298
▁빈곤	-8299
▁뺑뺑	-8300
▁생성	-8301
▁소나	-8302
▁속한	-8303
▁수생	-8304
▁신인	-8305
▁양씨	-8306
▁억제	-8307
▁오락	-8308
▁용사	-8309
▁월등	-8310
▁유세	-8311
▁육상	-8312
▁응대	-8313
▁자켓	-8314
▁저장	-8315
▁정경	-8316
▁차선	-8317
▁참관	-8318
▁총기	-8319
▁최국	-8320
▁팀웍	-8321
▁판명	-8322
▁폄하	-8323
▁포커	-8324
▁허울	-8325
▁헤어	-8326
▁혼내	-8327
▁휴학	-8328
ᅳᅳᅳᅳ	-8329
▁감사원	-8330
▁걸려서	-8331
▁구치소	-8332
▁떄문에	-8333
▁레전드	-8334
▁마케팅	-8335
▁목격자	-8336
▁못한다	-8337
▁무참히	-8338
▁부담금	-8339
▁불러서	-8340
▁사회봉	-8341
▁선동열	-8342
▁성장기	-8343
▁식민지	-8344
▁실생활	-8345
▁여기자	-8346
▁올려야	-8347
▁위화감	-8348
▁음식점	-8349
▁제보자	-8350
▁줄여야	-8351
▁축구장	-8352
▁편가르	-8353
▁무너뜨리	-8354
▁약합니다	-8355
▁위장전입	-8356
▁이해관계	-8357
▁터무니없이	-8358
htmlidxno	-8359
▁newsarticleView	-8360
79	-8361
▁꺽	-8362
▁짚	-8363
▁챔	-8364
▁템	-8365
규모	-8366
담회	-8367
더라	-8368
백계	-8369
식간	-8370
여대	-8371
치료	-8372
카락	-8373
▁98	-8374
▁TO	-8375
▁간소	-8376
▁강경	-8377
▁강북	-8378
▁건들	-8379
▁견해	-8380
▁결탁	-8381
▁고가	-8382
▁고칠	-8383
▁과로	-8384
▁관습	-8385
▁구도	-8386
▁국론	-8387
▁귀국	-8388
▁그린	-8389
▁김신	-8390
▁도민	-8391
▁동결	-8392
▁려다	-8393
▁로봇	-8394
▁로비	-8395
▁마져	-8396
▁머물	-8397
▁모국	-8398
▁무혐	-8399
▁뮤지	-8400
▁발매	-8401
▁발부	-8402
▁번거	-8403
▁병가	-8404
▁본격	-8405
▁봐줄	-8406
▁불허	-8407
▁비아	-8408
▁비위	-8409
▁빅뱅	-8410
▁빙자	-8411
▁빛내	-8412
▁빼먹	-8413
▁상벌	-8414
▁성우	-8415
▁소형	-8416
▁손잡	-8417
▁신다	-8418
▁싸워	-8419
▁악덕	-8420
▁연주	-8421
▁영재	-8422
▁오라	-8423
▁오리	-8424
▁요지	-8425
▁원어	-8426
▁위인	-8427
▁이겼	-8428
▁일환	-8429
▁입상	-8430
▁작사	-8431
▁잠실	-8432
▁재화	-8433
▁중재	-8434
▁즈음	-8435
▁지갑	-8436
▁진작	-8437
▁집권	-8438
▁책무	-8439
▁추모	-8440
▁춘천	-8441
▁출범	-8442
▁침대	-8443
▁토지	-8444
▁퇴임	-8445
▁품질	-8446
▁해줍	-8447
▁현안	-8448
찹니다	-8449
▁고의로	-8450
▁관광지	-8451
▁관심없	-8452
▁기업체	-8453
▁남성부	-8454
▁내몰리	-8455
▁동의서	-8456
▁들여다	-8457
▁못지않	-8458
▁무의미	-8459
▁브리핑	-8460
▁뺑뺑이	-8461
▁소규모	-8462
▁송두리	-8463
▁수십억	-8464
▁신고자	-8465
▁애국자	-8466
▁올라간	-8467
▁장기간	-8468
▁재대로	-8469
▁찌푸리	-8470
▁체육부	-8471
▁커다란	-8472
▁해봐도	-8473
▁헛소리	-8474
▁호랑이	-8475
▁홍명보	-8476
▁회사원	-8477
▁jtbc	-8478
▁다릅니까	-8479
▁머리카락	-8480
▁부담없이	-8481
▁사회봉사	-8482
▁안전사고	-8483
▁일벌백계	-8484
▁지켜줘야	-8485
▁학력고사	-8486
▁한다거나	-8487
▁navig	-8488
▁navigation	-8489
ᅲᅲ	-8490
▁Q	-8491
▁꽁	-8492
▁낡	-8493
▁젤	-8494
▁짙	-8495
▁펑	-8496
게요	-8497
겨서	-8498
기능	-8499
더니	-8500
두천	-8501
뜨려	-8502
무사	-8503
배우	-8504
사리	-8505
성기	-8506
은행	-8507
처분	-8508
타기	-8509
포트	-8510
net	-8511
php	-8512
▁62	-8513
▁IS	-8514
▁SM	-8515
▁간신	-8516
▁거니	-8517
▁거친	-8518
▁계절	-8519
▁공신	-8520
▁교섭	-8521
▁군부	-8522
▁김해	-8523
▁나열	-8524
▁네트	-8525
▁답안	-8526
▁동남	-8527
▁둔갑	-8528
▁리모	-8529
▁막힌	-8530
▁모인	-8531
▁발송	-8532
▁본능	-8533
▁부역	-8534
▁분립	-8535
▁분별	-8536
▁빛나	-8537
▁사악	-8538
▁섭외	-8539
▁센타	-8540
▁소셜	-8541
▁소주	-8542
▁시터	-8543
▁아랫	-8544
▁애써	-8545
▁어쨌	-8546
▁엄하	-8547
▁여전	-8548
▁여진	-8549
▁외상	-8550
▁외주	-8551
▁이적	-8552
▁인수	-8553
▁일산	-8554
▁자폐	-8555
▁작정	-8556
▁잘사	-8557
▁장모	-8558
▁전임	-8559
▁접한	-8560
▁정중	-8561
▁조원	-8562
▁조율	-8563
▁조종	-8564
▁주류	-8565
▁주작	-8566
▁준수	-8567
▁줄인	-8568
▁줄지	-8569
▁증세	-8570
▁지양	-8571
▁지어	-8572
▁징벌	-8573
▁창조	-8574
▁체불	-8575
▁추워	-8576
▁커플	-8577
▁태반	-8578
▁투수	-8579
▁파급	-8580
▁폭발	-8581
▁폭탄	-8582
▁함양	-8583
▁해지	-8584
▁행한	-8585
▁향하	-8586
▁훈계	-8587
▁훌쩍	-8588
1200	-8589
▁간담회	-8590
▁갤러리	-8591
▁고령화	-8592
▁교과목	-8593
▁급기야	-8594
▁김경수	-8595
▁나타내	-8596
▁늘려서	-8597
▁다거나	-8598
▁다문화	-8599
▁덩어리	-8600
▁돌아간	-8601
▁동두천	-8602
▁들먹이	-8603
▁박상기	-8604
▁보상금	-8605
▁보여야	-8606
▁선발전	-8607
▁양진호	-8608
▁유시민	-8609
▁의문점	-8610
▁인격체	-8611
▁일부분	-8612
▁일수록	-8613
▁작성자	-8614
▁제작자	-8615
▁졸업장	-8616
▁집안일	-8617
▁컨설팅	-8618
▁컨트롤	-8619
▁1020	-8620
▁2005	-8621
▁개탄스럽	-8622
▁동떨어진	-8623
▁스트리밍	-8624
▁안타까워	-8625
▁잃어버린	-8626
▁자본주의	-8627
▁정당방위	-8628
OR	-8629
ad	-8630
ag	-8631
▁ᄃ	-8632
▁벡	-8633
▁썻	-8634
▁텀	-8635
가정	-8636
둬야	-8637
마크	-8638
문학	-8639
민정	-8640
승호	-8641
아요	-8642
잘못	-8643
쳐도	-8644
프레	-8645
▁58	-8646
▁감경	-8647
▁감염	-8648
▁계란	-8649
▁공작	-8650
▁끝났	-8651
▁나체	-8652
▁난감	-8653
▁늘릴	-8654
▁단장	-8655
▁도달	-8656
▁동정	-8657
▁동화	-8658
▁마식	-8659
▁매너	-8660
▁매점	-8661
▁무얼	-8662
▁미군	-8663
▁미니	-8664
▁바빠	-8665
▁반찬	-8666
▁밤낮	-8667
▁배후	-8668
▁벌인	-8669
▁변함	-8670
▁보좌	-8671
▁복사	-8672
▁볼까	-8673
▁부름	-8674
▁비비	-8675
▁비전	-8676
▁빨라	-8677
▁사인	-8678
▁상향	-8679
▁상환	-8680
▁소치	-8681
▁손녀	-8682
▁송출	-8683
▁수유	-8684
▁순환	-8685
▁시신	-8686
▁싫어	-8687
▁아껴	-8688
▁악몽	-8689
▁압도	-8690
▁양반	-8691
▁영세	-8692
▁왠만	-8693
▁유트	-8694
▁일생	-8695
▁자이	-8696
▁잔디	-8697
▁전개	-8698
▁조언	-8699
▁조퇴	-8700
▁죄자	-8701
▁줄줄	-8702
▁집착	-8703
▁찬물	-8704
▁초월	-8705
▁타국	-8706
▁토끼	-8707
▁평택	-8708
▁피폐	-8709
▁학살	-8710
▁활보	-8711
▁흘렸	-8712
라이딩	-8713
섭니다	-8714
▁230	-8715
▁공문서	-8716
▁기자단	-8717
▁달라질	-8718
▁대리점	-8719
▁돌아올	-8720
▁매국노	-8721
▁매니저	-8722
▁며느리	-8723
▁수영장	-8724
▁순식간	-8725
▁쓸모없	-8726
▁아가씨	-8727
▁아쉬움	-8728
▁연구소	-8729
▁올라갔	-8730
▁옳바른	-8731
▁원어민	-8732
▁으니깐	-8733
▁이성애	-8734
▁이순신	-8735
▁입학식	-8736
▁조그만	-8737
▁집어넣	-8738
▁한가요	-8739
▁한없이	-8740
▁형편없	-8741
▁html	-8742
▁고등교육	-8743
▁다운로드	-8744
▁빠져나가	-8745
▁슬라이딩	-8746
▁안타까울	-8747
▁이화여대	-8748
▁후쿠시마	-8749
▁다문화가정	-8750
▁올라옵니다	-8751
36	-8752
ON	-8753
is	-8754
ll	-8755
um	-8756
ve	-8757
▁록	-8758
▁붉	-8759
▁빕	-8760
▁쟁	-8761
몰라	-8762
반대	-8763
벨트	-8764
사건	-8765
숙고	-8766
영장	-8767
징계	-8768
클럽	-8769
▁FC	-8770
▁가동	-8771
▁각기	-8772
▁감각	-8773
▁감방	-8774
▁값진	-8775
▁강대	-8776
▁겁나	-8777
▁경마	-8778
▁경희	-8779
▁공시	-8780
▁공헌	-8781
▁관장	-8782
▁교구	-8783
▁글씨	-8784
▁급증	-8785
▁김호	-8786
▁나르	-8787
▁노트	-8788
▁놀림	-8789
▁다신	-8790
▁다쳤	-8791
▁담요	-8792
▁대원	-8793
▁돌파	-8794
▁동북	-8795
▁둬야	-8796
▁떠났	-8797
▁라기	-8798
▁래퍼	-8799
▁막중	-8800
▁매춘	-8801
▁방황	-8802
▁배드	-8803
▁배척	-8804
▁변기	-8805
▁보직	-8806
▁부양	-8807
▁부탱	-8808
▁부하	-8809
▁비꼬	-8810
▁상반	-8811
▁상속	-8812
▁서구	-8813
▁성원	-8814
▁세심	-8815
▁세운	-8816
▁섹스	-8817
▁송치	-8818
▁수습	-8819
▁순진	-8820
▁시수	-8821
▁시시	-8822
▁싸인	-8823
▁알몸	-8824
▁야한	-8825
▁양자	-8826
▁여쭤	-8827
▁여타	-8828
▁연상	-8829
▁온전	-8830
▁음지	-8831
▁자립	-8832
▁장착	-8833
▁저것	-8834
▁전선	-8835
▁제로	-8836
▁졸이	-8837
▁주취	-8838
▁진주	-8839
▁차기	-8840
▁차상	-8841
▁철도	-8842
▁친고	-8843
▁트랙	-8844
▁티오	-8845
▁편협	-8846
▁폴리	-8847
▁한태	-8848
▁화가	-8849
▁획일	-8850
스티벌	-8851
플레이	-8852
▁MBN	-8853
▁가르침	-8854
▁가부장	-8855
▁김성수	-8856
▁나몰라	-8857
▁늘어났	-8858
▁다스려	-8859
▁대표자	-8860
▁돌아다	-8861
▁돌아보	-8862
▁동호회	-8863
▁든다고	-8864
▁맞춤법	-8865
▁먹거리	-8866
▁무서움	-8867
▁무수히	-8868
▁미사일	-8869
▁백종원	-8870
▁사용료	-8871
▁스크린	-8872
▁시간대	-8873
▁쏟아져	-8874
▁유학생	-8875
▁을수록	-8876
▁이영학	-8877
▁장례식	-8878
▁제작사	-8879
▁주무관	-8880
▁집사람	-8881
▁창작자	-8882
▁한겨레	-8883
▁3040	-8884
▁생겼으면	-8885
▁시킨다면	-8886
▁심사숙고	-8887
▁자연스레	-8888
▁주어져야	-8889
▁페스티벌	-8890
▁받아들여야	-8891
37	-8892
38	-8893
ut	-8894
▁괘	-8895
▁콤	-8896
▁킥	-8897
▁픈	-8898
가짐	-8899
레톤	-8900
실히	-8901
어들	-8902
충분	-8903
키지	-8904
항서	-8905
▁갈라	-8906
▁결실	-8907
▁경복	-8908
▁과다	-8909
▁교제	-8910
▁김제	-8911
▁까페	-8912
▁꾸려	-8913
▁끼워	-8914
▁남겼	-8915
▁남매	-8916
▁납세	-8917
▁내야	-8918
▁넥센	-8919
▁누진	-8920
▁뉴질	-8921
▁다큐	-8922
▁더빙	-8923
▁더위	-8924
▁두드	-8925
▁맥락	-8926
▁몸매	-8927
▁물들	-8928
▁바늘	-8929
▁반려	-8930
▁배틀	-8931
▁보듬	-8932
▁부수	-8933
▁분기	-8934
▁비춰	-8935
▁뽑히	-8936
▁사물	-8937
▁상시	-8938
▁세미	-8939
▁수법	-8940
▁수출	-8941
▁쉬워	-8942
▁스켈	-8943
▁시중	-8944
▁실감	-8945
▁심했	-8946
▁썩어	-8947
▁약화	-8948
▁양극	-8949
▁양식	-8950
▁억대	-8951
▁에듀	-8952
▁열차	-8953
▁외할	-8954
▁용역	-8955
▁원했	-8956
▁유물	-8957
▁유서	-8958
▁유연	-8959
▁은혜	-8960
▁이쁜	-8961
▁인대	-8962
▁일말	-8963
▁일회	-8964
▁자위	-8965
▁잠자	-8966
▁장벽	-8967
▁재활	-8968
▁저거	-8969
▁저축	-8970
▁적산	-8971
▁전방	-8972
▁전산	-8973
▁제때	-8974
▁조속	-8975
▁종신	-8976
▁죄수	-8977
▁중개	-8978
▁중형	-8979
▁천국	-8980
▁철퇴	-8981
▁캠프	-8982
▁테이	-8983
▁텔레	-8984
▁풀리	-8985
▁필히	-8986
▁행패	-8987
▁헌재	-8988
orea	-8989
▁SPO	-8990
▁간신히	-8991
▁갑시다	-8992
▁관리원	-8993
▁김신욱	-8994
▁끊임없	-8995
▁나눠서	-8996
▁낱낱이	-8997
▁누려야	-8998
▁동남아	-8999
▁물려주	-9000
▁박항서	-9001
▁반바지	-9002
▁벌어질	-9003
▁브로커	-9004
▁성재기	-9005
▁이어진	-9006
▁자신감	-9007
▁전용주	-9008
▁조합원	-9009
▁줄어든	-9010
▁짓밟히	-9011
▁처해야	-9012
▁칩시다	-9013
▁키워드	-9014
▁프라이	-9015
▁나갑니다	-9016
▁뉴질랜드	-9017
▁부끄러워	-9018
▁생긴다면	-9019
▁스켈레톤	-9020
▁시끄러운	-9021
▁심리치료	-9022
▁입니다만	-9023
▁코스프레	-9024
▁한국일보	-9025
▁한답시고	-9026
▁객관적으로	-9027
▁171200	-9028
56	-9029
MA	-9030
ir	-9031
▁곽	-9032
▁됍	-9033
▁땡	-9034
▁뺀	-9035
▁웅	-9036
▁햐	-9037
걸음	-9038
고기	-9039
고생	-9040
따위	-9041
마블	-9042
보이	-9043
사실	-9044
쓴이	-9045
일으	-9046
하장	-9047
환자	-9048
▁53	-9049
▁me	-9050
▁가했	-9051
▁감청	-9052
▁감치	-9053
▁강좌	-9054
▁검경	-9055
▁고귀	-9056
▁골든	-9057
▁과중	-9058
▁귀족	-9059
▁기생	-9060
▁깡패	-9061
▁끼친	-9062
▁나치	-9063
▁녹취	-9064
▁대여	-9065
▁더이	-9066
▁두리	-9067
▁레드	-9068
▁막혀	-9069
▁몸값	-9070
▁못생	-9071
▁무급	-9072
▁미소	-9073
▁바치	-9074
▁방임	-9075
▁번번	-9076
▁범하	-9077
▁법리	-9078
▁보강	-9079
▁본분	-9080
▁봅슬	-9081
▁봐라	-9082
▁불우	-9083
▁산출	-9084
▁성행	-9085
▁소상	-9086
▁수구	-9087
▁수명	-9088
▁시체	-9089
▁시티	-9090
▁쌍욕	-9091
▁쓰일	-9092
▁알파	-9093
▁앞당	-9094
▁여인	-9095
▁열렸	-9096
▁열풍	-9097
▁예뻐	-9098
▁응당	-9099
▁인솔	-9100
▁일기	-9101
▁일쑤	-9102
▁입찰	-9103
▁자사	-9104
▁적반	-9105
▁점령	-9106
▁지낸	-9107
▁지루	-9108
▁지친	-9109
▁지탄	-9110
▁쫓겨	-9111
▁찬반	-9112
▁참으	-9113
▁천차	-9114
▁총회	-9115
▁최강	-9116
▁친애	-9117
▁커질	-9118
▁쿼터	-9119
▁토로	-9120
▁통치	-9121
▁퇴장	-9122
▁파티	-9123
▁판국	-9124
▁패륜	-9125
▁패지	-9126
▁평상	-9127
▁한화	-9128
▁게이트	-9129
▁공모전	-9130
▁관리비	-9131
▁글쓴이	-9132
▁난다는	-9133
▁넷마블	-9134
▁는커녕	-9135
▁다가가	-9136
▁돌려받	-9137
▁된다니	-9138
▁듭시다	-9139
▁모자란	-9140
▁빈번히	-9141
▁셔야죠	-9142
▁순기능	-9143
▁신청서	-9144
▁윗사람	-9145
▁잘잘못	-9146
▁장시간	-9147
▁재경기	-9148
▁전문직	-9149
▁정해서	-9150
▁친고죄	-9151
▁퍼뜨리	-9152
▁평가전	-9153
▁피아노	-9154
▁학생회	-9155
▁한국식	-9156
▁화성시	-9157
▁강원랜드	-9158
▁모른다는	-9159
▁봅슬레이	-9160
▁불러일으	-9161
▁스포츠맨	-9162
▁안전벨트	-9163
▁지상주의	-9164
▁SPOTV	-9165
96	-9166
98	-9167
BE	-9168
▁곪	-9169
▁껄	-9170
▁껏	-9171
▁끓	-9172
▁뚝	-9173
▁뛴	-9174
▁렵	-9175
▁밍	-9176
▁엽	-9177
다지	-9178
라면	-9179
럼프	-9180
민턴	-9181
병원	-9182
웨이	-9183
저만	-9184
트넘	-9185
티브	-9186
ent	-9187
▁강해	-9188
▁걸친	-9189
▁경피	-9190
▁고수	-9191
▁교주	-9192
▁교훈	-9193
▁기를	-9194
▁기증	-9195
▁나약	-9196
▁늦추	-9197
▁다분	-9198
▁도모	-9199
▁드신	-9200
▁등하	-9201
▁마셨	-9202
▁만기	-9203
▁망설	-9204
▁무색	-9205
▁밀접	-9206
▁박살	-9207
▁반별	-9208
▁불교	-9209
▁비유	-9210
▁사관	-9211
▁사대	-9212
▁사로	-9213
▁살릴	-9214
▁삼촌	-9215
▁상자	-9216
▁생생	-9217
▁생업	-9218
▁세웠	-9219
▁수억	-9220
▁승소	-9221
▁승차	-9222
▁신기	-9223
▁신나	-9224
▁애착	-9225
▁얼른	-9226
▁와도	-9227
▁용병	-9228
▁워치	-9229
▁위증	-9230
▁융합	-9231
▁음료	-9232
▁이끄	-9233
▁이쁘	-9234
▁자백	-9235
▁잡힌	-9236
▁재우	-9237
▁전신	-9238
▁조화	-9239
▁중구	-9240
▁증오	-9241
▁지청	-9242
▁진리	-9243
▁천억	-9244
▁춤추	-9245
▁퇴색	-9246
▁퇴소	-9247
▁패턴	-9248
▁필자	-9249
▁한진	-9250
▁회유	-9251
▁효력	-9252
▁흔드	-9253
봅시다	-9254
atch	-9255
▁가까워	-9256
▁가져올	-9257
▁갔다오	-9258
▁개회식	-9259
▁객관식	-9260
▁건데요	-9261
▁과감히	-9262
▁구독자	-9263
▁근무지	-9264
▁기관장	-9265
▁기부금	-9266
▁내려지	-9267
▁네이트	-9268
▁노약자	-9269
▁느냐고	-9270
▁대수롭	-9271
▁되돌려	-9272
▁드디어	-9273
▁라이브	-9274
▁마식령	-9275
▁망가지	-9276
▁무방비	-9277
▁부르짖	-9278
▁불충분	-9279
▁설립자	-9280
▁소용없	-9281
▁시킨다	-9282
▁안다고	-9283
▁읍시다	-9284
▁이명희	-9285
▁인천시	-9286
▁정신과	-9287
▁지켜줄	-9288
▁참가자	-9289
▁토트넘	-9290
▁파트너	-9291
▁폭행죄	-9292
▁할려는	-9293
▁4000	-9294
▁그럴까요	-9295
▁나온다면	-9296
▁들립니다	-9297
▁모른다고	-9298
▁배드민턴	-9299
▁슬픕니다	-9300
▁시킨다는	-9301
▁쓸데없이	-9302
▁어려워서	-9303
▁어지럽히	-9304
▁이만저만	-9305
▁전문학교	-9306
▁전통문화	-9307
▁한다던지	-9308
EA	-9309
▁ᄆ	-9310
▁밭	-9311
▁뱉	-9312
▁봣	-9313
고루	-9314
공사	-9315
국가	-9316
권자	-9317
들여	-9318
려내	-9319
르셋	-9320
막이	-9321
백백	-9322
양간	-9323
양호	-9324
언정	-9325
우진	-9326
재원	-9327
천히	-9328
체류	-9329
태우	-9330
해하	-9331
▁49	-9332
▁64	-9333
▁or	-9334
▁to	-9335
▁가령	-9336
▁가릴	-9337
▁각오	-9338
▁갈리	-9339
▁감출	-9340
▁거스	-9341
▁건국	-9342
▁공예	-9343
▁구두	-9344
▁구직	-9345
▁군림	-9346
▁그늘	-9347
▁낙하	-9348
▁남양	-9349
▁납입	-9350
▁넓혀	-9351
▁늦춰	-9352
▁독려	-9353
▁등본	-9354
▁등산	-9355
▁로움	-9356
▁로워	-9357
▁맘껏	-9358
▁맞서	-9359
▁맞춘	-9360
▁맞출	-9361
▁몰두	-9362
▁몸소	-9363
▁몹쓸	-9364
▁무장	-9365
▁민폐	-9366
▁바쳐	-9367
▁바퀴	-9368
▁밥값	-9369
▁방출	-9370
▁벌벌	-9371
▁법체	-9372
▁변한	-9373
▁부류	-9374
▁분과	-9375
▁분당	-9376
▁분배	-9377
▁블럭	-9378
▁비장	-9379
▁빠질	-9380
▁사내	-9381
▁선례	-9382
▁소극	-9383
▁소질	-9384
▁소화	-9385
▁손발	-9386
▁손주	-9387
▁시킴	-9388
▁신조	-9389
▁실검	-9390
▁싸잡	-9391
▁아선	-9392
▁약점	-9393
▁양궁	-9394
▁어땠	-9395
▁여파	-9396
▁연이	-9397
▁연체	-9398
▁열기	-9399
▁영정	-9400
▁오마	-9401
▁외노	-9402
▁욱일	-9403
▁운명	-9404
▁유관	-9405
▁유인	-9406
▁음해	-9407
▁이긴	-9408
▁이단	-9409
▁이룬	-9410
▁이문	-9411
▁인디	-9412
▁일러	-9413
▁일진	-9414
▁잠들	-9415
▁잡지	-9416
▁재임	-9417
▁제어	-9418
▁주역	-9419
▁주전	-9420
▁중순	-9421
▁증대	-9422
▁진위	-9423
▁집계	-9424
▁챔피	-9425
▁친분	-9426
▁탄력	-9427
▁터치	-9428
▁팀원	-9429
▁파문	-9430
▁페럴	-9431
▁표창	-9432
▁피나	-9433
▁허덕	-9434
▁화두	-9435
▁후속	-9436
▁흔하	-9437
민정음	-9438
▁170	-9439
▁강대국	-9440
▁공산당	-9441
▁과학고	-9442
▁관심사	-9443
▁교습소	-9444
▁김제동	-9445
▁떠들썩	-9446
▁목요일	-9447
▁무작위	-9448
▁배신감	-9449
▁보이콧	-9450
▁본다고	-9451
▁부도덕	-9452
▁불리우	-9453
▁붙여서	-9454
▁브라질	-9455
▁상실감	-9456
▁생활고	-9457
▁스위스	-9458
▁스키장	-9459
▁아서요	-9460
▁어려웠	-9461
▁어쨌든	-9462
▁영화제	-9463
▁외양간	-9464
▁위정자	-9465
▁유아기	-9466
▁유정호	-9467
▁이기흥	-9468
▁이스트	-9469
▁이토록	-9470
▁인지도	-9471
▁일으켰	-9472
▁장동민	-9473
▁조리사	-9474
▁좌절감	-9475
▁중징계	-9476
▁중환자	-9477
▁천천히	-9478
▁코르셋	-9479
▁패키지	-9480
▁팬클럽	-9481
▁행정관	-9482
▁1200	-9483
▁2006	-9484
▁마이너스	-9485
▁명명백백	-9486
▁불법체류	-9487
▁썩어빠진	-9488
▁인민재판	-9489
▁초과근무	-9490
▁훈민정음	-9491
▁어긋납니다	-9492
▁엘리베이터	-9493
57	-9494
Id	-9495
OT	-9496
▁꾀	-9497
▁닮	-9498
▁샵	-9499
▁쌀	-9500
▁왓	-9501
▁캔	-9502
같이	-9503
검사	-9504
라기	-9505
라스	-9506
런지	-9507
리케	-9508
버님	-9509
버시	-9510
장치	-9511
주야	-9512
통일	-9513
흡연	-9514
112	-9515
▁47	-9516
▁97	-9517
▁각인	-9518
▁감지	-9519
▁개막	-9520
▁개요	-9521
▁건만	-9522
▁걸까	-9523
▁경감	-9524
▁경시	-9525
▁계발	-9526
▁계승	-9527
▁고독	-9528
▁고아	-9529
▁공업	-9530
▁교리	-9531
▁기름	-9532
▁누적	-9533
▁다투	-9534
▁대도	-9535
▁떠난	-9536
▁뜨겁	-9537
▁마리	-9538
▁막강	-9539
▁무에	-9540
▁반감	-9541
▁배송	-9542
▁밴드	-9543
▁부린	-9544
▁부속	-9545
▁북부	-9546
▁분개	-9547
▁분란	-9548
▁분량	-9549
▁불철	-9550
▁뷰어	-9551
▁비치	-9552
▁뿌듯	-9553
▁상가	-9554
▁상고	-9555
▁색출	-9556
▁선입	-9557
▁성분	-9558
▁셔요	-9559
▁시발	-9560
▁신데	-9561
▁쓴다	-9562
▁아부	-9563
▁악기	-9564
▁알린	-9565
▁알선	-9566
▁양도	-9567
▁어학	-9568
▁열등	-9569
▁영위	-9570
▁오를	-9571
▁온도	-9572
▁왠지	-9573
▁월경	-9574
▁월차	-9575
▁이면	-9576
▁이불	-9577
▁이산	-9578
▁이쪽	-9579
▁인양	-9580
▁자문	-9581
▁자한	-9582
▁재질	-9583
▁저변	-9584
▁전도	-9585
▁전범	-9586
▁전송	-9587
▁절박	-9588
▁정립	-9589
▁정문	-9590
▁조서	-9591
▁존립	-9592
▁지날	-9593
▁지리	-9594
▁진천	-9595
▁질의	-9596
▁질책	-9597
▁착하	-9598
▁챙길	-9599
▁청취	-9600
▁축적	-9601
▁충돌	-9602
▁취록	-9603
▁치를	-9604
▁태클	-9605
▁텀블	-9606
▁튼튼	-9607
▁파크	-9608
▁퍼부	-9609
▁페널	-9610
▁표적	-9611
▁피디	-9612
▁필리	-9613
▁허벅	-9614
▁휴계	-9615
▁흘렀	-9616
잖아요	-9617
▁197	-9618
▁700	-9619
▁ebs	-9620
▁골고루	-9621
▁교도관	-9622
▁그다지	-9623
▁낙인찍	-9624
▁높여야	-9625
▁뉴스룸	-9626
▁대법관	-9627
▁될까봐	-9628
▁라든지	-9629
▁만족도	-9630
▁미용사	-9631
▁배불리	-9632
▁보증금	-9633
▁사업체	-9634
▁사재기	-9635
▁상영관	-9636
▁스카이	-9637
▁신속히	-9638
▁아름다	-9639
▁아야죠	-9640
▁아파도	-9641
▁얼룩진	-9642
▁은커녕	-9643
▁응급실	-9644
▁이사회	-9645
▁이어졌	-9646
▁입장권	-9647
▁조양호	-9648
▁존엄성	-9649
▁주소지	-9650
▁천문학	-9651
▁초상권	-9652
▁판검사	-9653
▁포스트	-9654
▁풀려나	-9655
▁플러스	-9656
▁회의감	-9657
atchv	-9658
▁0000	-9659
▁6000	-9660
▁네트워크	-9661
▁밀어붙이	-9662
▁버린다면	-9663
▁분단국가	-9664
▁불철주야	-9665
▁아무쪼록	-9666
▁안전장치	-9667
▁원한다면	-9668
▁일지라도	-9669
▁적반하장	-9670
▁프리미어	-9671
▁해줍니다	-9672
▁프라이버시	-9673
▁watchv	-9674
▁article	-9675
44	-9676
67	-9677
ay	-9678
▁돔	-9679
▁밉	-9680
▁붐	-9681
▁붓	-9682
▁뻥	-9683
▁졋	-9684
구려	-9685
노동	-9686
리즘	-9687
시티	-9688
어로	-9689
와야	-9690
인권	-9691
정지	-9692
지오	-9693
체어	-9694
타이	-9695
하무	-9696
UBE	-9697
ube	-9698
▁09	-9699
▁84	-9700
▁AD	-9701
▁Me	-9702
▁간음	-9703
▁감내	-9704
▁건배	-9705
▁고백	-9706
▁과열	-9707
▁관악	-9708
▁그럽	-9709
▁기금	-9710
▁기출	-9711
▁김종	-9712
▁꾸며	-9713
▁난동	-9714
▁남중	-9715
▁내밀	-9716
▁내정	-9717
▁누락	-9718
▁눈뜨	-9719
▁단단	-9720
▁달렸	-9721
▁담뱃	-9722
▁대검	-9723
▁대북	-9724
▁도립	-9725
▁독방	-9726
▁돌릴	-9727
▁로드	-9728
▁마라	-9729
▁마의	-9730
▁매치	-9731
▁무례	-9732
▁무제	-9733
▁문정	-9734
▁문책	-9735
▁문항	-9736
▁민영	-9737
▁바꿨	-9738
▁백성	-9739
▁보탬	-9740
▁봐왔	-9741
▁불통	-9742
▁뺏기	-9743
▁뻔하	-9744
▁사주	-9745
▁사칭	-9746
▁산재	-9747
▁생색	-9748
▁서서	-9749
▁선두	-9750
▁선비	-9751
▁성체	-9752
▁세트	-9753
▁수월	-9754
▁수조	-9755
▁숨지	-9756
▁숨통	-9757
▁쉼터	-9758
▁신지	-9759
▁악한	-9760
▁안경	-9761
▁안달	-9762
▁약관	-9763
▁었었	-9764
▁외도	-9765
▁요하	-9766
▁용시	-9767
▁우상	-9768
▁우위	-9769
▁울려	-9770
▁원내	-9771
▁위태	-9772
▁일터	-9773
▁일행	-9774
▁자처	-9775
▁장인	-9776
▁적대	-9777
▁절도	-9778
▁정관	-9779
▁제국	-9780
▁존속	-9781
▁졸속	-9782
▁종영	-9783
▁지겹	-9784
▁차관	-9785
▁참혹	-9786
▁체결	-9787
▁총선	-9788
▁충전	-9789
▁침략	-9790
▁카타	-9791
▁통증	-9792
▁퇴원	-9793
▁팟캐	-9794
▁표방	-9795
▁학술	-9796
▁학우	-9797
▁한복	-9798
▁행적	-9799
▁혈연	-9800
▁혼나	-9801
▁후드	-9802
▁후퇴	-9803
계약서	-9804
▁001	-9805
▁개발자	-9806
▁게라도	-9807
▁경범죄	-9808
▁계산기	-9809
▁공통점	-9810
▁기념관	-9811
▁넘어갔	-9812
▁노동청	-9813
▁다워야	-9814
▁돌봐야	-9815
▁동대문	-9816
▁들이대	-9817
▁듭니까	-9818
▁디스크	-9819
▁려는데	-9820
▁목숨걸	-9821
▁문화부	-9822
▁민간인	-9823
▁방해죄	-9824
▁법률안	-9825
▁병무청	-9826
▁복지부	-9827
▁사고력	-9828
▁사로잡	-9829
▁사립대	-9830
▁살펴봐	-9831
▁상담원	-9832
▁시설물	-9833
▁약해서	-9834
▁어서요	-9835
▁왜냐면	-9836
▁유행어	-9837
▁으셔서	-9838
▁읍니까	-9839
▁작곡가	-9840
▁전성기	-9841
▁치우쳐	-9842
▁표준어	-9843
▁필리핀	-9844
▁한데요	-9845
▁했어야	-9846
▁활동비	-9847
▁휠체어	-9848
▁휴게실	-9849
▁2003	-9850
▁view	-9851
▁나몰라라	-9852
▁들여다보	-9853
▁막힙니다	-9854
▁팟캐스트	-9855
▁하루속히	-9856
▁근로계약서	-9857
▁모바일게임	-9858
55	-9859
nt	-9860
ro	-9861
▁겜	-9862
▁궤	-9863
▁긋	-9864
▁꼰	-9865
▁됫	-9866
▁랩	-9867
▁른	-9868
▁몆	-9869
▁왈	-9870
▁큼	-9871
▁킬	-9872
구리	-9873
그러	-9874
년층	-9875
못해	-9876
번에	-9877
비어	-9878
승차	-9879
시설	-9880
아리	-9881
의지	-9882
진규	-9883
한시	-9884
oci	-9885
▁08	-9886
▁42	-9887
▁kg	-9888
▁겹치	-9889
▁고식	-9890
▁고졸	-9891
▁공갈	-9892
▁과대	-9893
▁괴리	-9894
▁극대	-9895
▁나눔	-9896
▁나선	-9897
▁날개	-9898
▁날까	-9899
▁남길	-9900
▁네여	-9901
▁누워	-9902
▁다구	-9903
▁던진	-9904
▁동동	-9905
▁동력	-9906
▁레스	-9907
▁망친	-9908
▁망할	-9909
▁멸시	-9910
▁묘사	-9911
▁무임	-9912
▁무화	-9913
▁문과	-9914
▁박혀	-9915
▁벤치	-9916
▁보름	-9917
▁봉급	-9918
▁분담	-9919
▁분하	-9920
▁빙신	-9921
▁서예	-9922
▁섞인	-9923
▁성병	-9924
▁성역	-9925
▁소소	-9926
▁숭고	-9927
▁승객	-9928
▁시국	-9929
▁식대	-9930
▁씌워	-9931
▁애완	-9932
▁양형	-9933
▁어둠	-9934
▁어딘	-9935
▁어딨	-9936
▁억장	-9937
▁연약	-9938
▁열광	-9939
▁열사	-9940
▁예배	-9941
▁오케	-9942
▁외침	-9943
▁우발	-9944
▁원분	-9945
▁위선	-9946
▁유력	-9947
▁음모	-9948
▁인쇄	-9949
▁일거	-9950
▁일깨	-9951
▁입힌	-9952
▁장차	-9953
▁제천	-9954
▁조력	-9955
▁종업	-9956
▁중증	-9957
▁지기	-9958
▁지민	-9959
▁천장	-9960
▁총수	-9961
▁최적	-9962
▁출결	-9963
▁층간	-9964
▁친화	-9965
▁카르	-9966
▁코앞	-9967
▁코피	-9968
▁탄원	-9969
▁토막	-9970
▁통폐	-9971
▁퇴진	-9972
▁편들	-9973
▁포용	-9974
▁하필	-9975
▁한강	-9976
▁합류	-9977
▁해내	-9978
▁횡단	-9979
게이머	-9980
라이트	-9981
▁가로막	-9982
▁강간죄	-9983
▁결승전	-9984
▁경영진	-9985
▁광복절	-9986
▁교육열	-9987
▁국내외	-9988
▁국세청	-9989
▁근거리	-9990
▁낙하산	-9991
▁달려가	-9992
▁도려내	-9993
▁떠올리	-9994
▁만든다	-9995
▁메갈이	-9996
▁물타기	-9997
▁바바리	-9998
▁발표회	-9999
▁버려서	-10000
▁변호인	-10001
▁불가침	-10002
▁비제이	-10003
▁사다리	-10004
▁상담소	-10005
▁생물학	-10006
▁소송법	-10007
▁수상자	-10008
▁수천만	-10009
▁시발점	-10010
▁신뢰도	-10011
▁쓰러져	-10012
▁아시나	-10013
▁여서는	-10014
▁오타쿠	-10015
▁이만희	-10016
▁이유로	-10017
▁이제야	-10018
▁재방송	-10019
▁저작물	-10020
▁전문대	-10021
▁주의자	-10022
▁줄줄이	-10023
▁채워야	-10024
▁처한다	-10025
▁카타르	-10026
▁텀블러	-10027
▁필터링	-10028
▁허벅지	-10029
▁휘둘리	-10030
▁4050	-10031
▁개인주의	-10032
▁무임승차	-10033
▁바쁩니다	-10034
▁소리지르	-10035
▁시킨다고	-10036
▁앞섭니다	-10037
▁이라던지	-10038
▁중환자실	-10039
▁한다면서	-10040
▁기다립니다	-10041
▁프로게이머	-10042
32	-10043
ET	-10044
OU	-10045
qu	-10046
th	-10047
▁굿	-10048
▁닌	-10049
▁릭	-10050
▁얹	-10051
▁찿	-10052
가포	-10053
느님	-10054
뜨린	-10055
렉스	-10056
로이	-10057
마스	-10058
만간	-10059
분명	-10060
여야	-10061
절로	-10062
토랑	-10063
투리	-10064
피스	-10065
현민	-10066
▁76	-10067
▁FA	-10068
▁th	-10069
▁가면	-10070
▁개교	-10071
▁과일	-10072
▁광경	-10073
▁국악	-10074
▁귀중	-10075
▁그루	-10076
▁금강	-10077
▁기인	-10078
▁기장	-10079
▁기해	-10080
▁기형	-10081
▁농촌	-10082
▁뇌전	-10083
▁능욕	-10084
▁단다	-10085
▁달러	-10086
▁당원	-10087
▁도발	-10088
▁도울	-10089
▁동해	-10090
▁돼요	-10091
▁두서	-10092
▁든든	-10093
▁디시	-10094
▁레고	-10095
▁마마	-10096
▁마찰	-10097
▁만났	-10098
▁망상	-10099
▁머릿	-10100
▁명지	-10101
▁무덤	-10102
▁무법	-10103
▁문건	-10104
▁미납	-10105
▁미취	-10106
▁믿기	-10107
▁밀집	-10108
▁반듯	-10109
▁반항	-10110
▁배고	-10111
▁배분	-10112
▁병장	-10113
▁부스	-10114
▁뽑힌	-10115
▁사생	-10116
▁서적	-10117
▁성경	-10118
▁성화	-10119
▁소란	-10120
▁수반	-10121
▁숙이	-10122
▁스캔	-10123
▁시야	-10124
▁써먹	-10125
▁아냐	-10126
▁아카	-10127
▁알맞	-10128
▁열망	-10129
▁오션	-10130
▁외롭	-10131
▁왼쪽	-10132
▁원감	-10133
▁원시	-10134
▁유난	-10135
▁이간	-10136
▁인명	-10137
▁인즉	-10138
▁임차	-10139
▁잠잠	-10140
▁장식	-10141
▁저급	-10142
▁전례	-10143
▁정국	-10144
▁정통	-10145
▁조계	-10146
▁조제	-10147
▁종북	-10148
▁종용	-10149
▁줄기	-10150
▁진압	-10151
▁짖밟	-10152
▁챙피	-10153
▁최하	-10154
▁충성	-10155
▁치솟	-10156
▁치중	-10157
▁치킨	-10158
▁카트	-10159
▁쾌적	-10160
▁클린	-10161
▁태릉	-10162
▁통역	-10163
▁파리	-10164
▁패션	-10165
▁하찮	-10166
▁한결	-10167
▁항쟁	-10168
▁해줘	-10169
가포르	-10170
하무인	-10171
▁220	-10172
▁갈아입	-10173
▁귀걸이	-10174
▁그치만	-10175
▁기뻐하	-10176
▁끌어내	-10177
▁나아질	-10178
▁놀라운	-10179
▁다던데	-10180
▁답니까	-10181
▁들려오	-10182
▁등한시	-10183
▁라던가	-10184
▁마이크	-10185
▁말아먹	-10186
▁망가져	-10187
▁멀쩡히	-10188
▁모를까	-10189
▁모자랄	-10190
▁무너진	-10191
▁무서울	-10192
▁무서웠	-10193
▁뭘까요	-10194
▁박진성	-10195
▁보여서	-10196
▁보험금	-10197
▁부적응	-10198
▁부턴가	-10199
▁불분명	-10200
▁살아오	-10201
▁세워진	-10202
▁소개서	-10203
▁시급히	-10204
▁시끄러	-10205
▁신조어	-10206
▁쓰러지	-10207
▁쓴다는	-10208
▁알아내	-10209
▁엄밀히	-10210
▁업무상	-10211
▁여태껏	-10212
▁오디션	-10213
▁우편물	-10214
▁이재명	-10215
▁잊어버	-10216
▁자이언	-10217
▁저절로	-10218
▁조만간	-10219
▁종교인	-10220
▁주변인	-10221
▁즐거워	-10222
▁찌푸려	-10223
▁커리어	-10224
▁클래스	-10225
▁토론회	-10226
▁통폐합	-10227
▁투자자	-10228
▁트럼프	-10229
▁티셔츠	-10230
▁퍼트리	-10231
▁하느님	-10232
▁했을까	-10233
▁휴게소	-10234
▁2004	-10235
▁권위주의	-10236
▁레스토랑	-10237
▁마음가짐	-10238
▁배웁니다	-10239
▁시킵시다	-10240
▁싱가포르	-10241
▁안하무인	-10242
▁이리저리	-10243
▁전라남도	-10244
▁광주광역시	-10245
▁어긋난다고	-10246
IS	-10247
OO	-10248
ly	-10249
ul	-10250
▁갯	-10251
▁걔	-10252
▁떵	-10253
▁뽀	-10254
▁얇	-10255
▁옴	-10256
▁캄	-10257
▁푹	-10258
▁핏	-10259
긍긍	-10260
나도	-10261
사전	-10262
설수	-10263
시점	-10264
어요	-10265
일드	-10266
일리	-10267
주교	-10268
효과	-10269
▁06	-10270
▁DN	-10271
▁ch	-10272
▁is	-10273
▁st	-10274
▁가속	-10275
▁개척	-10276
▁건대	-10277
▁건장	-10278
▁겸직	-10279
▁고르	-10280
▁과격	-10281
▁과한	-10282
▁교총	-10283
▁구장	-10284
▁구지	-10285
▁규범	-10286
▁금리	-10287
▁김구	-10288
▁김태	-10289
▁너도	-10290
▁다뇨	-10291
▁당초	-10292
▁대마	-10293
▁도핑	-10294
▁떠도	-10295
▁레인	-10296
▁리콜	-10297
▁마산	-10298
▁망칠	-10299
▁못난	-10300
▁묘지	-10301
▁민낯	-10302
▁반역	-10303
▁버림	-10304
▁벼슬	-10305
▁부녀	-10306
▁비평	-10307
▁뿌려	-10308
▁상인	-10309
▁생태	-10310
▁서장	-10311
▁선천	-10312
▁성상	-10313
▁수모	-10314
▁수화	-10315
▁순찰	-10316
▁암담	-10317
▁양립	-10318
▁양상	-10319
▁어겼	-10320
▁어색	-10321
▁언사	-10322
▁외제	-10323
▁외쳤	-10324
▁우연	-10325
▁우파	-10326
▁원가	-10327
▁원상	-10328
▁윗선	-10329
▁유로	-10330
▁유부	-10331
▁이대	-10332
▁재해	-10333
▁저게	-10334
▁절약	-10335
▁정밀	-10336
▁주당	-10337
▁주저	-10338
▁증서	-10339
▁참작	-10340
▁처먹	-10341
▁처형	-10342
▁초미	-10343
▁충이	-10344
▁취학	-10345
▁캡쳐	-10346
▁탈선	-10347
▁팍팍	-10348
▁팝콘	-10349
▁펑펑	-10350
▁평점	-10351
▁포토	-10352
▁풍토	-10353
▁핑크	-10354
▁한문	-10355
▁한시	-10356
▁해악	-10357
▁험한	-10358
▁현수	-10359
▁환산	-10360
▁후기	-10361
▁휩싸	-10362
김없이	-10363
는데도	-10364
바이벌	-10365
스트라	-10366
lose	-10367
tube	-10368
▁강남역	-10369
▁거리낌	-10370
▁걸어야	-10371
▁경호원	-10372
▁계열사	-10373
▁고독사	-10374
▁고위급	-10375
▁공연장	-10376
▁교묘히	-10377
▁그만둘	-10378
▁급격히	-10379
▁김성태	-10380
▁김호곤	-10381
▁까다롭	-10382
▁노진규	-10383
▁뇌전증	-10384
▁대학가	-10385
▁더이상	-10386
▁돌려서	-10387
▁됍니다	-10388
▁되돌아	-10389
▁두려운	-10390
▁면밀히	-10391
▁발걸음	-10392
▁번번히	-10393
▁빼돌리	-10394
▁뿌리깊	-10395
▁사기죄	-10396
▁사이코	-10397
▁상여금	-10398
▁선입견	-10399
▁싫어하	-10400
▁아닐지	-10401
▁안쓰럽	-10402
▁어쩌다	-10403
▁어찌하	-10404
▁여성우	-10405
▁여실히	-10406
▁온다고	-10407
▁올려도	-10408
▁움직일	-10409
▁의식주	-10410
▁이간질	-10411
▁임금제	-10412
▁잡아가	-10413
▁장학사	-10414
▁적나라	-10415
▁조희연	-10416
▁주어졌	-10417
▁증거인	-10418
▁천주교	-10419
▁최상위	-10420
▁취업률	-10421
▁카르텔	-10422
▁틀림없	-10423
▁파헤쳐	-10424
▁판단력	-10425
▁팔아먹	-10426
▁할수록	-10427
▁했어도	-10428
▁확인서	-10429
▁가정주부	-10430
▁공공장소	-10431
▁그만둬야	-10432
▁너도나도	-10433
▁다스려야	-10434
▁마이스터	-10435
▁만든다고	-10436
▁서바이벌	-10437
▁안전교육	-10438
▁오죽하면	-10439
▁이제서야	-10440
▁자이언츠	-10441
▁잔인무도	-10442
▁전전긍긍	-10443
▁지켜져야	-10444
▁close	-10445
▁속상합니다	-10446
ng	-10447
us	-10448
▁곱	-10449
▁닭	-10450
▁덤	-10451
▁딘	-10452
▁떴	-10453
▁뱅	-10454
▁샌	-10455
▁숲	-10456
▁썪	-10457
▁쏴	-10458
▁힌	-10459
각각	-10460
거즈	-10461
달수	-10462
들인	-10463
리오	-10464
만별	-10465
모델	-10466
워드	-10467
원회	-10468
처치	-10469
풍기	-10470
피아	-10471
하니	-10472
허가	-10473
▁69	-10474
▁96	-10475
▁BC	-10476
▁가라	-10477
▁개통	-10478
▁거품	-10479
▁겁박	-10480
▁결성	-10481
▁고분	-10482
▁고하	-10483
▁골절	-10484
▁과반	-10485
▁교무	-10486
▁구원	-10487
▁규율	-10488
▁기강	-10489
▁기고	-10490
▁기력	-10491
▁기리	-10492
▁기조	-10493
▁김부	-10494
▁깃발	-10495
▁나락	-10496
▁나옴	-10497
▁난방	-10498
▁날뛰	-10499
▁남부	-10500
▁노란	-10501
▁높였	-10502
▁닷컴	-10503
▁동요	-10504
▁득점	-10505
▁등지	-10506
▁떠밀	-10507
▁려던	-10508
▁로리	-10509
▁마사	-10510
▁마신	-10511
▁말투	-10512
▁맞기	-10513
▁매겨	-10514
▁면책	-10515
▁모금	-10516
▁모성	-10517
▁몰락	-10518
▁무도	-10519
▁미식	-10520
▁반증	-10521
▁벅차	-10522
▁보답	-10523
▁본문	-10524
▁비트	-10525
▁삽입	-10526
▁상권	-10527
▁상생	-10528
▁서초	-10529
▁선가	-10530
▁송환	-10531
▁신선	-10532
▁신학	-10533
▁심도	-10534
▁안무	-10535
▁안위	-10536
▁앞길	-10537
▁여호	-10538
▁영주	-10539
▁오롯	-10540
▁오산	-10541
▁오점	-10542
▁외래	-10543
▁우민	-10544
▁울림	-10545
▁육박	-10546
▁이룩	-10547
▁이목	-10548
▁이왕	-10549
▁인내	-10550
▁입지	-10551
▁작자	-10552
▁장본	-10553
▁재력	-10554
▁전지	-10555
▁정면	-10556
▁제소	-10557
▁주워	-10558
▁중년	-10559
▁증후	-10560
▁직면	-10561
▁직속	-10562
▁질식	-10563
▁징용	-10564
▁짤라	-10565
▁찌르	-10566
▁착수	-10567
▁참된	-10568
▁청약	-10569
▁청화	-10570
▁추잡	-10571
▁치고	-10572
▁컴백	-10573
▁키웠	-10574
▁탁구	-10575
▁탈의	-10576
▁토하	-10577
▁통탄	-10578
▁트윈	-10579
▁파해	-10580
▁표지	-10581
▁하반	-10582
▁합치	-10583
▁행세	-10584
▁현저	-10585
▁환호	-10586
▁휩쓸	-10587
▁흐려	-10588
어로즈	-10589
▁101	-10590
▁130	-10591
▁EPL	-10592
▁TVN	-10593
▁갈아엎	-10594
▁갑작스	-10595
▁경복궁	-10596
▁공격수	-10597
▁그지없	-10598
▁끌어올	-10599
▁남동생	-10600
▁노벨상	-10601
▁단기간	-10602
▁달라졌	-10603
▁대체로	-10604
▁돌이킬	-10605
▁랍니까	-10606
▁맞춰야	-10607
▁모국어	-10608
▁미취학	-10609
▁밝혀서	-10610
▁보좌관	-10611
▁본고사	-10612
▁부적격	-10613
▁불쾌감	-10614
▁선동렬	-10615
▁소리치	-10616
▁수사대	-10617
▁슴니다	-10618
▁신중히	-10619
▁아버님	-10620
▁알아듣	-10621
▁어야죠	-10622
▁여배우	-10623
▁오달수	-10624
▁오마이	-10625
▁유망주	-10626
▁이스라	-10627
▁인구수	-10628
▁일깨워	-10629
▁자연히	-10630
▁정상인	-10631
▁제작비	-10632
▁줄여서	-10633
▁진술서	-10634
▁채워서	-10635
▁치뤄야	-10636
▁크리스	-10637
▁현시점	-10638
▁휴직급	-10639
▁휴직자	-10640
▁2001	-10641
▁경상북도	-10642
▁누드모델	-10643
▁떨어져서	-10644
▁블랙박스	-10645
▁쓰레기통	-10646
▁오션시티	-10647
▁오토바이	-10648
▁위한다면	-10649
▁유흥업소	-10650
▁응급처치	-10651
▁이뤄지지	-10652
▁인사이드	-10653
▁천차만별	-10654
▁Korea	-10655
petitions	-10656
YP	-10657
ap	-10658
▁둡	-10659
▁렷	-10660
▁맴	-10661
▁솟	-10662
▁옐	-10663
▁웨	-10664
▁찜	-10665
▁찝	-10666
▁흰	-10667
내기	-10668
데미	-10669
르몬	-10670
무기	-10671
범위	-10672
선수	-10673
시험	-10674
아닌	-10675
유포	-10676
찰청	-10677
초리	-10678
텐데	-10679
oid	-10680
▁51	-10681
▁82	-10682
▁MC	-10683
▁ww	-10684
▁거제	-10685
▁견딜	-10686
▁고모	-10687
▁광명	-10688
▁교차	-10689
▁군산	-10690
▁그제	-10691
▁극한	-10692
▁급진	-10693
▁기입	-10694
▁기지	-10695
▁김일	-10696
▁껴야	-10697
▁꼰대	-10698
▁넘겼	-10699
▁놓인	-10700
▁다룬	-10701
▁단역	-10702
▁대란	-10703
▁대박	-10704
▁대범	-10705
▁대요	-10706
▁독박	-10707
▁동문	-10708
▁동질	-10709
▁두루	-10710
▁들렸	-10711
▁리베	-10712
▁만취	-10713
▁말기	-10714
▁모함	-10715
▁몸살	-10716
▁몹시	-10717
▁물으	-10718
▁밀치	-10719
▁바친	-10720
▁밤늦	-10721
▁배급	-10722
▁배임	-10723
▁버금	-10724
▁버틸	-10725
▁범주	-10726
▁법칙	-10727
▁부임	-10728
▁분교	-10729
▁분포	-10730
▁비로	-10731
▁비열	-10732
▁산다	-10733
▁서른	-10734
▁센서	-10735
▁셔틀	-10736
▁속보	-10737
▁속칭	-10738
▁스님	-10739
▁시드	-10740
▁시세	-10741
▁시트	-10742
▁쌓인	-10743
▁썬팅	-10744
▁앞선	-10745
▁야만	-10746
▁여긴	-10747
▁우회	-10748
▁워크	-10749
▁윗분	-10750
▁유보	-10751
▁유언	-10752
▁의학	-10753
▁이겁	-10754
▁이정	-10755
▁이직	-10756
▁인면	-10757
▁인턴	-10758
▁일주	-10759
▁자랐	-10760
▁자석	-10761
▁저의	-10762
▁적패	-10763
▁전철	-10764
▁정장	-10765
▁제왕	-10766
▁조교	-10767
▁족부	-10768
▁주가	-10769
▁주고	-10770
▁중상	-10771
▁지킴	-10772
▁진화	-10773
▁질질	-10774
▁짜르	-10775
▁차질	-10776
▁처장	-10777
▁치이	-10778
▁치진	-10779
▁친하	-10780
▁침범	-10781
▁퍼트	-10782
▁페북	-10783
▁포교	-10784
▁폭동	-10785
▁플레	-10786
▁하남	-10787
▁한꺼	-10788
▁함정	-10789
▁해운	-10790
▁해자	-10791
▁허구	-10792
▁허물	-10793
▁허점	-10794
▁헐뜯	-10795
▁협찬	-10796
▁호적	-10797
▁후면	-10798
▁희대	-10799
간다는	-10800
라이더	-10801
▁365	-10802
▁www	-10803
▁거쳐야	-10804
▁경희대	-10805
▁고소득	-10806
▁골프장	-10807
▁과거사	-10808
▁광범위	-10809
▁교육학	-10810
▁기득권	-10811
▁김민우	-10812
▁뉴스타	-10813
▁느껴야	-10814
▁달려온	-10815
▁덴마크	-10816
▁둘러보	-10817
▁뛰어넘	-10818
▁메이저	-10819
▁면허증	-10820
▁모니터	-10821
▁모르쇠	-10822
▁모아야	-10823
▁배워서	-10824
▁버거운	-10825
▁번역가	-10826
▁변해야	-10827
▁빠뜨리	-10828
▁서서히	-10829
▁소아과	-10830
▁쇼핑몰	-10831
▁수비수	-10832
▁스티커	-10833
▁실무자	-10834
▁여학교	-10835
▁연세대	-10836
▁원동력	-10837
▁음악인	-10838
▁이나라	-10839
▁이상황	-10840
▁저버린	-10841
▁적절히	-10842
▁정중히	-10843
▁조직력	-10844
▁지난달	-10845
▁지난주	-10846
▁지식인	-10847
▁지켜볼	-10848
▁초미세	-10849
▁치우친	-10850
▁탁현민	-10851
▁폴리스	-10852
▁플라스	-10853
▁한동안	-10854
▁항공기	-10855
▁호르몬	-10856
▁힘든지	-10857
경기연맹	-10858
사실유포	-10859
▁2021	-10860
▁고사하고	-10861
▁끼칩니다	-10862
▁나쁩니다	-10863
▁생각없이	-10864
▁아카데미	-10865
▁위한다는	-10866
▁이뤄져야	-10867
▁이스라엘	-10868
▁이탈리아	-10869
▁자유주의	-10870
▁타이거즈	-10871
▁한꺼번에	-10872
▁한다던가	-10873
▁해봅시다	-10874
▁했는데도	-10875
▁20190	-10876
▁메달리스트	-10877
▁저지릅니다	-10878
▁허위사실유포	-10879
▁youtube	-10880
▁readnhnmodeLSD	-10881
35	-10882
58	-10883
IP	-10884
ak	-10885
ls	-10886
ow	-10887
▁꽂	-10888
▁뜰	-10889
▁렸	-10890
▁릉	-10891
▁삿	-10892
▁쉰	-10893
▁윽	-10894
▁츠	-10895
▁틱	-10896
▁헷	-10897
겨워	-10898
구석	-10899
기수	-10900
나이	-10901
놀이	-10902
단체	-10903
데용	-10904
려요	-10905
모로	-10906
범근	-10907
보우	-10908
암리	-10909
야구	-10910
유럽	-10911
의사	-10912
이너	-10913
자치	-10914
취업	-10915
키퍼	-10916
파이	-10917
▁66	-10918
▁68	-10919
▁NA	-10920
▁on	-10921
▁re	-10922
▁가꾸	-10923
▁거라	-10924
▁거슬	-10925
▁경매	-10926
▁경종	-10927
▁고성	-10928
▁고전	-10929
▁곰탕	-10930
▁공대	-10931
▁공로	-10932
▁관용	-10933
▁괘씸	-10934
▁구걸	-10935
▁기쁜	-10936
▁기차	-10937
▁깔끔	-10938
▁날아	-10939
▁남불	-10940
▁내기	-10941
▁놀음	-10942
▁눈먼	-10943
▁다간	-10944
▁다지	-10945
▁단추	-10946
▁대물	-10947
▁대장	-10948
▁대졸	-10949
▁동방	-10950
▁동종	-10951
▁드문	-10952
▁등기	-10953
▁때론	-10954
▁떵떵	-10955
▁런던	-10956
▁로고	-10957
▁마쳤	-10958
▁말려	-10959
▁망한	-10960
▁머무	-10961
▁멋있	-10962
▁메신	-10963
▁모는	-10964
▁몰수	-10965
▁무늬	-10966
▁물증	-10967
▁밀수	-10968
▁박찬	-10969
▁박힌	-10970
▁발각	-10971
▁발자	-10972
▁배기	-10973
▁백년	-10974
▁베풀	-10975
▁병동	-10976
▁보류	-10977
▁복합	-10978
▁비워	-10979
▁빠짐	-10980
▁사격	-10981
▁사촌	-10982
▁사하	-10983
▁산악	-10984
▁삼가	-10985
▁선상	-10986
▁선한	-10987
▁세수	-10988
▁세울	-10989
▁수거	-10990
▁순천	-10991
▁숨쉬	-10992
▁스킨	-10993
▁시나	-10994
▁시력	-10995
▁시학	-10996
▁실책	-10997
▁심할	-10998
▁아베	-10999
▁안목	-11000
▁암튼	-11001
▁야스	-11002
▁야하	-11003
▁양승	-11004
▁어둡	-11005
▁업데	-11006
▁없앴	-11007
▁여력	-11008
▁여사	-11009
▁연류	-11010
▁연평	-11011
▁열려	-11012
▁오너	-11013
▁외식	-11014
▁울음	-11015
▁웃돈	-11016
▁원만	-11017
▁원수	-11018
▁원해	-11019
▁웬만	-11020
▁유모	-11021
▁을려	-11022
▁인승	-11023
▁입영	-11024
▁입혀	-11025
▁자소	-11026
▁자수	-11027
▁자초	-11028
▁자취	-11029
▁전사	-11030
▁절제	-11031
▁점제	-11032
▁점진	-11033
▁정액	-11034
▁죽임	-11035
▁중위	-11036
▁직간	-11037
▁집합	-11038
▁차안	-11039
▁채운	-11040
▁처절	-11041
▁총괄	-11042
▁축내	-11043
▁치여	-11044
▁커트	-11045
▁쾌락	-11046
▁파이	-11047
▁팔굽	-11048
▁팬티	-11049
▁편할	-11050
▁풀이	-11051
▁품격	-11052
▁피지	-11053
▁학제	-11054
▁학칙	-11055
▁합숙	-11056
▁혈압	-11057
▁황제	-11058
▁회관	-11059
구장창	-11060
다못해	-11061
읍니다	-11062
조리원	-11063
▁900	-11064
▁건드리	-11065
▁고용주	-11066
▁골키퍼	-11067
▁그리구	-11068
▁기본급	-11069
▁김일성	-11070
▁나랏일	-11071
▁나올지	-11072
▁나타난	-11073
▁다녀서	-11074
▁다스리	-11075
▁덧붙여	-11076
▁도둑놈	-11077
▁독립군	-11078
▁따라오	-11079
▁때려서	-11080
▁라이트	-11081
▁마주치	-11082
▁머릿속	-11083
▁문제지	-11084
▁바라볼	-11085
▁밥데용	-11086
▁버금가	-11087
▁변제기	-11088
▁비아냥	-11089
▁사무직	-11090
▁생겨난	-11091
▁생겨야	-11092
▁생리통	-11093
▁소중히	-11094
▁소홀히	-11095
▁수강료	-11096
▁싸그리	-11097
▁어워드	-11098
▁여야만	-11099
▁역효과	-11100
▁연구실	-11101
▁였으니	-11102
▁이어서	-11103
▁자유당	-11104
▁정의당	-11105
▁졸업식	-11106
▁줄까요	-11107
▁지나간	-11108
▁직업인	-11109
▁충실히	-11110
▁트윈스	-11111
▁허덕이	-11112
▁헤아리	-11113
▁현행범	-11114
▁1980	-11115
▁내립니다	-11116
▁대검찰청	-11117
▁뛰어다니	-11118
▁레인보우	-11119
▁리베이트	-11120
▁망가뜨리	-11121
▁미식축구	-11122
▁보호처분	-11123
▁부지기수	-11124
▁서비스업	-11125
▁어김없이	-11126
▁업데이트	-11127
▁여러모로	-11128
▁유명무실	-11129
▁이뤄지는	-11130
▁이성애자	-11131
▁일러스트	-11132
▁주구장창	-11133
▁커집니다	-11134
▁플라스틱	-11135
▁해준다면	-11136
▁산후조리원	-11137
▁오케스트라	-11138
▁카트라이더	-11139
▁크리스마스	-11140
39	-11141
ᄍᄍ	-11142
▁딜	-11143
▁뺐	-11144
▁뻘	-11145
▁쏙	-11146
▁짬	-11147
▁탔	-11148
▁텅	-11149
▁펌	-11150
교섭	-11151
대계	-11152
동원	-11153
드려	-11154
랑곳	-11155
랜스	-11156
리그	-11157
모습	-11158
믹스	-11159
어졌	-11160
연대	-11161
용차	-11162
청원	-11163
코인	-11164
톨릭	-11165
200	-11166
ate	-11167
ety	-11168
ont	-11169
▁AK	-11170
▁IM	-11171
▁가늠	-11172
▁각계	-11173
▁각서	-11174
▁간략	-11175
▁간병	-11176
▁갑과	-11177
▁강탈	-11178
▁거둘	-11179
▁경과	-11180
▁고난	-11181
▁공표	-11182
▁과시	-11183
▁교비	-11184
▁국감	-11185
▁그대	-11186
▁금하	-11187
▁기둥	-11188
▁기절	-11189
▁김동	-11190
▁김여	-11191
▁김용	-11192
▁까닭	-11193
▁끊기	-11194
▁끼얹	-11195
▁나쁨	-11196
▁나설	-11197
▁나팔	-11198
▁난도	-11199
▁납품	-11200
▁넘긴	-11201
▁노르	-11202
▁놀란	-11203
▁당진	-11204
▁대개	-11205
▁대금	-11206
▁대동	-11207
▁대의	-11208
▁도련	-11209
▁도보	-11210
▁도피	-11211
▁독감	-11212
▁독과	-11213
▁되려	-11214
▁되새	-11215
▁두둔	-11216
▁뒤지	-11217
▁드론	-11218
▁뜬금	-11219
▁망해	-11220
▁맥주	-11221
▁면역	-11222
▁모멸	-11223
▁몸담	-11224
▁무술	-11225
▁무심	-11226
▁무형	-11227
▁문명	-11228
▁바꿉	-11229
▁바둑	-11230
▁박영	-11231
▁박종	-11232
▁박해	-11233
▁받쳐	-11234
▁배수	-11235
▁백수	-11236
▁백억	-11237
▁법망	-11238
▁변형	-11239
▁복역	-11240
▁분경	-11241
▁사자	-11242
▁사치	-11243
▁생중	-11244
▁서부	-11245
▁서해	-11246
▁성형	-11247
▁소인	-11248
▁속여	-11249
▁신사	-11250
▁실사	-11251
▁애서	-11252
▁어설	-11253
▁엑스	-11254
▁여수	-11255
▁열거	-11256
▁염전	-11257
▁옐로	-11258
▁옥상	-11259
▁옮길	-11260
▁외칠	-11261
▁용변	-11262
▁우주	-11263
▁워라	-11264
▁월주	-11265
▁위수	-11266
▁융통	-11267
▁응징	-11268
▁응하	-11269
▁이이	-11270
▁입술	-11271
▁장단	-11272
▁재개	-11273
▁재워	-11274
▁재차	-11275
▁저쩌	-11276
▁전년	-11277
▁점자	-11278
▁져도	-11279
▁조처	-11280
▁줘요	-11281
▁지긋	-11282
▁지네	-11283
▁지저	-11284
▁지폐	-11285
▁찌들	-11286
▁차림	-11287
▁창고	-11288
▁채울	-11289
▁초딩	-11290
▁초석	-11291
▁축복	-11292
▁취객	-11293
▁측근	-11294
▁치과	-11295
▁친자	-11296
▁친해	-11297
▁캐쉬	-11298
▁코레	-11299
▁탐색	-11300
▁태만	-11301
▁통째	-11302
▁투사	-11303
▁팔리	-11304
▁패소	-11305
▁편중	-11306
▁폄훼	-11307
▁포착	-11308
▁풍요	-11309
▁하단	-11310
▁하인	-11311
▁학회	-11312
▁해답	-11313
▁현관	-11314
▁현송	-11315
▁혈액	-11316
▁혐한	-11317
▁화질	-11318
▁확고	-11319
▁휘말	-11320
▁흥분	-11321
레이드	-11322
봅니다	-11323
위원회	-11324
으므로	-11325
진다는	-11326
▁BCG	-11327
▁JYP	-11328
▁NBC	-11329
▁YOU	-11330
▁가르키	-11331
▁갔다온	-11332
▁강의실	-11333
▁건지요	-11334
▁곧바로	-11335
▁공감대	-11336
▁구설수	-11337
▁금강산	-11338
▁껍니까	-11339
▁나타날	-11340
▁난다면	-11341
▁남학교	-11342
▁넥타이	-11343
▁다가올	-11344
▁단체장	-11345
▁당첨자	-11346
▁대리인	-11347
▁도지사	-11348
▁무자격	-11349
▁무지하	-11350
▁물으니	-11351
▁밀려나	-11352
▁베이징	-11353
▁불량자	-11354
▁불상사	-11355
▁상급자	-11356
▁성적순	-11357
▁수익금	-11358
▁시험관	-11359
▁신세계	-11360
▁아랑곳	-11361
▁암암리	-11362
▁어울려	-11363
▁완벽히	-11364
▁우리말	-11365
▁욱일기	-11366
▁유명세	-11367
▁유적지	-11368
▁의료인	-11369
▁이제껏	-11370
▁인라인	-11371
▁장난질	-11372
▁재취업	-11373
▁전염병	-11374
▁정해야	-11375
▁주고받	-11376
▁지으면	-11377
▁직간접	-11378
▁진정서	-11379
▁차범근	-11380
▁찹니다	-11381
▁챔피언	-11382
▁취해서	-11383
▁텔레비	-11384
▁특권층	-11385
▁팔굽혀	-11386
▁할까봐	-11387
▁해져서	-11388
▁행정직	-11389
▁1997	-11390
▁국가인권	-11391
▁뉴스타파	-11392
▁백년대계	-11393
▁불안해하	-11394
▁비트코인	-11395
▁사학재단	-11396
▁아야지요	-11397
▁어야지요	-11398
▁으셨으면	-11399
▁이산가족	-11400
▁터집니다	-11401
AR	-11402
bl	-11403
em	-11404
ip	-11405
ot	-11406
ur	-11407
▁궂	-11408
▁귄	-11409
▁댑	-11410
▁듦	-11411
▁딛	-11412
▁릴	-11413
▁샷	-11414
▁쥴	-11415
▁챠	-11416
▁텝	-11417
▁틴	-11418
감독	-11419
거워	-11420
대표	-11421
데이	-11422
들겨	-11423
라치	-11424
랜서	-11425
러움	-11426
먼스	-11427
멘트	-11428
비용	-11429
수심	-11430
음악	-11431
징금	-11432
총장	-11433
친절	-11434
커트	-11435
타임	-11436
토르	-11437
퇴직	-11438
핵화	-11439
훈련	-11440
▁04	-11441
▁SA	-11442
▁kt	-11443
▁감봉	-11444
▁강등	-11445
▁개수	-11446
▁갱신	-11447
▁거들	-11448
▁거울	-11449
▁거창	-11450
▁걸레	-11451
▁게양	-11452
▁고된	-11453
▁고은	-11454
▁공군	-11455
▁과오	-11456
▁과천	-11457
▁괜한	-11458
▁교문	-11459
▁구로	-11460
▁구실	-11461
▁구자	-11462
▁국산	-11463
▁기세	-11464
▁기어	-11465
▁김진	-11466
▁김현	-11467
▁꼬집	-11468
▁남친	-11469
▁내수	-11470
▁넘길	-11471
▁농도	-11472
▁능동	-11473
▁다물	-11474
▁단가	-11475
▁단언	-11476
▁단편	-11477
▁달랐	-11478
▁대세	-11479
▁독성	-11480
▁독신	-11481
▁라구	-11482
▁라던	-11483
▁마켓	-11484
▁맞대	-11485
▁면회	-11486
▁목욕	-11487
▁문대	-11488
▁미룬	-11489
▁박모	-11490
▁반짝	-11491
▁배트	-11492
▁백두	-11493
▁번갈	-11494
▁번영	-11495
▁벗겨	-11496
▁변수	-11497
▁별반	-11498
▁보물	-11499
▁보전	-11500
▁북측	-11501
▁비켜	-11502
▁상단	-11503
▁상이	-11504
▁새겨	-11505
▁생체	-11506
▁샤워	-11507
▁서럽	-11508
▁설비	-11509
▁성지	-11510
▁소양	-11511
▁솜씨	-11512
▁수개	-11513
▁신부	-11514
▁신정	-11515
▁안동	-11516
▁안민	-11517
▁암호	-11518
▁약사	-11519
▁약탈	-11520
▁양가	-11521
▁어는	-11522
▁여섯	-11523
▁열릴	-11524
▁열중	-11525
▁온다	-11526
▁외압	-11527
▁원금	-11528
▁위급	-11529
▁유래	-11530
▁유령	-11531
▁이원	-11532
▁이종	-11533
▁인위	-11534
▁일장	-11535
▁임종	-11536
▁자명	-11537
▁작살	-11538
▁잡음	-11539
▁전폭	-11540
▁전했	-11541
▁제의	-11542
▁족쇄	-11543
▁주방	-11544
▁주점	-11545
▁줄게	-11546
▁줘라	-11547
▁쫒아	-11548
▁찍혀	-11549
▁찔러	-11550
▁차치	-11551
▁찬사	-11552
▁초유	-11553
▁출마	-11554
▁치룬	-11555
▁치른	-11556
▁타협	-11557
▁탁아	-11558
▁태국	-11559
▁패자	-11560
▁팽배	-11561
▁퍼포	-11562
▁페어	-11563
▁필터	-11564
▁한대	-11565
▁한양	-11566
▁한전	-11567
▁헬멧	-11568
▁헬스	-11569
▁헷갈	-11570
▁화목	-11571
▁화살	-11572
▁후대	-11573
네시아	-11574
래프트	-11575
spor	-11576
▁160	-11577
▁and	-11578
▁갖가지	-11579
▁거듭나	-11580
▁거쳐서	-11581
▁걸어가	-11582
▁계신데	-11583
▁고마움	-11584
▁고양시	-11585
▁구급대	-11586
▁기다린	-11587
▁기업인	-11588
▁김포시	-11589
▁날라가	-11590
▁내려서	-11591
▁넘어섰	-11592
▁놀아나	-11593
▁누진세	-11594
▁느껴졌	-11595
▁느껴질	-11596
▁다느니	-11597
▁다른지	-11598
▁달라서	-11599
▁대사관	-11600
▁도와야	-11601
▁동성혼	-11602
▁된다며	-11603
▁따가운	-11604
▁라는데	-11605
▁라이온	-11606
▁미워하	-11607
▁바가지	-11608
▁볼려고	-11609
▁분별력	-11610
▁불친절	-11611
▁비서실	-11612
▁비핵화	-11613
▁빅토르	-11614
▁빼앗기	-11615
▁생겨났	-11616
▁생계비	-11617
▁서러운	-11618
▁성적표	-11619
▁속상한	-11620
▁슬퍼하	-11621
▁신가요	-11622
▁아니요	-11623
▁안우진	-11624
▁알아본	-11625
▁어느덧	-11626
▁언론계	-11627
▁여의치	-11628
▁연기자	-11629
▁월등히	-11630
▁을려면	-11631
▁의료진	-11632
▁이따위	-11633
▁일어서	-11634
▁자라날	-11635
▁장본인	-11636
▁저마다	-11637
▁정신력	-11638
▁지구촌	-11639
▁지어서	-11640
▁지저분	-11641
▁초년생	-11642
▁취해야	-11643
▁크로스	-11644
▁트랜스	-11645
▁특별시	-11646
▁합쳐서	-11647
▁항공사	-11648
▁화풀이	-11649
▁1001	-11650
▁공공연히	-11651
▁그런다고	-11652
▁기소유예	-11653
▁깍아내리	-11654
▁깎아내리	-11655
▁다름아닌	-11656
▁다면서요	-11657
▁당한다는	-11658
▁당할까봐	-11659
▁대통령령	-11660
▁동아시아	-11661
▁디자이너	-11662
▁부끄러움	-11663
▁빠짐없이	-11664
▁실용음악	-11665
▁알려줘야	-11666
▁어서라도	-11667
▁인면수심	-11668
▁자격정지	-11669
▁저작권료	-11670
▁지날수록	-11671
▁퍼포먼스	-11672
▁프리랜서	-11673
▁한다구요	-11674
▁한다지만	-11675
ociety	-11676
▁넘어갑니다	-11677
▁넘쳐납니다	-11678
▁들어간다고	-11679
▁사라집니다	-11680
▁이어집니다	-11681
▁인도네시아	-11682
31	-11683
68	-11684
BA	-11685
eb	-11686
fe	-11687
▁됄	-11688
▁럭	-11689
▁뭍	-11690
▁밎	-11691
▁쏜	-11692
▁쨰	-11693
▁찼	-11694
▁톱	-11695
▁풋	-11696
▁헙	-11697
▁훤	-11698
가다	-11699
겨우	-11700
논문	-11701
래곤	-11702
문제	-11703
봉주	-11704
블릿	-11705
세서	-11706
이니	-11707
장난	-11708
종일	-11709
죽이	-11710
준다	-11711
질서	-11712
천하	-11713
테나	-11714
티슈	-11715
행사	-11716
회찬	-11717
com	-11718
▁07	-11719
▁79	-11720
▁85	-11721
▁IP	-11722
▁do	-11723
▁ps	-11724
▁sk	-11725
▁간격	-11726
▁갈까	-11727
▁감호	-11728
▁갖은	-11729
▁개명	-11730
▁게이	-11731
▁격하	-11732
▁경중	-11733
▁경청	-11734
▁계도	-11735
▁고국	-11736
▁고립	-11737
▁고입	-11738
▁고함	-11739
▁공청	-11740
▁공황	-11741
▁국경	-11742
▁군청	-11743
▁근육	-11744
▁긍지	-11745
▁기직	-11746
▁깨지	-11747
▁날려	-11748
▁낯선	-11749
▁냅두	-11750
▁너그	-11751
▁노원	-11752
▁농민	-11753
▁눈쌀	-11754
▁느리	-11755
▁다짐	-11756
▁다쳐	-11757
▁단연	-11758
▁당겨	-11759
▁대거	-11760
▁대면	-11761
▁대주	-11762
▁더워	-11763
▁도래	-11764
▁도태	-11765
▁동창	-11766
▁된지	-11767
▁두어	-11768
▁뒤로	-11769
▁떠서	-11770
▁똘똘	-11771
▁레슨	-11772
▁망국	-11773
▁멀티	-11774
▁멍들	-11775
▁모은	-11776
▁못된	-11777
▁무렵	-11778
▁묶여	-11779
▁뭔데	-11780
▁미쳤	-11781
▁밀린	-11782
▁방한	-11783
▁버전	-11784
▁벅찬	-11785
▁법학	-11786
▁벨벳	-11787
▁봉투	-11788
▁부럽	-11789
▁불시	-11790
▁비통	-11791
▁빛낸	-11792
▁뿐이	-11793
▁상부	-11794
▁생후	-11795
▁석사	-11796
▁선포	-11797
▁성사	-11798
▁세분	-11799
▁소추	-11800
▁손목	-11801
▁송파	-11802
▁수동	-11803
▁수직	-11804
▁슈팅	-11805
▁스폰	-11806
▁승선	-11807
▁시군	-11808
▁실려	-11809
▁싸웠	-11810
▁애원	-11811
▁야죠	-11812
▁양평	-11813
▁어미	-11814
▁여남	-11815
▁역세	-11816
▁영하	-11817
▁오명	-11818
▁외곡	-11819
▁외박	-11820
▁요가	-11821
▁울릉	-11822
▁원고	-11823
▁원전	-11824
▁원통	-11825
▁유선	-11826
▁의논	-11827
▁의제	-11828
▁일절	-11829
▁임사	-11830
▁자가	-11831
▁자며	-11832
▁자손	-11833
▁자책	-11834
▁잔뜩	-11835
▁잡아	-11836
▁장르	-11837
▁전근	-11838
▁전이	-11839
▁접해	-11840
▁족보	-11841
▁졸라	-11842
▁지으	-11843
▁철없	-11844
▁쳐다	-11845
▁초교	-11846
▁총무	-11847
▁추태	-11848
▁취침	-11849
▁취했	-11850
▁쾌감	-11851
▁태완	-11852
▁특근	-11853
▁퍼붓	-11854
▁표면	-11855
▁프린	-11856
▁한몫	-11857
▁한발	-11858
▁항고	-11859
▁해양	-11860
▁행여	-11861
▁형국	-11862
▁혼잡	-11863
▁홈피	-11864
라인드	-11865
스포츠	-11866
진다면	-11867
플렉스	-11868
흡연자	-11869
▁KOR	-11870
▁VIP	-11871
▁kbo	-11872
▁가져왔	-11873
▁거래소	-11874
▁건축물	-11875
▁과반수	-11876
▁괴로워	-11877
▁교육대	-11878
▁기다릴	-11879
▁기대감	-11880
▁꼬라지	-11881
▁꼼꼼히	-11882
▁노태우	-11883
▁노회찬	-11884
▁는데도	-11885
▁대물림	-11886
▁독과점	-11887
▁려다가	-11888
▁리라고	-11889
▁몰라요	-11890
▁몸싸움	-11891
▁무기력	-11892
▁물티슈	-11893
▁바쁜데	-11894
▁버젓히	-11895
▁보살피	-11896
▁사기극	-11897
▁상품권	-11898
▁소논문	-11899
▁소유자	-11900
▁손바닥	-11901
▁아니한	-11902
▁아침밥	-11903
▁안내문	-11904
▁야구팀	-11905
▁연구비	-11906
▁연년생	-11907
▁오피스	-11908
▁이걸로	-11909
▁이재용	-11910
▁인지요	-11911
▁일주일	-11912
▁입학생	-11913
▁잡아먹	-11914
▁전쟁터	-11915
▁정봉주	-11916
▁제각각	-11917
▁종업원	-11918
▁준비물	-11919
▁줘야지	-11920
▁증후군	-11921
▁지어도	-11922
▁지어야	-11923
▁코피노	-11924
▁태블릿	-11925
▁플랫폼	-11926
▁피임약	-11927
▁할망정	-11928
어집니다	-11929
▁걸립니다	-11930
▁공공시설	-11931
▁귀기울이	-11932
▁기울어진	-11933
▁끌어올리	-11934
▁라면서요	-11935
▁마칩니다	-11936
▁바꿉시다	-11937
▁블라인드	-11938
▁비흡연자	-11939
▁시나리오	-11940
▁시켰으면	-11941
▁안타까웠	-11942
▁열립니다	-11943
▁유언비어	-11944
▁저작권법	-11945
▁지켜봐야	-11946
▁체포영장	-11947
▁10000	-11948
TM	-11949
ey	-11950
im	-11951
kr	-11952
ld	-11953
▁Z	-11954
▁겄	-11955
▁깐	-11956
▁뵈	-11957
▁뷔	-11958
▁샅	-11959
▁엊	-11960
▁쟤	-11961
▁찮	-11962
감원	-11963
고가	-11964
공단	-11965
기부	-11966
다툼	-11967
단지	-11968
바람	-11969
방관	-11970
버이	-11971
벼락	-11972
부름	-11973
소자	-11974
쓰기	-11975
악단	-11976
어스	-11977
오르	-11978
우리	-11979
원순	-11980
주시	-11981
죽순	-11982
준화	-11983
지긋	-11984
지기	-11985
태프	-11986
택시	-11987
120	-11988
arc	-11989
end	-11990
ity	-11991
▁72	-11992
▁77	-11993
▁DB	-11994
▁as	-11995
▁sm	-11996
▁가점	-11997
▁각박	-11998
▁간질	-11999
▁감자	-12000
▁강당	-12001
▁거르	-12002
▁거칠	-12003
▁겨루	-12004
▁결합	-12005
▁경사	-12006
▁공금	-12007
▁관내	-12008
▁구기	-12009
▁구상	-12010
▁구한	-12011
▁굴복	-12012
▁극성	-12013
▁기껏	-12014
▁김광	-12015
▁김주	-12016
▁까칠	-12017
▁꾸리	-12018
▁나눈	-12019
▁나눌	-12020
▁놀랍	-12021
▁농업	-12022
▁높인	-12023
▁뉴욕	-12024
▁단도	-12025
▁단련	-12026
▁단식	-12027
▁담합	-12028
▁대강	-12029
▁도난	-12030
▁도마	-12031
▁뒤따	-12032
▁드나	-12033
▁드물	-12034
▁들릴	-12035
▁력사	-12036
▁막아	-12037
▁말미	-12038
▁맞먹	-12039
▁맞물	-12040
▁메모	-12041
▁무역	-12042
▁반갑	-12043
▁반강	-12044
▁발본	-12045
▁뱃지	-12046
▁벌리	-12047
▁병신	-12048
▁보임	-12049
▁보행	-12050
▁부교	-12051
▁부친	-12052
▁불거	-12053
▁불릴	-12054
▁비만	-12055
▁빨래	-12056
▁사도	-12057
▁사사	-12058
▁사시	-12059
▁사적	-12060
▁사탕	-12061
▁상임	-12062
▁서요	-12063
▁선조	-12064
▁선후	-12065
▁설날	-12066
▁성씨	-12067
▁수뇌	-12068
▁숙식	-12069
▁승급	-12070
▁시책	-12071
▁신빙	-12072
▁실은	-12073
▁아휴	-12074
▁안방	-12075
▁암울	-12076
▁애꿎	-12077
▁애플	-12078
▁약대	-12079
▁약품	-12080
▁어휘	-12081
▁엄히	-12082
▁엔지	-12083
▁예기	-12084
▁외가	-12085
▁우후	-12086
▁울화	-12087
▁유영	-12088
▁은근	-12089
▁의결	-12090
▁의성	-12091
▁의장	-12092
▁이놈	-12093
▁이효	-12094
▁인계	-12095
▁인연	-12096
▁일인	-12097
▁입혔	-12098
▁잉태	-12099
▁자각	-12100
▁자택	-12101
▁잠수	-12102
▁잡혔	-12103
▁저격	-12104
▁적힌	-12105
▁전치	-12106
▁전횡	-12107
▁절규	-12108
▁젊음	-12109
▁점유	-12110
▁정류	-12111
▁조끼	-12112
▁조손	-12113
▁죄지	-12114
▁증권	-12115
▁증폭	-12116
▁지라	-12117
▁지켰	-12118
▁진전	-12119
▁짤리	-12120
▁찍혔	-12121
▁차릴	-12122
▁차분	-12123
▁창촌	-12124
▁천하	-12125
▁첫날	-12126
▁청천	-12127
▁청하	-12128
▁촉진	-12129
▁추종	-12130
▁치매	-12131
▁캐디	-12132
▁코인	-12133
▁타운	-12134
▁통로	-12135
▁통운	-12136
▁특집	-12137
▁파란	-12138
▁파열	-12139
▁파파	-12140
▁플래	-12141
▁하등	-12142
▁해군	-12143
▁해줄	-12144
▁햇볕	-12145
▁향수	-12146
▁허비	-12147
▁현충	-12148
▁혹사	-12149
▁화교	-12150
▁화내	-12151
▁활력	-12152
▁후임	-12153
라우스	-12154
레이터	-12155
멋대로	-12156
어머니	-12157
▁196	-12158
▁IMF	-12159
▁KFA	-12160
▁ᄒᄒᄒ	-12161
▁가려서	-12162
▁거니와	-12163
▁고려대	-12164
▁고위층	-12165
▁고지서	-12166
▁공론화	-12167
▁공부방	-12168
▁구자철	-12169
▁국방력	-12170
▁금감원	-12171
▁기본기	-12172
▁끝없이	-12173
▁내려졌	-12174
▁냐면서	-12175
▁댑니다	-12176
▁데스크	-12177
▁동급생	-12178
▁동호인	-12179
▁두들겨	-12180
▁둘러싸	-12181
▁들어내	-12182
▁뜯어내	-12183
▁라네요	-12184
▁모욕감	-12185
▁몰고가	-12186
▁무사히	-12187
▁문학상	-12188
▁뮤지컬	-12189
▁미화원	-12190
▁박사모	-12191
▁박원순	-12192
▁밝혀질	-12193
▁보살핌	-12194
▁볼까요	-12195
▁봅니까	-12196
▁부딪히	-12197
▁빨아먹	-12198
▁사망자	-12199
▁사용량	-12200
▁상세히	-12201
▁설거지	-12202
▁수급비	-12203
▁수면제	-12204
▁수상기	-12205
▁수유실	-12206
▁스러움	-12207
▁스토커	-12208
▁심해질	-12209
▁안민석	-12210
▁어버이	-12211
▁역겨운	-12212
▁온다는	-12213
▁울릉도	-12214
▁으셔야	-12215
▁이기심	-12216
▁이용료	-12217
▁임원진	-12218
▁임종석	-12219
▁장거리	-12220
▁장모님	-12221
▁정치판	-12222
▁조그마	-12223
▁지만원	-12224
▁집니까	-12225
▁차가운	-12226
▁최승호	-12227
▁칸막이	-12228
▁크로키	-12229
▁탁아소	-12230
▁터트리	-12231
▁통일부	-12232
▁툭하면	-12233
▁페미나	-12234
▁편안히	-12235
▁할텐데	-12236
▁핵무기	-12237
▁호흡기	-12238
▁화이트	-12239
▁1988	-12240
▁ADHD	-12241
▁Kpop	-12242
▁겨우겨우	-12243
▁결사반대	-12244
▁고쳐져야	-12245
▁다더군요	-12246
▁돌아와서	-12247
▁라이온즈	-12248
▁비평준화	-12249
▁수수방관	-12250
▁우후죽순	-12251
▁정치권력	-12252
▁중계방송	-12253
▁지긋지긋	-12254
▁위함입니다	-12255
▁이루어집니다	-12256
▁17120047	-12257
97	-12258
ep	-12259
hd	-12260
ry	-12261
▁q	-12262
▁깁	-12263
▁낄	-12264
▁닙	-12265
▁뚱	-12266
▁럽	-12267
▁밸	-12268
▁뻣	-12269
▁쎄	-12270
▁쎈	-12271
▁쑤	-12272
▁씀	-12273
▁젼	-12274
▁짠	-12275
▁핍	-12276
각화	-12277
꺼이	-12278
니아	-12279
듀서	-12280
든가	-12281
디움	-12282
렌트	-12283
미디	-12284
불위	-12285
석방	-12286
세상	-12287
수무	-12288
어주	-12289
용훈	-12290
준표	-12291
중일	-12292
지능	-12293
지않	-12294
쨋든	-12295
치우	-12296
쿠르	-12297
합리	-12298
IVE	-12299
ang	-12300
ecd	-12301
ory	-12302
ver	-12303
▁92	-12304
▁Tv	-12305
▁pd	-12306
▁가를	-12307
▁가명	-12308
▁가위	-12309
▁가히	-12310
▁간결	-12311
▁감행	-12312
▁갓난	-12313
▁거둬	-12314
▁거북	-12315
▁견학	-12316
▁계엄	-12317
▁고무	-12318
▁공주	-12319
▁공탁	-12320
▁과고	-12321
▁광학	-12322
▁교민	-12323
▁교학	-12324
▁구금	-12325
▁구태	-12326
▁굴욕	-12327
▁금년	-12328
▁급히	-12329
▁기물	-12330
▁기운	-12331
▁기혼	-12332
▁김한	-12333
▁까봐	-12334
▁나사	-12335
▁남초	-12336
▁낮출	-12337
▁내놔	-12338
▁내모	-12339
▁놀러	-12340
▁다듬	-12341
▁다룰	-12342
▁답글	-12343
▁당기	-12344
▁던졌	-12345
▁데이	-12346
▁도심	-12347
▁동경	-12348
▁들키	-12349
▁등골	-12350
▁따낸	-12351
▁떠맡	-12352
▁떠안	-12353
▁띄우	-12354
▁띄워	-12355
▁라가	-12356
▁레즈	-12357
▁리안	-12358
▁마실	-12359
▁맹목	-12360
▁먹먹	-12361
▁메스	-12362
▁모교	-12363
▁모녀	-12364
▁모름	-12365
▁모았	-12366
▁모친	-12367
▁무주	-12368
▁미끼	-12369
▁미분	-12370
▁반론	-12371
▁방위	-12372
▁법상	-12373
▁변동	-12374
▁복종	-12375
▁본의	-12376
▁본청	-12377
▁분출	-12378
▁불씨	-12379
▁비겁	-12380
▁빌라	-12381
▁상근	-12382
▁상점	-12383
▁생전	-12384
▁선지	-12385
▁셀프	-12386
▁소청	-12387
▁소향	-12388
▁속내	-12389
▁수탈	-12390
▁수포	-12391
▁숙여	-12392
▁숙지	-12393
▁숨진	-12394
▁스테	-12395
▁스팸	-12396
▁시공	-12397
▁시집	-12398
▁신안	-12399
▁신음	-12400
▁실로	-12401
▁실비	-12402
▁씨름	-12403
▁안함	-12404
▁알콜	-12405
▁언더	-12406
▁언성	-12407
▁얼만	-12408
▁엄단	-12409
▁여길	-12410
▁여린	-12411
▁연쇄	-12412
▁연재	-12413
▁열약	-12414
▁엽기	-12415
▁요강	-12416
▁요망	-12417
▁용이	-12418
▁우개	-12419
▁울부	-12420
▁이니	-12421
▁이를	-12422
▁이여	-12423
▁익산	-12424
▁인들	-12425
▁인륜	-12426
▁인멸	-12427
▁인제	-12428
▁일컫	-12429
▁입김	-12430
▁입단	-12431
▁잘나	-12432
▁재킷	-12433
▁저래	-12434
▁점주	-12435
▁정했	-12436
▁제휴	-12437
▁죄목	-12438
▁줄까	-12439
▁줄임	-12440
▁중견	-12441
▁지름	-12442
▁지분	-12443
▁쫓아	-12444
▁참견	-12445
▁창단	-12446
▁척도	-12447
▁척추	-12448
▁천인	-12449
▁청결	-12450
▁촌지	-12451
▁키스	-12452
▁타파	-12453
▁탄탄	-12454
▁탐욕	-12455
▁탕진	-12456
▁통수	-12457
▁통원	-12458
▁통틀	-12459
▁퇴폐	-12460
▁투여	-12461
▁특이	-12462
▁파손	-12463
▁파인	-12464
▁폰트	-12465
▁풍부	-12466
▁플로	-12467
▁피켓	-12468
▁해법	-12469
▁핸디	-12470
▁현주	-12471
▁혹독	-12472
▁환상	-12473
▁회신	-12474
▁효광	-12475
▁훔쳐	-12476
▁흉내	-12477
▁흠집	-12478
▁희화	-12479
교섭권	-12480
레이크	-12481
립시다	-12482
어리더	-12483
조무사	-12484
▁730	-12485
▁DNA	-12486
▁가석방	-12487
▁갈려고	-12488
▁강남구	-12489
▁걸쳐서	-12490
▁골라서	-12491
▁관람객	-12492
▁그런가	-12493
▁기꺼이	-12494
▁김재규	-12495
▁나랏돈	-12496
▁나아진	-12497
▁낙태법	-12498
▁내국인	-12499
▁내보낸	-12500
▁노트북	-12501
▁다녀도	-12502
▁담뱃값	-12503
▁대치동	-12504
▁도망치	-12505
▁돌아갔	-12506
▁동북아	-12507
▁드려야	-12508
▁들으니	-12509
▁따라갈	-12510
▁때려도	-12511
▁떠오른	-12512
▁마음속	-12513
▁말다툼	-12514
▁메신저	-12515
▁메이크	-12516
▁무너질	-12517
▁문제삼	-12518
▁바라봐	-12519
▁박영선	-12520
▁반성문	-12521
▁받아쓰	-12522
▁방용훈	-12523
▁배달원	-12524
▁백두산	-12525
▁범죄인	-12526
▁비합리	-12527
▁빼앗긴	-12528
▁뼈저리	-12529
▁사무장	-12530
▁사하구	-12531
▁생겨날	-12532
▁소방서	-12533
▁수개월	-12534
▁수뇌부	-12535
▁수혜자	-12536
▁스토어	-12537
▁스포트	-12538
▁스폰서	-12539
▁승용차	-12540
▁시간표	-12541
▁신축성	-12542
▁싸이코	-12543
▁아픈데	-12544
▁안테나	-12545
▁어느새	-12546
▁어떠신	-12547
▁어떻하	-12548
▁어쨋든	-12549
▁올라서	-12550
▁올라올	-12551
▁유모차	-12552
▁윤지오	-12553
▁이러면	-12554
▁이뤄졌	-12555
▁이문세	-12556
▁입시생	-12557
▁잠재력	-12558
▁재소자	-12559
▁재임용	-12560
▁접근성	-12561
▁정류장	-12562
▁준다며	-12563
▁창작물	-12564
▁찾아갔	-12565
▁찾아왔	-12566
▁치러야	-12567
▁치우치	-12568
▁카더라	-12569
▁코미디	-12570
▁콜택시	-12571
▁콩쿠르	-12572
▁토렌트	-12573
▁평상시	-12574
▁폐회식	-12575
▁해준다	-12576
▁행정력	-12577
▁허탈감	-12578
▁헤어지	-12579
▁홍준표	-12580
▁훈련장	-12581
▁Cctv	-12582
▁기념행사	-12583
▁늘린다고	-12584
▁다닌다는	-12585
▁된답니다	-12586
▁무소불위	-12587
▁버린다는	-12588
▁스타디움	-12589
▁엔지니어	-12590
▁올린다고	-12591
▁웃음거리	-12592
▁이라든지	-12593
▁인공지능	-12594
▁인신매매	-12595
▁일어날지	-12596
▁치어리더	-12597
▁프로듀서	-12598
▁한다는데	-12599
▁했읍니다	-12600
▁간호조무사	-12601
▁넘어간다면	-12602
▁면접교섭권	-12603
▁부탁드려요	-12604
▁스포츠조선	-12605
▁줄어듭니다	-12606
society	-12607
viewasp	-12608
43	-12609
ED	-12610
EL	-12611
cc	-12612
nv	-12613
te	-12614
un	-12615
▁깝	-12616
▁꿰	-12617
▁늑	-12618
▁뗄	-12619
▁몬	-12620
▁붇	-12621
▁섣	-12622
▁섰	-12623
▁쑈	-12624
▁얄	-12625
감사	-12626
그라	-12627
글스	-12628
대상	-12629
런트	-12630
례문	-12631
로힘	-12632
리트	-12633
리퍼	-12634
매장	-12635
버둥	-12636
법인	-12637
산물	-12638
월드	-12639
저래	-12640
차림	-12641
착오	-12642
처럼	-12643
태현	-12644
팡이	-12645
패스	-12646
필품	-12647
호식	-12648
WPL	-12649
ard	-12650
▁63	-12651
▁GM	-12652
▁VS	-12653
▁가여	-12654
▁가할	-12655
▁각반	-12656
▁갑갑	-12657
▁강변	-12658
▁개시	-12659
▁검장	-12660
▁고래	-12661
▁고취	-12662
▁공채	-12663
▁관례	-12664
▁광우	-12665
▁구만	-12666
▁국인	-12667
▁그네	-12668
▁극치	-12669
▁급속	-12670
▁기뻤	-12671
▁꼭두	-12672
▁끼니	-12673
▁나섰	-12674
▁남고	-12675
▁내란	-12676
▁내포	-12677
▁넓히	-12678
▁녀석	-12679
▁놓이	-12680
▁다죠	-12681
▁다칠	-12682
▁담지	-12683
▁더만	-12684
▁도요	-12685
▁독해	-12686
▁뒷바	-12687
▁따윈	-12688
▁따질	-12689
▁때우	-12690
▁로더	-12691
▁만져	-12692
▁매력	-12693
▁먹칠	-12694
▁몇일	-12695
▁무명	-12696
▁문고	-12697
▁문양	-12698
▁물류	-12699
▁미대	-12700
▁미련	-12701
▁미행	-12702
▁박주	-12703
▁반기	-12704
▁발단	-12705
▁발사	-12706
▁방종	-12707
▁배점	-12708
▁버겁	-12709
▁벌였	-12710
▁본명	-12711
▁부설	-12712
▁부축	-12713
▁붙인	-12714
▁비씨	-12715
▁사서	-12716
▁산물	-12717
▁산책	-12718
▁삼진	-12719
▁상간	-12720
▁새우	-12721
▁생부	-12722
▁생애	-12723
▁서글	-12724
▁서기	-12725
▁서수	-12726
▁설상	-12727
▁성교	-12728
▁성심	-12729
▁성찰	-12730
▁세밀	-12731
▁세태	-12732
▁소관	-12733
▁손꼽	-12734
▁숙고	-12735
▁스치	-12736
▁시계	-12737
▁식욕	-12738
▁신라	-12739
▁신앙	-12740
▁실리	-12741
▁싸운	-12742
▁씨방	-12743
▁아스	-12744
▁아인	-12745
▁안주	-12746
▁애비	-12747
▁양측	-12748
▁얽매	-12749
▁여느	-12750
▁여시	-12751
▁여친	-12752
▁연행	-12753
▁염두	-12754
▁영달	-12755
▁오도	-12756
▁외쳐	-12757
▁요일	-12758
▁우정	-12759
▁우호	-12760
▁울컥	-12761
▁원문	-12762
▁원성	-12763
▁위성	-12764
▁유괴	-12765
▁은밀	-12766
▁인조	-12767
▁일례	-12768
▁일사	-12769
▁일테	-12770
▁잉글	-12771
▁재제	-12772
▁재허	-12773
▁저건	-12774
▁저금	-12775
▁저속	-12776
▁전말	-12777
▁전망	-12778
▁전복	-12779
▁전할	-12780
▁정운	-12781
▁정할	-12782
▁조연	-12783
▁존폐	-12784
▁종현	-12785
▁지붕	-12786
▁지성	-12787
▁진동	-12788
▁짜여	-12789
▁찝찝	-12790
▁책값	-12791
▁초조	-12792
▁총알	-12793
▁최신	-12794
▁추문	-12795
▁출중	-12796
▁출현	-12797
▁치워	-12798
▁치졸	-12799
▁캐슬	-12800
▁커버	-12801
▁타의	-12802
▁타지	-12803
▁털어	-12804
▁투지	-12805
▁트집	-12806
▁특단	-12807
▁틀려	-12808
▁편승	-12809
▁피워	-12810
▁필드	-12811
▁핍박	-12812
▁한라	-12813
▁합작	-12814
▁행실	-12815
▁헛된	-12816
▁현질	-12817
▁홀대	-12818
▁홍콩	-12819
▁활기	-12820
▁황의	-12821
▁후자	-12822
▁훔치	-12823
▁흡사	-12824
▁힐링	-12825
선수범	-12826
수무책	-12827
자치시	-12828
▁450	-12829
▁강사료	-12830
▁경상도	-12831
▁경찰차	-12832
▁계획안	-12833
▁고조선	-12834
▁공신력	-12835
▁관리직	-12836
▁국제법	-12837
▁군부대	-12838
▁궁금증	-12839
▁기생충	-12840
▁김기태	-12841
▁난도질	-12842
▁날아가	-12843
▁노가다	-12844
▁는다며	-12845
▁다가왔	-12846
▁다던지	-12847
▁담당관	-12848
▁대출금	-12849
▁더럽혀	-12850
▁도리어	-12851
▁독재자	-12852
▁동작구	-12853
▁들러리	-12854
▁떠들석	-12855
▁똑똑히	-12856
▁뜯어고	-12857
▁링크제	-12858
▁마스터	-12859
▁만드신	-12860
▁미용실	-12861
▁민원실	-12862
▁바꿔라	-12863
▁박해민	-12864
▁반듯이	-12865
▁발버둥	-12866
▁방관자	-12867
▁방송법	-12868
▁베어스	-12869
▁보안법	-12870
▁보유자	-12871
▁부여받	-12872
▁부역자	-12873
▁빅리그	-12874
▁생필품	-12875
▁샤이니	-12876
▁선후배	-12877
▁소유물	-12878
▁숭례문	-12879
▁스태프	-12880
▁슬리퍼	-12881
▁실명제	-12882
▁실습생	-12883
▁심부름	-12884
▁알아봐	-12885
▁암각화	-12886
▁앞잡이	-12887
▁엘로힘	-12888
▁여호와	-12889
▁오른쪽	-12890
▁왔으나	-12891
▁용인시	-12892
▁원거리	-12893
▁유난히	-12894
▁유아원	-12895
▁유치장	-12896
▁유해물	-12897
▁이재정	-12898
▁이청원	-12899
▁자구요	-12900
▁전염성	-12901
▁조계종	-12902
▁조사단	-12903
▁조현아	-12904
▁지나갈	-12905
▁지만은	-12906
▁지역구	-12907
▁차태현	-12908
▁통계청	-12909
▁페이크	-12910
▁해줘도	-12911
▁핸드볼	-12912
▁헛되이	-12913
▁힘드실	-12914
▁힘써야	-12915
▁1800	-12916
▁1987	-12917
▁1999	-12918
▁HWPL	-12919
▁Mnet	-12920
▁arti	-12921
▁oecd	-12922
▁그럽니다	-12923
▁돌려보내	-12924
▁뒷바라지	-12925
▁따라다니	-12926
▁떵떵거리	-12927
▁밝힙니다	-12928
▁보낸다고	-12929
▁보인다고	-12930
▁살인사건	-12931
▁속수무책	-12932
▁솔선수범	-12933
▁스쿨버스	-12934
▁시행착오	-12935
▁아닐런지	-12936
▁오르내리	-12937
▁인도주의	-12938
▁장례식장	-12939
▁프리미엄	-12940
▁플레이어	-12941
▁호의호식	-12942
▁KOREA	-12943
▁떨어진다고	-12944
▁어처구니없	-12945
▁특별자치시	-12946
49	-12947
89	-12948
TL	-12949
ce	-12950
ia	-12951
▁ᄇ	-12952
▁꿉	-12953
▁댈	-12954
▁떤	-12955
▁뵙	-12956
▁얌	-12957
▁줫	-12958
구멍	-12959
그제	-12960
날두	-12961
녀야	-12962
노총	-12963
도록	-12964
둘러	-12965
란다	-12966
마조	-12967
방울	-12968
버렸	-12969
베저	-12970
벽력	-12971
부답	-12972
부림	-12973
순간	-12974
어트	-12975
여혐	-12976
은정	-12977
투사	-12978
회의	-12979
VER	-12980
ank	-12981
ist	-12982
▁73	-12983
▁KA	-12984
▁lo	-12985
▁가당	-12986
▁가맹	-12987
▁가식	-12988
▁가야	-12989
▁갈려	-12990
▁감상	-12991
▁강박	-12992
▁강적	-12993
▁개콘	-12994
▁경인	-12995
▁고단	-12996
▁골자	-12997
▁관철	-12998
▁교우	-12999
▁구비	-13000
▁기승	-13001
▁기일	-13002
▁긴말	-13003
▁깔려	-13004
▁나비	-13005
▁나을	-13006
▁내걸	-13007
▁내실	-13008
▁논조	-13009
▁높혀	-13010
▁눈빛	-13011
▁단증	-13012
▁대낮	-13013
▁대담	-13014
▁대소	-13015
▁대외	-13016
▁대할	-13017
▁더한	-13018
▁도출	-13019
▁동구	-13020
▁되살	-13021
▁뒤떨	-13022
▁뒤바	-13023
▁딱지	-13024
▁땅콩	-13025
▁뜻깊	-13026
▁루트	-13027
▁마취	-13028
▁만능	-13029
▁먹인	-13030
▁먹일	-13031
▁먼가	-13032
▁명복	-13033
▁명찰	-13034
▁모둠	-13035
▁몰릴	-13036
▁못사	-13037
▁무성	-13038
▁문턱	-13039
▁바뀝	-13040
▁바리	-13041
▁발뺌	-13042
▁밥통	-13043
▁배식	-13044
▁버팀	-13045
▁벅스	-13046
▁벌려	-13047
▁벗기	-13048
▁별일	-13049
▁보석	-13050
▁볼링	-13051
▁부나	-13052
▁부품	-13053
▁불감	-13054
▁불매	-13055
▁불순	-13056
▁빛낼	-13057
▁빡빡	-13058
▁빼내	-13059
▁사교	-13060
▁사문	-13061
▁사제	-13062
▁상납	-13063
▁새기	-13064
▁생가	-13065
▁섞여	-13066
▁세세	-13067
▁세이	-13068
▁소풍	-13069
▁수색	-13070
▁수작	-13071
▁스물	-13072
▁스탠	-13073
▁슬슬	-13074
▁악세	-13075
▁안다	-13076
▁안팎	-13077
▁앤디	-13078
▁야단	-13079
▁약식	-13080
▁어때	-13081
▁억류	-13082
▁여비	-13083
▁여소	-13084
▁역전	-13085
▁연명	-13086
▁완공	-13087
▁원작	-13088
▁원흉	-13089
▁위촉	-13090
▁유초	-13091
▁이끈	-13092
▁이례	-13093
▁이양	-13094
▁이점	-13095
▁이진	-13096
▁이현	-13097
▁자활	-13098
▁잠식	-13099
▁장충	-13100
▁재건	-13101
▁적금	-13102
▁전유	-13103
▁조세	-13104
▁종로	-13105
▁주려	-13106
▁주축	-13107
▁줄였	-13108
▁질러	-13109
▁질투	-13110
▁집요	-13111
▁채웠	-13112
▁처할	-13113
▁체부	-13114
▁쳐야	-13115
▁초단	-13116
▁출간	-13117
▁치가	-13118
▁커졌	-13119
▁커진	-13120
▁코칭	-13121
▁타들	-13122
▁탈피	-13123
▁태양	-13124
▁택견	-13125
▁투척	-13126
▁패악	-13127
▁편해	-13128
▁표본	-13129
▁피력	-13130
▁학번	-13131
▁할거	-13132
▁항시	-13133
▁해례	-13134
▁허망	-13135
▁현판	-13136
▁혼동	-13137
▁화순	-13138
▁환장	-13139
나라당	-13140
마조마	-13141
TUBE	-13142
▁ᅲᅲᅲ	-13143
▁가벼워	-13144
▁가정사	-13145
▁갈까요	-13146
▁강아지	-13147
▁개인전	-13148
▁계신지	-13149
▁계약자	-13150
▁공과금	-13151
▁공청회	-13152
▁괴롭혀	-13153
▁구해야	-13154
▁군대면	-13155
▁그럴싸	-13156
▁그리도	-13157
▁그림자	-13158
▁기무사	-13159
▁내년도	-13160
▁내몰린	-13161
▁는다니	-13162
▁더럽히	-13163
▁던지요	-13164
▁도망간	-13165
▁동물원	-13166
▁뛰어들	-13167
▁렵니까	-13168
▁만천하	-13169
▁망가진	-13170
▁매춘부	-13171
▁모멸감	-13172
▁무교육	-13173
▁뮤지션	-13174
▁미필자	-13175
▁밝혀져	-13176
▁배부르	-13177
▁복무자	-13178
▁빠져서	-13179
▁사무관	-13180
▁산다고	-13181
▁생활지	-13182
▁선풍기	-13183
▁성문화	-13184
▁소지품	-13185
▁수용소	-13186
▁숙박비	-13187
▁숨겨진	-13188
▁신학기	-13189
▁심해졌	-13190
▁싸가지	-13191
▁아쉬워	-13192
▁안녕히	-13193
▁알아볼	-13194
▁야구부	-13195
▁양승태	-13196
▁어딘가	-13197
▁엊그제	-13198
▁에이스	-13199
▁여름철	-13200
▁역사관	-13201
▁열람실	-13202
▁외래어	-13203
▁원한다	-13204
▁은행원	-13205
▁이력서	-13206
▁이뤄진	-13207
▁일베저	-13208
▁일장기	-13209
▁적어지	-13210
▁전해들	-13211
▁제조사	-13212
▁조건부	-13213
▁종신형	-13214
▁지나갔	-13215
▁짊어질	-13216
▁집중력	-13217
▁차이점	-13218
▁참고인	-13219
▁출입국	-13220
▁충실하	-13221
▁치료사	-13222
▁터져서	-13223
▁페이커	-13224
▁프로필	-13225
▁해운대	-13226
▁행복감	-13227
▁현수막	-13228
▁호날두	-13229
▁활발히	-13230
▁횡령죄	-13231
▁훈련소	-13232
▁ᅲᅲᅲᅲ	-13233
▁걸어다니	-13234
▁그제서야	-13235
▁노르웨이	-13236
▁당한다고	-13237
▁더러워서	-13238
▁독립투사	-13239
▁드릴게요	-13240
▁만드세요	-13241
▁묵묵부답	-13242
▁바뀝니다	-13243
▁받아들인	-13244
▁벌어들인	-13245
▁보드게임	-13246
▁보인다는	-13247
▁부끄러웠	-13248
▁부린다고	-13249
▁브레이크	-13250
▁블라우스	-13251
▁셨잖아요	-13252
▁스러워서	-13253
▁연예대상	-13254
▁원내대표	-13255
▁전체주의	-13256
▁조마조마	-13257
▁조심스레	-13258
▁청천벽력	-13259
▁태어난지	-13260
▁파렴치한	-13261
▁한나라당	-13262
▁돌아갑니다	-13263
▁외할아버지	-13264
▁일베저장소	-13265
▁YOUTUBE	-13266
41	-13267
51	-13268
59	-13269
61	-13270
66	-13271
sh	-13272
▁ᅡ	-13273
▁꿋	-13274
▁딥	-13275
▁럼	-13276
▁맟	-13277
▁멱	-13278
▁벚	-13279
▁숟	-13280
▁숱	-13281
▁슛	-13282
▁슨	-13283
▁쌔	-13284
▁젋	-13285
▁찐	-13286
▁퀄	-13287
▁킵	-13288
▁퉁	-13289
▁펄	-13290
곡동	-13291
균관	-13292
꼬리	-13293
대요	-13294
디아	-13295
때로	-13296
뜨렸	-13297
릭스	-13298
무새	-13299
무진	-13300
봉길	-13301
비군	-13302
비아	-13303
산동	-13304
상조	-13305
색원	-13306
서리	-13307
안경	-13308
약금	-13309
어내	-13310
어씌	-13311
업자	-13312
음파	-13313
장구	-13314
절미	-13315
주군	-13316
중간	-13317
집트	-13318
천구	-13319
출혈	-13320
코드	-13321
큘럼	-13322
티나	-13323
형사	-13324
회사	-13325
500	-13326
log	-13327
ore	-13328
▁93	-13329
▁MT	-13330
▁QR	-13331
▁가가	-13332
▁가둬	-13333
▁가습	-13334
▁가칭	-13335
▁간편	-13336
▁갇힌	-13337
▁감점	-13338
▁강연	-13339
▁강팀	-13340
▁개무	-13341
▁건도	-13342
▁검수	-13343
▁격일	-13344
▁격투	-13345
▁겸손	-13346
▁겹쳐	-13347
▁경단	-13348
▁경보	-13349
▁경재	-13350
▁고딩	-13351
▁고착	-13352
▁골드	-13353
▁공천	-13354
▁과세	-13355
▁구리	-13356
▁구립	-13357
▁구민	-13358
▁구사	-13359
▁구했	-13360
▁군민	-13361
▁굴레	-13362
▁권하	-13363
▁그쳤	-13364
▁근속	-13365
▁금고	-13366
▁급작	-13367
▁기약	-13368
▁꼴통	-13369
▁나기	-13370
▁낙후	-13371
▁날카	-13372
▁놀랬	-13373
▁다각	-13374
▁다기	-13375
▁닥치	-13376
▁단결	-13377
▁달력	-13378
▁당혹	-13379
▁돌렸	-13380
▁동감	-13381
▁동승	-13382
▁동양	-13383
▁두세	-13384
▁둬서	-13385
▁들끓	-13386
▁들락	-13387
▁때릴	-13388
▁떠날	-13389
▁런지	-13390
▁레벨	-13391
▁렌스	-13392
▁류자	-13393
▁리스	-13394
▁만삭	-13395
▁만장	-13396
▁만졌	-13397
▁말문	-13398
▁망했	-13399
▁매각	-13400
▁먹히	-13401
▁멘탈	-13402
▁멸망	-13403
▁명료	-13404
▁명사	-13405
▁박문	-13406
▁박제	-13407
▁반도	-13408
▁받들	-13409
▁발췌	-13410
▁백지	-13411
▁버그	-13412
▁벌주	-13413
▁법전	-13414
▁변별	-13415
▁보모	-13416
▁봉송	-13417
▁봉쇄	-13418
▁부심	-13419
▁북쪽	-13420
▁불능	-13421
▁불면	-13422
▁불복	-13423
▁불태	-13424
▁뽑혔	-13425
▁삐뚤	-13426
▁사위	-13427
▁사임	-13428
▁사탐	-13429
▁살포	-13430
▁삼수	-13431
▁삼청	-13432
▁삽질	-13433
▁생식	-13434
▁석연	-13435
▁성수	-13436
▁성의	-13437
▁성질	-13438
▁세째	-13439
▁속담	-13440
▁순차	-13441
▁순화	-13442
▁슈틸	-13443
▁스탭	-13444
▁승패	-13445
▁시동	-13446
▁시상	-13447
▁신검	-13448
▁신년	-13449
▁신임	-13450
▁실례	-13451
▁싸울	-13452
▁안성	-13453
▁안이	-13454
▁얘길	-13455
▁어면	-13456
▁어필	-13457
▁억누	-13458
▁얼렁	-13459
▁역임	-13460
▁열쇠	-13461
▁영남	-13462
▁영악	-13463
▁옆집	-13464
▁올지	-13465
▁옮겼	-13466
▁옵션	-13467
▁왕국	-13468
▁외로	-13469
▁외세	-13470
▁요점	-13471
▁요직	-13472
▁원사	-13473
▁원회	-13474
▁월권	-13475
▁윗몸	-13476
▁유동	-13477
▁유휴	-13478
▁윤창	-13479
▁으르	-13480
▁의류	-13481
▁의향	-13482
▁이랬	-13483
▁이월	-13484
▁인적	-13485
▁인접	-13486
▁일곱	-13487
▁일안	-13488
▁임상	-13489
▁입안	-13490
▁잇따	-13491
▁자그	-13492
▁잡힐	-13493
▁장이	-13494
▁재생	-13495
▁재현	-13496
▁저널	-13497
▁저자	-13498
▁정세	-13499
▁정점	-13500
▁제법	-13501
▁제하	-13502
▁조산	-13503
▁조이	-13504
▁조형	-13505
▁주객	-13506
▁주된	-13507
▁주행	-13508
▁준법	-13509
▁준엄	-13510
▁즐비	-13511
▁지른	-13512
▁지면	-13513
▁진이	-13514
▁진통	-13515
▁창창	-13516
▁챙긴	-13517
▁체자	-13518
▁체조	-13519
▁체중	-13520
▁최다	-13521
▁추상	-13522
▁출세	-13523
▁취사	-13524
▁치하	-13525
▁컨데	-13526
▁콜라	-13527
▁콩쿨	-13528
▁태워	-13529
▁털기	-13530
▁통령	-13531
▁특유	-13532
▁특종	-13533
▁특허	-13534
▁편도	-13535
▁포티	-13536
▁필연	-13537
▁학계	-13538
▁학령	-13539
▁한잔	-13540
▁한파	-13541
▁할애	-13542
▁합하	-13543
▁합헌	-13544
▁항변	-13545
▁핸들	-13546
▁허접	-13547
▁협업	-13548
▁혹자	-13549
▁혼선	-13550
▁홀수	-13551
▁홈런	-13552
▁환우	-13553
▁회부	-13554
▁훈방	-13555
립니까	-13556
컨트리	-13557
▁115	-13558
▁116	-13559
▁350	-13560
▁ISU	-13561
▁SNI	-13562
▁가해야	-13563
▁감사관	-13564
▁거주자	-13565
▁건축사	-13566
▁게이머	-13567
▁고마운	-13568
▁고아원	-13569
▁고학생	-13570
▁공공재	-13571
▁공용어	-13572
▁공포감	-13573
▁과로사	-13574
▁과징금	-13575
▁광우병	-13576
▁괴로운	-13577
▁괴로움	-13578
▁국방비	-13579
▁그리스	-13580
▁기억나	-13581
▁김재환	-13582
▁김학범	-13583
▁김학의	-13584
▁꼬리표	-13585
▁나이스	-13586
▁내려왔	-13587
▁놀라울	-13588
▁뇌출혈	-13589
▁느냐는	-13590
▁는가요	-13591
▁늦둥이	-13592
▁대가리	-13593
▁대대장	-13594
▁데려오	-13595
▁돌려야	-13596
▁동거녀	-13597
▁뒷거래	-13598
▁드러날	-13599
▁라느니	-13600
▁리라는	-13601
▁마음먹	-13602
▁맙니다	-13603
▁망가졌	-13604
▁면역력	-13605
▁모양새	-13606
▁몰아넣	-13607
▁무단결	-13608
▁물어뜯	-13609
▁민형사	-13610
▁박수진	-13611
▁반가운	-13612
▁버팀목	-13613
▁베이스	-13614
▁보너스	-13615
▁부러워	-13616
▁부유층	-13617
▁부주의	-13618
▁부풀리	-13619
▁불감증	-13620
▁비로소	-13621
▁사업가	-13622
▁사회인	-13623
▁생길까	-13624
▁생명체	-13625
▁생산직	-13626
▁생색내	-13627
▁서둘러	-13628
▁서수길	-13629
▁선천성	-13630
▁선택지	-13631
▁설계사	-13632
▁설득력	-13633
▁설문지	-13634
▁세워서	-13635
▁술자리	-13636
▁슈퍼맨	-13637
▁시달려	-13638
▁심해져	-13639
▁쓰러진	-13640
▁아들딸	-13641
▁아셔야	-13642
▁앞당겨	-13643
▁애완견	-13644
▁앵무새	-13645
▁앵벌이	-13646
▁야말로	-13647
▁어설픈	-13648
▁여행사	-13649
▁예산안	-13650
▁옮겨야	-13651
▁옷차림	-13652
▁위약금	-13653
▁유권자	-13654
▁유사시	-13655
▁의견서	-13656
▁의료비	-13657
▁의무화	-13658
▁이건희	-13659
▁이래야	-13660
▁이영훈	-13661
▁이집트	-13662
▁인류애	-13663
▁일회용	-13664
▁입법부	-13665
▁장년층	-13666
▁재미없	-13667
▁재판장	-13668
▁전기료	-13669
▁졌으며	-13670
▁지나쳐	-13671
▁지름길	-13672
▁지방분	-13673
▁지지층	-13674
▁질식사	-13675
▁초음파	-13676
▁친부모	-13677
▁커피숍	-13678
▁큰소리	-13679
▁통신망	-13680
▁통신부	-13681
▁파헤치	-13682
▁합의서	-13683
▁항소심	-13684
▁현대판	-13685
▁확연히	-13686
▁환경부	-13687
▁황의조	-13688
▁0010	-13689
▁1015	-13690
▁2260	-13691
▁8000	-13692
▁code	-13693
▁거두절미	-13694
▁기회비용	-13695
▁다닌다고	-13696
▁다이어트	-13697
▁당해야만	-13698
▁뒤떨어진	-13699
▁레고랜드	-13700
▁무서워요	-13701
▁물어봐도	-13702
▁미칩니다	-13703
▁발본색원	-13704
▁벌어들이	-13705
▁부릅니다	-13706
▁슈틸리케	-13707
▁아름다움	-13708
▁없앤다고	-13709
▁외할머니	-13710
▁이래저래	-13711
▁이릅니다	-13712
▁잉글랜드	-13713
▁자유로이	-13714
▁전라북도	-13715
▁제국주의	-13716
▁커리큘럼	-13717
▁트레이너	-13718
▁프로그래	-13719
▁하다못해	-13720
▁히어로즈	-13721
▁떠오릅니다	-13722
▁베이비박스	-13723
▁올라갑니다	-13724
▁획기적으로	-13725
▁이루어진다면	-13726
▁크로스컨트리	-13727
ᅳᅳᅳᅳᅳᅳᅳᅳ	-13728
42	-13729
85	-13730
91	-13731
DA	-13732
OF	-13733
PR	-13734
pl	-13735
ri	-13736
ss	-13737
▁z	-13738
▁긁	-13739
▁꾹	-13740
▁낀	-13741
▁닐	-13742
▁댜	-13743
▁례	-13744
▁밣	-13745
▁벙	-13746
▁얕	-13747
▁쩔	-13748
▁쭈	-13749
▁탱	-13750
▁톤	-13751
각시	-13752
공학	-13753
그룹	-13754
나무	-13755
는지	-13756
대접	-13757
덕제	-13758
동락	-13759
동자	-13760
러진	-13761
리티	-13762
막음	-13763
무게	-13764
버린	-13765
본다	-13766
빙상	-13767
세대	-13768
센터	-13769
속임	-13770
슬론	-13771
시장	-13772
어먹	-13773
익태	-13774
임자	-13775
재해	-13776
주국	-13777
천군	-13778
파크	-13779
평구	-13780
해도	-13781
홍민	-13782
NET	-13783
ain	-13784
ama	-13785
aum	-13786
ild	-13787
lic	-13788
▁91	-13789
▁BL	-13790
▁ᄋᄌ	-13791
▁가드	-13792
▁가림	-13793
▁가차	-13794
▁각설	-13795
▁갈망	-13796
▁강산	-13797
▁거점	-13798
▁건네	-13799
▁건다	-13800
▁걸치	-13801
▁결백	-13802
▁경륜	-13803
▁경의	-13804
▁계주	-13805
▁계통	-13806
▁고여	-13807
▁골치	-13808
▁공조	-13809
▁구르	-13810
▁구명	-13811
▁구슬	-13812
▁국법	-13813
▁국선	-13814
▁국화	-13815
▁귀담	-13816
▁그깟	-13817
▁기모	-13818
▁기온	-13819
▁깊숙	-13820
▁까먹	-13821
▁까발	-13822
▁깎이	-13823
▁꼭꼭	-13824
▁꼼짝	-13825
▁꽁꽁	-13826
▁꿈꿀	-13827
▁끔직	-13828
▁나쁠	-13829
▁나지	-13830
▁낮춘	-13831
▁내고	-13832
▁내라	-13833
▁내준	-13834
▁노하	-13835
▁농사	-13836
▁눈썹	-13837
▁늘상	-13838
▁능률	-13839
▁달랑	-13840
▁답습	-13841
▁당위	-13842
▁대명	-13843
▁대서	-13844
▁대조	-13845
▁더우	-13846
▁도통	-13847
▁돌연	-13848
▁동덕	-13849
▁동떨	-13850
▁동탄	-13851
▁되묻	-13852
▁뒤져	-13853
▁뒤처	-13854
▁드높	-13855
▁따듯	-13856
▁딱딱	-13857
▁래요	-13858
▁레오	-13859
▁레저	-13860
▁리버	-13861
▁리본	-13862
▁막힐	-13863
▁모을	-13864
▁몰린	-13865
▁몰입	-13866
▁무인	-13867
▁문단	-13868
▁문통	-13869
▁뭉쳐	-13870
▁미스	-13871
▁미적	-13872
▁미추	-13873
▁바랬	-13874
▁반문	-13875
▁방울	-13876
▁방편	-13877
▁방화	-13878
▁버들	-13879
▁범한	-13880
▁별명	-13881
▁보배	-13882
▁보온	-13883
▁복리	-13884
▁본받	-13885
▁부쩍	-13886
▁부치	-13887
▁북구	-13888
▁분실	-13889
▁불타	-13890
▁비닐	-13891
▁빌리	-13892
▁사나	-13893
▁사려	-13894
▁사셨	-13895
▁사우	-13896
▁사육	-13897
▁사채	-13898
▁사표	-13899
▁상계	-13900
▁상류	-13901
▁상보	-13902
▁상술	-13903
▁상정	-13904
▁서남	-13905
▁성당	-13906
▁성도	-13907
▁성전	-13908
▁세로	-13909
▁세포	-13910
▁소진	-13911
▁소행	-13912
▁속속	-13913
▁손괴	-13914
▁수량	-13915
▁수자	-13916
▁시료	-13917
▁시흥	-13918
▁신동	-13919
▁신자	-13920
▁실린	-13921
▁실에	-13922
▁심위	-13923
▁써요	-13924
▁쓰였	-13925
▁쓰인	-13926
▁쓸쓸	-13927
▁아고	-13928
▁앉혀	-13929
▁액션	-13930
▁양국	-13931
▁어겨	-13932
▁어수	-13933
▁연달	-13934
▁연연	-13935
▁연유	-13936
▁연줄	-13937
▁열렬	-13938
▁영등	-13939
▁예견	-13940
▁오현	-13941
▁왔었	-13942
▁외유	-13943
▁외친	-13944
▁우물	-13945
▁우즈	-13946
▁우체	-13947
▁원로	-13948
▁유네	-13949
▁유대	-13950
▁유례	-13951
▁유야	-13952
▁유재	-13953
▁윤환	-13954
▁응용	-13955
▁이공	-13956
▁이태	-13957
▁인센	-13958
▁일률	-13959
▁자음	-13960
▁잔여	-13961
▁장염	-13962
▁재배	-13963
▁쟁취	-13964
▁저딴	-13965
▁적국	-13966
▁적잖	-13967
▁전대	-13968
▁전동	-13969
▁전설	-13970
▁정수	-13971
▁정형	-13972
▁좌시	-13973
▁주주	-13974
▁중한	-13975
▁즉흥	-13976
▁집필	-13977
▁쫒겨	-13978
▁차근	-13979
▁차비	-13980
▁참모	-13981
▁참신	-13982
▁채권	-13983
▁처신	-13984
▁처했	-13985
▁체납	-13986
▁체내	-13987
▁초록	-13988
▁초심	-13989
▁총체	-13990
▁최후	-13991
▁추징	-13992
▁친목	-13993
▁친선	-13994
▁침몰	-13995
▁컨셉	-13996
▁타고	-13997
▁타워	-13998
▁타자	-13999
▁탄소	-14000
▁태생	-14001
▁토크	-14002
▁통념	-14003
▁통용	-14004
▁파격	-14005
▁판타	-14006
▁편애	-14007
▁편치	-14008
▁평정	-14009
▁폐륜	-14010
▁폭리	-14011
▁풍속	-14012
▁풍족	-14013
▁픽업	-14014
▁필름	-14015
▁한낱	-14016
▁한층	-14017
▁행진	-14018
▁헛점	-14019
▁현격	-14020
▁호감	-14021
▁호화	-14022
▁혼전	-14023
▁홍어	-14024
▁환급	-14025
▁황희	-14026
▁효자	-14027
▁흉흉	-14028
▁희귀	-14029
▁힙합	-14030
멘터리	-14031
문화재	-14032
애슬론	-14033
예의지	-14034
지막지	-14035
지사지	-14036
폭력배	-14037
1111	-14038
etoo	-14039
▁125	-14040
▁425	-14041
▁613	-14042
▁633	-14043
▁OOO	-14044
▁가리키	-14045
▁가져온	-14046
▁가져와	-14047
▁간병인	-14048
▁개선책	-14049
▁겠지만	-14050
▁경쟁자	-14051
▁계세요	-14052
▁계셔서	-14053
▁고속도	-14054
▁공사장	-14055
▁관계없	-14056
▁광고비	-14057
▁괴롭힌	-14058
▁교장실	-14059
▁구해서	-14060
▁깨우치	-14061
▁나와요	-14062
▁나팔수	-14063
▁날벼락	-14064
▁남겨진	-14065
▁내려온	-14066
▁내어주	-14067
▁낸다는	-14068
▁냅시다	-14069
▁넘어졌	-14070
▁노숙인	-14071
▁누리꾼	-14072
▁눈속임	-14073
▁눈초리	-14074
▁다섯째	-14075
▁단단히	-14076
▁단호히	-14077
▁답안지	-14078
▁당연시	-14079
▁더러워	-14080
▁돌아봐	-14081
▁돌이켜	-14082
▁동정심	-14083
▁뒷자리	-14084
▁말장난	-14085
▁망설이	-14086
▁맡겨서	-14087
▁매달리	-14088
▁멀리서	-14089
▁멈춰야	-14090
▁몰려가	-14091
▁몸무게	-14092
▁몸부림	-14093
▁무너졌	-14094
▁무더운	-14095
▁박찬호	-14096
▁배상금	-14097
▁배트맨	-14098
▁버러지	-14099
▁버스비	-14100
▁버텨야	-14101
▁벌어먹	-14102
▁볼거리	-14103
▁부교재	-14104
▁부풀려	-14105
▁북유럽	-14106
▁불러야	-14107
▁불면증	-14108
▁불합리	-14109
▁블로거	-14110
▁살려야	-14111
▁삼성전	-14112
▁상비군	-14113
▁새내기	-14114
▁색안경	-14115
▁성균관	-14116
▁소개팅	-14117
▁손홍민	-14118
▁숟가락	-14119
▁스캔들	-14120
▁쓰여야	-14121
▁쓰여진	-14122
▁아동복	-14123
▁안익태	-14124
▁알림장	-14125
▁여대생	-14126
▁영구히	-14127
▁온다면	-14128
▁온종일	-14129
▁유부녀	-14130
▁음식물	-14131
▁응시자	-14132
▁이동국	-14133
▁이뤄질	-14134
▁이만큼	-14135
▁이세상	-14136
▁이승만	-14137
▁입막음	-14138
▁잊혀져	-14139
▁작아지	-14140
▁잠자리	-14141
▁재계약	-14142
▁전유물	-14143
▁정반대	-14144
▁정운찬	-14145
▁조덕제	-14146
▁조선인	-14147
▁조형물	-14148
▁주권자	-14149
▁주재원	-14150
▁줄넘기	-14151
▁지방대	-14152
▁지쳐서	-14153
▁지켜질	-14154
▁집행부	-14155
▁찾아올	-14156
▁챙겨야	-14157
▁추운데	-14158
▁출연진	-14159
▁친동생	-14160
▁타이트	-14161
▁파이팅	-14162
▁평화상	-14163
▁플래시	-14164
▁하반기	-14165
▁한자어	-14166
▁해로운	-14167
▁해마다	-14168
▁해야함	-14169
▁혐여혐	-14170
▁형사법	-14171
▁호주제	-14172
▁휴무일	-14173
▁힘겨운	-14174
예의지국	-14175
arcid	-14176
▁1950	-14177
▁1990	-14178
▁8090	-14179
▁MNET	-14180
▁갑작스런	-14181
▁꼭두각시	-14182
▁나간다고	-14183
▁남녀공학	-14184
▁대법원장	-14185
▁대한빙상	-14186
▁된다면서	-14187
▁두려워서	-14188
▁때립니다	-14189
▁만든다면	-14190
▁메이크업	-14191
▁무지막지	-14192
▁벅찹니다	-14193
▁부끄러울	-14194
▁삼성병원	-14195
▁숙박업소	-14196
▁역지사지	-14197
▁올라와서	-14198
▁월급쟁이	-14199
▁유네스코	-14200
▁이겁니다	-14201
▁인센티브	-14202
▁자연재해	-14203
▁정신없이	-14204
▁제멋대로	-14205
▁커트라인	-14206
▁키운다는	-14207
▁텔레비전	-14208
▁프로야구	-14209
sports	-14210
▁다큐멘터리	-14211
▁달라집니다	-14212
▁바이애슬론	-14213
▁비아냥거리	-14214
▁사이코패스	-14215
▁조직폭력배	-14216
▁한다더군요	-14217
▁동방예의지국	-14218
▁스포트라이트	-14219
▁대한빙상경기연맹	-14220
OM	-14221
UM	-14222
UN	-14223
bn	-14224
el	-14225
hy	-14226
ob	-14227
ᄋᄋ	-14228
▁갉	-14229
▁꼇	-14230
▁뺄	-14231
▁씸	-14232
▁웍	-14233
▁켠	-14234
▁흩	-14235
간다	-14236
거웠	-14237
교도	-14238
구구	-14239
구역	-14240
급수	-14241
나니	-14242
닉스	-14243
다간	-14244
당초	-14245
덴티	-14246
뚱땅	-14247
뜨릴	-14248
러기	-14249
무시	-14250
발전	-14251
병대	-14252
비비	-14253
사업	-14254
사이	-14255
사정	-14256
산업	-14257
세포	-14258
스탄	-14259
슬링	-14260
이수	-14261
준호	-14262
진흥	-14263
창진	-14264
천리	-14265
크림	-14266
통령	-14267
통수	-14268
트려	-14269
티켓	-14270
프닝	-14271
TAN	-14272
act	-14273
are	-14274
bes	-14275
ide	-14276
tor	-14277
▁71	-14278
▁86	-14279
▁AA	-14280
▁AI	-14281
▁AV	-14282
▁DJ	-14283
▁TH	-14284
▁US	-14285
▁be	-14286
▁cc	-14287
▁em	-14288
▁가창	-14289
▁각급	-14290
▁갈기	-14291
▁갈지	-14292
▁강동	-14293
▁개똥	-14294
▁게요	-14295
▁결핵	-14296
▁경관	-14297
▁계장	-14298
▁고심	-14299
▁고증	-14300
▁공략	-14301
▁공방	-14302
▁공판	-14303
▁광역	-14304
▁구출	-14305
▁군무	-14306
▁귀속	-14307
▁그중	-14308
▁글쎄	-14309
▁기댈	-14310
▁기정	-14311
▁꿋꿋	-14312
▁끈질	-14313
▁끼쳤	-14314
▁나빴	-14315
▁나왓	-14316
▁낙서	-14317
▁낙오	-14318
▁난자	-14319
▁남군	-14320
▁남산	-14321
▁노심	-14322
▁노총	-14323
▁논산	-14324
▁농후	-14325
▁느린	-14326
▁단서	-14327
▁단의	-14328
▁달치	-14329
▁달했	-14330
▁대계	-14331
▁대등	-14332
▁대문	-14333
▁대포	-14334
▁데요	-14335
▁도봉	-14336
▁도약	-14337
▁도왔	-14338
▁독촉	-14339
▁독학	-14340
▁동서	-14341
▁됐었	-14342
▁뒤돌	-14343
▁득실	-14344
▁뚱뚱	-14345
▁라식	-14346
▁러브	-14347
▁려나	-14348
▁리듬	-14349
▁리터	-14350
▁마나	-14351
▁마자	-14352
▁말소	-14353
▁맛보	-14354
▁망쳤	-14355
▁맞췄	-14356
▁매개	-14357
▁맹점	-14358
▁멈출	-14359
▁면하	-14360
▁모유	-14361
▁무당	-14362
▁물결	-14363
▁물림	-14364
▁민의	-14365
▁바꼈	-14366
▁바빴	-14367
▁바위	-14368
▁반입	-14369
▁반출	-14370
▁밤잠	-14371
▁밤중	-14372
▁방대	-14373
▁배짱	-14374
▁벌여	-14375
▁별장	-14376
▁부근	-14377
▁부응	-14378
▁불로	-14379
▁불보	-14380
▁불응	-14381
▁블루	-14382
▁비등	-14383
▁비즈	-14384
▁비틀	-14385
▁빌딩	-14386
▁산림	-14387
▁삼각	-14388
▁서너	-14389
▁서두	-14390
▁서론	-14391
▁서산	-14392
▁설움	-14393
▁성급	-14394
▁성신	-14395
▁소굴	-14396
▁소도	-14397
▁소생	-14398
▁속아	-14399
▁손놓	-14400
▁손대	-14401
▁수순	-14402
▁순공	-14403
▁스무	-14404
▁스컴	-14405
▁승계	-14406
▁승률	-14407
▁승승	-14408
▁시련	-14409
▁시진	-14410
▁식수	-14411
▁식자	-14412
▁식칼	-14413
▁실컷	-14414
▁십수	-14415
▁아낄	-14416
▁아낌	-14417
▁아신	-14418
▁악물	-14419
▁악취	-14420
▁안가	-14421
▁안소	-14422
▁않되	-14423
▁야유	-14424
▁양지	-14425
▁어그	-14426
▁얽혀	-14427
▁여민	-14428
▁여쭈	-14429
▁여쭙	-14430
▁연후	-14431
▁열심	-14432
▁오역	-14433
▁외파	-14434
▁용지	-14435
▁운송	-14436
▁융자	-14437
▁윽박	-14438
▁이견	-14439
▁이맘	-14440
▁이법	-14441
▁인금	-14442
▁인질	-14443
▁일감	-14444
▁자만	-14445
▁작문	-14446
▁잠그	-14447
▁재편	-14448
▁저흰	-14449
▁젋은	-14450
▁정계	-14451
▁정선	-14452
▁정자	-14453
▁조수	-14454
▁주눅	-14455
▁주본	-14456
▁주시	-14457
▁쥐어	-14458
▁지랄	-14459
▁지탱	-14460
▁질지	-14461
▁징징	-14462
▁차인	-14463
▁찬란	-14464
▁체면	-14465
▁초보	-14466
▁총량	-14467
▁추우	-14468
▁치도	-14469
▁치뤘	-14470
▁치적	-14471
▁커야	-14472
▁탈취	-14473
▁태그	-14474
▁터전	-14475
▁테크	-14476
▁토플	-14477
▁투철	-14478
▁튜닝	-14479
▁트럭	-14480
▁특활	-14481
▁판가	-14482
▁편차	-14483
▁평론	-14484
▁포승	-14485
▁포자	-14486
▁포주	-14487
▁폭넓	-14488
▁피자	-14489
▁하대	-14490
▁하자	-14491
▁학예	-14492
▁한게	-14493
▁한달	-14494
▁한샘	-14495
▁합반	-14496
▁해낼	-14497
▁해맑	-14498
▁해왔	-14499
▁행방	-14500
▁혐을	-14501
▁환기	-14502
▁흉터	-14503
▁희희	-14504
▁힘입	-14505
덴티티	-14506
어져야	-14507
으리라	-14508
LIVE	-14509
ener	-14510
qual	-14511
▁148	-14512
▁419	-14513
▁ABC	-14514
▁sid	-14515
▁가습기	-14516
▁감기약	-14517
▁감독원	-14518
▁갖춰야	-14519
▁거스르	-14520
▁건국대	-14521
▁걷어가	-14522
▁겠다는	-14523
▁고구려	-14524
▁고쳐서	-14525
▁교재비	-14526
▁그니까	-14527
▁김보람	-14528
▁김상훈	-14529
▁꿉니다	-14530
▁끼어들	-14531
▁나무라	-14532
▁남아도	-14533
▁뉘우침	-14534
▁는대도	-14535
▁다닌다	-14536
▁다쳐서	-14537
▁단시간	-14538
▁대마초	-14539
▁뒤통수	-14540
▁들어줄	-14541
▁등급제	-14542
▁등록세	-14543
▁따져서	-14544
▁뜻대로	-14545
▁로리타	-14546
▁로워야	-14547
▁맞물려	-14548
▁머리채	-14549
▁몰아내	-14550
▁몰아세	-14551
▁못생겼	-14552
▁못생긴	-14553
▁무더위	-14554
▁무차별	-14555
▁미니스	-14556
▁미룬다	-14557
▁미추홀	-14558
▁민노총	-14559
▁민영화	-14560
▁박살내	-14561
▁백승호	-14562
▁보호관	-14563
▁불거지	-14564
▁불거진	-14565
▁비상벨	-14566
▁빈자리	-14567
▁사물함	-14568
▁사업비	-14569
▁사투리	-14570
▁상한선	-14571
▁서대문	-14572
▁소변기	-14573
▁수요자	-14574
▁스러우	-14575
▁스쿨링	-14576
▁스타크	-14577
▁시부모	-14578
▁심심찮	-14579
▁싸구려	-14580
▁싸워야	-14581
▁쓰러졌	-14582
▁아까워	-14583
▁아무개	-14584
▁어수선	-14585
▁어쩌구	-14586
▁엎드려	-14587
▁에이전	-14588
▁여지껏	-14589
▁예선전	-14590
▁예정자	-14591
▁올린다	-14592
▁울부짖	-14593
▁위로금	-14594
▁유영철	-14595
▁윤봉길	-14596
▁으라면	-14597
▁음료수	-14598
▁이기전	-14599
▁이원화	-14600
▁잊혀질	-14601
▁자가용	-14602
▁자료실	-14603
▁재판관	-14604
▁적대감	-14605
▁점수제	-14606
▁접어들	-14607
▁정치색	-14608
▁주거지	-14609
▁주관식	-14610
▁지역민	-14611
▁지점장	-14612
▁쫓겨나	-14613
▁차일드	-14614
▁창원시	-14615
▁챙겨서	-14616
▁처참히	-14617
▁캐스터	-14618
▁클래식	-14619
▁탄원서	-14620
▁탈의실	-14621
▁탐지기	-14622
▁통지서	-14623
▁페널티	-14624
▁포커스	-14625
▁표지판	-14626
▁프린트	-14627
▁필수품	-14628
▁하남시	-14629
▁한라산	-14630
▁합격률	-14631
▁해져야	-14632
▁해프닝	-14633
▁헤아릴	-14634
▁흘러나	-14635
리케이션	-14636
▁1700	-14637
▁5060	-14638
▁mnet	-14639
▁that	-14640
▁고서라도	-14641
▁고속버스	-14642
▁교대근무	-14643
▁구속영장	-14644
▁국민학교	-14645
▁균형발전	-14646
▁기하급수	-14647
▁누군가의	-14648
▁달라져야	-14649
▁따른다는	-14650
▁망합니다	-14651
▁무궁무진	-14652
▁무단결석	-14653
▁무서워하	-14654
▁무시무시	-14655
▁삼성전자	-14656
▁생긴다고	-14657
▁셔틀버스	-14658
▁승승장구	-14659
▁시시비비	-14660
▁악세사리	-14661
▁어려운데	-14662
▁얼렁뚱땅	-14663
▁여깁니다	-14664
▁여민동락	-14665
▁오피스텔	-14666
▁잊어버리	-14667
▁주먹구구	-14668
▁파파라치	-14669
▁페미나치	-14670
▁학부모회	-14671
▁회계감사	-14672
▁12322	-14673
▁댄스스포츠	-14674
▁불러일으키	-14675
▁살아간다는	-14676
▁아이덴티티	-14677
▁일어난다고	-14678
▁페어플레이	-14679
▁201811	-14680
87	-14681
DC	-14682
ES	-14683
IK	-14684
OL	-14685
PT	-14686
ol	-14687
▁넋	-14688
▁녕	-14689
▁뒀	-14690
▁땃	-14691
▁뜹	-14692
▁뻐	-14693
▁쌈	-14694
▁씹	-14695
▁콧	-14696
▁퓨	-14697
▁헉	-14698
거름	-14699
경찰	-14700
관리	-14701
금니	-14702
길동	-14703
난방	-14704
넥션	-14705
노조	-14706
니깐	-14707
당토	-14708
대기	-14709
더기	-14710
동기	-14711
러워	-14712
루스	-14713
마니	-14714
무야	-14715
문점	-14716
벗고	-14717
부치	-14718
사항	-14719
소문	-14720
수정	-14721
승부	-14722
시스	-14723
시안	-14724
아웃	-14725
어치	-14726
일치	-14727
잇감	-14728
재주	-14729
전력	-14730
점프	-14731
정권	-14732
정신	-14733
조각	-14734
준희	-14735
지도	-14736
지변	-14737
차근	-14738
창기	-14739
철수	-14740
포터	-14741
154	-14742
180	-14743
ile	-14744
ill	-14745
pnv	-14746
▁DA	-14747
▁EA	-14748
▁EB	-14749
▁NO	-14750
▁bc	-14751
▁cj	-14752
▁de	-14753
▁ec	-14754
▁ᄍᄍ	-14755
▁가분	-14756
▁가증	-14757
▁감격	-14758
▁감명	-14759
▁감투	-14760
▁강매	-14761
▁강전	-14762
▁강퇴	-14763
▁개미	-14764
▁개장	-14765
▁갱생	-14766
▁걸요	-14767
▁겨냥	-14768
▁결방	-14769
▁결산	-14770
▁결의	-14771
▁경멸	-14772
▁경품	-14773
▁고범	-14774
▁고운	-14775
▁고조	-14776
▁고층	-14777
▁고친	-14778
▁곰곰	-14779
▁공법	-14780
▁공석	-14781
▁공적	-14782
▁관청	-14783
▁광기	-14784
▁궁지	-14785
▁권순	-14786
▁궤변	-14787
▁근심	-14788
▁글구	-14789
▁글러	-14790
▁기법	-14791
▁기찬	-14792
▁기호	-14793
▁꼬마	-14794
▁꾸중	-14795
▁낄낄	-14796
▁나두	-14797
▁나발	-14798
▁나위	-14799
▁나찌	-14800
▁내딛	-14801
▁내비	-14802
▁논할	-14803
▁놓친	-14804
▁놔서	-14805
▁능가	-14806
▁니스	-14807
▁니즘	-14808
▁다라	-14809
▁단돈	-14810
▁당구	-14811
▁당면	-14812
▁당함	-14813
▁대목	-14814
▁대위	-14815
▁대청	-14816
▁덕목	-14817
▁도맡	-14818
▁독식	-14819
▁독전	-14820
▁독제	-14821
▁독창	-14822
▁두꺼	-14823
▁뒷담	-14824
▁들먹	-14825
▁들일	-14826
▁등부	-14827
▁따구	-14828
▁러니	-14829
▁로우	-14830
▁루지	-14831
▁루타	-14832
▁마르	-14833
▁마셔	-14834
▁만국	-14835
▁만주	-14836
▁매자	-14837
▁멱살	-14838
▁면밀	-14839
▁명소	-14840
▁모기	-14841
▁모드	-14842
▁모래	-14843
▁모씨	-14844
▁모토	-14845
▁목회	-14846
▁무뎌	-14847
▁문예	-14848
▁문우	-14849
▁미처	-14850
▁반경	-14851
▁반년	-14852
▁반란	-14853
▁반반	-14854
▁반시	-14855
▁반전	-14856
▁발라	-14857
▁발맞	-14858
▁발신	-14859
▁방만	-14860
▁배재	-14861
▁백과	-14862
▁백배	-14863
▁버텼	-14864
▁범람	-14865
▁보금	-14866
▁부감	-14867
▁부검	-14868
▁부랴	-14869
▁부렸	-14870
▁불어	-14871
▁비대	-14872
▁비명	-14873
▁사방	-14874
▁산산	-14875
▁산이	-14876
▁산전	-14877
▁산지	-14878
▁산학	-14879
▁살라	-14880
▁삿대	-14881
▁상공	-14882
▁상봉	-14883
▁서방	-14884
▁석탄	-14885
▁선박	-14886
▁선팅	-14887
▁섭취	-14888
▁성동	-14889
▁세븐	-14890
▁세제	-14891
▁소린	-14892
▁송금	-14893
▁쇼타	-14894
▁수성	-14895
▁수컷	-14896
▁수평	-14897
▁순국	-14898
▁순회	-14899
▁숨길	-14900
▁숭배	-14901
▁스프	-14902
▁승화	-14903
▁시안	-14904
▁시자	-14905
▁실세	-14906
▁실신	-14907
▁심재	-14908
▁씨앗	-14909
▁아랍	-14910
▁아량	-14911
▁아레	-14912
▁아토	-14913
▁아트	-14914
▁안식	-14915
▁앉히	-14916
▁애청	-14917
▁양면	-14918
▁양주	-14919
▁어물	-14920
▁얼토	-14921
▁여덟	-14922
▁여려	-14923
▁역설	-14924
▁연동	-14925
▁염증	-14926
▁영사	-14927
▁영영	-14928
▁옥죄	-14929
▁올까	-14930
▁와라	-14931
▁외곽	-14932
▁욕할	-14933
▁우라	-14934
▁원격	-14935
▁원색	-14936
▁원형	-14937
▁위신	-14938
▁위압	-14939
▁유년	-14940
▁유수	-14941
▁으란	-14942
▁의복	-14943
▁의전	-14944
▁이규	-14945
▁이빨	-14946
▁이석	-14947
▁이지	-14948
▁이토	-14949
▁인출	-14950
▁일임	-14951
▁일화	-14952
▁자나	-14953
▁자재	-14954
▁자지	-14955
▁저들	-14956
▁저력	-14957
▁저울	-14958
▁저촉	-14959
▁전광	-14960
▁전권	-14961
▁전보	-14962
▁전승	-14963
▁절개	-14964
▁정무	-14965
▁정읍	-14966
▁정차	-14967
▁조문	-14968
▁조준	-14969
▁종식	-14970
▁주세	-14971
▁중동	-14972
▁중범	-14973
▁증액	-14974
▁지독	-14975
▁지드	-14976
▁직계	-14977
▁직렬	-14978
▁직선	-14979
▁집유	-14980
▁차명	-14981
▁착복	-14982
▁천부	-14983
▁철원	-14984
▁청운	-14985
▁청자	-14986
▁체해	-14987
▁추신	-14988
▁추이	-14989
▁추한	-14990
▁치닫	-14991
▁친가	-14992
▁친모	-14993
▁친밀	-14994
▁친할	-14995
▁침탈	-14996
▁카운	-14997
▁캄캄	-14998
▁코딩	-14999
▁코트	-15000
▁쿠폰	-15001
▁키로	-15002
▁투니	-15003
▁트릭	-15004
▁특화	-15005
▁티브	-15006
▁파주	-15007
▁판권	-15008
▁판별	-15009
▁펜션	-15010
▁펼친	-15011
▁평판	-15012
▁포경	-15013
▁풍자	-15014
▁피운	-15015
▁필두	-15016
▁하수	-15017
▁하여	-15018
▁한텐	-15019
▁한판	-15020
▁할땐	-15021
▁항거	-15022
▁해놨	-15023
▁해롭	-15024
▁해바	-15025
▁해짐	-15026
▁향유	-15027
▁험담	-15028
▁혁파	-15029
▁혐사	-15030
▁호남	-15031
▁호법	-15032
▁혼신	-15033
▁회자	-15034
▁흐릿	-15035
간다고	-15036
갑시다	-15037
니다만	-15038
디스크	-15039
로이드	-15040
▁005	-15041
▁109	-15042
▁157	-15043
▁190	-15044
▁193	-15045
▁234	-15046
▁240	-15047
▁307	-15048
▁340	-15049
▁533	-15050
▁780	-15051
▁KTX	-15052
▁VAR	-15053
▁any	-15054
▁ioc	-15055
▁가톨릭	-15056
▁갇혀서	-15057
▁값어치	-15058
▁갔다왔	-15059
▁개구리	-15060
▁개인사	-15061
▁개헌안	-15062
▁검사장	-15063
▁겉모습	-15064
▁겠다고	-15065
▁계약금	-15066
▁고라도	-15067
▁관세청	-15068
▁광고주	-15069
▁교학사	-15070
▁그래왔	-15071
▁기념일	-15072
▁김주혁	-15073
▁나란히	-15074
▁낮춰야	-15075
▁내려진	-15076
▁낸다고	-15077
▁넘겨서	-15078
▁노하우	-15079
▁늘어지	-15080
▁달라야	-15081
▁달려왔	-15082
▁대항전	-15083
▁데일리	-15084
▁되돌릴	-15085
▁될수록	-15086
▁둘러싼	-15087
▁둡니다	-15088
▁들어선	-15089
▁때때로	-15090
▁떠올랐	-15091
▁똘마니	-15092
▁뜹니다	-15093
▁라이프	-15094
▁리스크	-15095
▁마셔서	-15096
▁마십쇼	-15097
▁말미암	-15098
▁매니아	-15099
▁머지않	-15100
▁메이커	-15101
▁명세서	-15102
▁무지한	-15103
▁물어볼	-15104
▁밑거름	-15105
▁발벗고	-15106
▁발자국	-15107
▁방문객	-15108
▁배급사	-15109
▁버려진	-15110
▁번다고	-15111
▁보낼까	-15112
▁보호막	-15113
▁부딪혀	-15114
▁부총장	-15115
▁부축이	-15116
▁불명예	-15117
▁살아나	-15118
▁삽시다	-15119
▁상대편	-15120
▁생겨도	-15121
▁생방송	-15122
▁선언문	-15123
▁설자리	-15124
▁소득세	-15125
▁소외감	-15126
▁수천억	-15127
▁시드니	-15128
▁시멘트	-15129
▁시위자	-15130
▁실까요	-15131
▁심해서	-15132
▁쏟아부	-15133
▁아이콘	-15134
▁안겨준	-15135
▁안무가	-15136
▁안정환	-15137
▁알려서	-15138
▁알파벳	-15139
▁어금니	-15140
▁어울릴	-15141
▁연령층	-15142
▁였음을	-15143
▁영등포	-15144
▁영부인	-15145
▁우체국	-15146
▁운전사	-15147
▁울화통	-15148
▁원동기	-15149
▁음악가	-15150
▁이맘때	-15151
▁이영표	-15152
▁인허가	-15153
▁일간지	-15154
▁일거리	-15155
▁일회성	-15156
▁임은정	-15157
▁임차인	-15158
▁자그마	-15159
▁자습서	-15160
▁잡니다	-15161
▁장애자	-15162
▁재료비	-15163
▁정신없	-15164
▁정한다	-15165
▁줄려고	-15166
▁줍니까	-15167
▁쥐꼬리	-15168
▁증거물	-15169
▁지나칠	-15170
▁지도부	-15171
▁지휘관	-15172
▁차려라	-15173
▁청렴도	-15174
▁초창기	-15175
▁추워서	-15176
▁추첨제	-15177
▁충청도	-15178
▁칼퇴근	-15179
▁커넥션	-15180
▁퀄리티	-15181
▁털어놓	-15182
▁통신문	-15183
▁판가름	-15184
▁판매량	-15185
▁판문점	-15186
▁편입학	-15187
▁편향성	-15188
▁포스터	-15189
▁프런트	-15190
▁피임법	-15191
▁할께요	-15192
▁현역병	-15193
▁혐오감	-15194
▁협박죄	-15195
▁황금기	-15196
▁회의록	-15197
bestp	-15198
thing	-15199
ublic	-15200
▁1600	-15201
▁6112	-15202
▁mama	-15203
▁utor	-15204
▁가진다고	-15205
▁가집니다	-15206
▁걸린다고	-15207
▁교직이수	-15208
▁구합니다	-15209
▁기출문제	-15210
▁끝납니다	-15211
▁늘린다는	-15212
▁당한다면	-15213
▁들어간다	-15214
▁바이러스	-15215
▁밝혀져야	-15216
▁보금자리	-15217
▁사로잡혀	-15218
▁서러운데	-15219
▁스키점프	-15220
▁아랫사람	-15221
▁압니다만	-15222
▁어습니다	-15223
▁얼토당토	-15224
▁없앤다는	-15225
▁유야무야	-15226
▁재능기부	-15227
▁전합니다	-15228
▁정년퇴직	-15229
▁중등교육	-15230
▁지냅니다	-15231
▁지드래곤	-15232
▁차근차근	-15233
▁천재지변	-15234
▁체크카드	-15235
▁통합교육	-15236
▁평화통일	-15237
▁하나같이	-15238
▁한국전력	-15239
▁해바라기	-15240
▁호주머니	-15241
eneral	-15242
▁NAVER	-15243
▁골든디스크	-15244
▁다가옵니다	-15245
▁떨어진다는	-15246
▁무형문화재	-15247
▁시달립니다	-15248
▁일어난다는	-15249
▁찢어집니다	-15250
▁스타크래프트	-15251
viewasparcid	-15252
bestpetitions	-15253
53	-15254
86	-15255
94	-15256
CC	-15257
KA	-15258
MR	-15259
PS	-15260
ab	-15261
os	-15262
ps	-15263
xx	-15264
▁눕	-15265
▁뭇	-15266
▁뽕	-15267
▁읺	-15268
▁첩	-15269
▁켯	-15270
▁턴	-15271
▁톨	-15272
▁홧	-15273
가리	-15274
고짜	-15275
공노	-15276
굣길	-15277
군분	-15278
균등	-15279
극물	-15280
깨비	-15281
날리	-15282
더미	-15283
데요	-15284
도리	-15285
라는	-15286
렘방	-15287
를린	-15288
마을	-15289
바탕	-15290
부랴	-15291
부족	-15292
빨간	-15293
생긴	-15294
암동	-15295
인구	-15296
인물	-15297
임시	-15298
자매	-15299
자식	-15300
중독	-15301
지션	-15302
차대	-15303
착순	-15304
초사	-15305
츄리	-15306
태경	-15307
테일	-15308
트니	-15309
평균	-15310
현진	-15311
110	-15312
ail	-15313
ers	-15314
ure	-15315
yst	-15316
▁61	-15317
▁94	-15318
▁AS	-15319
▁BB	-15320
▁CF	-15321
▁CG	-15322
▁CS	-15323
▁ED	-15324
▁GD	-15325
▁OT	-15326
▁ST	-15327
▁TF	-15328
▁ad	-15329
▁le	-15330
▁wh	-15331
▁가감	-15332
▁가공	-15333
▁가린	-15334
▁가즈	-15335
▁간직	-15336
▁감춰	-15337
▁감탄	-15338
▁개년	-15339
▁거실	-15340
▁거쳤	-15341
▁걷잡	-15342
▁결핍	-15343
▁결함	-15344
▁경솔	-15345
▁경유	-15346
▁계류	-15347
▁고달	-15348
▁고처	-15349
▁공안	-15350
▁과체	-15351
▁관문	-15352
▁구심	-15353
▁국세	-15354
▁국호	-15355
▁군중	-15356
▁굴러	-15357
▁굴리	-15358
▁귀신	-15359
▁귀엽	-15360
▁균열	-15361
▁그립	-15362
▁극기	-15363
▁급감	-15364
▁기른	-15365
▁기점	-15366
▁기질	-15367
▁김석	-15368
▁꺼지	-15369
▁끄집	-15370
▁끝맺	-15371
▁난폭	-15372
▁농지	-15373
▁놓였	-15374
▁누려	-15375
▁누이	-15376
▁누출	-15377
▁능사	-15378
▁다짜	-15379
▁대들	-15380
▁대디	-15381
▁대역	-15382
▁더하	-15383
▁도가	-15384
▁도인	-15385
▁독선	-15386
▁돌린	-15387
▁동국	-15388
▁동향	-15389
▁된단	-15390
▁뒤흔	-15391
▁뒷짐	-15392
▁등용	-15393
▁런닝	-15394
▁로마	-15395
▁리뷰	-15396
▁마니	-15397
▁마블	-15398
▁막혔	-15399
▁매몰	-15400
▁매연	-15401
▁맹세	-15402
▁머들	-15403
▁면상	-15404
▁명기	-15405
▁명함	-15406
▁모면	-15407
▁무근	-15408
▁무드	-15409
▁무신	-15410
▁무중	-15411
▁물고	-15412
▁물음	-15413
▁미룰	-15414
▁믹스	-15415
▁민속	-15416
▁바닷	-15417
▁바쳤	-15418
▁반가	-15419
▁반품	-15420
▁발길	-15421
▁발등	-15422
▁발제	-15423
▁발짝	-15424
▁밥상	-15425
▁방산	-15426
▁방정	-15427
▁벤츠	-15428
▁벨트	-15429
▁벽지	-15430
▁병실	-15431
▁복습	-15432
▁복식	-15433
▁본디	-15434
▁부셔	-15435
▁부흥	-15436
▁불꽃	-15437
▁비수	-15438
▁비탄	-15439
▁빈도	-15440
▁사령	-15441
▁사재	-15442
▁삭막	-15443
▁살균	-15444
▁삼국	-15445
▁생도	-15446
▁생사	-15447
▁생소	-15448
▁서이	-15449
▁선심	-15450
▁성고	-15451
▁성탄	-15452
▁세입	-15453
▁소감	-15454
▁소대	-15455
▁소시	-15456
▁수박	-15457
▁수배	-15458
▁순경	-15459
▁순순	-15460
▁스코	-15461
▁슬그	-15462
▁승격	-15463
▁시경	-15464
▁시구	-15465
▁시피	-15466
▁시한	-15467
▁실전	-15468
▁심상	-15469
▁아드	-15470
▁아보	-15471
▁아아	-15472
▁악수	-15473
▁안구	-15474
▁안기	-15475
▁알지	-15476
▁야권	-15477
▁약학	-15478
▁어로	-15479
▁어벤	-15480
▁어영	-15481
▁어질	-15482
▁어쩜	-15483
▁여간	-15484
▁여왕	-15485
▁여정	-15486
▁여하	-15487
▁였었	-15488
▁영예	-15489
▁영이	-15490
▁예습	-15491
▁오바	-15492
▁옮긴	-15493
▁왔다	-15494
▁왕성	-15495
▁외톨	-15496
▁용가	-15497
▁용감	-15498
▁원단	-15499
▁원대	-15500
▁원부	-15501
▁유념	-15502
▁유성	-15503
▁육법	-15504
▁음향	-15505
▁의약	-15506
▁이경	-15507
▁이국	-15508
▁이별	-15509
▁이뻐	-15510
▁이체	-15511
▁일대	-15512
▁일파	-15513
▁임곡	-15514
▁임창	-15515
▁잠정	-15516
▁잡다	-15517
▁잡일	-15518
▁재계	-15519
▁재인	-15520
▁저걸	-15521
▁저주	-15522
▁적출	-15523
▁적화	-15524
▁전격	-15525
▁절단	-15526
▁절절	-15527
▁절친	-15528
▁점장	-15529
▁접목	-15530
▁정진	-15531
▁정호	-15532
▁제반	-15533
▁제이	-15534
▁제창	-15535
▁젤리	-15536
▁존귀	-15537
▁종량	-15538
▁종자	-15539
▁죄명	-15540
▁주한	-15541
▁줄곧	-15542
▁줄서	-15543
▁지껄	-15544
▁진안	-15545
▁질려	-15546
▁짜집	-15547
▁찔리	-15548
▁차제	-15549
▁차츰	-15550
▁처가	-15551
▁처제	-15552
▁천박	-15553
▁청해	-15554
▁체격	-15555
▁체당	-15556
▁초동	-15557
▁초본	-15558
▁초임	-15559
▁촉발	-15560
▁최전	-15561
▁추산	-15562
▁침투	-15563
▁캠핑	-15564
▁탈모	-15565
▁투석	-15566
▁파라	-15567
▁펼쳤	-15568
▁평안	-15569
▁포트	-15570
▁포퓰	-15571
▁플렛	-15572
▁피트	-15573
▁한건	-15574
▁한솔	-15575
▁한식	-15576
▁합세	-15577
▁항일	-15578
▁행인	-15579
▁헌팅	-15580
▁혐이	-15581
▁형상	-15582
▁호수	-15583
▁홍상	-15584
▁홍수	-15585
▁확연	-15586
▁후방	-15587
▁후안	-15588
▁훤히	-15589
▁희박	-15590
군분투	-15591
꾸라지	-15592
미디어	-15593
어씌우	-15594
이글스	-15595
준다는	-15596
헨티나	-15597
1000	-15598
irls	-15599
▁280	-15600
▁315	-15601
▁AKB	-15602
▁DMA	-15603
▁OBS	-15604
▁OMR	-15605
▁USB	-15606
▁can	-15607
▁cou	-15608
▁for	-15609
▁kbl	-15610
▁spo	-15611
▁var	-15612
▁가정집	-15613
▁가져갈	-15614
▁감호자	-15615
▁개고생	-15616
▁개최지	-15617
▁거들떠	-15618
▁거듭날	-15619
▁건설업	-15620
▁걸어도	-15621
▁격투기	-15622
▁경기청	-15623
▁경영자	-15624
▁고위험	-15625
▁골머리	-15626
▁관리법	-15627
▁광고료	-15628
▁광고판	-15629
▁광주시	-15630
▁괴롭혔	-15631
▁교사제	-15632
▁구도심	-15633
▁국가관	-15634
▁급속도	-15635
▁기관지	-15636
▁기념품	-15637
▁기능사	-15638
▁기뻐할	-15639
▁기성용	-15640
▁기준점	-15641
▁길바닥	-15642
▁김한수	-15643
▁깨어나	-15644
▁꼬투리	-15645
▁나빠서	-15646
▁남겨야	-15647
▁내다보	-15648
▁내보낼	-15649
▁노원구	-15650
▁다더라	-15651
▁다른가	-15652
▁단체전	-15653
▁대감독	-15654
▁독극물	-15655
▁됐으며	-15656
▁둔다면	-15657
▁뒤쳐진	-15658
▁뒷조사	-15659
▁드나들	-15660
▁드려도	-15661
▁든다는	-15662
▁들여야	-15663
▁디테일	-15664
▁따돌리	-15665
▁떠올라	-15666
▁라거나	-15667
▁마라톤	-15668
▁막혀서	-15669
▁만화가	-15670
▁매개체	-15671
▁머물러	-15672
▁모쪼록	-15673
▁목포시	-15674
▁무승부	-15675
▁무허가	-15676
▁문우람	-15677
▁문제없	-15678
▁물으면	-15679
▁밀어내	-15680
▁반도체	-15681
▁배기량	-15682
▁법체계	-15683
▁베를린	-15684
▁보여줌	-15685
▁보온성	-15686
▁불이행	-15687
▁비웃음	-15688
▁빠트리	-15689
▁빨간색	-15690
▁뺏어가	-15691
▁산업체	-15692
▁생산자	-15693
▁서라도	-15694
▁서러움	-15695
▁서술형	-15696
▁선착순	-15697
▁소상히	-15698
▁수신기	-15699
▁수원시	-15700
▁순찰차	-15701
▁쉽사리	-15702
▁시진핑	-15703
▁신입생	-15704
▁신정환	-15705
▁심각히	-15706
▁심리학	-15707
▁아레나	-15708
▁아이오	-15709
▁안녕하	-15710
▁알려질	-15711
▁앞당기	-15712
▁앞자리	-15713
▁야구단	-15714
▁양성애	-15715
▁엄청날	-15716
▁연습장	-15717
▁오랜만	-15718
▁옥살이	-15719
▁올바로	-15720
▁와일드	-15721
▁울산시	-15722
▁움직여	-15723
▁월평균	-15724
▁유재석	-15725
▁이러한	-15726
▁이뤄낸	-15727
▁이름표	-15728
▁이수역	-15729
▁이정부	-15730
▁임대업	-15731
▁임해야	-15732
▁작업장	-15733
▁잘생긴	-15734
▁잠재우	-15735
▁잡혀가	-15736
▁장단점	-15737
▁재건축	-15738
▁재심사	-15739
▁적임자	-15740
▁전광판	-15741
▁정겨운	-15742
▁정경두	-15743
▁정보력	-15744
▁정해졌	-15745
▁좋아할	-15746
▁중차대	-15747
▁진료비	-15748
▁질수록	-15749
▁찾아온	-15750
▁출발선	-15751
▁출생률	-15752
▁출입구	-15753
▁치료실	-15754
▁키보드	-15755
▁타고난	-15756
▁테이블	-15757
▁투데이	-15758
▁튀어나	-15759
▁특기생	-15760
▁티브이	-15761
▁파란색	-15762
▁팔렘방	-15763
▁포지션	-15764
▁피부색	-15765
▁하태경	-15766
▁한다던	-15767
▁할게요	-15768
▁할라면	-15769
▁해병대	-15770
▁핸디캡	-15771
▁향해서	-15772
▁헤어진	-15773
▁현주소	-15774
▁혐오자	-15775
▁호소문	-15776
▁홍길동	-15777
▁화요일	-15778
▁휘날리	-15779
▁힘드신	-15780
임시정부	-15781
재판주의	-15782
▁1100	-15783
▁1970	-15784
▁1995	-15785
▁7000	-15786
▁CUBE	-15787
▁cpnv	-15788
▁read	-15789
▁고군분투	-15790
▁괴로워하	-15791
▁기다려온	-15792
▁기회균등	-15793
▁끌어들이	-15794
▁노심초사	-15795
▁논란거리	-15796
▁다녀와서	-15797
▁다짜고짜	-15798
▁들어와도	-15799
▁들여보내	-15800
▁떨어진다	-15801
▁떨어트리	-15802
▁라더군요	-15803
▁마음고생	-15804
▁마이크로	-15805
▁만장일치	-15806
▁무서운지	-15807
▁바뀐다면	-15808
▁부랴부랴	-15809
▁불공정성	-15810
▁슬그머니	-15811
▁시내버스	-15812
▁애국지사	-15813
▁어려워하	-15814
▁옐로카드	-15815
▁이라던가	-15816
▁잃어버렸	-15817
▁저널리즘	-15818
▁조롱거리	-15819
▁좋아해서	-15820
▁준다거나	-15821
▁준다는데	-15822
▁지킨다는	-15823
▁짊어져야	-15824
▁집어던지	-15825
▁천인공노	-15826
▁테니스장	-15827
▁트레이드	-15828
▁포퓰리즘	-15829
▁한다느니	-15830
▁형제자매	-15831
▁naver	-15832
▁늘어납니다	-15833
▁들어간다는	-15834
▁불러일으킬	-15835
▁아르헨티나	-15836
▁어떠신지요	-15837
▁주먹구구식	-15838
▁주어집니다	-15839
▁한화이글스	-15840
▁상해임시정부	-15841
▁증거재판주의	-15842
00000000	-15843
▁국가인권위원회	-15844
▁61121111	-15845
64	-15846
93	-15847
MS	-15848
NN	-15849
Re	-15850
TI	-15851
lb	-15852
nd	-15853
▁ᄁ	-15854
▁굵	-15855
▁깽	-15856
▁껌	-15857
▁넨	-15858
▁늬	-15859
▁닳	-15860
▁뒹	-15861
▁딫	-15862
▁렴	-15863
▁룡	-15864
▁릅	-15865
▁맵	-15866
▁뽐	-15867
▁섯	-15868
▁숏	-15869
▁쑥	-15870
▁찡	-15871
▁쿵	-15872
▁풉	-15873
▁햄	-15874
갔다	-15875
강간	-15876
거든	-15877
고소	-15878
꽁초	-15879
끼리	-15880
나갔	-15881
들갑	-15882
딤돌	-15883
량진	-15884
러져	-15885
렌징	-15886
로윈	-15887
루션	-15888
매김	-15889
무치	-15890
바꿈	-15891
받이	-15892
배상	-15893
버릴	-15894
버섯	-15895
벌레	-15896
보냈	-15897
부른	-15898
블스	-15899
비싼	-15900
빠지	-15901
새끼	-15902
서도	-15903
선언	-15904
성장	-15905
스팅	-15906
신창	-15907
안일	-15908
어서	-15909
웨어	-15910
이용	-15911
일러	-15912
장판	-15913
저곳	-15914
정리	-15915
증명	-15916
직입	-15917
축제	-15918
카스	-15919
튀기	-15920
학력	-15921
합차	-15922
213	-15923
SBS	-15924
TML	-15925
and	-15926
ind	-15927
ith	-15928
one	-15929
▁74	-15930
▁81	-15931
▁83	-15932
▁87	-15933
▁Ch	-15934
▁HD	-15935
▁NH	-15936
▁No	-15937
▁Un	-15938
▁bm	-15939
▁fc	-15940
▁fm	-15941
▁it	-15942
▁no	-15943
▁가학	-15944
▁각별	-15945
▁갈고	-15946
▁갈구	-15947
▁값싼	-15948
▁강령	-15949
▁거늘	-15950
▁거뒀	-15951
▁거머	-15952
▁겨레	-15953
▁결말	-15954
▁결손	-15955
▁겸하	-15956
▁고배	-15957
▁고척	-15958
▁공명	-15959
▁공해	-15960
▁관현	-15961
▁교란	-15962
▁교향	-15963
▁구내	-15964
▁구여	-15965
▁국자	-15966
▁군수	-15967
▁군의	-15968
▁그른	-15969
▁그자	-15970
▁그해	-15971
▁극렬	-15972
▁근력	-15973
▁근성	-15974
▁근접	-15975
▁금새	-15976
▁급수	-15977
▁급자	-15978
▁기망	-15979
▁기수	-15980
▁기식	-15981
▁기왕	-15982
▁기죽	-15983
▁기침	-15984
▁김수	-15985
▁김우	-15986
▁김창	-15987
▁까놓	-15988
▁꺼라	-15989
▁꼽히	-15990
▁꾀하	-15991
▁끊긴	-15992
▁끝낼	-15993
▁남대	-15994
▁났었	-15995
▁낯설	-15996
▁내심	-15997
▁내편	-15998
▁냉방	-15999
▁너스	-16000
▁노령	-16001
▁놓쳐	-16002
▁놔야	-16003
▁눈길	-16004
▁느닷	-16005
▁느슨	-16006
▁늘렸	-16007
▁니들	-16008
▁닐로	-16009
▁다독	-16010
▁다발	-16011
▁다져	-16012
▁다중	-16013
▁닥친	-16014
▁단골	-16015
▁단발	-16016
▁단수	-16017
▁담장	-16018
▁답계	-16019
▁답사	-16020
▁당락	-16021
▁대나	-16022
▁대본	-16023
▁대생	-16024
▁더디	-16025
▁덩치	-16026
▁도급	-16027
▁도끼	-16028
▁도운	-16029
▁도의	-16030
▁도저	-16031
▁독약	-16032
▁돌변	-16033
▁동지	-16034
▁되팔	-16035
▁두르	-16036
▁둔다	-16037
▁들썩	-16038
▁딸리	-16039
▁떠받	-16040
▁떼쓰	-16041
▁라틴	-16042
▁리틀	-16043
▁마술	-16044
▁마칠	-16045
▁막지	-16046
▁망명	-16047
▁매표	-16048
▁멘토	-16049
▁면피	-16050
▁면학	-16051
▁명곡	-16052
▁명동	-16053
▁명상	-16054
▁명색	-16055
▁목동	-16056
▁못살	-16057
▁무거	-16058
▁무릇	-16059
▁무턱	-16060
▁문맥	-16061
▁묻힌	-16062
▁뭉치	-16063
▁미얀	-16064
▁미온	-16065
▁미워	-16066
▁미팅	-16067
▁민병	-16068
▁발간	-16069
▁발동	-16070
▁발명	-16071
▁발병	-16072
▁발주	-16073
▁방망	-16074
▁방방	-16075
▁벌일	-16076
▁벚꽃	-16077
▁변사	-16078
▁변신	-16079
▁변할	-16080
▁보냄	-16081
▁보컬	-16082
▁복제	-16083
▁본교	-16084
▁본데	-16085
▁봤었	-16086
▁부시	-16087
▁부안	-16088
▁부원	-16089
▁분간	-16090
▁분만	-16091
▁분식	-16092
▁불모	-16093
▁불사	-16094
▁블록	-16095
▁비약	-16096
▁비오	-16097
▁비우	-16098
▁비운	-16099
▁빈약	-16100
▁빗발	-16101
▁뽀뽀	-16102
▁사체	-16103
▁산소	-16104
▁새삼	-16105
▁서운	-16106
▁석면	-16107
▁선뜻	-16108
▁선점	-16109
▁설레	-16110
▁설장	-16111
▁성모	-16112
▁성불	-16113
▁성품	-16114
▁세관	-16115
▁섹시	-16116
▁속인	-16117
▁송도	-16118
▁수중	-16119
▁수처	-16120
▁스리	-16121
▁스면	-16122
▁스쳐	-16123
▁승강	-16124
▁승낙	-16125
▁승려	-16126
▁승마	-16127
▁실외	-16128
▁심기	-16129
▁써라	-16130
▁쓰래	-16131
▁쓰임	-16132
▁아원	-16133
▁아키	-16134
▁아홉	-16135
▁안도	-16136
▁야욕	-16137
▁약국	-16138
▁약했	-16139
▁얄팍	-16140
▁양대	-16141
▁양말	-16142
▁양치	-16143
▁양현	-16144
▁어눌	-16145
▁어여	-16146
▁어판	-16147
▁얼음	-16148
▁없다	-16149
▁엔진	-16150
▁여든	-16151
▁여제	-16152
▁역풍	-16153
▁오며	-16154
▁온당	-16155
▁완치	-16156
▁왕래	-16157
▁우루	-16158
▁우매	-16159
▁원조	-16160
▁원청	-16161
▁원폭	-16162
▁월간	-16163
▁유격	-16164
▁유방	-16165
▁은어	-16166
▁은연	-16167
▁응분	-16168
▁이병	-16169
▁이퀄	-16170
▁인걸	-16171
▁인자	-16172
▁인회	-16173
▁일궈	-16174
▁일류	-16175
▁임할	-16176
▁입문	-16177
▁자모	-16178
▁자야	-16179
▁잔업	-16180
▁장녀	-16181
▁장발	-16182
▁장성	-16183
▁장창	-16184
▁장흥	-16185
▁재탕	-16186
▁저럴	-16187
▁저서	-16188
▁적립	-16189
▁전인	-16190
▁절호	-16191
▁접신	-16192
▁정우	-16193
▁정인	-16194
▁제쳐	-16195
▁조강	-16196
▁존치	-16197
▁죄악	-16198
▁주야	-16199
▁주임	-16200
▁중부	-16201
▁지쳤	-16202
▁직관	-16203
▁짝퉁	-16204
▁쪽팔	-16205
▁찌든	-16206
▁찍힐	-16207
▁책자	-16208
▁처녀	-16209
▁천정	-16210
▁철수	-16211
▁청법	-16212
▁청시	-16213
▁체온	-16214
▁체질	-16215
▁초라	-16216
▁총학	-16217
▁최영	-16218
▁추돌	-16219
▁축배	-16220
▁출금	-16221
▁치렀	-16222
▁치장	-16223
▁치켜	-16224
▁친근	-16225
▁친지	-16226
▁칠레	-16227
▁캄보	-16228
▁코자	-16229
▁탁월	-16230
▁토해	-16231
▁통감	-16232
▁통관	-16233
▁트릴	-16234
▁특색	-16235
▁특전	-16236
▁틀어	-16237
▁파생	-16238
▁패인	-16239
▁편취	-16240
▁포럼	-16241
▁포천	-16242
▁폭설	-16243
▁폭주	-16244
▁표석	-16245
▁품목	-16246
▁풍경	-16247
▁피쉬	-16248
▁피싱	-16249
▁하한	-16250
▁학구	-16251
▁한눈	-16252
▁한술	-16253
▁한인	-16254
▁할매	-16255
▁항간	-16256
▁해봐	-16257
▁해피	-16258
▁행군	-16259
▁허정	-16260
▁험하	-16261
▁헤드	-16262
▁현준	-16263
▁혐호	-16264
▁협정	-16265
▁호응	-16266
▁호통	-16267
▁화물	-16268
▁화법	-16269
▁환승	-16270
▁황사	-16271
▁황폐	-16272
▁회항	-16273
▁횡행	-16274
▁효용	-16275
▁흥청	-16276
▁히든	-16277
▁히히	-16278
거래위	-16279
나이티	-16280
냅시다	-16281
레이션	-16282
사건건	-16283
시대회	-16284
일리지	-16285
입니까	-16286
choo	-16287
ight	-16288
▁025	-16289
▁158	-16290
▁510	-16291
▁CBS	-16292
▁bts	-16293
▁com	-16294
▁uhd	-16295
▁가라앉	-16296
▁가르쳤	-16297
▁가처분	-16298
▁가출소	-16299
▁갈아타	-16300
▁감수성	-16301
▁값비싼	-16302
▁건설사	-16303
▁검색창	-16304
▁계산법	-16305
▁고스톱	-16306
▁고용인	-16307
▁골목길	-16308
▁곰곰히	-16309
▁관악구	-16310
▁관중석	-16311
▁관찰자	-16312
▁괴로웠	-16313
▁교육장	-16314
▁국경일	-16315
▁그랜드	-16316
▁그럴듯	-16317
▁그만한	-16318
▁기록물	-16319
▁기상청	-16320
▁기술력	-16321
▁기술직	-16322
▁긴장감	-16323
▁김기식	-16324
▁김성호	-16325
▁김여사	-16326
▁김여정	-16327
▁김준호	-16328
▁난장판	-16329
▁내보냈	-16330
▁내세운	-16331
▁낸다면	-16332
▁너그럽	-16333
▁넘어져	-16334
▁노년층	-16335
▁노량진	-16336
▁높여서	-16337
▁다가갈	-16338
▁다가와	-16339
▁다더니	-16340
▁다뤄야	-16341
▁다분히	-16342
▁다쳐도	-16343
▁달려들	-16344
▁당할까	-16345
▁당할지	-16346
▁대명사	-16347
▁덧붙였	-16348
▁데블스	-16349
▁도가니	-16350
▁도박성	-16351
▁돌아서	-16352
▁둔다는	-16353
▁뒤바뀌	-16354
▁디딤돌	-16355
▁땀방울	-16356
▁떠나가	-16357
▁떠밀려	-16358
▁레이스	-16359
▁만신창	-16360
▁망나니	-16361
▁맞고소	-16362
▁매달려	-16363
▁먹여살	-16364
▁모셔오	-16365
▁목적지	-16366
▁무리수	-16367
▁무사증	-16368
▁무제한	-16369
▁무주택	-16370
▁무효화	-16371
▁물어본	-16372
▁밑바닥	-16373
▁바라본	-16374
▁바빠서	-16375
▁반역자	-16376
▁방망이	-16377
▁배워도	-16378
▁번호판	-16379
▁법무사	-16380
▁벗어났	-16381
▁보여도	-16382
▁보일러	-16383
▁보행자	-16384
▁봐야지	-16385
▁부녀자	-16386
▁부산진	-16387
▁부상자	-16388
▁부정과	-16389
▁부정수	-16390
▁분열증	-16391
▁분풀이	-16392
▁불러올	-16393
▁불명확	-16394
▁불법성	-16395
▁빠져들	-16396
▁뻥튀기	-16397
▁사무국	-16398
▁사문서	-16399
▁사용법	-16400
▁사정관	-16401
▁산업재	-16402
▁살균제	-16403
▁살아날	-16404
▁상반기	-16405
▁상습범	-16406
▁생긴다	-16407
▁서민층	-16408
▁서울역	-16409
▁선지급	-16410
▁성남시	-16411
▁성탄절	-16412
▁소방대	-16413
▁소방차	-16414
▁소속감	-16415
▁솔루션	-16416
▁수험장	-16417
▁순순히	-16418
▁숨죽이	-16419
▁쉽니다	-16420
▁스커트	-16421
▁스탠드	-16422
▁스티브	-16423
▁승합차	-16424
▁시급제	-16425
▁시달렸	-16426
▁식중독	-16427
▁신문지	-16428
▁신청인	-16429
▁쏟아졌	-16430
▁쓰러질	-16431
▁아우디	-16432
▁아토피	-16433
▁아파요	-16434
▁안전망	-16435
▁안철수	-16436
▁애청자	-16437
▁야스오	-16438
▁어떤가	-16439
▁어려도	-16440
▁여의도	-16441
▁여행지	-16442
▁역이용	-16443
▁연극인	-16444
▁연속극	-16445
▁오스트	-16446
▁외로움	-16447
▁외톨이	-16448
▁워크숍	-16449
▁유부남	-16450
▁유지비	-16451
▁이겨낼	-16452
▁이영자	-16453
▁이영주	-16454
▁이용해	-16455
▁이현주	-16456
▁일반직	-16457
▁임창용	-16458
▁잔소리	-16459
▁잘라야	-16460
▁잡아내	-16461
▁전근대	-16462
▁전해졌	-16463
▁조합장	-16464
▁종주국	-16465
▁주어질	-16466
▁죽여야	-16467
▁준강간	-16468
▁줄인다	-16469
▁중앙선	-16470
▁진학률	-16471
▁진행할	-16472
▁쫓아내	-16473
▁차분히	-16474
▁참정권	-16475
▁찾아갈	-16476
▁체당금	-16477
▁최고형	-16478
▁추천서	-16479
▁치료제	-16480
▁클렌징	-16481
▁통행료	-16482
▁투기꾼	-16483
▁퍼뜨려	-16484
▁편한지	-16485
▁포항시	-16486
▁프레스	-16487
▁한양대	-16488
▁할로윈	-16489
▁해설자	-16490
▁해지지	-16491
▁호들갑	-16492
▁홍상수	-16493
▁후보자	-16494
▁흘려야	-16495
체육진흥	-16496
ender	-16497
ystem	-16498
▁1300	-16499
▁1945	-16500
▁1996	-16501
▁1998	-16502
▁5050	-16503
▁6070	-16504
▁DAUM	-16505
▁HTML	-16506
▁가정교육	-16507
▁경상남도	-16508
▁경시대회	-16509
▁교원노조	-16510
▁교향악단	-16511
▁국민은행	-16512
▁내용증명	-16513
▁다를까요	-16514
▁단도직입	-16515
▁담배꽁초	-16516
▁대리운전	-16517
▁덧붙여서	-16518
▁뜬금없이	-16519
▁마일리지	-16520
▁모른다면	-16521
▁못할망정	-16522
▁무법천지	-16523
▁무사안일	-16524
▁보낸다는	-16525
▁보호관찰	-16526
▁빨리빨리	-16527
▁사사건건	-16528
▁산산조각	-16529
▁생길까봐	-16530
▁손해배상	-16531
▁시어머니	-16532
▁어려운게	-16533
▁어버이날	-16534
▁였으므로	-16535
▁올린다는	-16536
▁왔다갔다	-16537
▁요구사항	-16538
▁유나이티	-16539
▁으신다면	-16540
▁윽박지르	-16541
▁이곳저곳	-16542
▁자리매김	-16543
▁적화통일	-16544
▁전지훈련	-16545
▁찾아와서	-16546
▁캄보디아	-16547
▁파렴치범	-16548
▁한탄스럽	-16549
▁후안무치	-16550
▁11218	-16551
▁KBSTV	-16552
▁OLIVE	-16553
▁metoo	-16554
▁가르친다는	-16555
▁가르칩니다	-16556
▁공정거래위	-16557
▁들어옵니다	-16558
▁라디오스타	-16559
▁마이크로닷	-16560
▁명명백백히	-16561
▁보여준다면	-16562
▁아이스크림	-16563
▁하이라이트	-16564
general	-16565
▁system	-16566
▁국민체육진흥	-16567
▁무서워서라도	-16568
▁1232213	-16569
▁artisociety	-16570
62	-16571
69	-16572
73	-16573
95	-16574
GH	-16575
IA	-16576
ID	-16577
RA	-16578
TE	-16579
if	-16580
mp	-16581
na	-16582
ra	-16583
tn	-16584
uc	-16585
▁갰	-16586
▁갸	-16587
▁겻	-16588
▁긱	-16589
▁끙	-16590
▁댐	-16591
▁띵	-16592
▁믄	-16593
▁봇	-16594
▁뺴	-16595
▁샐	-16596
▁셰	-16597
▁숀	-16598
▁쉐	-16599
▁싣	-16600
▁싯	-16601
▁쌩	-16602
▁쐬	-16603
▁잎	-16604
▁쥬	-16605
▁퀘	-16606
▁훼	-16607
걸레	-16608
겨울	-16609
결승	-16610
고요	-16611
곡절	-16612
구치	-16613
나나	-16614
노이	-16615
대고	-16616
댓말	-16617
데기	-16618
동강	-16619
디스	-16620
리어	-16621
림동	-16622
마킹	-16623
만파	-16624
만한	-16625
미널	-16626
미애	-16627
미화	-16628
백과	-16629
번스	-16630
본부	-16631
부영	-16632
분간	-16633
사상	-16634
삼촌	-16635
생민	-16636
세스	-16637
숭이	-16638
실현	-16639
야제	-16640
여비	-16641
연수	-16642
연재	-16643
외과	-16644
원수	-16645
유업	-16646
이즈	-16647
익부	-16648
익빈	-16649
인명	-16650
자루	-16651
잔디	-16652
장고	-16653
지심	-16654
지종	-16655
진창	-16656
질방	-16657
채무	-16658
치병	-16659
코바	-16660
코지	-16661
테크	-16662
특정	-16663
평생	-16664
하러	-16665
회전	-16666
후년	-16667
225	-16668
800	-16669
ery	-16670
ism	-16671
ong	-16672
▁BI	-16673
▁BM	-16674
▁JK	-16675
▁PS	-16676
▁he	-16677
▁oo	-16678
▁se	-16679
▁sh	-16680
▁ᄋ양	-16681
▁가십	-16682
▁가책	-16683
▁간당	-16684
▁갑옷	-16685
▁강은	-16686
▁강인	-16687
▁개망	-16688
▁객체	-16689
▁거금	-16690
▁걸포	-16691
▁결격	-16692
▁결속	-16693
▁겸임	-16694
▁경산	-16695
▁경연	-16696
▁경적	-16697
▁경정	-16698
▁계몽	-16699
▁고름	-16700
▁고압	-16701
▁고추	-16702
▁곧이	-16703
▁공경	-16704
▁관두	-16705
▁괴담	-16706
▁괴뢰	-16707
▁구인	-16708
▁구정	-16709
▁국빈	-16710
▁군장	-16711
▁궁리	-16712
▁그친	-16713
▁그칠	-16714
▁글귀	-16715
▁금정	-16716
▁기막	-16717
▁기우	-16718
▁기치	-16719
▁길시	-16720
▁김밥	-16721
▁김아	-16722
▁김흥	-16723
▁깔보	-16724
▁꿈꿔	-16725
▁끙끙	-16726
▁나다	-16727
▁나리	-16728
▁나야	-16729
▁나옵	-16730
▁나태	-16731
▁난립	-16732
▁날인	-16733
▁남남	-16734
▁남존	-16735
▁남침	-16736
▁내장	-16737
▁낸다	-16738
▁냉철	-16739
▁노모	-16740
▁논평	-16741
▁놔둘	-16742
▁누설	-16743
▁눌렀	-16744
▁늘이	-16745
▁달아	-16746
▁당정	-16747
▁대륙	-16748
▁대못	-16749
▁더듬	-16750
▁더치	-16751
▁돌만	-16752
▁동선	-16753
▁동전	-16754
▁되파	-16755
▁된장	-16756
▁뒤덮	-16757
▁뒤섞	-16758
▁뒷배	-16759
▁드시	-16760
▁들추	-16761
▁들통	-16762
▁디피	-16763
▁따내	-16764
▁딸린	-16765
▁라온	-16766
▁련관	-16767
▁련지	-16768
▁로선	-16769
▁로션	-16770
▁리트	-16771
▁막판	-16772
▁만진	-16773
▁매해	-16774
▁맥시	-16775
▁메가	-16776
▁메르	-16777
▁면모	-16778
▁면직	-16779
▁모종	-16780
▁목마	-16781
▁몽땅	-16782
▁무릅	-16783
▁무해	-16784
▁묻힐	-16785
▁뭉클	-16786
▁미드	-16787
▁미션	-16788
▁미운	-16789
▁미인	-16790
▁밀실	-16791
▁밀착	-16792
▁바주	-16793
▁바짝	-16794
▁박경	-16795
▁반쪽	-16796
▁발기	-16797
▁발발	-16798
▁밤샘	-16799
▁밥줄	-16800
▁방북	-16801
▁방시	-16802
▁배열	-16803
▁백계	-16804
▁백업	-16805
▁백일	-16806
▁벡터	-16807
▁변변	-16808
▁보신	-16809
▁본전	-16810
▁볼펜	-16811
▁봉담	-16812
▁봉화	-16813
▁부릴	-16814
▁분분	-16815
▁분수	-16816
▁불찰	-16817
▁붙히	-16818
▁블리	-16819
▁비굴	-16820
▁비젼	-16821
▁빵빵	-16822
▁뽑혀	-16823
▁사본	-16824
▁산적	-16825
▁상표	-16826
▁생년	-16827
▁생신	-16828
▁서신	-16829
▁서체	-16830
▁서툴	-16831
▁선원	-16832
▁설렁	-16833
▁성대	-16834
▁성토	-16835
▁성함	-16836
▁소릴	-16837
▁속임	-16838
▁속초	-16839
▁손질	-16840
▁솔로	-16841
▁솔빛	-16842
▁쇄신	-16843
▁쇼크	-16844
▁수간	-16845
▁수근	-16846
▁수다	-16847
▁수락	-16848
▁수식	-16849
▁순방	-16850
▁술수	-16851
▁스며	-16852
▁스텔	-16853
▁스페	-16854
▁슬펐	-16855
▁슬플	-16856
▁승하	-16857
▁시그	-16858
▁시끌	-16859
▁시요	-16860
▁시전	-16861
▁식량	-16862
▁식물	-16863
▁신곡	-16864
▁신재	-16865
▁신진	-16866
▁실버	-16867
▁실속	-16868
▁실점	-16869
▁실존	-16870
▁실화	-16871
▁심문	-16872
▁심폐	-16873
▁싱어	-16874
▁써내	-16875
▁아뇨	-16876
▁악해	-16877
▁안면	-16878
▁알기	-16879
▁애라	-16880
▁야마	-16881
▁얘긴	-16882
▁어길	-16883
▁어묵	-16884
▁어휴	-16885
▁언스	-16886
▁업장	-16887
▁에휴	-16888
▁여객	-16889
▁여상	-16890
▁여신	-16891
▁역자	-16892
▁연막	-16893
▁염치	-16894
▁예보	-16895
▁예언	-16896
▁예컨	-16897
▁옛말	-16898
▁오용	-16899
▁오인	-16900
▁오판	-16901
▁외비	-16902
▁외설	-16903
▁우여	-16904
▁워터	-16905
▁원점	-16906
▁위시	-16907
▁음서	-16908
▁의리	-16909
▁의병	-16910
▁의외	-16911
▁이달	-16912
▁이뤘	-16913
▁이완	-16914
▁이요	-16915
▁이율	-16916
▁이콜	-16917
▁인큐	-16918
▁일국	-16919
▁일동	-16920
▁일면	-16921
▁임한	-16922
▁임했	-16923
▁입수	-16924
▁입실	-16925
▁자력	-16926
▁자판	-16927
▁작당	-16928
▁잘리	-16929
▁장황	-16930
▁재물	-16931
▁저감	-16932
▁적인	-16933
▁전관	-16934
▁전일	-16935
▁전진	-16936
▁절로	-16937
▁점거	-16938
▁정독	-16939
▁정모	-16940
▁정전	-16941
▁정파	-16942
▁정학	-16943
▁제방	-16944
▁제산	-16945
▁제적	-16946
▁제치	-16947
▁조달	-16948
▁조르	-16949
▁조코	-16950
▁존칭	-16951
▁종속	-16952
▁주물	-16953
▁주파	-16954
▁중공	-16955
▁중세	-16956
▁중죄	-16957
▁즐겼	-16958
▁지부	-16959
▁지새	-16960
▁지운	-16961
▁지킵	-16962
▁지푸	-16963
▁직군	-16964
▁쪽지	-16965
▁찌질	-16966
▁차린	-16967
▁차시	-16968
▁차차	-16969
▁찬스	-16970
▁창립	-16971
▁채취	-16972
▁챙겼	-16973
▁처남	-16974
▁쳐넣	-16975
▁총살	-16976
▁추궁	-16977
▁축전	-16978
▁춘추	-16979
▁출혈	-16980
▁치룰	-16981
▁친생	-16982
▁침체	-16983
▁칼럼	-16984
▁콘크	-16985
▁쾌거	-16986
▁킬로	-16987
▁타개	-16988
▁타율	-16989
▁탈법	-16990
▁탈탈	-16991
▁탐사	-16992
▁탱크	-16993
▁톡톡	-16994
▁통칭	-16995
▁투숙	-16996
▁투스	-16997
▁특진	-16998
▁특출	-16999
▁티슈	-17000
▁판다	-17001
▁포화	-17002
▁푸른	-17003
▁풍기	-17004
▁풍습	-17005
▁프랜	-17006
▁프레	-17007
▁플랜	-17008
▁피멍	-17009
▁필력	-17010
▁하구	-17011
▁하급	-17012
▁하리	-17013
▁하사	-17014
▁학도	-17015
▁한방	-17016
▁한유	-17017
▁함도	-17018
▁함량	-17019
▁함성	-17020
▁합계	-17021
▁합심	-17022
▁해수	-17023
▁해시	-17024
▁해전	-17025
▁해칠	-17026
▁행운	-17027
▁허허	-17028
▁헬기	-17029
▁혈통	-17030
▁호신	-17031
▁홍군	-17032
▁화난	-17033
▁화산	-17034
▁회차	-17035
▁후스	-17036
▁휘슬	-17037
▁흐른	-17038
▁흑백	-17039
▁흑자	-17040
▁흰색	-17041
간다면	-17042
교도소	-17043
다는데	-17044
레이트	-17045
키스탄	-17046
테이션	-17047
퍼스타	-17048
페이스	-17049
플러스	-17050
ited	-17051
orld	-17052
▁014	-17053
▁105	-17054
▁108	-17055
▁113	-17056
▁117	-17057
▁178	-17058
▁AKR	-17059
▁THE	-17060
▁bcg	-17061
▁bmx	-17062
▁mbn	-17063
▁가르켜	-17064
▁가여운	-17065
▁가져도	-17066
▁가져서	-17067
▁갈까봐	-17068
▁강정호	-17069
▁건드렸	-17070
▁게스트	-17071
▁겨울철	-17072
▁견뎌야	-17073
▁결단코	-17074
▁결혼식	-17075
▁고마워	-17076
▁과체중	-17077
▁관리사	-17078
▁관악산	-17079
▁광명시	-17080
▁구급차	-17081
▁군의관	-17082
▁그리워	-17083
▁글쓰기	-17084
▁글재주	-17085
▁기업가	-17086
▁김기창	-17087
▁김부선	-17088
▁김생민	-17089
▁김성룡	-17090
▁까내리	-17091
▁꿋꿋이	-17092
▁끊어진	-17093
▁나아졌	-17094
▁낙동강	-17095
▁남아공	-17096
▁남양주	-17097
▁납니까	-17098
▁내보이	-17099
▁내정자	-17100
▁내후년	-17101
▁냉난방	-17102
▁노인정	-17103
▁놨는데	-17104
▁누진제	-17105
▁늘어남	-17106
▁달라붙	-17107
▁달려드	-17108
▁당분간	-17109
▁대구시	-17110
▁대행사	-17111
▁더니만	-17112
▁더운데	-17113
▁더하기	-17114
▁돌려놓	-17115
▁두꺼운	-17116
▁두드리	-17117
▁둘째치	-17118
▁뒤로하	-17119
▁뒤로한	-17120
▁드러낸	-17121
▁든다면	-17122
▁들여가	-17123
▁들이밀	-17124
▁듦니다	-17125
▁등록비	-17126
▁라인업	-17127
▁레이싱	-17128
▁려는지	-17129
▁렵니다	-17130
▁마침내	-17131
▁막노동	-17132
▁말레이	-17133
▁머무르	-17134
▁멍청이	-17135
▁명문화	-17136
▁몰려들	-17137
▁무심코	-17138
▁물러서	-17139
▁뭣하러	-17140
▁므로서	-17141
▁미국인	-17142
▁미술관	-17143
▁밀려서	-17144
▁밑바탕	-17145
▁바닷가	-17146
▁바이럴	-17147
▁바코드	-17148
▁박종훈	-17149
▁박지원	-17150
▁발자취	-17151
▁배울까	-17152
▁버텨왔	-17153
▁법질서	-17154
▁변함없	-17155
▁보조인	-17156
▁보호사	-17157
▁부익부	-17158
▁분해서	-17159
▁불모지	-17160
▁불특정	-17161
▁빈곤층	-17162
▁빈익빈	-17163
▁빼앗겼	-17164
▁사고파	-17165
▁사세요	-17166
▁생식기	-17167
▁생활관	-17168
▁서포터	-17169
▁선거철	-17170
▁선교사	-17171
▁섣부른	-17172
▁설레임	-17173
▁섭니다	-17174
▁성취감	-17175
▁세계관	-17176
▁세계사	-17177
▁세탁기	-17178
▁소나무	-17179
▁소모적	-17180
▁소모품	-17181
▁소트니	-17182
▁속상해	-17183
▁손연재	-17184
▁수시도	-17185
▁스타쉽	-17186
▁시너지	-17187
▁시위대	-17188
▁시작점	-17189
▁식자재	-17190
▁신중절	-17191
▁실랑이	-17192
▁아쉬웠	-17193
▁안다면	-17194
▁알아들	-17195
▁알파인	-17196
▁양현석	-17197
▁어학원	-17198
▁언젠간	-17199
▁얼룩져	-17200
▁에스컬	-17201
▁에티켓	-17202
▁영업소	-17203
▁예고편	-17204
▁예정일	-17205
▁왔으며	-17206
▁외교부	-17207
▁운동회	-17208
▁월급제	-17209
▁유관순	-17210
▁은연중	-17211
▁을려는	-17212
▁이기홍	-17213
▁이래라	-17214
▁이마트	-17215
▁이모님	-17216
▁이미란	-17217
▁이사건	-17218
▁이태원	-17219
▁이해도	-17220
▁이해력	-17221
▁이효성	-17222
▁일어남	-17223
▁임채무	-17224
▁입주자	-17225
▁자살자	-17226
▁자퇴서	-17227
▁잔다고	-17228
▁장차관	-17229
▁재산세	-17230
▁전단지	-17231
▁전야제	-17232
▁정당히	-17233
▁정재원	-17234
▁정정보	-17235
▁제게는	-17236
▁조원태	-17237
▁존댓말	-17238
▁종량제	-17239
▁중간기	-17240
▁중개사	-17241
▁쥐어짜	-17242
▁진입로	-17243
▁진천군	-17244
▁질까봐	-17245
▁짜여진	-17246
▁쫒겨나	-17247
▁쫓아가	-17248
▁찍혀서	-17249
▁찜질방	-17250
▁차선책	-17251
▁채점표	-17252
▁추미애	-17253
▁출연자	-17254
▁출전권	-17255
▁클라이	-17256
▁타이밍	-17257
▁탈바꿈	-17258
▁터미널	-17259
▁트레스	-17260
▁펼쳐야	-17261
▁펼쳐지	-17262
▁풀타임	-17263
▁프로토	-17264
▁피해야	-17265
▁하노이	-17266
▁하도급	-17267
▁하반신	-17268
▁하수인	-17269
▁하여튼	-17270
▁한달전	-17271
▁한데도	-17272
▁한테서	-17273
▁해코지	-17274
▁현시대	-17275
▁협동심	-17276
▁홍보물	-17277
▁후반전	-17278
▁훈련생	-17279
▁휩싸여	-17280
▁휩쓸려	-17281
▁흘려온	-17282
▁힘겨워	-17283
인명사전	-17284
▁0011	-17285
▁1991	-17286
▁3050	-17287
▁가차없이	-17288
▁갑작스레	-17289
▁거립니다	-17290
▁구석구석	-17291
▁까다로운	-17292
▁끌어내리	-17293
▁끝난다고	-17294
▁나간다면	-17295
▁나갔으면	-17296
▁나올까요	-17297
▁나옵니까	-17298
▁남양유업	-17299
▁남존여비	-17300
▁느닷없이	-17301
▁는다거나	-17302
▁당했으며	-17303
▁돌아다닌	-17304
▁동떨어져	-17305
▁되돌아보	-17306
▁된다구요	-17307
▁떨어뜨려	-17308
▁마스터즈	-17309
▁만신창이	-17310
▁무턱대고	-17311
▁문화방송	-17312
▁미꾸라지	-17313
▁바란다고	-17314
▁배운다고	-17315
▁버렸으면	-17316
▁벤치마킹	-17317
▁분합니다	-17318
▁비즈니스	-17319
▁빅토르안	-17320
▁살림살이	-17321
▁속상해서	-17322
▁시킬려고	-17323
▁어긋난다	-17324
▁어영부영	-17325
▁엉망진창	-17326
▁와이번스	-17327
▁우여곡절	-17328
▁이래서야	-17329
▁인공수정	-17330
▁인사이트	-17331
▁인조잔디	-17332
▁일파만파	-17333
▁자초지종	-17334
▁지푸라기	-17335
▁찾아다니	-17336
▁초등학교	-17337
▁콘크리트	-17338
▁콤플렉스	-17339
▁트레이닝	-17340
▁퍼레이드	-17341
▁플레디스	-17342
▁한다든지	-17343
▁할지언정	-17344
▁25000	-17345
▁schoo	-17346
▁spotv	-17347
▁갑작스러운	-17348
▁국가인권위	-17349
▁그래서인지	-17350
▁나타납니다	-17351
▁물어봅니다	-17352
▁벌어집니다	-17353
▁사라진다면	-17354
▁소트니코바	-17355
▁올림픽경기	-17356
▁인큐베이터	-17357
▁프로그래밍	-17358
▁201710	-17359
▁201803	-17360
▁금메달리스트	-17361
▁스마트미디어	-17362
▁에스컬레이터	-17363
▁친일인명사전	-17364
54	-17365
84	-17366
CN	-17367
EN	-17368
IC	-17369
No	-17370
UC	-17371
iv	-17372
od	-17373
pg	-17374
▁겅	-17375
▁깬	-17376
▁꼐	-17377
▁꽈	-17378
▁댕	-17379
▁돗	-17380
▁됏	-17381
▁뗀	-17382
▁럴	-17383
▁렉	-17384
▁릿	-17385
▁먄	-17386
▁몃	-17387
▁뭅	-17388
▁뿔	-17389
▁앖	-17390
▁옭	-17391
▁윌	-17392
▁잼	-17393
▁좇	-17394
▁짭	-17395
▁쩌	-17396
▁첼	-17397
▁쳣	-17398
▁콕	-17399
▁탤	-17400
▁탬	-17401
▁팁	-17402
▁팻	-17403
▁펀	-17404
▁퐁	-17405
가방	-17406
가스	-17407
간히	-17408
거렸	-17409
계리	-17410
관위	-17411
기구	-17412
나갈	-17413
나물	-17414
낙락	-17415
덕선	-17416
디다	-17417
러블	-17418
러서	-17419
리드	-17420
마개	-17421
말라	-17422
망상	-17423
망청	-17424
맹랑	-17425
명수	-17426
몰래	-17427
무공	-17428
문가	-17429
바퀴	-17430
배기	-17431
버리	-17432
보호	-17433
부지	-17434
불명	-17435
비언	-17436
뿌리	-17437
사태	-17438
선열	-17439
설렁	-17440
수영	-17441
앙스	-17442
엄마	-17443
업체	-17444
은색	-17445
이스	-17446
인다	-17447
잔치	-17448
장면	-17449
제국	-17450
제이	-17451
주지	-17452
체포	-17453
컬링	-17454
코올	-17455
퀘어	-17456
턴트	-17457
통제	-17458
특권	-17459
폭탄	-17460
폭풍	-17461
해전	-17462
현동	-17463
212	-17464
278	-17465
440	-17466
605	-17467
FAF	-17468
KAO	-17469
ONE	-17470
Too	-17471
ace	-17472
ake	-17473
ata	-17474
ive	-17475
ook	-17476
tin	-17477
▁AC	-17478
▁DM	-17479
▁DV	-17480
▁EX	-17481
▁KP	-17482
▁ME	-17483
▁PT	-17484
▁ab	-17485
▁am	-17486
▁cf	-17487
▁db	-17488
▁ed	-17489
▁te	-17490
▁ᅲᅮ	-17491
▁가래	-17492
▁가망	-17493
▁가비	-17494
▁가실	-17495
▁가전	-17496
▁간지	-17497
▁갈팡	-17498
▁갔었	-17499
▁강성	-17500
▁강정	-17501
▁강호	-17502
▁갖출	-17503
▁개과	-17504
▁개도	-17505
▁개소	-17506
▁개패	-17507
▁객실	-17508
▁거침	-17509
▁건방	-17510
▁걷어	-17511
▁게으	-17512
▁게을	-17513
▁계양	-17514
▁고루	-17515
▁고만	-17516
▁고비	-17517
▁고현	-17518
▁공허	-17519
▁과분	-17520
▁교관	-17521
▁교보	-17522
▁교부	-17523
▁교외	-17524
▁교평	-17525
▁구구	-17526
▁구렁	-17527
▁구박	-17528
▁구애	-17529
▁구절	-17530
▁구토	-17531
▁국물	-17532
▁국유	-17533
▁군경	-17534
▁군내	-17535
▁굶주	-17536
▁굽신	-17537
▁그기	-17538
▁금토	-17539
▁기권	-17540
▁기습	-17541
▁김선	-17542
▁김은	-17543
▁깁스	-17544
▁깜지	-17545
▁껄끄	-17546
▁꽃피	-17547
▁끝판	-17548
▁끼쳐	-17549
▁나전	-17550
▁난관	-17551
▁날씬	-17552
▁내서	-17553
▁냉전	-17554
▁냐구	-17555
▁네임	-17556
▁노년	-17557
▁노비	-17558
▁논점	-17559
▁놀래	-17560
▁놔둔	-17561
▁누굽	-17562
▁는개	-17563
▁는단	-17564
▁니놈	-17565
▁다달	-17566
▁단군	-17567
▁단면	-17568
▁달기	-17569
▁달달	-17570
▁달장	-17571
▁답지	-17572
▁대려	-17573
▁대필	-17574
▁더케	-17575
▁던질	-17576
▁도안	-17577
▁동내	-17578
▁동맹	-17579
▁동심	-17580
▁동점	-17581
▁두껍	-17582
▁두뇌	-17583
▁두둑	-17584
▁들인	-17585
▁딸랑	-17586
▁떨쳐	-17587
▁떨치	-17588
▁뛰쳐	-17589
▁띄어	-17590
▁라라	-17591
▁라시	-17592
▁랄지	-17593
▁래스	-17594
▁래야	-17595
▁러지	-17596
▁로맨	-17597
▁로썬	-17598
▁리메	-17599
▁마누	-17600
▁막연	-17601
▁말단	-17602
▁말지	-17603
▁맞교	-17604
▁메리	-17605
▁모레	-17606
▁모음	-17607
▁몸통	-17608
▁무감	-17609
▁무모	-17610
▁문드	-17611
▁물린	-17612
▁물정	-17613
▁뭉개	-17614
▁미끄	-17615
▁미덕	-17616
▁미천	-17617
▁민우	-17618
▁바쁠	-17619
▁바야	-17620
▁박기	-17621
▁박차	-17622
▁박태	-17623
▁반디	-17624
▁반팔	-17625
▁발레	-17626
▁발현	-17627
▁방기	-17628
▁방도	-17629
▁방책	-17630
▁배변	-17631
▁배아	-17632
▁배지	-17633
▁백석	-17634
▁뱅크	-17635
▁버나	-17636
▁번져	-17637
▁번질	-17638
▁벌렁	-17639
▁법강	-17640
▁법복	-17641
▁벼랑	-17642
▁변조	-17643
▁병든	-17644
▁병명	-17645
▁병변	-17646
▁병영	-17647
▁보라	-17648
▁보루	-17649
▁보아	-17650
▁복판	-17651
▁본국	-17652
▁부영	-17653
▁북대	-17654
▁북송	-17655
▁분신	-17656
▁불똥	-17657
▁붙들	-17658
▁붙일	-17659
▁비공	-17660
▁비나	-17661
▁비좁	-17662
▁비쳐	-17663
▁빌붙	-17664
▁빗대	-17665
▁빼놓	-17666
▁뻣뻣	-17667
▁사금	-17668
▁사드	-17669
▁사절	-17670
▁살상	-17671
▁살장	-17672
▁상도	-17673
▁상수	-17674
▁상피	-17675
▁생수	-17676
▁서식	-17677
▁서투	-17678
▁서툰	-17679
▁선교	-17680
▁선명	-17681
▁선보	-17682
▁섭리	-17683
▁성금	-17684
▁성능	-17685
▁성징	-17686
▁성판	-17687
▁소동	-17688
▁소량	-17689
▁소매	-17690
▁소자	-17691
▁속국	-17692
▁손톱	-17693
▁송구	-17694
▁송정	-17695
▁쇠퇴	-17696
▁수질	-17697
▁수칙	-17698
▁수퍼	-17699
▁순리	-17700
▁스윙	-17701
▁스터	-17702
▁스팀	-17703
▁시늉	-17704
▁식별	-17705
▁식충	-17706
▁신병	-17707
▁신한	-17708
▁실물	-17709
▁실재	-17710
▁심경	-17711
▁심대	-17712
▁심증	-17713
▁싸늘	-17714
▁썩히	-17715
▁씌운	-17716
▁아만	-17717
▁아비	-17718
▁아셨	-17719
▁아크	-17720
▁알펜	-17721
▁애틋	-17722
▁얌체	-17723
▁양모	-17724
▁어께	-17725
▁어룡	-17726
▁어엿	-17727
▁엠알	-17728
▁여념	-17729
▁여종	-17730
▁엮이	-17731
▁연녀	-17732
▁연도	-17733
▁연산	-17734
▁연초	-17735
▁열매	-17736
▁영생	-17737
▁예금	-17738
▁오더	-17739
▁오물	-17740
▁온데	-17741
▁왜국	-17742
▁외동	-17743
▁욕한	-17744
▁욕했	-17745
▁용량	-17746
▁용모	-17747
▁우세	-17748
▁움츠	-17749
▁웍스	-17750
▁원심	-17751
▁월반	-17752
▁웹젠	-17753
▁위독	-17754
▁윗물	-17755
▁유달	-17756
▁유라	-17757
▁유머	-17758
▁육대	-17759
▁윤석	-17760
▁으냐	-17761
▁으리	-17762
▁이닝	-17763
▁이롭	-17764
▁이식	-17765
▁이입	-17766
▁이트	-17767
▁익위	-17768
▁인감	-17769
▁인본	-17770
▁인부	-17771
▁인서	-17772
▁인스	-17773
▁일념	-17774
▁일색	-17775
▁일컬	-17776
▁임고	-17777
▁임박	-17778
▁임해	-17779
▁자도	-17780
▁자들	-17781
▁자성	-17782
▁자조	-17783
▁작작	-17784
▁잠잘	-17785
▁장갑	-17786
▁장구	-17787
▁장만	-17788
▁장부	-17789
▁쟁점	-17790
▁저곳	-17791
▁전처	-17792
▁전출	-17793
▁점퍼	-17794
▁정교	-17795
▁정량	-17796
▁정예	-17797
▁조목	-17798
▁조신	-17799
▁족벌	-17800
▁종원	-17801
▁좌표	-17802
▁주홍	-17803
▁준거	-17804
▁중하	-17805
▁증여	-17806
▁지려	-17807
▁지참	-17808
▁직함	-17809
▁진해	-17810
▁질렸	-17811
▁집사	-17812
▁짜내	-17813
▁짝수	-17814
▁짧아	-17815
▁짱구	-17816
▁차액	-17817
▁착공	-17818
▁찰나	-17819
▁참나	-17820
▁참다	-17821
▁청부	-17822
▁체우	-17823
▁체증	-17824
▁촉박	-17825
▁총신	-17826
▁최장	-17827
▁추스	-17828
▁출구	-17829
▁출력	-17830
▁출품	-17831
▁충고	-17832
▁치만	-17833
▁친숙	-17834
▁칠판	-17835
▁칭송	-17836
▁카피	-17837
▁캐시	-17838
▁큐브	-17839
▁클라	-17840
▁타박	-17841
▁태영	-17842
▁태평	-17843
▁토요	-17844
▁토의	-17845
▁퇴행	-17846
▁투병	-17847
▁트인	-17848
▁특위	-17849
▁틈틈	-17850
▁틴트	-17851
▁파멸	-17852
▁파행	-17853
▁팝업	-17854
▁패러	-17855
▁팽팽	-17856
▁퍼진	-17857
▁퍼질	-17858
▁평온	-17859
▁폐막	-17860
▁포섭	-17861
▁폭우	-17862
▁표식	-17863
▁푸념	-17864
▁풀릴	-17865
▁피폭	-17866
▁하로	-17867
▁하얀	-17868
▁하지	-17869
▁한걸	-17870
▁한수	-17871
▁한옥	-17872
▁할께	-17873
▁합병	-17874
▁해괴	-17875
▁해남	-17876
▁해다	-17877
▁해안	-17878
▁해직	-17879
▁해촉	-17880
▁햇빛	-17881
▁허상	-17882
▁헌금	-17883
▁헌정	-17884
▁헤매	-17885
▁현존	-17886
▁혼시	-17887
▁화랑	-17888
▁화백	-17889
▁확진	-17890
▁환송	-17891
▁환희	-17892
▁황산	-17893
▁회귀	-17894
▁훨훨	-17895
▁훼방	-17896
▁흐를	-17897
▁흑발	-17898
▁희안	-17899
▁희한	-17900
▁히터	-17901
갈수록	-17902
고사직	-17903
덩어리	-17904
스코트	-17905
어져서	-17906
우리말	-17907
콘서트	-17908
1005	-17909
aspx	-17910
aver	-17911
cont	-17912
sidx	-17913
▁210	-17914
▁325	-17915
▁910	-17916
▁CGV	-17917
▁HOT	-17918
▁Kbs	-17919
▁The	-17920
▁You	-17921
▁xxx	-17922
▁ytn	-17923
▁가려내	-17924
▁가려져	-17925
▁가로채	-17926
▁가림막	-17927
▁갈고닦	-17928
▁감사히	-17929
▁갔으며	-17930
▁걸려도	-17931
▁걸린다	-17932
▁결정짓	-17933
▁경력자	-17934
▁경영인	-17935
▁경험담	-17936
▁계산대	-17937
▁계획서	-17938
▁고시원	-17939
▁고준희	-17940
▁공포심	-17941
▁괘씸죄	-17942
▁교환대	-17943
▁권순태	-17944
▁그러다	-17945
▁그럴까	-17946
▁그리곤	-17947
▁그만둔	-17948
▁그만둬	-17949
▁급체포	-17950
▁기념식	-17951
▁기술자	-17952
▁기준치	-17953
▁김기춘	-17954
▁김민희	-17955
▁깊숙히	-17956
▁껍데기	-17957
▁나올까	-17958
▁남겨져	-17959
▁낮춘다	-17960
▁내려와	-17961
▁내린다	-17962
▁내세울	-17963
▁냈으면	-17964
▁넥센히	-17965
▁노란색	-17966
▁녹음기	-17967
▁놀러갔	-17968
▁누워서	-17969
▁뉘앙스	-17970
▁느껴져	-17971
▁느라고	-17972
▁는대요	-17973
▁늘려라	-17974
▁니스트	-17975
▁다가온	-17976
▁다던가	-17977
▁달아나	-17978
▁담아내	-17979
▁당구장	-17980
▁당국자	-17981
▁당한다	-17982
▁대소변	-17983
▁대응책	-17984
▁대표단	-17985
▁도박판	-17986
▁독버섯	-17987
▁돌아볼	-17988
▁되도록	-17989
▁두서없	-17990
▁뒤따라	-17991
▁뒤쳐져	-17992
▁딴다고	-17993
▁떠올려	-17994
▁라든가	-17995
▁라스트	-17996
▁라틴어	-17997
▁려거든	-17998
▁릅니다	-17999
▁리스닝	-18000
▁리포트	-18001
▁마사지	-18002
▁마포구	-18003
▁막아서	-18004
▁막연히	-18005
▁말없이	-18006
▁매표소	-18007
▁먹잇감	-18008
▁모티브	-18009
▁못해도	-18010
▁무력감	-18011
▁무릅쓰	-18012
▁무성의	-18013
▁무신경	-18014
▁문지르	-18015
▁뭅니다	-18016
▁바나나	-18017
▁바래요	-18018
▁박경미	-18019
▁반대표	-18020
▁반영구	-18021
▁반정부	-18022
▁발맞춰	-18023
▁발전소	-18024
▁밝혀라	-18025
▁배고프	-18026
▁범죄시	-18027
▁보내왔	-18028
▁보낸다	-18029
▁보도국	-18030
▁보상비	-18031
▁보안관	-18032
▁본회의	-18033
▁볼수록	-18034
▁부러지	-18035
▁사유지	-18036
▁살려서	-18037
▁상류층	-18038
▁상식선	-18039
▁상해죄	-18040
▁새로이	-18041
▁성수기	-18042
▁셨으니	-18043
▁소재지	-18044
▁속바지	-18045
▁송파구	-18046
▁수감자	-18047
▁수년전	-18048
▁수술비	-18049
▁수술실	-18050
▁수식어	-18051
▁숨소리	-18052
▁스퀘어	-18053
▁스파이	-18054
▁스페셜	-18055
▁시그널	-18056
▁시흥시	-18057
▁실직자	-18058
▁쓴다면	-18059
▁쓸쓸히	-18060
▁씁니까	-18061
▁아산시	-18062
▁아우르	-18063
▁아이유	-18064
▁안전도	-18065
▁알코올	-18066
▁애당초	-18067
▁어두워	-18068
▁어때요	-18069
▁어물쩡	-18070
▁억누르	-18071
▁역부족	-18072
▁연장선	-18073
▁영업자	-18074
▁예방법	-18075
▁오른손	-18076
▁오리발	-18077
▁외삼촌	-18078
▁요양원	-18079
▁우스운	-18080
▁운전석	-18081
▁원작자	-18082
▁유치진	-18083
▁으셨고	-18084
▁으실까	-18085
▁음란죄	-18086
▁응답자	-18087
▁응원가	-18088
▁의료법	-18089
▁이경기	-18090
▁이대호	-18091
▁이덕선	-18092
▁이민자	-18093
▁이승기	-18094
▁이해찬	-18095
▁인문학	-18096
▁인솔자	-18097
▁인증서	-18098
▁일본식	-18099
▁일시금	-18100
▁일일히	-18101
▁일제히	-18102
▁임명장	-18103
▁작사가	-18104
▁작업자	-18105
▁잦아지	-18106
▁저질르	-18107
▁전교생	-18108
▁전용석	-18109
▁전자책	-18110
▁조력자	-18111
▁조원진	-18112
▁좋아했	-18113
▁좌회전	-18114
▁주무르	-18115
▁주파수	-18116
▁준다던	-18117
▁중대장	-18118
▁지켜본	-18119
▁지켜서	-18120
▁지팡이	-18121
▁직선제	-18122
▁짓밟혀	-18123
▁짓밟힌	-18124
▁쫒아내	-18125
▁찮가지	-18126
▁채권자	-18127
▁천안시	-18128
▁청년층	-18129
▁청동기	-18130
▁청장년	-18131
▁추락사	-18132
▁출근길	-18133
▁출석부	-18134
▁친권자	-18135
▁친다고	-18136
▁카톨릭	-18137
▁콩나물	-18138
▁키워서	-18139
▁터뜨리	-18140
▁터져라	-18141
▁트러블	-18142
▁파닉스	-18143
▁포스코	-18144
▁폴란드	-18145
▁표준시	-18146
▁피부과	-18147
▁필요시	-18148
▁합해서	-18149
▁허가제	-18150
▁허정무	-18151
▁헷갈리	-18152
▁화곡동	-18153
▁황연대	-18154
▁회초리	-18155
▁후원자	-18156
▁후폭풍	-18157
▁흡연권	-18158
▁히히덕	-18159
board	-18160
▁1011	-18161
▁1992	-18162
▁IFAF	-18163
▁OOOO	-18164
▁간접흡연	-18165
▁강제노동	-18166
▁계신가요	-18167
▁국가원수	-18168
▁권고사직	-18169
▁그럴만한	-18170
▁그럴싸한	-18171
▁기껏해야	-18172
▁끌어들여	-18173
▁남양주시	-18174
▁내린다는	-18175
▁넘어뜨리	-18176
▁누굽니까	-18177
▁는다면서	-18178
▁달립니다	-18179
▁대한컬링	-18180
▁더치페이	-18181
▁독립군가	-18182
▁뒤떨어지	-18183
▁드릴께요	-18184
▁등장인물	-18185
▁레즈비언	-18186
▁마스코트	-18187
▁면책특권	-18188
▁바뀐다고	-18189
▁바라봐야	-18190
▁바란다면	-18191
▁방패막이	-18192
▁배웠으면	-18193
▁변호사법	-18194
▁보냅시다	-18195
▁비전문가	-18196
▁사라져서	-18197
▁사사로운	-18198
▁설렁설렁	-18199
▁순간순간	-18200
▁순우리말	-18201
▁아신다면	-18202
▁알펜시아	-18203
▁어려워졌	-18204
▁어렵사리	-18205
▁에이전시	-18206
▁연평해전	-18207
▁열린다고	-18208
▁외칩니다	-18209
▁움직여야	-18210
▁위키백과	-18211
▁으십시오	-18212
▁이겁니까	-18213
▁이어져야	-18214
▁일사천리	-18215
▁자아실현	-18216
▁전대통령	-18217
▁줄인다는	-18218
▁중등학교	-18219
▁집어치우	-18220
▁충청북도	-18221
▁친선경기	-18222
▁팀플레이	-18223
▁판타지오	-18224
▁페널티킥	-18225
▁한다고요	-18226
▁해합니다	-18227
▁허무맹랑	-18228
▁흔합니다	-18229
▁흥청망청	-18230
▁희희낙락	-18231
000000	-18232
▁00028	-18233
▁19327	-18234
▁20160	-18235
▁30000	-18236
▁KAKAO	-18237
▁SATAN	-18238
▁count	-18239
▁거리낌없이	-18240
▁들어간다면	-18241
▁말레이시아	-18242
▁미니스커트	-18243
▁생각납니다	-18244
▁생겨납니다	-18245
▁소프트웨어	-18246
▁스트레이트	-18247
▁어긋난다는	-18248
▁엄청납니다	-18249
▁일어난다면	-18250
▁조선일보사	-18251
▁줄어든다고	-18252
▁지나칩니다	-18253
▁테러리스트	-18254
▁201807	-18255
▁넥센히어로즈	-18256
▁esports	-18257
▁대한컬링경기연맹	-18258
▁ᅳᅳᅳᅳᅳᅳᅳᅳᅳᅳ	-18259
81	-18260
BI	-18261
BL	-18262
GI	-18263
IT	-18264
OD	-18265
OS	-18266
TZ	-18267
aw	-18268
gu	-18269
ik	-18270
lf	-18271
of	-18272
oy	-18273
py	-18274
up	-18275
▁곘	-18276
▁괸	-18277
▁꿔	-18278
▁댔	-18279
▁뎅	-18280
▁돠	-18281
▁렘	-18282
▁뮈	-18283
▁빤	-18284
▁쒸	-18285
▁앴	-18286
▁윙	-18287
▁잤	-18288
▁쟎	-18289
▁젓	-18290
▁쩍	-18291
▁쯔	-18292
▁찻	-18293
▁챌	-18294
▁첵	-18295
▁쳇	-18296
▁툴	-18297
▁펨	-18298
▁힉	-18299
갈기	-18300
갈리	-18301
감치	-18302
개발	-18303
고로	-18304
공원	-18305
금리	-18306
금속	-18307
급적	-18308
기도	-18309
기에	-18310
꼬꼬	-18311
네스	-18312
년간	-18313
노스	-18314
다임	-18315
담패	-18316
돋움	-18317
따로	-18318
라임	-18319
락펴	-18320
량감	-18321
렁이	-18322
레마	-18323
렌드	-18324
리우	-18325
링크	-18326
말까	-18327
미경	-18328
미현	-18329
박이	-18330
보잡	-18331
보험	-18332
복지	-18333
부절	-18334
분서	-18335
상간	-18336
생명	-18337
선생	-18338
셔도	-18339
손손	-18340
수일	-18341
스로	-18342
승천	-18343
심쩍	-18344
아비	-18345
안전	-18346
오프	-18347
용식	-18348
울증	-18349
월일	-18350
은영	-18351
이러	-18352
이츠	-18353
일절	-18354
자랑	-18355
자살	-18356
제철	-18357
져스	-18358
주류	-18359
주사	-18360
죽음	-18361
중지	-18362
집행	-18363
짓기	-18364
참다	-18365
코더	-18366
토화	-18367
투맨	-18368
투족	-18369
트로	-18370
특별	-18371
특필	-18372
퍼니	-18373
페라	-18374
화가	-18375
회원	-18376
300	-18377
OVE	-18378
for	-18379
idN	-18380
ily	-18381
inp	-18382
les	-18383
ter	-18384
▁AF	-18385
▁AG	-18386
▁CE	-18387
▁Le	-18388
▁gm	-18389
▁ip	-18390
▁ne	-18391
▁ᄁ팝	-18392
▁가닥	-18393
▁가람	-18394
▁가문	-18395
▁간녀	-18396
▁갈색	-18397
▁감언	-18398
▁갑사	-18399
▁강타	-18400
▁개관	-18401
▁개악	-18402
▁개업	-18403
▁개진	-18404
▁건당	-18405
▁건성	-18406
▁건조	-18407
▁건진	-18408
▁검침	-18409
▁겠다	-18410
▁격분	-18411
▁격해	-18412
▁경성	-18413
▁경조	-18414
▁경차	-18415
▁경합	-18416
▁고과	-18417
▁고를	-18418
▁고파	-18419
▁고프	-18420
▁곤욕	-18421
▁골대	-18422
▁공수	-18423
▁공언	-18424
▁과락	-18425
▁과소	-18426
▁과속	-18427
▁광진	-18428
▁구대	-18429
▁구류	-18430
▁국과	-18431
▁국운	-18432
▁군입	-18433
▁궁굼	-18434
▁규격	-18435
▁그땐	-18436
▁그르	-18437
▁근근	-18438
▁글꼴	-18439
▁급박	-18440
▁기려	-18441
▁기이	-18442
▁김윤	-18443
▁김형	-18444
▁깜빡	-18445
▁깨워	-18446
▁깽판	-18447
▁꺼꾸	-18448
▁꺼낼	-18449
▁꺼져	-18450
▁껴서	-18451
▁꾸지	-18452
▁꿀꺽	-18453
▁끝마	-18454
▁나대	-18455
▁낙이	-18456
▁난국	-18457
▁날렸	-18458
▁남구	-18459
▁남쪽	-18460
▁내미	-18461
▁내분	-18462
▁내사	-18463
▁내재	-18464
▁내쫓	-18465
▁넷플	-18466
▁노사	-18467
▁농간	-18468
▁높히	-18469
▁늑대	-18470
▁니라	-18471
▁다트	-18472
▁단과	-18473
▁단란	-18474
▁단칸	-18475
▁달콤	-18476
▁답장	-18477
▁당뇨	-18478
▁대권	-18479
▁대뜸	-18480
▁대분	-18481
▁대성	-18482
▁대열	-18483
▁대지	-18484
▁대질	-18485
▁덜덜	-18486
▁데모	-18487
▁도산	-18488
▁동족	-18489
▁돼도	-18490
▁둔기	-18491
▁들춰	-18492
▁들판	-18493
▁등쳐	-18494
▁따끔	-18495
▁딴다	-18496
▁땅값	-18497
▁라야	-18498
▁래도	-18499
▁러서	-18500
▁렌즈	-18501
▁련단	-18502
▁로펌	-18503
▁마곡	-18504
▁만끽	-18505
▁만물	-18506
▁만이	-18507
▁만하	-18508
▁만한	-18509
▁말라	-18510
▁말썽	-18511
▁매정	-18512
▁명맥	-18513
▁명퇴	-18514
▁모로	-18515
▁모모	-18516
▁모진	-18517
▁모형	-18518
▁목자	-18519
▁무가	-18520
▁문외	-18521
▁미움	-18522
▁민초	-18523
▁박세	-18524
▁반공	-18525
▁반목	-18526
▁반지	-18527
▁반차	-18528
▁받치	-18529
▁발산	-18530
▁발육	-18531
▁발칵	-18532
▁밤도	-18533
▁방광	-18534
▁방수	-18535
▁배꼽	-18536
▁배너	-18537
▁배반	-18538
▁백날	-18539
▁백제	-18540
▁번돈	-18541
▁범벅	-18542
▁변론	-18543
▁변모	-18544
▁변상	-18545
▁변죽	-18546
▁병기	-18547
▁병합	-18548
▁복면	-18549
▁볼지	-18550
▁봉입	-18551
▁봉지	-18552
▁부계	-18553
▁부드	-18554
▁부업	-18555
▁부이	-18556
▁부작	-18557
▁부제	-18558
▁분장	-18559
▁불벌	-18560
▁붐비	-18561
▁붙혀	-18562
▁뷔페	-18563
▁브베	-18564
▁빙판	-18565
▁빨대	-18566
▁뽐내	-18567
▁사귈	-18568
▁사막	-18569
▁사모	-18570
▁사와	-18571
▁사욕	-18572
▁사흘	-18573
▁산만	-18574
▁살만	-18575
▁살벌	-18576
▁상명	-18577
▁상설	-18578
▁새워	-18579
▁생김	-18580
▁샤오	-18581
▁서거	-18582
▁서든	-18583
▁서정	-18584
▁서진	-18585
▁서핑	-18586
▁서훈	-18587
▁석자	-18588
▁섬기	-18589
▁섬세	-18590
▁성문	-18591
▁성악	-18592
▁성정	-18593
▁세비	-18594
▁세쌍	-18595
▁세용	-18596
▁세전	-18597
▁소사	-18598
▁속셈	-18599
▁손보	-18600
▁쇼파	-18601
▁수교	-18602
▁수납	-18603
▁수돗	-18604
▁수송	-18605
▁숙의	-18606
▁숙직	-18607
▁순열	-18608
▁순응	-18609
▁순조	-18610
▁술값	-18611
▁숨긴	-18612
▁숨졌	-18613
▁쉬우	-18614
▁스노	-18615
▁승자	-18616
▁시가	-18617
▁시녀	-18618
▁시다	-18619
▁시아	-18620
▁시초	-18621
▁식견	-18622
▁식상	-18623
▁식판	-18624
▁신탁	-18625
▁실까	-18626
▁심이	-18627
▁심혈	-18628
▁싸개	-18629
▁쌓일	-18630
▁쏠림	-18631
▁쑤셔	-18632
▁아다	-18633
▁아머	-18634
▁아물	-18635
▁아일	-18636
▁아자	-18637
▁악하	-18638
▁안절	-18639
▁안쪽	-18640
▁알람	-18641
▁압축	-18642
▁애도	-18643
▁애자	-18644
▁애지	-18645
▁애통	-18646
▁약할	-18647
▁어럽	-18648
▁어플	-18649
▁언쟁	-18650
▁업그	-18651
▁에고	-18652
▁에러	-18653
▁여겼	-18654
▁여관	-18655
▁여주	-18656
▁역경	-18657
▁역고	-18658
▁역도	-18659
▁역습	-18660
▁연방	-18661
▁연임	-18662
▁연필	-18663
▁연한	-18664
▁영도	-18665
▁오줌	-18666
▁오탈	-18667
▁온갓	-18668
▁온난	-18669
▁올인	-18670
▁완강	-18671
▁완수	-18672
▁완장	-18673
▁외대	-18674
▁요령	-18675
▁욕해	-18676
▁우방	-18677
▁우터	-18678
▁운지	-18679
▁워드	-18680
▁원도	-18681
▁원우	-18682
▁원초	-18683
▁위중	-18684
▁윤서	-18685
▁율동	-18686
▁은수	-18687
▁을가	-18688
▁응모	-18689
▁이남	-18690
▁이우	-18691
▁이준	-18692
▁이질	-18693
▁인먼	-18694
▁인삼	-18695
▁일차	-18696
▁입힐	-18697
▁잉여	-18698
▁자선	-18699
▁자작	-18700
▁자중	-18701
▁자포	-18702
▁자필	-18703
▁작은	-18704
▁잔득	-18705
▁잠든	-18706
▁잡무	-18707
▁장가	-18708
▁장내	-18709
▁장로	-18710
▁장제	-18711
▁재작	-18712
▁재전	-18713
▁재주	-18714
▁저열	-18715
▁적다	-18716
▁적재	-18717
▁전법	-18718
▁점철	-18719
▁정박	-18720
▁정발	-18721
▁정쟁	-18722
▁정조	-18723
▁정종	-18724
▁정태	-18725
▁제복	-18726
▁조약	-18727
▁조짐	-18728
▁존나	-18729
▁졸자	-18730
▁졸전	-18731
▁좀더	-18732
▁종과	-18733
▁종중	-18734
▁종착	-18735
▁주정	-18736
▁주후	-18737
▁주휴	-18738
▁중식	-18739
▁중임	-18740
▁중퇴	-18741
▁중화	-18742
▁증기	-18743
▁증식	-18744
▁증이	-18745
▁지로	-18746
▁지병	-18747
▁지질	-18748
▁직사	-18749
▁진데	-18750
▁진범	-18751
▁진절	-18752
▁진하	-18753
▁징검	-18754
▁짜깁	-18755
▁차감	-18756
▁차체	-18757
▁착실	-18758
▁창간	-18759
▁처서	-18760
▁처치	-18761
▁천명	-18762
▁철구	-18763
▁철자	-18764
▁철철	-18765
▁첫발	-18766
▁청룡	-18767
▁체인	-18768
▁체재	-18769
▁초상	-18770
▁초소	-18771
▁초안	-18772
▁촉법	-18773
▁총독	-18774
▁총액	-18775
▁최진	-18776
▁추서	-18777
▁출사	-18778
▁취도	-18779
▁치미	-18780
▁치아	-18781
▁치한	-18782
▁침뱉	-18783
▁칼날	-18784
▁큰딸	-18785
▁키나	-18786
▁타살	-18787
▁타석	-18788
▁탐폰	-18789
▁태전	-18790
▁택한	-18791
▁택했	-18792
▁토시	-18793
▁토일	-18794
▁통곡	-18795
▁통쾌	-18796
▁퇴교	-18797
▁투구	-18798
▁툭툭	-18799
▁트윗	-18800
▁틱톡	-18801
▁파기	-18802
▁파시	-18803
▁팔찌	-18804
▁팩스	-18805
▁팻말	-18806
▁퍼졌	-18807
▁평수	-18808
▁폐과	-18809
▁폐인	-18810
▁포옹	-18811
▁폭식	-18812
▁폭파	-18813
▁풀린	-18814
▁풀어	-18815
▁피웠	-18816
▁피치	-18817
▁하염	-18818
▁하층	-18819
▁하하	-18820
▁학내	-18821
▁한집	-18822
▁해아	-18823
[...]
