[UNK]	0
<s>	0
</s>	0
[PAD]	0
[CLS]	0
[MASK]	0
[SEP]	0
▁이	-0
▁는	-1
▁하	-2
니다	-3
▁을	-4
▁에	-5
▁고	-6
▁가	-7
▁의	-8
▁들	-9
▁은	-10
▁를	-11
▁지	-12
▁도	-13
▁아	-14
▁한	-15
▁있	-16
▁다	-17
▁습	-18
▁어	-19
▁사	-20
▁습니다	-21
▁으	-22
▁그	-23
▁대	-24
▁해	-25
▁수	-26
▁인	-27
▁시	-28
▁기	-29
▁주	-30
▁보	-31
▁게	-32
▁으로	-33
▁합	-34
▁입	-35
▁하▁는	-36
▁라	-37
▁나	-38
▁것	-39
▁여	-40
▁되	-41
▁학	-42
▁합니다	-43
▁에서	-44
▁만	-45
▁정	-46
▁자	-47
▁부	-48
▁로	-49
▁적	-50
▁일	-51
▁하▁고	-52
▁생	-53
▁없	-54
▁국	-55
▁과	-56
▁입니다	-57
▁면	-58
▁교	-59
▁제	-60
▁세	-61
▁않	-62
▁들▁이	-63
▁할	-64
▁안	-65
▁저	-66
▁선	-67
▁지▁않	-68
▁있▁는	-69
▁성	-70
▁위	-71
▁전	-72
▁생각	-73
▁1	-74
▁아이	-75
▁공	-76
▁조	-77
▁있▁습니다	-78
▁청	-79
▁모	-80
▁문	-81
▁더	-82
▁거	-83
▁받	-84
▁경	-85
▁말	-86
▁우	-87
▁많	-88
▁었	-89
▁방	-90
▁대한	-91
▁중	-92
▁유	-93
▁2	-94
▁남	-95
▁무	-96
▁바	-97
▁사람	-98
▁내	-99
▁와	-100
▁에게	-101
▁마	-102
▁세요	-103
▁국민	-104
▁상	-105
▁때	-106
▁해▁주	-107
▁등	-108
▁처	-109
▁이▁라	-110
▁같	-111
▁들▁은	-112
▁했	-113
니까	-114
▁비	-115
▁개	-116
▁겠	-117
▁교육	-118
▁학교	-119
▁못	-120
▁서	-121
▁된	-122
▁다고	-123
▁우리	-124
▁관	-125
▁현	-126
▁들▁의	-127
▁학생	-128
▁불	-129
▁법	-130
▁분	-131
▁님	-132
▁나라	-133
▁지만	-134
▁소	-135
▁원	-136
▁년	-137
▁수▁있	-138
▁신	-139
▁한다	-140
▁요	-141
▁피	-142
▁당	-143
▁아니	-144
▁까	-145
▁올	-146
▁며	-147
▁들▁을	-148
▁실	-149
▁선수	-150
▁하▁게	-151
▁미	-152
▁또	-153
▁살	-154
▁까지	-155
▁강	-156
▁동	-157
▁오	-158
▁스	-159
▁평	-160
▁차	-161
▁건	-162
▁여성	-163
▁감	-164
▁좋	-165
▁연	-166
▁알	-167
▁해야	-168
▁문제	-169
▁반	-170
▁진	-171
▁3	-172
▁하▁여	-173
▁이런	-174
▁명	-175
▁는▁것	-176
▁적▁인	-177
▁장	-178
▁생각▁합니다	-179
▁행	-180
▁으면	-181
▁단	-182
▁잘	-183
민국	-184
▁적▁으로	-185
▁구	-186
▁피해	-187
▁계	-188
▁시간	-189
▁영	-190
▁는데	-191
▁너	-192
▁고▁있▁습니다	-193
▁국가	-194
▁청원	-195
▁하▁면	-196
▁라고	-197
▁위해	-198
▁발	-199
▁대한민국	-200
▁해서	-201
▁화	-202
▁다는	-203
▁되▁어	-204
▁심	-205
▁던	-206
▁노	-207
▁저▁는	-208
▁너무	-209
▁그리	-210
▁예	-211
▁왜	-212
범죄	-213
▁사회	-214
▁어린	-215
▁권	-216
▁니	-217
▁지금	-218
▁도록	-219
▁할▁수	-220
▁되▁는	-221
▁에▁대한	-222
▁결	-223
▁았	-224
▁그런	-225
▁들▁에게	-226
▁언	-227
▁통	-228
▁처벌	-229
▁그리고	-230
▁많▁은	-231
▁교사	-232
▁직	-233
▁었▁습니다	-234
▁재	-235
▁라는	-236
소년	-237
▁폭	-238
▁집	-239
▁것▁이	-240
▁야	-241
▁네	-242
▁사건	-243
▁20	-244
▁드	-245
▁최	-246
▁힘	-247
▁십	-248
▁같▁은	-249
▁대통	-250
▁대통령	-251
▁출	-252
▁됩	-253
▁필	-254
▁없▁는	-255
▁운	-256
▁때문	-257
▁폐	-258
▁간	-259
▁만들	-260
▁정부	-261
▁하▁지▁않	-262
▁특	-263
▁월	-264
▁근	-265
▁군	-266
▁배	-267
▁싶	-268
▁초	-269
립니다	-270
▁아닌	-271
▁주▁세요	-272
▁따	-273
▁고▁있▁는	-274
▁맞	-275
▁될	-276
▁번	-277
▁물	-278
▁해▁주▁세요	-279
▁지▁못	-280
▁이유	-281
▁에▁도	-282
▁부터	-283
▁였	-284
▁됩니다	-285
▁후	-286
▁어린이	-287
▁고▁있	-288
▁에▁대	-289
▁을▁받	-290
▁매	-291
▁청소년	-292
▁이나	-293
▁부모	-294
▁엄	-295
▁한국	-296
▁이상	-297
▁범죄	-298
▁누	-299
▁필요	-300
렇게	-301
▁정말	-302
▁외	-303
▁다른	-304
▁글	-305
▁대학	-306
▁현재	-307
▁두	-308
▁회	-309
▁인권	-310
▁을▁보	-311
▁길	-312
▁돈	-313
▁하▁기	-314
▁4	-315
▁걸	-316
▁본	-317
▁죠	-318
▁겠▁습니다	-319
▁보다	-320
지만	-321
▁것▁입니다	-322
▁그러	-323
▁에▁는	-324
▁임	-325
▁유치	-326
▁우리▁나라	-327
▁판	-328
▁달	-329
▁피해자	-330
▁추	-331
▁지원	-332
▁함	-333
▁5	-334
▁치	-335
▁없▁습니다	-336
▁및	-337
▁모든	-338
▁방송	-339
▁경우	-340
▁여자	-341
▁유치원	-342
▁양	-343
▁줄	-344
▁축	-345
▁종	-346
▁된다	-347
▁이▁라는	-348
랍니다	-349
▁한다고	-350
▁또한	-351
사▁를	-352
▁확	-353
▁참	-354
▁면서	-355
▁하지만	-356
▁남성	-357
▁음	-358
▁폐지	-359
▁들▁도	-360
▁데	-361
▁때문▁에	-362
▁체	-363
▁할▁수▁있	-364
▁돌	-365
▁에▁대해	-366
▁많이	-367
▁10	-368
대로	-369
▁바랍니다	-370
▁부탁	-371
▁어린이집	-372
▁네요	-373
▁애	-374
▁려	-375
▁점	-376
▁저희	-377
▁이▁라고	-378
▁취	-379
▁자신	-380
▁금	-381
▁아니▁라	-382
▁버	-383
▁이▁있	-384
▁십시	-385
▁민	-386
까요	-387
림픽	-388
▁다시	-389
▁하▁는▁것	-390
▁언론	-391
▁남자	-392
▁검	-393
▁하▁며	-394
▁얼	-395
▁포	-396
▁제▁가	-397
▁형	-398
▁만들▁어	-399
▁선생	-400
▁올림픽	-401
▁정책	-402
▁질	-403
▁상황	-404
▁대통령▁님	-405
▁쓰	-406
▁겁	-407
▁병	-408
▁하나	-409
▁이▁고	-410
▁에서▁는	-411
▁사실	-412
학교	-413
▁고▁싶	-414
▁친	-415
▁대표	-416
▁가지	-417
▁뿐	-418
▁하▁고▁있▁습니다	-419
▁제도	-420
▁경찰	-421
▁하▁시	-422
▁책	-423
▁앞	-424
▁없이	-425
▁수▁있▁는	-426
▁아닙	-427
▁역	-428
▁선생▁님	-429
▁어서	-430
▁인데	-431
▁정도	-432
▁제발	-433
▁열	-434
▁아무	-435
▁김	-436
▁박	-437
▁보호	-438
▁이번	-439
▁작	-440
▁관련	-441
▁이▁되	-442
리▁를	-443
▁하▁였	-444
▁사이	-445
▁복	-446
기▁를	-447
▁축구	-448
▁이렇게	-449
▁뉴	-450
▁곳	-451
▁벌	-452
▁셨	-453
▁습니까	-454
▁가▁있	-455
▁가해	-456
▁모두	-457
▁게임	-458
▁처럼	-459
▁초등	-460
▁준	-461
야▁합니다	-462
▁그래	-463
가요	-464
▁내용	-465
▁마음	-466
▁좀	-467
▁했▁습니다	-468
▁위한	-469
▁몇	-470
▁가족	-471
▁막	-472
▁뉴스	-473
▁모르	-474
▁여러	-475
▁201	-476
▁거나	-477
▁나요	-478
▁주▁시	-479
▁해▁주▁시	-480
▁편	-481
▁활	-482
▁큰	-483
▁평등	-484
▁잘못	-485
▁문화	-486
▁키	-487
▁느	-488
▁이▁없	-489
▁손	-490
▁존	-491
▁목	-492
▁넘	-493
▁안녕	-494
▁휴	-495
▁협	-496
▁답	-497
▁이러	-498
▁다면	-499
▁6	-500
▁봅	-501
▁공부	-502
▁안녕▁하	-503
▁파	-504
▁절	-505
▁같▁습니다	-506
리▁는	-507
▁약	-508
▁가정	-509
▁지▁못하	-510
▁시키	-511
▁요즘	-512
▁억	-513
▁고등	-514
▁그런데	-515
▁해도	-516
▁조사	-517
▁프	-518
▁죄	-519
▁봅니다	-520
▁좋▁은	-521
▁갈	-522
▁먹	-523
▁께	-524
▁허	-525
▁인지	-526
▁규	-527
▁가해자	-528
▁변	-529
▁생활	-530
▁사용	-531
▁들어	-532
▁하▁지	-533
▁죽	-534
▁어떻	-535
▁의무	-536
▁태	-537
▁각	-538
▁채	-539
▁팀	-540
▁책임	-541
▁악	-542
▁것▁을	-543
▁자유	-544
▁개인	-545
▁설	-546
▁증	-547
▁경기	-548
▁날	-549
▁기사	-550
▁업	-551
▁아닙니다	-552
▁현실	-553
▁환	-554
▁이제	-555
▁아이▁를	-556
학생	-557
▁몰	-558
▁얼마	-559
▁들▁과	-560
▁식	-561
▁다고▁생각▁합니다	-562
▁시험	-563
▁든	-564
▁할▁수▁있▁는	-565
▁다니	-566
▁폭행	-567
▁감사	-568
▁운영	-569
▁이▁다	-570
▁시켜	-571
▁속	-572
▁십시오	-573
▁만▁원	-574
▁가능	-575
다고	-576
▁담	-577
▁폭력	-578
▁감독	-579
▁엄마	-580
▁로▁인	-581
▁도▁안	-582
▁가▁없	-583
▁것▁은	-584
▁하▁고▁있	-585
▁가▁되	-586
▁겁니다	-587
▁를▁보	-588
▁제대로	-589
▁그렇	-590
▁꼭	-591
▁밖	-592
▁투	-593
▁늘	-594
▁는지	-595
▁아야	-596
▁표	-597
▁페	-598
▁갑	-599
▁나오	-600
라도	-601
▁드립니다	-602
하▁여	-603
▁아이▁들▁이	-604
▁물론	-605
▁수업	-606
▁볼	-607
▁이해	-608
▁를▁받	-609
00	-610
▁눈	-611
▁이용	-612
▁한다는	-613
▁이러▁한	-614
포츠	-615
▁정치	-616
▁하▁면서	-617
▁따라	-618
▁프로	-619
▁하▁고▁있▁는	-620
▁안녕▁하▁세요	-621
▁어떻게	-622
▁사이트	-623
▁좋▁겠▁습니다	-624
▁스포츠	-625
▁하▁는데	-626
어나	-627
▁학년	-628
▁았▁습니다	-629
▁어야	-630
▁타	-631
리▁고	-632
▁한▁번	-633
▁일▁이	-634
▁충	-635
▁온	-636
▁운동	-637
▁자기	-638
▁계속	-639
▁용	-640
▁해결	-641
▁인터	-642
▁을▁수	-643
▁으며	-644
▁차별	-645
▁힘들	-646
▁위해서	-647
▁봐	-648
▁7	-649
▁난	-650
다는	-651
▁듯	-652
▁반대	-653
▁어떤	-654
▁순	-655
▁사람▁이	-656
▁문재	-657
▁성폭	-658
▁통해	-659
▁육	-660
▁보육	-661
▁놓	-662
▁지▁않▁는	-663
▁학원	-664
▁광	-665
▁글▁을	-666
▁아동	-667
▁되▁었▁습니다	-668
▁북	-669
▁욕	-670
▁청원▁합니다	-671
▁중요	-672
▁아직	-673
▁사람▁들▁이	-674
▁해야▁합니다	-675
▁가장	-676
▁그것	-677
▁정신	-678
▁끝	-679
▁높	-680
아가	-681
▁급	-682
▁누구	-683
▁같이	-684
▁세계	-685
▁에서▁도	-686
▁말▁이	-687
▁수능	-688
▁행위	-689
다면	-690
▁8	-691
▁호	-692
▁관리	-693
▁국민▁의	-694
▁학부	-695
▁그래서	-696
▁독	-697
▁부탁드	-698
▁동안	-699
▁항	-700
▁잡	-701
▁미래	-702
▁고등학교	-703
▁접	-704
▁도▁있	-705
▁하▁지만	-706
▁는▁것▁이	-707
▁바로	-708
▁되▁었	-709
▁란	-710
▁다가	-711
▁지역	-712
▁군대	-713
▁찾	-714
▁장애	-715
▁활동	-716
▁영어	-717
▁을▁가	-718
교육	-719
▁입니까	-720
▁노력	-721
▁이유▁로	-722
▁징	-723
▁에▁의	-724
▁아서	-725
▁그냥	-726
▁이것	-727
▁냐	-728
▁평가	-729
▁일▁을	-730
▁행동	-731
▁혜	-732
▁부탁드립니다	-733
▁세금	-734
▁기관	-735
▁학부모	-736
▁강력	-737
▁하루	-738
인▁이	-739
▁자녀	-740
▁키우	-741
▁산	-742
▁관계	-743
▁친구	-744
▁일부	-745
▁9	-746
▁는▁게	-747
▁부분	-748
▁과정	-749
▁수▁있▁도록	-750
▁일반	-751
▁이미	-752
▁새	-753
▁근무	-754
▁입장	-755
▁을▁지	-756
▁많▁습니다	-757
▁댓	-758
▁철	-759
▁지▁않▁습니다	-760
▁뭐	-761
▁한다고▁생각▁합니다	-762
▁초등▁학교	-763
▁희	-764
▁결과	-765
▁논	-766
▁라도	-767
▁되▁고	-768
▁리	-769
▁기준	-770
▁기간	-771
▁메	-772
하▁는	-773
▁을▁주	-774
▁불법	-775
▁더▁이상	-776
▁인터넷	-777
▁으면▁합니다	-778
▁도▁없	-779
어지	-780
▁니까	-781
▁발생	-782
▁방법	-783
▁도▁못	-784
▁학생▁들▁이	-785
▁공무	-786
▁어요	-787
▁카	-788
▁된다고	-789
▁해당	-790
▁혜택	-791
▁을▁때	-792
▁침	-793
부분	-794
▁자격	-795
▁해▁보	-796
▁시작	-797
▁혼	-798
▁신고	-799
▁당연	-800
▁어려	-801
▁공정	-802
▁씨	-803
▁12	-804
▁일본	-805
▁체육	-806
▁낳	-807
▁세상	-808
▁먼	-809
▁서울	-810
▁별	-811
▁이루	-812
▁댓글	-813
▁대부분	-814
▁아이▁들	-815
▁기▁바랍니다	-816
▁뒤	-817
▁사고	-818
▁그러나	-819
▁개선	-820
▁을까요	-821
▁이야	-822
▁보내	-823
하▁고	-824
▁강제	-825
▁하▁는▁것▁이	-826
▁시대	-827
▁문제▁가	-828
▁으로▁인	-829
▁북한	-830
▁이게	-831
자▁가	-832
▁이▁아닌	-833
▁어느	-834
▁기회	-835
▁들▁어	-836
▁아이▁들▁을	-837
▁성범죄	-838
▁자신▁의	-839
▁나이	-840
▁지요	-841
▁국가▁대표	-842
▁그렇게	-843
▁연맹	-844
▁꿈	-845
서▁는	-846
▁으면▁좋▁겠▁습니다	-847
▁협회	-848
▁을▁위해	-849
▁기▁를	-850
▁무슨	-851
▁하▁려	-852
▁빙	-853
▁페미	-854
리▁가	-855
▁하▁다	-856
▁조금	-857
▁환경	-858
▁한▁사람	-859
▁천	-860
▁공무원	-861
▁빠	-862
▁퇴	-863
▁또는	-864
▁외국	-865
▁요구	-866
▁준비	-867
▁셔	-868
▁대한민국▁의	-869
▁회사	-870
▁얼마나	-871
▁아이▁가	-872
▁무엇	-873
▁함께	-874
▁인간	-875
지▁를	-876
▁수사	-877
▁짓	-878
▁크	-879
▁출산	-880
▁보▁면	-881
▁최근	-882
▁관심	-883
▁마다	-884
▁지▁않▁고	-885
▁믿	-886
▁이▁라도	-887
▁을▁내	-888
주의	-889
▁기▁때문▁에	-890
▁요청	-891
▁것▁같▁습니다	-892
▁듣	-893
▁도와	-894
▁혹	-895
▁오늘	-896
▁겠▁지만	-897
▁모습	-898
▁살인	-899
▁나가	-900
▁정보	-901
▁떨	-902
▁청와	-903
▁적폐	-904
▁청와대	-905
▁만큼	-906
▁억울	-907
장▁을	-908
▁밝	-909
▁한테	-910
▁로▁인해	-911
▁진행	-912
듭니다	-913
▁기▁도	-914
▁성적	-915
▁교복	-916
▁단체	-917
▁는▁거	-918
▁방탄	-919
▁더라도	-920
▁왔	-921
▁겠▁습니까	-922
▁문재인	-923
▁지▁않▁은	-924
▁기본	-925
▁보도	-926
▁특히	-927
▁본인	-928
▁사립	-929
정▁을	-930
▁둘	-931
▁너무나	-932
▁법▁을	-933
▁고▁그	-934
▁고통	-935
▁육아	-936
▁엔	-937
▁커	-938
▁뽑	-939
▁오히	-940
▁는▁것▁은	-941
▁30	-942
▁는▁건	-943
▁망	-944
▁오히려	-945
▁도▁않	-946
▁병역	-947
▁여기	-948
▁응	-949
▁기자	-950
▁의견	-951
▁바라	-952
심히	-953
▁평창	-954
▁학교▁에서	-955
▁보▁고	-956
▁똑	-957
▁중학교	-958
▁이▁며	-959
▁창	-960
▁열심히	-961
▁기▁위해	-962
▁하▁였▁습니다	-963
하▁게	-964
▁심각	-965
▁혐	-966
▁범죄자	-967
▁개월	-968
▁되▁면	-969
▁으로서	-970
▁위원	-971
▁어디	-972
▁떠	-973
▁공개	-974
▁더욱	-975
▁선택	-976
▁K	-977
▁무시	-978
▁수시	-979
▁시행	-980
▁놀	-981
▁십시요	-982
▁이▁필요	-983
▁길▁바랍니다	-984
▁워	-985
▁할▁때	-986
▁생각▁이	-987
▁저지	-988
스트	-989
▁납	-990
▁헌	-991
▁이건	-992
▁확인	-993
▁기업	-994
▁앞▁으로	-995
▁뿐▁만	-996
▁말▁고	-997
군요	-998
▁한다면	-999
▁대상	-1000
▁금지	-1001
▁합니까	-1002
▁민주	-1003
▁연예	-1004
▁경제	-1005
▁진짜	-1006
▁이▁지	-1007
▁능	-1008
▁가족▁부	-1009
▁되▁어야	-1010
▁없애	-1011
▁갖	-1012
▁남녀	-1013
▁올라	-1014
▁딸	-1015
▁시민	-1016
▁양육	-1017
▁이후	-1018
▁아니▁고	-1019
▁신청	-1020
▁먼저	-1021
▁원장	-1022
▁인정	-1023
▁교육부	-1024
▁국민▁들▁이	-1025
▁사교육	-1026
▁수▁없	-1027
▁교육▁을	-1028
▁감사▁합니다	-1029
▁존재	-1030
기▁가	-1031
구▁하▁고	-1032
▁잠	-1033
▁에▁가	-1034
▁일어나	-1035
▁토	-1036
▁안전	-1037
▁국민▁이	-1038
▁말씀	-1039
▁조치	-1040
▁하▁고▁싶	-1041
▁배우	-1042
▁단일	-1043
▁직장	-1044
▁트	-1045
▁께서	-1046
▁에▁있	-1047
▁비리	-1048
▁말▁을	-1049
▁보이	-1050
당▁한	-1051
▁11	-1052
▁받▁는	-1053
▁침해	-1054
▁보▁니	-1055
▁소년	-1056
▁등▁을	-1057
▁쉽	-1058
▁입학	-1059
▁들어가	-1060
▁하▁는▁게	-1061
▁주▁는	-1062
▁강화	-1063
▁패	-1064
▁줘	-1065
▁하▁다고	-1066
력▁을	-1067
▁100	-1068
▁부모▁님	-1069
▁범	-1070
▁훈	-1071
▁절대	-1072
▁부탁▁드립니다	-1073
▁할▁수▁있▁도록	-1074
▁싸	-1075
▁직접	-1076
지▁는	-1077
▁터	-1078
▁직원	-1079
드시	-1080
▁불구▁하▁고	-1081
▁하▁는▁것▁은	-1082
▁씩	-1083
▁이▁안	-1084
▁반드시	-1085
▁귀	-1086
합니다	-1087
▁삼	-1088
▁이▁있▁는	-1089
▁읽	-1090
▁에▁따라	-1091
▁그럼	-1092
▁수▁있▁게	-1093
▁걱	-1094
▁백	-1095
▁결국	-1096
▁과연	-1097
▁베	-1098
▁빙상	-1099
▁성폭행	-1100
▁이▁는	-1101
▁이름	-1102
▁수준	-1103
▁2018	-1104
▁자체	-1105
의▁를	-1106
▁분▁들	-1107
▁코	-1108
▁행복	-1109
▁상태	-1110
▁부담	-1111
제▁를	-1112
▁청원▁을	-1113
▁싫	-1114
▁다음	-1115
▁가▁나	-1116
▁더군요	-1117
▁부족	-1118
상▁을	-1119
▁등▁의	-1120
▁똑같	-1121
▁어른	-1122
TV	-1123
▁매우	-1124
▁발전	-1125
▁으니	-1126
▁전문	-1127
▁낮	-1128
▁이▁를	-1129
▁페미니	-1130
▁시설	-1131
▁머	-1132
▁지난	-1133
▁학대	-1134
▁밖▁에	-1135
▁조차	-1136
▁에▁맞	-1137
▁어렵	-1138
식▁을	-1139
▁팬	-1140
▁단일팀	-1141
▁하▁는지	-1142
▁에▁대해서	-1143
▁맡	-1144
▁노동	-1145
▁봤	-1146
▁등등	-1147
▁분▁들▁이	-1148
벌이	-1149
▁승	-1150
▁해▁주▁십시오	-1151
▁전혀	-1152
▁을▁하	-1153
▁얘	-1154
▁업무	-1155
▁몸	-1156
▁국회	-1157
없이	-1158
▁여러분	-1159
▁것▁으로	-1160
▁총	-1161
▁도움	-1162
시다	-1163
▁쉬	-1164
▁월드	-1165
▁측	-1166
▁걱정	-1167
▁누가	-1168
▁학생▁들▁의	-1169
▁상대	-1170
▁지켜	-1171
기▁는	-1172
▁끼	-1173
▁맘	-1174
▁사랑	-1175
▁야구	-1176
▁여성▁가족▁부	-1177
▁교실	-1178
▁장관	-1179
▁최소	-1180
▁그만	-1181
▁스럽	-1182
▁져	-1183
▁즉	-1184
▁어도	-1185
▁가▁는	-1186
▁으로써	-1187
▁이▁란	-1188
▁부산	-1189
▁분명	-1190
▁이▁될	-1191
▁봉	-1192
▁을▁당	-1193
▁잘못▁된	-1194
▁성인	-1195
▁시청	-1196
▁을▁거	-1197
▁광고	-1198
▁안▁됩니다	-1199
▁에▁의해	-1200
▁주▁십시오	-1201
▁수▁있▁습니다	-1202
▁극	-1203
▁십니까	-1204
▁해야▁할	-1205
▁학생▁들▁은	-1206
▁긴	-1207
▁써	-1208
▁시간▁을	-1209
▁언제	-1210
▁프로그	-1211
▁판단	-1212
▁답변	-1213
▁마련	-1214
▁월드컵	-1215
▁유아	-1216
▁정시	-1217
▁뿐▁만▁아니▁라	-1218
▁영화	-1219
▁놓▁고	-1220
▁를▁가	-1221
▁입시	-1222
▁하▁는▁데	-1223
▁을▁위한	-1224
▁했▁던	-1225
▁행정	-1226
▁힘든	-1227
▁받▁고	-1228
▁기사▁를	-1229
▁해외	-1230
▁을▁알	-1231
▁지▁는	-1232
▁주장	-1233
▁프로그램	-1234
▁부디	-1235
▁성추	-1236
▁대학교	-1237
▁할▁수▁없	-1238
▁러	-1239
▁포함	-1240
▁현장	-1241
▁심지	-1242
▁건강	-1243
▁주▁고	-1244
원▁을	-1245
▁성추행	-1246
▁무고	-1247
▁심지어	-1248
▁방학	-1249
▁가지▁고	-1250
▁에▁있▁는	-1251
▁제한	-1252
▁인가요	-1253
▁졸	-1254
▁완	-1255
▁자살	-1256
자▁를	-1257
▁압	-1258
머니	-1259
▁티	-1260
▁결정	-1261
▁판결	-1262
▁것▁도	-1263
▁비용	-1264
▁이유▁는	-1265
▁하▁는▁사람	-1266
▁대회	-1267
▁말▁도▁안	-1268
▁보여	-1269
소년단	-1270
▁방탄소년단	-1271
▁지▁못한	-1272
▁빨	-1273
▁전▁에	-1274
▁근로	-1275
자▁의	-1276
▁문제▁를	-1277
▁필요▁한	-1278
▁다고▁합니다	-1279
▁돌봄	-1280
사▁가	-1281
▁중요▁한	-1282
▁로서	-1283
▁장애▁인	-1284
▁하▁니	-1285
▁진정	-1286
▁울	-1287
▁정상	-1288
▁철저	-1289
▁적용	-1290
▁조선	-1291
▁이▁아니▁라	-1292
▁표현	-1293
▁기▁때문	-1294
▁고▁싶▁습니다	-1295
▁서로	-1296
▁하▁겠	-1297
▁처음	-1298
▁피해▁를	-1299
▁되▁지▁않	-1300
▁하▁는▁건	-1301
력▁이	-1302
▁맞벌이	-1303
▁전화	-1304
▁시스	-1305
▁S	-1306
▁병원	-1307
▁아이▁들▁은	-1308
▁려고	-1309
▁아이▁들▁의	-1310
▁셔서	-1311
▁조작	-1312
▁에▁관	-1313
▁술	-1314
▁헌법	-1315
▁사▁는	-1316
▁성▁을	-1317
▁생각▁됩니다	-1318
▁첫	-1319
▁교육청	-1320
▁복지	-1321
▁연예인	-1322
▁겁니까	-1323
▁미투	-1324
▁실제	-1325
▁증거	-1326
▁시스템	-1327
▁남북	-1328
▁것▁같	-1329
▁를▁위해	-1330
BS	-1331
▁결혼	-1332
▁우선	-1333
▁사회▁적	-1334
▁만약	-1335
▁스트	-1336
▁집단	-1337
▁했▁다	-1338
▁실시	-1339
▁사업	-1340
▁생각▁을	-1341
▁했▁는데	-1342
▁선수▁가	-1343
▁하▁거나	-1344
▁빙상▁연맹	-1345
▁처벌▁을	-1346
▁이야기	-1347
러운	-1348
▁직업	-1349
▁갑▁질	-1350
▁상처	-1351
▁시간▁이	-1352
므로	-1353
▁구요	-1354
▁이▁나라	-1355
▁즐	-1356
▁개정	-1357
▁화장	-1358
▁대로	-1359
▁희망	-1360
▁국민▁들▁의	-1361
▁바뀌	-1362
▁이▁나	-1363
▁아주	-1364
▁200	-1365
▁아시	-1366
▁듭니다	-1367
▁아무리	-1368
▁하▁는▁거	-1369
▁선수▁들▁이	-1370
▁목적	-1371
▁자리	-1372
▁하▁시▁는	-1373
▁면제	-1374
▁풀	-1375
▁불편	-1376
▁을까	-1377
▁지방	-1378
▁당시	-1379
▁이▁에	-1380
▁홍	-1381
▁의미	-1382
▁돈▁을	-1383
▁이▁라면	-1384
▁권리	-1385
▁충분	-1386
▁사과	-1387
▁라면	-1388
▁들▁만	-1389
▁의▁인권	-1390
▁라고▁생각▁합니다	-1391
수▁를	-1392
▁넣	-1393
▁경쟁	-1394
▁전국	-1395
▁낙	-1396
▁째	-1397
▁효	-1398
▁혹은	-1399
▁아빠	-1400
▁훈련	-1401
▁범죄▁를	-1402
▁처리	-1403
▁법▁이	-1404
▁엄청	-1405
▁사진	-1406
▁종목	-1407
▁참여	-1408
▁테	-1409
▁등록	-1410
▁과거	-1411
▁15	-1412
▁여론	-1413
▁인생	-1414
야▁할	-1415
▁동의	-1416
▁지급	-1417
▁을▁만들▁어	-1418
▁근데	-1419
▁대책	-1420
▁국민▁청원	-1421
▁이▁라고▁생각▁합니다	-1422
레스	-1423
기▁에	-1424
▁으로▁인해	-1425
▁센	-1426
▁당장	-1427
▁기▁에	-1428
▁성폭력	-1429
▁전형	-1430
▁소년법	-1431
▁가▁아닌	-1432
▁삶	-1433
▁과목	-1434
▁항상	-1435
▁성▁평등	-1436
조건	-1437
▁받▁아	-1438
▁느끼	-1439
▁으나	-1440
치▁는	-1441
▁무조건	-1442
▁저▁도	-1443
▁알▁고▁있▁습니다	-1444
대체	-1445
▁각종	-1446
▁올립니다	-1447
원▁이	-1448
▁인가	-1449
▁안녕▁하▁세요▁저▁는	-1450
▁됐	-1451
▁만드	-1452
▁예산	-1453
과▁후	-1454
▁을▁통해	-1455
▁하▁지▁못하	-1456
▁드리	-1457
▁지나	-1458
▁심판	-1459
▁겨	-1460
▁잔	-1461
▁당신	-1462
▁영상	-1463
▁된다면	-1464
▁보호법	-1465
▁만▁으로	-1466
▁가▁없▁습니다	-1467
▁학습	-1468
▁묻	-1469
▁박탈	-1470
▁밖에	-1471
▁방과▁후	-1472
▁사람▁은	-1473
▁플	-1474
▁대체	-1475
▁더라	-1476
이▁는	-1477
▁저▁의	-1478
▁혼자	-1479
부터	-1480
▁학교▁폭력	-1481
▁다양	-1482
▁올해	-1483
수▁의	-1484
▁하▁자	-1485
▁경우▁가	-1486
▁도대체	-1487
▁었▁던	-1488
▁한▁명	-1489
▁뛰	-1490
▁아이▁들▁에게	-1491
▁지▁도▁않	-1492
▁알려	-1493
▁살아가	-1494
▁거의	-1495
▁수많	-1496
▁돼	-1497
▁탈	-1498
▁규정	-1499
▁학교▁에	-1500
▁일어	-1501
르▁게	-1502
▁당연히	-1503
▁수많▁은	-1504
▁이익	-1505
▁거짓	-1506
▁부정	-1507
▁영향	-1508
▁갔	-1509
▁역사	-1510
▁제도▁를	-1511
▁농	-1512
▁아닐	-1513
▁19	-1514
▁이▁지만	-1515
▁0	-1516
▁스스	-1517
▁에▁따	-1518
▁최저	-1519
▁을▁제	-1520
▁사립▁유치원	-1521
▁하▁다고▁생각▁합니다	-1522
▁스트레스	-1523
▁선발	-1524
▁아요	-1525
▁고소	-1526
▁수당	-1527
▁휴직	-1528
▁얼굴	-1529
▁특별	-1530
▁정권	-1531
▁도▁있▁습니다	-1532
▁소득	-1533
▁링	-1534
자▁는	-1535
▁졸업	-1536
▁받▁을	-1537
▁아니▁면	-1538
▁보육▁교사	-1539
▁이▁있▁습니다	-1540
▁꺼	-1541
▁아파	-1542
▁문제▁는	-1543
▁국내	-1544
▁바꿔	-1545
▁가▁안	-1546
▁스스로	-1547
▁어▁주	-1548
▁하▁지▁않▁는	-1549
▁하▁도록	-1550
▁늦	-1551
▁와▁같▁은	-1552
▁자식	-1553
▁발언	-1554
▁위원회	-1555
▁정부▁는	-1556
▁마시	-1557
▁얻	-1558
▁빼	-1559
▁식▁으로	-1560
▁정도▁로	-1561
▁네이	-1562
▁사라	-1563
▁하▁던	-1564
▁되▁어▁있	-1565
▁돌아	-1566
▁확대	-1567
▁의▁경우	-1568
▁하▁지▁않▁고	-1569
▁아닌가요	-1570
▁을▁것▁입니다	-1571
▁을▁못	-1572
▁이제▁는	-1573
▁해▁주▁셨	-1574
▁둔	-1575
▁을▁다	-1576
▁보▁는	-1577
▁특정	-1578
▁아닙니까	-1579
출산	-1580
▁저출산	-1581
▁아들	-1582
▁사람▁들	-1583
▁사람▁들▁은	-1584
▁솔	-1585
▁능력	-1586
▁축구▁협회	-1587
▁내용▁이	-1588
으면	-1589
▁밝혀	-1590
▁집▁에서	-1591
▁판매	-1592
▁게▁되▁었▁습니다	-1593
▁생리	-1594
인▁의	-1595
▁는▁것▁도	-1596
▁50	-1597
▁규제	-1598
원▁의	-1599
▁밀	-1600
▁취업	-1601
▁중▁인	-1602
▁선수▁들	-1603
▁아직▁도	-1604
▁검사	-1605
▁중▁에	-1606
▁에▁도▁불구▁하▁고	-1607
▁검찰	-1608
▁올리	-1609
▁에▁위	-1610
▁우리▁가	-1611
▁A	-1612
▁생명	-1613
수▁가	-1614
지▁가	-1615
▁공부▁를	-1616
▁지▁않▁았	-1617
▁안타	-1618
▁정부▁가	-1619
▁바꾸	-1620
▁있▁는데	-1621
▁하▁셨	-1622
▁하▁라	-1623
▁향	-1624
▁국방	-1625
▁불안	-1626
▁TV	-1627
▁주변	-1628
위▁를	-1629
▁아이▁의	-1630
▁찍	-1631
▁넘어	-1632
▁할▁수▁있▁게	-1633
▁없▁어	-1634
▁좋▁아	-1635
▁깨	-1636
▁센터	-1637
▁었▁고	-1638
▁의▁자유	-1639
▁해▁주▁시▁기▁바랍니다	-1640
▁히	-1641
비▁를	-1642
▁반대▁합니다	-1643
▁교과	-1644
▁나와	-1645
▁월급	-1646
▁청년	-1647
▁에▁이	-1648
▁의▁의무	-1649
서▁를	-1650
▁평화	-1651
▁보장	-1652
▁예술	-1653
▁네이버	-1654
▁에▁만	-1655
▁젊	-1656
▁니▁다	-1657
▁이▁너무	-1658
▁마드	-1659
▁매일	-1660
▁징역	-1661
▁였▁습니다	-1662
▁단순	-1663
▁숨	-1664
▁생기	-1665
▁조두	-1666
▁지▁말	-1667
▁듯이	-1668
비스	-1669
▁된다는	-1670
▁아무런	-1671
▁흘	-1672
▁에▁비	-1673
▁을▁하▁고	-1674
▁학생▁들▁에게	-1675
▁혐오	-1676
▁고▁있▁는데	-1677
▁어려운	-1678
▁조두순	-1679
▁이▁되▁어	-1680
▁아래	-1681
▁년▁간	-1682
▁담당	-1683
▁봉사	-1684
▁워▁마드	-1685
▁피해자▁가	-1686
▁가요	-1687
▁것▁이▁다	-1688
▁가르	-1689
▁쉽▁게	-1690
▁중국	-1691
▁c	-1692
▁미국	-1693
▁사건▁이	-1694
▁복무	-1695
▁역시	-1696
▁분노	-1697
료▁를	-1698
▁서비스	-1699
▁M	-1700
나라	-1701
금▁을	-1702
▁학생▁입니다	-1703
▁쪽	-1704
▁미성	-1705
▁겪	-1706
매매	-1707
▁기록	-1708
▁사형	-1709
▁점점	-1710
▁지도	-1711
▁행사	-1712
▁문재▁인	-1713
▁청소년▁보호법	-1714
▁말▁도▁안▁되▁는	-1715
▁괴	-1716
가▁는	-1717
▁그대로	-1718
▁암	-1719
▁올바	-1720
▁저런	-1721
▁포기	-1722
▁더니	-1723
▁밥	-1724
▁이▁면	-1725
▁쓸	-1726
구요	-1727
▁국제	-1728
▁나라▁에서	-1729
▁재판	-1730
▁특수	-1731
▁을▁보▁고	-1732
▁사항	-1733
▁평창▁올림픽	-1734
튜브	-1735
▁고민	-1736
▁임신	-1737
▁강력▁한	-1738
▁시키▁고	-1739
▁정부▁의	-1740
▁양성	-1741
▁정책▁을	-1742
▁지금▁까지	-1743
▁나라▁를	-1744
▁지▁않▁게	-1745
▁아▁주▁세요	-1746
▁착	-1747
▁수정	-1748
▁존경	-1749
▁청산	-1750
▁최소한	-1751
▁궁	-1752
▁성매매	-1753
▁정부▁에서	-1754
▁분위	-1755
▁새로	-1756
▁설치	-1757
▁올려	-1758
▁우리▁는	-1759
▁고▁싶▁은	-1760
▁부부	-1761
장▁이	-1762
▁했▁고	-1763
▁해체	-1764
▁학교▁를	-1765
▁제안	-1766
▁유튜브	-1767
▁권리▁를	-1768
▁학생▁들	-1769
▁출전	-1770
▁계약	-1771
▁먹▁고	-1772
▁격	-1773
▁종교	-1774
▁차량	-1775
▁서류	-1776
▁정의	-1777
▁웃	-1778
▁논란	-1779
▁방안	-1780
▁을▁하▁는	-1781
▁사례	-1782
▁옳	-1783
▁소리	-1784
중▁한	-1785
▁그래도	-1786
▁게시	-1787
▁구성	-1788
▁링크	-1789
▁아시안	-1790
▁다니▁는	-1791
▁하▁지▁말	-1792
▁만든	-1793
▁하▁신	-1794
메달	-1795
▁정확	-1796
가지	-1797
▁줘야	-1798
▁주▁시▁기▁바랍니다	-1799
▁잃	-1800
▁확실	-1801
▁하▁는▁바	-1802
▁들▁었▁습니다	-1803
▁우리▁나라▁의	-1804
▁업체	-1805
▁외국인	-1806
▁해야▁하▁는	-1807
▁유지	-1808
▁인성	-1809
▁많▁아	-1810
▁위험	-1811
▁밤	-1812
이▁고	-1813
▁된다고▁생각▁합니다	-1814
▁으면서	-1815
▁선수▁의	-1816
▁난민	-1817
가▁를	-1818
▁따라서	-1819
▁시간▁에	-1820
르▁고	-1821
▁미성년	-1822
▁했▁다고	-1823
▁문재인▁대통령▁님	-1824
▁주▁셨	-1825
▁짜	-1826
▁간곡	-1827
▁얘기	-1828
▁한▁것	-1829
▁방식	-1830
▁발표	-1831
▁도와▁주▁세요	-1832
▁하▁겠▁습니다	-1833
이트	-1834
▁솔직	-1835
▁겠▁죠	-1836
▁알▁고	-1837
▁한▁달	-1838
▁틀	-1839
▁교수	-1840
▁정작	-1841
▁제공	-1842
▁하▁네요	-1843
▁보다▁더	-1844
▁선수▁를	-1845
▁선수▁들▁의	-1846
흥민	-1847
▁여중	-1848
▁건가요	-1849
▁손흥민	-1850
▁우리▁나라▁는	-1851
▁메달	-1852
▁년▁동안	-1853
▁기▁가	-1854
▁지▁고	-1855
▁이▁아니	-1856
▁가짜	-1857
▁고려	-1858
▁국가▁가	-1859
▁하▁나요	-1860
▁기▁때문▁입니다	-1861
▁퍼	-1862
▁내▁가	-1863
▁떨어	-1864
▁산업	-1865
▁평생	-1866
▁아이▁는	-1867
▁어떠	-1868
▁임금	-1869
▁차이	-1870
▁나라▁가	-1871
▁뜻	-1872
▁노출	-1873
▁추가	-1874
▁국민▁을	-1875
▁육아▁휴직	-1876
▁법안	-1877
▁조직	-1878
▁는▁안	-1879
▁었▁는데	-1880
▁페미니즘	-1881
▁제대로▁된	-1882
▁찬	-1883
▁기다	-1884
▁작성	-1885
▁자신▁이	-1886
▁그저	-1887
▁명예	-1888
▁다양▁한	-1889
▁도▁없▁고	-1890
▁를▁위한	-1891
▁졌	-1892
▁답답	-1893
▁잖	-1894
▁팔	-1895
▁조사▁를	-1896
전히	-1897
▁골	-1898
▁우리나라	-1899
▁희생	-1900
id	-1901
▁공공	-1902
릅니다	-1903
▁탄	-1904
▁기대	-1905
▁상담	-1906
▁가▁필요	-1907
▁사람▁을	-1908
▁다고▁생각	-1909
▁을▁수▁있	-1910
▁학생▁들▁을	-1911
▁왕	-1912
▁예전	-1913
▁적극	-1914
▁우리▁의	-1915
▁국공	-1916
▁권력	-1917
▁C	-1918
▁마땅	-1919
▁법률	-1920
▁국회의	-1921
▁했▁지만	-1922
BC	-1923
▁응원	-1924
▁에▁관한	-1925
집니다	-1926
▁국공립	-1927
▁국가▁의	-1928
▁아기	-1929
▁아버	-1930
없▁는	-1931
▁챙	-1932
▁18	-1933
▁동성	-1934
▁전부	-1935
▁하▁기▁위해	-1936
▁김보	-1937
▁높▁은	-1938
▁이▁자	-1939
▁모두▁가	-1940
▁뿐▁입니다	-1941
▁모르▁겠▁습니다	-1942
▁가슴	-1943
▁수행	-1944
인▁을	-1945
▁숙	-1946
▁언어	-1947
▁키우▁는	-1948
▁그▁들▁의	-1949
▁랑	-1950
▁로써	-1951
▁지지	-1952
▁사건▁을	-1953
▁폐지▁를	-1954
▁했▁다는	-1955
▁기에	-1956
▁간곡히	-1957
▁일자	-1958
▁작▁은	-1959
▁국가▁에서	-1960
▁거부	-1961
▁아침	-1962
▁재산	-1963
▁전▁세계	-1964
▁끊	-1965
▁가치	-1966
▁고등학생	-1967
▁저희▁는	-1968
▁순간	-1969
사▁의	-1970
▁모르▁는	-1971
▁40	-1972
▁꾸	-1973
▁치료	-1974
▁선수▁는	-1975
▁에게▁는	-1976
▁해▁주▁시▁고	-1977
▁만▁이	-1978
▁여성▁이	-1979
▁s	-1980
▁의심	-1981
▁이것▁은	-1982
입니다	-1983
▁화장실	-1984
▁붙	-1985
▁김보름	-1986
▁좀▁더	-1987
▁일▁입니다	-1988
▁적▁이▁고	-1989
세요	-1990
▁아도	-1991
▁기회▁를	-1992
▁여성▁의	-1993
▁초등학생	-1994
▁차단	-1995
르▁는	-1996
지막	-1997
▁빨리	-1998
▁악용	-1999
▁꿈▁을	-2000
▁케	-2001
▁존중	-2002
▁크▁게	-2003
▁국민▁들	-2004
▁자율	-2005
▁적▁이	-2006
▁하▁세요	-2007
▁멀	-2008
▁실력	-2009
▁솔직히	-2010
▁하▁다는	-2011
▁무서	-2012
▁이전	-2013
▁삭	-2014
▁나온	-2015
▁노선	-2016
▁명▁이	-2017
▁학생▁이	-2018
▁시키▁는	-2019
▁계획	-2020
▁낙태	-2021
▁비하	-2022
▁에선	-2023
▁으려	-2024
원▁에서	-2025
▁도▁없이	-2026
▁안녕▁하▁십니까	-2027
ti	-2028
▁누군	-2029
▁니다	-2030
▁없▁고	-2031
▁공정▁한	-2032
▁게▁됩니다	-2033
▁보상	-2034
계▁를	-2035
▁됩니까	-2036
▁일▁은	-2037
▁노래	-2038
▁욕설	-2039
▁등급	-2040
▁추진	-2041
▁주▁십시요	-2042
▁잇	-2043
으나	-2044
▁받▁은	-2045
▁에▁대하▁여	-2046
▁요청▁합니다	-2047
▁내려	-2048
▁마지막	-2049
▁심각▁한	-2050
▁기▁위해서	-2051
▁디	-2052
아이	-2053
▁협박	-2054
▁하▁라고	-2055
해서	-2056
▁검토	-2057
▁금액	-2058
▁당하	-2059
▁리그	-2060
▁세대	-2061
▁사법	-2062
▁선거	-2063
▁전체	-2064
tv	-2065
▁수학	-2066
▁를▁통해	-2067
▁걸로	-2068
▁을▁한	-2069
▁지▁않▁도록	-2070
▁좌	-2071
▁받▁아야	-2072
까운	-2073
▁명▁의	-2074
▁다시▁한▁번	-2075
▁근거	-2076
▁인증	-2077
▁지키	-2078
치▁고	-2079
▁충분히	-2080
어도	-2081
▁단지	-2082
▁둘째	-2083
▁인식	-2084
▁이슈	-2085
▁집행	-2086
▁교육▁의	-2087
▁할▁수▁없▁는	-2088
▁노선영	-2089
▁아시안▁게임	-2090
▁빌	-2091
▁클	-2092
▁인권▁을	-2093
▁와서	-2094
▁과▁같▁은	-2095
▁상관	-2096
▁을▁안	-2097
▁가▁있▁는	-2098
▁고▁있▁고	-2099
▁반복	-2100
▁번▁째	-2101
▁마저	-2102
▁비율	-2103
▁내신	-2104
▁보험	-2105
▁조건	-2106
▁달▁라고	-2107
000	-2108
▁서민	-2109
▁문제점	-2110
▁뭔	-2111
훼손	-2112
▁수▁없▁는	-2113
▁이▁없▁는	-2114
▁공연	-2115
▁기억	-2116
▁여학생	-2117
▁예▁를	-2118
▁도▁없▁는	-2119
▁값	-2120
렸▁습니다	-2121
▁벗	-2122
▁목소	-2123
▁신문	-2124
▁학교▁는	-2125
▁쳐	-2126
▁마찬	-2127
▁어찌	-2128
▁국민▁들▁은	-2129
▁촬	-2130
▁남편	-2131
▁이▁아닙니다	-2132
▁보조	-2133
▁신체	-2134
▁이하	-2135
▁도▁아니▁고	-2136
▁가▁있▁습니다	-2137
▁건지	-2138
▁가▁서	-2139
▁아이스	-2140
했▁습니다	-2141
▁슬	-2142
▁간절	-2143
▁그게	-2144
▁들▁고	-2145
▁어떠▁한	-2146
▁이루어지	-2147
▁만들▁어▁주▁세요	-2148
▁궁금	-2149
▁찾아	-2150
▁마찬가지	-2151
▁민주주의	-2152
▁아파트	-2153
▁되▁고▁있▁습니다	-2154
▁롭	-2155
▁공평	-2156
▁사태	-2157
▁소속	-2158
▁지금▁은	-2159
▁분야	-2160
▁함▁을	-2161
▁마시▁고	-2162
▁사회▁에	-2163
▁강간	-2164
▁자랑	-2165
▁채용	-2166
▁상황▁에서	-2167
▁율	-2168
▁학기	-2169
▁입니다▁이	-2170
▁시절	-2171
▁아프	-2172
▁요건	-2173
사▁는	-2174
▁성▁이	-2175
▁분▁들▁은	-2176
▁반성	-2177
▁허위	-2178
▁16	-2179
▁되▁는▁것	-2180
▁하▁시▁고	-2181
▁양심	-2182
▁투표	-2183
▁가능▁한	-2184
▁이번▁에	-2185
▁주▁시▁고	-2186
▁가격	-2187
▁대신	-2188
▁비판	-2189
▁살아	-2190
▁할▁수▁있▁습니다	-2191
▁정당	-2192
▁줄어	-2193
▁평범	-2194
▁구속	-2195
▁군인	-2196
▁신경	-2197
▁보다▁는	-2198
▁교육▁이	-2199
▁사실▁을	-2200
▁텐	-2201
▁의문	-2202
▁국회의원	-2203
▁몰카	-2204
▁나라▁의	-2205
▁m	-2206
▁시▁고	-2207
▁KBS	-2208
▁국민▁은	-2209
▁방치	-2210
▁자라	-2211
▁연락	-2212
소▁를	-2213
▁좋▁겠	-2214
▁낭	-2215
▁태극	-2216
▁포털	-2217
지▁도	-2218
▁엄마▁입니다	-2219
▁강요	-2220
감▁을	-2221
▁관리자	-2222
▁에▁위배	-2223
▁레	-2224
▁있▁고	-2225
▁뿌	-2226
▁개혁	-2227
▁그걸	-2228
▁의▁일부	-2229
▁갈등	-2230
▁비난	-2231
▁었▁다	-2232
▁화▁가	-2233
▁수업▁을	-2234
▁a	-2235
▁갑니다	-2236
▁개인▁의	-2237
▁여러▁가지	-2238
▁진실	-2239
▁시위	-2240
자▁들▁이	-2241
▁미투▁운동	-2242
▁존경▁하▁는	-2243
▁담배	-2244
▁도입	-2245
▁변화	-2246
▁성장	-2247
나▁는	-2248
▁똑같이	-2249
▁촬영	-2250
▁효과	-2251
기▁로	-2252
시▁에	-2253
▁관련▁된	-2254
▁교사▁가	-2255
▁대표▁팀	-2256
▁흔	-2257
라리	-2258
▁공간	-2259
▁급여	-2260
▁납니다	-2261
▁듣▁고	-2262
▁이▁더	-2263
▁오래	-2264
▁을▁해	-2265
▁시급	-2266
도▁를	-2267
▁생리대	-2268
▁스러운	-2269
▁올바른	-2270
▁벌금	-2271
▁그것▁도	-2272
▁대부분▁의	-2273
▁B	-2274
▁인천	-2275
▁을▁막	-2276
▁경험	-2277
▁대우	-2278
▁변경	-2279
▁말▁로	-2280
▁것▁이▁고	-2281
▁누구▁나	-2282
▁책임▁을	-2283
▁왔▁습니다	-2284
▁나쁜	-2285
▁민국	-2286
자▁들	-2287
▁나오▁는	-2288
▁에서▁의	-2289
▁할▁것▁입니다	-2290
▁그룹	-2291
▁두▁고	-2292
▁일까요	-2293
▁다시▁는	-2294
▁앉	-2295
▁합리	-2296
▁14	-2297
▁23	-2298
▁단어	-2299
▁비롯	-2300
▁으시	-2301
▁게▁시	-2302
▁죄▁를	-2303
▁해야▁한다고▁생각▁합니다	-2304
▁동일	-2305
▁버리	-2306
▁하▁려고	-2307
▁해▁주▁십시요	-2308
다가	-2309
▁이혼	-2310
▁등▁으로	-2311
▁률	-2312
▁다름	-2313
▁차라리	-2314
▁부모▁가	-2315
반도	-2316
▁예방	-2317
▁음악	-2318
수록	-2319
▁검색	-2320
▁대다	-2321
▁주민	-2322
심▁을	-2323
옵니다	-2324
중▁에	-2325
▁시켜▁주▁세요	-2326
▁늘려	-2327
▁텐데	-2328
▁실제로	-2329
▁촉	-2330
▁가짜▁뉴스	-2331
▁고▁있▁다	-2332
▁땅	-2333
▁양육비	-2334
▁하▁더라도	-2335
▁군▁면제	-2336
▁대한민국▁에서	-2337
▁끌	-2338
▁인사	-2339
▁안▁되	-2340
▁2017	-2341
동안	-2342
자기	-2343
▁일으	-2344
▁이▁든	-2345
▁혈	-2346
▁소통	-2347
▁적어도	-2348
▁을▁받▁고	-2349
▁부끄	-2350
▁지속	-2351
▁갑자기	-2352
▁년▁에	-2353
▁당한	-2354
기▁고	-2355
▁만▁을	-2356
▁마음▁이	-2357
▁말▁입니다	-2358
▁을▁보▁면	-2359
▁성희	-2360
▁아이돌	-2361
▁법▁으로	-2362
▁윤	-2363
▁설명	-2364
▁수험	-2365
▁이▁니	-2366
▁한반도	-2367
▁청소년▁들▁이	-2368
▁줬	-2369
▁성희롱	-2370
▁을▁입	-2371
▁똑같▁은	-2372
야▁하▁는	-2373
▁내년	-2374
▁지금▁도	-2375
워서	-2376
▁동계	-2377
▁가▁고	-2378
▁페미니스트	-2379
▁합법	-2380
▁년▁전	-2381
▁짧	-2382
▁스타	-2383
▁에▁살	-2384
▁에▁따른	-2385
대▁한	-2386
인▁은	-2387
▁다고▁봅니다	-2388
▁13	-2389
▁드라	-2390
▁작년	-2391
▁제외	-2392
▁훼손	-2393
▁권▁을	-2394
▁법▁적	-2395
▁위하▁여	-2396
▁힘들▁어	-2397
▁이▁되▁는	-2398
▁대한민국▁은	-2399
생활	-2400
▁의원	-2401
자▁로	-2402
▁어머니	-2403
▁해▁주▁는	-2404
▁황	-2405
▁홍보	-2406
▁원합니다	-2407
▁k	-2408
어난	-2409
▁정해	-2410
▁블	-2411
▁택	-2412
▁변호	-2413
▁돌아가	-2414
▁이▁없▁습니다	-2415
▁제목	-2416
▁새로운	-2417
▁문제▁로	-2418
▁다▁보▁니	-2419
▁냐고	-2420
▁연구	-2421
▁철저히	-2422
▁수▁없▁습니다	-2423
▁더불	-2424
▁배려	-2425
▁중고	-2426
▁힘들▁게	-2427
▁전용	-2428
물▁을	-2429
▁가▁야	-2430
▁아▁시	-2431
▁상황▁이	-2432
▁아야▁합니다	-2433
하키	-2434
▁자료	-2435
▁취소	-2436
▁아이스하키	-2437
▁국방▁의▁의무	-2438
▁마치	-2439
▁믿▁고	-2440
▁장학	-2441
▁충격	-2442
▁금메달	-2443
▁생활▁을	-2444
▁행위▁를	-2445
▁상황▁입니다	-2446
▁어린이집▁에	-2447
▁선진	-2448
▁경기▁를	-2449
으며	-2450
▁무기	-2451
▁법▁은	-2452
▁얼마▁전	-2453
요일	-2454
▁도박	-2455
▁을▁줄	-2456
▁자체▁가	-2457
▁생각▁해▁보	-2458
▁사회▁의	-2459
▁을▁이용	-2460
▁그▁들▁이	-2461
▁어쩔	-2462
▁집중	-2463
▁구조	-2464
▁동성애	-2465
▁속▁에서	-2466
▁세금▁으로	-2467
야▁한다고▁생각▁합니다	-2468
▁원칙	-2469
▁장려	-2470
▁최고	-2471
▁평범▁한	-2472
왔▁습니다	-2473
마트	-2474
▁제재	-2475
▁기존	-2476
▁버스	-2477
▁쓰레	-2478
▁퇴근	-2479
▁저▁를	-2480
▁로▁인한	-2481
▁을▁겁니다	-2482
▁옷	-2483
▁모욕	-2484
부▁를	-2485
▁폭행▁사건	-2486
▁되▁어▁있▁습니다	-2487
▁사망	-2488
지▁고	-2489
▁젊▁은	-2490
▁지금▁의	-2491
▁수▁도▁있	-2492
▁ᅲ	-2493
▁구매	-2494
▁방해	-2495
▁가▁될	-2496
▁더불▁어	-2497
▁삭제	-2498
▁일정	-2499
▁나▁는	-2500
▁겠▁지요	-2501
▁내용▁을	-2502
▁이▁없▁어	-2503
▁현실▁입니다	-2504
▁괜	-2505
▁개최	-2506
▁끼리	-2507
▁무고죄	-2508
▁그럴	-2509
▁봐도	-2510
▁사유	-2511
▁드라마	-2512
▁일▁베	-2513
▁겠▁다고	-2514
▁돌봄▁교실	-2515
▁너무나▁도	-2516
▁할▁것	-2517
▁계시	-2518
▁17	-2519
▁상식	-2520
▁최대	-2521
▁출근	-2522
▁엄청난	-2523
▁미래▁를	-2524
▁지▁못하▁는	-2525
▁국민▁들▁에게	-2526
▁아예	-2527
▁허용	-2528
▁활용	-2529
▁게▁시물	-2530
▁시험▁을	-2531
▁분▁이	-2532
▁자격증	-2533
▁선수▁들▁을	-2534
▁그때	-2535
▁단속	-2536
▁몇몇	-2537
▁쓰▁는	-2538
▁그▁들▁은	-2539
▁해야▁한다	-2540
▁뻔	-2541
▁보▁기	-2542
▁스마트	-2543
▁중학생	-2544
▁때▁마다	-2545
▁법▁적▁으로	-2546
▁빈	-2547
▁줍	-2548
▁인기	-2549
▁아니▁라고	-2550
▁게▁해▁주▁세요	-2551
▁쓴	-2552
▁소비	-2553
▁재학	-2554
▁괴롭	-2555
▁저지른	-2556
▁그것▁이	-2557
▁수험▁생	-2558
▁에게▁도	-2559
▁되▁고▁있▁는	-2560
▁도시	-2561
▁박지	-2562
▁투명	-2563
르▁면	-2564
▁그러▁니	-2565
▁어야▁합니다	-2566
▁쇼	-2567
▁자연	-2568
▁훨	-2569
▁낭비	-2570
▁아마	-2571
▁역할	-2572
▁잖아	-2573
장▁은	-2574
디어	-2575
라인	-2576
▁려는	-2577
▁반영	-2578
▁어제	-2579
▁을▁이	-2580
▁하▁실	-2581
▁고용	-2582
심▁으로	-2583
▁사회▁에서	-2584
▁을▁수▁있▁는	-2585
▁유명	-2586
도▁가	-2587
▁학교▁의	-2588
▁거주	-2589
▁한국▁의	-2590
▁지▁말▁고	-2591
▁이야기▁를	-2592
▁떠나	-2593
▁법원	-2594
▁의사	-2595
▁통신	-2596
▁무죄	-2597
▁행태	-2598
▁인터뷰	-2599
▁을▁받▁는	-2600
▁사람▁들▁의	-2601
레이	-2602
▁연금	-2603
▁이것▁이	-2604
▁더라구요	-2605
▁때▁부터	-2606
▁하▁기▁도	-2607
▁셧	-2608
▁익	-2609
다운	-2610
▁불가	-2611
▁빠른	-2612
▁을▁가진	-2613
▁할▁수▁없▁습니다	-2614
▁민원	-2615
▁위치	-2616
▁만들▁고	-2617
▁방지	-2618
▁폐쇄	-2619
▁이▁가	-2620
▁한▁거	-2621
▁관리자▁에▁의해	-2622
▁시점	-2623
▁저질	-2624
▁형사	-2625
▁교사▁의	-2626
▁만드▁는	-2627
▁보입니다	-2628
▁읍	-2629
▁고발	-2630
▁까지▁는	-2631
▁에▁위배▁되▁어	-2632
▁하▁고자	-2633
▁들▁입니다	-2634
▁이▁글▁을	-2635
▁국민▁청원▁요건	-2636
▁왜곡	-2637
▁늘어나	-2638
▁는▁것▁을	-2639
▁않▁습니다	-2640
▁음▁에▁도	-2641
▁이▁었▁습니다	-2642
▁수정▁되▁었▁습니다	-2643
어진	-2644
▁머리	-2645
▁므로	-2646
▁원▁하▁는	-2647
▁의▁일부▁내용▁이	-2648
▁꼴	-2649
▁염	-2650
▁잊	-2651
▁교원	-2652
▁무섭	-2653
▁합격	-2654
▁본▁게▁시물	-2655
▁담임	-2656
▁따로	-2657
▁방향	-2658
▁종합	-2659
▁합의	-2660
▁관계자	-2661
▁합시다	-2662
▁교육▁은	-2663
▁또▁다른	-2664
▁하▁지▁않▁습니다	-2665
▁층	-2666
당히	-2667
성▁화	-2668
▁요구▁합니다	-2669
▁하▁지▁않▁은	-2670
▁컨	-2671
거리	-2672
▁참가	-2673
▁학생▁부	-2674
▁이▁필요▁합니다	-2675
▁민족	-2676
▁제작	-2677
▁을▁위해서	-2678
▁자신▁들▁의	-2679
▁견	-2680
▁순위	-2681
▁알아	-2682
▁해요	-2683
▁년▁을	-2684
▁시▁는	-2685
▁아▁는	-2686
▁미성년자	-2687
▁하▁였▁고	-2688
ns	-2689
▁셋	-2690
저히	-2691
▁년▁도	-2692
▁많▁고	-2693
▁애▁들	-2694
▁한▁부모	-2695
▁지▁못하▁고	-2696
▁하▁고▁싶▁은	-2697
▁의혹	-2698
▁간절히	-2699
▁로부터	-2700
▁기▁도▁합니다	-2701
▁폐지▁해▁주▁세요	-2702
▁필수	-2703
▁훨씬	-2704
▁학생▁의	-2705
▁브	-2706
▁쯤	-2707
▁헤	-2708
일보	-2709
▁눈치	-2710
▁다녀	-2711
▁하▁려는	-2712
▁박근	-2713
▁설립	-2714
▁떨어지	-2715
▁이유▁가	-2716
▁거리	-2717
▁신뢰	-2718
▁예비	-2719
▁진학	-2720
▁법▁의	-2721
▁사람▁들▁을	-2722
▁선수▁들▁은	-2723
▁하▁지▁말▁고	-2724
▁부당	-2725
▁겠▁다는	-2726
▁어느▁정도	-2727
▁입장▁에서	-2728
▁국민▁들▁을	-2729
▁감정	-2730
▁방문	-2731
▁의식	-2732
▁일단	-2733
▁중계	-2734
▁강력히	-2735
▁에▁걸	-2736
▁ᄏ	-2737
▁선동	-2738
▁어려움	-2739
▁언론사	-2740
▁부산▁여중	-2741
▁깊	-2742
▁동영	-2743
▁전쟁	-2744
▁촉구	-2745
▁출연	-2746
▁만▁한	-2747
▁문화재	-2748
▁분▁들▁도	-2749
▁적폐▁청산	-2750
▁굳	-2751
▁공동	-2752
▁두려	-2753
▁명백	-2754
▁소송	-2755
▁일방	-2756
▁경기도	-2757
▁에▁대해서▁는	-2758
▁무상	-2759
▁돈▁이	-2760
▁선수▁들▁에게	-2761
▁청원▁드립니다	-2762
▁조장	-2763
▁스마트폰	-2764
▁의견▁을	-2765
▁활동▁을	-2766
20	-2767
▁척	-2768
▁컬	-2769
▁콘	-2770
▁통과	-2771
▁공교육	-2772
▁는▁것▁입니다	-2773
▁가수	-2774
▁기술	-2775
▁끝나	-2776
▁취급	-2777
▁간▁의	-2778
▁박근혜	-2779
▁었▁지만	-2780
▁도▁없▁습니다	-2781
▁게▁될	-2782
▁모르▁겠	-2783
▁힘듭니다	-2784
▁놈	-2785
▁드러	-2786
▁연기	-2787
▁으라	-2788
▁하▁죠	-2789
▁달라	-2790
▁우려	-2791
▁는▁없	-2792
▁쓰▁고	-2793
▁시킨	-2794
▁자세	-2795
▁강제▁로	-2796
▁아동▁학대	-2797
▁동계▁올림픽	-2798
▁p	-2799
▁자주	-2800
▁절차	-2801
▁주일	-2802
▁형량	-2803
▁누군가	-2804
▁사회▁가	-2805
▁에▁비해	-2806
▁을▁보여	-2807
▁안▁되▁는	-2808
▁일▁하▁는	-2809
▁돌려	-2810
▁위주	-2811
▁페이	-2812
▁에▁한	-2813
▁줄어들	-2814
▁되▁어야▁합니다	-2815
▁e	-2816
▁25	-2817
▁선정	-2818
▁실망	-2819
▁위안	-2820
▁종일	-2821
▁말▁은	-2822
▁성▁차별	-2823
▁았▁는데	-2824
▁으로▁는	-2825
▁처벌▁이	-2826
▁읽▁어▁주	-2827
▁곧	-2828
▁묵	-2829
▁나아가	-2830
▁쓰레기	-2831
▁학교▁가	-2832
▁시킬	-2833
▁오후	-2834
▁유포	-2835
▁선진국	-2836
▁곳▁에서	-2837
▁정보▁를	-2838
▁지원▁을	-2839
▁대한▁민국	-2840
▁고▁있▁다는	-2841
▁온갖	-2842
만▁원	-2843
▁등▁이	-2844
▁일▁들▁이	-2845
▁거▁같▁습니다	-2846
▁입니다▁하지만	-2847
▁홈	-2848
▁21	-2849
▁미세	-2850
▁에겐	-2851
▁물▁어	-2852
▁여자▁가	-2853
나마	-2854
▁첫째	-2855
▁소중▁한	-2856
▁억울▁한	-2857
▁의무▁화	-2858
▁횡	-2859
어져	-2860
▁행동▁을	-2861
▁낸	-2862
▁뒷	-2863
▁사회▁를	-2864
졌▁습니다	-2865
▁그렇▁다고	-2866
▁사람▁들▁에게	-2867
▁광주	-2868
▁급식	-2869
하▁면	-2870
▁내▁고	-2871
▁이▁죠	-2872
▁라고▁생각	-2873
▁피해자▁의	-2874
▁해▁주▁시▁길▁바랍니다	-2875
▁났	-2876
▁유린	-2877
▁인격	-2878
대▁를	-2879
▁지원금	-2880
야▁한다	-2881
▁생각▁이▁듭니다	-2882
으로	-2883
▁성공	-2884
▁이거	-2885
오▁는	-2886
▁까지▁도	-2887
▁주▁시▁길	-2888
▁지▁않▁으면	-2889
▁할까요	-2890
▁야▁합니다	-2891
▁24	-2892
▁등교	-2893
▁사기	-2894
▁실수	-2895
장▁의	-2896
▁아버지	-2897
▁기▁위한	-2898
▁스럽▁게	-2899
▁피해자▁는	-2900
▁대한민국▁국민	-2901
▁쌓	-2902
▁지정	-2903
▁잖아요	-2904
▁하▁라는	-2905
▁교육▁과정	-2906
ctv	-2907
▁장난	-2908
▁이상▁의	-2909
▁자녀▁를	-2910
▁듯▁합니다	-2911
▁차원▁에서	-2912
▁세월	-2913
▁채널	-2914
▁학업	-2915
화▁를	-2916
▁살▁아	-2917
▁사건▁은	-2918
▁끔	-2919
▁고생	-2920
▁장소	-2921
▁을▁보내	-2922
▁처벌▁을▁받	-2923
▁소수	-2924
▁점수	-2925
▁에▁불	-2926
▁해▁주▁시▁면	-2927
▁려면	-2928
▁님▁이	-2929
▁해▁줄	-2930
▁추구	-2931
▁카드	-2932
▁아무것	-2933
▁본인▁이	-2934
▁알▁고▁있	-2935
▁여성▁들▁이	-2936
▁P	-2937
▁도서	-2938
▁생겨	-2939
▁코치	-2940
행▁을	-2941
▁이▁들	-2942
▁선생▁님▁이	-2943
아들	-2944
▁제출	-2945
▁증가	-2946
▁카페	-2947
▁인권▁침해	-2948
▁동생	-2949
▁바람	-2950
▁성과	-2951
▁중간	-2952
▁2019	-2953
▁지▁않▁아	-2954
시아	-2955
▁내부	-2956
▁어떨	-2957
▁왕따	-2958
▁집▁에	-2959
▁마음▁에	-2960
자▁들▁의	-2961
▁하▁지▁못	-2962
▁하▁기▁위해서	-2963
▁공감	-2964
▁느껴	-2965
▁당사	-2966
▁모자	-2967
▁위반	-2968
▁흐	-2969
▁목숨	-2970
▁실정	-2971
▁컬링	-2972
▁그나마	-2973
▁E	-2974
▁맨	-2975
▁대입	-2976
▁성별	-2977
▁치마	-2978
▁안타깝	-2979
▁하▁는▁것▁을	-2980
▁었▁으면▁합니다	-2981
▁덜	-2982
▁겨울	-2983
▁경력	-2984
▁교통	-2985
▁대중	-2986
▁든지	-2987
▁인재	-2988
▁의▁무	-2989
▁달▁라는	-2990
▁썩	-2991
▁눈물	-2992
▁비슷	-2993
▁통합	-2994
▁어▁지	-2995
▁해▁주▁셨▁으면▁합니다	-2996
▁무너	-2997
▁약속	-2998
도▁로	-2999
▁강력▁하▁게	-3000
▁던지	-3001
▁주말	-3002
▁앞▁에	-3003
▁뜨	-3004
▁송	-3005
▁개발	-3006
▁독립	-3007
지▁로	-3008
▁때▁는	-3009
▁을▁갖	-3010
▁ᄏᄏ	-3011
▁기분	-3012
▁제일	-3013
▁또▁한	-3014
▁도▁아닌	-3015
려고	-3016
▁어쩌	-3017
▁혹시	-3018
▁돈▁으로	-3019
▁선생▁님▁들	-3020
▁SN	-3021
▁국정	-3022
▁다며	-3023
▁부여	-3024
▁실질	-3025
이▁를	-3026
▁과▁의	-3027
▁지▁마	-3028
▁앞▁에서	-3029
▁석	-3030
▁캐	-3031
▁임용	-3032
▁판사	-3033
▁게시판	-3034
▁cctv	-3035
▁방송▁을	-3036
▁부모▁의	-3037
▁안▁전	-3038
▁에▁의한	-3039
▁조치▁를	-3040
▁그렇▁다면	-3041
▁주▁시▁길▁바랍니다	-3042
▁혁	-3043
▁흡	-3044
▁휴가	-3045
▁나▁서	-3046
▁롭▁게	-3047
▁을▁했	-3048
▁매년	-3049
▁으신	-3050
▁처우	-3051
▁가▁며	-3052
▁내▁는	-3053
▁미세먼	-3054
▁되▁는데	-3055
▁을▁보호	-3056
▁이상▁한	-3057
려서	-3058
▁국어	-3059
▁위안부	-3060
▁의▁한	-3061
▁핸	-3062
▁보통	-3063
▁사무	-3064
▁수단	-3065
▁신분	-3066
▁다▁들	-3067
▁일▁에	-3068
▁범죄▁가	-3069
▁I	-3070
▁옆	-3071
▁근본	-3072
▁다만	-3073
▁다운	-3074
▁실명	-3075
▁혐의	-3076
▁대상▁으로	-3077
▁더▁많▁은	-3078
▁피해자▁를	-3079
▁투자	-3080
서▁서	-3081
▁상황▁을	-3082
자▁들▁은	-3083
▁다른▁나라	-3084
▁다는▁이유▁로	-3085
▁미약	-3086
▁봐야	-3087
▁애국	-3088
▁그동안	-3089
▁본인▁의	-3090
▁여성▁을	-3091
▁을▁받▁아	-3092
▁굳이	-3093
▁심사	-3094
▁한번	-3095
지▁에	-3096
▁교육감	-3097
▁양성▁평등	-3098
▁해▁주▁시▁길	-3099
▁60	-3100
▁기능	-3101
▁중단	-3102
▁집니다	-3103
▁뉴스▁를	-3104
▁신고▁를	-3105
▁굉	-3106
▁뭘	-3107
▁촛	-3108
▁약자	-3109
▁인원	-3110
▁키워	-3111
▁로▁는	-3112
▁이▁넘	-3113
▁불▁가능	-3114
에도	-3115
▁기초	-3116
▁인구	-3117
▁박지우	-3118
▁여전히	-3119
▁여성▁은	-3120
▁아이▁를▁낳	-3121
▁지▁않▁습니까	-3122
▁o	-3123
▁품	-3124
▁전환	-3125
▁MBC	-3126
▁받▁았	-3127
▁언제▁까지	-3128
▁고객	-3129
▁수십	-3130
▁음란	-3131
▁혼란	-3132
▁도저히	-3133
▁을▁것	-3134
▁힘▁을	-3135
▁녹	-3136
▁딱	-3137
▁보수	-3138
▁심한	-3139
▁운전	-3140
▁게다가	-3141
▁정당▁한	-3142
▁기본▁적▁인	-3143
▁달리	-3144
▁버린	-3145
▁예▁를▁들▁어	-3146
ew	-3147
▁n	-3148
▁굉장	-3149
▁선고	-3150
▁수신	-3151
▁유해	-3152
▁특혜	-3153
▁경찰서	-3154
▁일자리	-3155
▁싶▁습니다	-3156
▁과학	-3157
▁대출	-3158
▁아님	-3159
▁저작	-3160
▁티비	-3161
▁을▁치	-3162
▁자▁가	-3163
▁교사▁는	-3164
▁고▁있▁으며	-3165
▁문제▁입니다	-3166
▁증명	-3167
▁청소	-3168
▁SNS	-3169
▁수사▁를	-3170
▁생각▁하▁고	-3171
▁셔서▁감사▁합니다	-3172
▁움	-3173
▁70	-3174
▁언급	-3175
▁을▁살	-3176
▁정신▁적	-3177
▁하▁더군요	-3178
▁짐	-3179
▁촛불	-3180
▁높▁아	-3181
▁장학금	-3182
▁폐지▁하▁고	-3183
▁ᅳ	-3184
▁끔찍	-3185
▁독일	-3186
▁번호	-3187
▁위협	-3188
▁키울	-3189
▁후보	-3190
▁곳▁이	-3191
▁제도▁가	-3192
▁말▁하▁는	-3193
▁하▁지▁마	-3194
▁문제▁가▁있	-3195
▁말▁이▁됩니까	-3196
▁시▁면	-3197
▁남자▁가	-3198
▁사람▁의	-3199
▁입▁니까	-3200
▁펼	-3201
▁괜찮	-3202
▁교장	-3203
▁기▁만	-3204
▁하나▁의	-3205
▁주▁시▁면	-3206
▁에▁있▁어서	-3207
▁거기	-3208
▁배정	-3209
▁이젠	-3210
▁출소	-3211
▁휴게	-3212
자▁에게	-3213
▁으로▁인한	-3214
▁아이▁들▁과	-3215
▁어리	-3216
▁저희▁가	-3217
▁정치▁적	-3218
▁되▁지▁않▁는	-3219
▁합니다▁하지만	-3220
▁땀	-3221
▁흉	-3222
상▁이	-3223
▁거▁같	-3224
▁적▁은	-3225
▁여기▁서	-3226
▁이해▁가	-3227
▁학생▁은	-3228
▁아이▁에게	-3229
▁을▁수▁없	-3230
▁기▁를▁바랍니다	-3231
텐츠	-3232
▁만나	-3233
세▁를	-3234
▁분명히	-3235
▁여자▁는	-3236
▁마음▁으로	-3237
▁수▁밖▁에	-3238
▁솜	-3239
▁느라	-3240
▁대구	-3241
▁죽음	-3242
▁대학생	-3243
▁을▁더	-3244
▁과▁함께	-3245
▁지▁도▁못	-3246
▁흥	-3247
딩크	-3248
▁잔인	-3249
▁들▁로	-3250
▁으면▁좋▁겠	-3251
▁꼬	-3252
▁국립	-3253
▁납득	-3254
▁수치	-3255
▁시도	-3256
▁정규	-3257
부▁가	-3258
▁단순히	-3259
▁많▁은데	-3260
▁다는▁것▁을	-3261
▁권한	-3262
▁만▁있	-3263
▁봤▁습니다	-3264
▁하▁지▁않▁았	-3265
▁문재▁인▁대통령▁님	-3266
▁지내	-3267
리▁한	-3268
▁게임▁을	-3269
▁교사▁를	-3270
▁진정▁한	-3271
▁그건	-3272
▁일삼	-3273
▁대▁기업	-3274
▁시대▁에	-3275
▁으로▁이	-3276
▁생각▁하▁는	-3277
▁지▁고▁있▁습니다	-3278
▁매체	-3279
▁원하	-3280
성▁을	-3281
▁시▁에	-3282
▁읍니다	-3283
▁부족▁한	-3284
▁사건▁의	-3285
▁지금▁이	-3286
▁하▁다가	-3287
▁무시▁하▁고	-3288
▁손해	-3289
▁여성▁전용	-3290
▁입니다▁저▁는	-3291
▁음▁에▁도▁불구▁하▁고	-3292
▁저녁	-3293
▁전달	-3294
▁추월	-3295
▁속▁에	-3296
▁할머니	-3297
▁의무▁를	-3298
▁지▁않▁을까	-3299
▁논리	-3300
▁시기	-3301
▁과▁는	-3302
▁히딩크	-3303
▁가▁너무	-3304
▁그러▁한	-3305
▁모르▁고	-3306
▁와▁같이	-3307
인▁들▁이	-3308
▁들▁에▁대한	-3309
▁피해▁를▁입	-3310
깁니다	-3311
▁생각▁해	-3312
▁가▁없▁는	-3313
▁를▁보▁고	-3314
▁해야▁한다고	-3315
▁강사	-3316
▁무료	-3317
▁사안	-3318
▁소방	-3319
▁여행	-3320
▁제기	-3321
점▁을	-3322
▁로▁이	-3323
▁십니다	-3324
▁은▁그	-3325
▁화▁를	-3326
▁학생▁을	-3327
▁었▁으면▁좋▁겠▁습니다	-3328
▁동네	-3329
▁마약	-3330
▁아내	-3331
▁연습	-3332
▁넘어가	-3333
▁정책▁이	-3334
▁이해▁가▁안	-3335
▁는▁것▁같▁습니다	-3336
▁겟	-3337
▁풍	-3338
▁기타	-3339
▁비교	-3340
▁등록금	-3341
▁내용▁은	-3342
▁하▁고▁그	-3343
▁많▁은▁사람▁들▁이	-3344
▁집안	-3345
▁출신	-3346
우▁고	-3347
▁버리▁고	-3348
▁정상▁적▁인	-3349
▁감시	-3350
▁공익	-3351
▁당했	-3352
▁제정	-3353
▁지상	-3354
▁진술	-3355
▁징계	-3356
▁교과서	-3357
▁이▁많이	-3358
▁중▁하나	-3359
▁국민▁에게	-3360
▁지▁않▁을	-3361
▁되▁어▁있▁는	-3362
▁로운	-3363
▁비싼	-3364
▁삼성	-3365
▁음주	-3366
▁임산	-3367
▁대학▁에	-3368
▁교육▁을▁받	-3369
▁객	-3370
▁불만	-3371
▁안정	-3372
▁참고	-3373
▁처분	-3374
▁곳▁에	-3375
▁이▁이	-3376
▁조▁차	-3377
▁어린아이	-3378
▁언론▁의	-3379
▁게▁하▁는	-3380
▁말▁이▁죠	-3381
▁우리▁나라▁에서	-3382
▁이▁라▁생각▁합니다	-3383
▁공식	-3384
▁모아	-3385
▁생겼	-3386
▁원래	-3387
▁확률	-3388
▁굉장히	-3389
▁을▁마련	-3390
▁관람	-3391
▁태어나	-3392
▁시▁까지	-3393
▁웹	-3394
▁ᅲᅲ	-3395
▁관광	-3396
▁민간	-3397
▁자국	-3398
▁주차	-3399
▁지식	-3400
▁짓밟	-3401
▁편파	-3402
▁전문가	-3403
▁치▁않	-3404
▁과정▁에서	-3405
▁우리▁나라▁가	-3406
▁옛	-3407
▁구분	-3408
▁심신	-3409
▁예정	-3410
▁전공	-3411
▁차례	-3412
▁형평	-3413
▁셧다운	-3414
▁께서▁는	-3415
▁을▁지켜	-3416
▁곤	-3417
▁놀이	-3418
▁명시	-3419
▁엄벌	-3420
▁통제	-3421
▁해라	-3422
구▁를	-3423
▁게▁된	-3424
▁살▁기	-3425
▁안▁에	-3426
▁자▁는	-3427
▁시간▁은	-3428
▁아닐까요	-3429
▁대한민국▁이	-3430
▁을▁수▁없▁는	-3431
re	-3432
▁O	-3433
▁핵	-3434
자녀	-3435
▁나올	-3436
▁세력	-3437
▁실업	-3438
▁그것▁을	-3439
▁하▁는▁것▁도	-3440
▁하▁지▁도▁않	-3441
▁대처	-3442
▁몰라	-3443
▁를▁안	-3444
▁선생▁님▁들▁이	-3445
▁뇌	-3446
장▁에서	-3447
▁그러므로	-3448
▁포털▁사이트	-3449
▁체험	-3450
도▁한	-3451
▁으니까	-3452
▁후▁에	-3453
▁세상▁에	-3454
▁안▁에서	-3455
▁정도▁의	-3456
▁사람▁입니다	-3457
▁이런▁일▁이	-3458
▁됬	-3459
▁개념	-3460
▁계신	-3461
▁수익	-3462
▁스러	-3463
▁자동	-3464
▁좋아	-3465
▁찬성	-3466
▁파악	-3467
고▁를	-3468
▁다자녀	-3469
▁미디어	-3470
▁온라인	-3471
▁잡▁아	-3472
▁하▁에	-3473
▁마음▁을	-3474
▁영향▁을	-3475
▁가해자▁가	-3476
▁이▁됩니다	-3477
▁해▁주▁고	-3478
▁덕	-3479
▁됨	-3480
마디	-3481
▁CC	-3482
▁공기	-3483
▁가▁면	-3484
▁메▁갈	-3485
▁수용	-3486
▁야간	-3487
▁인상	-3488
명▁을	-3489
▁걸까요	-3490
▁게▁되	-3491
▁은▁이	-3492
▁동시▁에	-3493
▁수▁가▁없	-3494
▁하▁지▁못한	-3495
▁문재인▁대통령	-3496
▁씁	-3497
▁건데	-3498
▁진로	-3499
▁퇴출	-3500
▁학급	-3501
▁회장	-3502
부▁는	-3503
▁참으로	-3504
▁일▁주일	-3505
▁혜택▁을	-3506
▁어린이▁집▁에서	-3507
▁고교	-3508
▁모집	-3509
▁접수	-3510
▁판정	-3511
십니까	-3512
자▁와	-3513
▁국▁대	-3514
▁수행평	-3515
▁습니다▁하지만	-3516
▁엄중	-3517
▁자는	-3518
▁한글	-3519
▁현행	-3520
▁해▁준	-3521
▁보여▁주	-3522
▁철저▁한	-3523
▁도▁있▁고	-3524
▁목적▁으로	-3525
▁하▁게▁되▁었▁습니다	-3526
30	-3527
▁노인	-3528
▁불러	-3529
▁수입	-3530
▁올린	-3531
▁의료	-3532
▁최선	-3533
▁토론	-3534
▁거▁죠	-3535
▁동영상	-3536
▁아닌가	-3537
▁제▁를	-3538
망이	-3539
▁80	-3540
▁싸움	-3541
▁장면	-3542
▁이▁많	-3543
▁같▁은데	-3544
▁남자▁는	-3545
▁뿐▁아니▁라	-3546
▁하▁는▁것▁입니다	-3547
▁자꾸	-3548
▁어▁이	-3549
▁위▁에	-3550
▁다▁라는	-3551
▁팀▁추월	-3552
▁분▁들▁의	-3553
▁이유▁만▁으로	-3554
▁핑	-3555
▁가진	-3556
▁거래	-3557
연히	-3558
▁22	-3559
▁다닐	-3560
▁몰래	-3561
▁세워	-3562
▁실행	-3563
▁여름	-3564
▁핸드	-3565
▁형편	-3566
리▁며	-3567
원▁은	-3568
절▁한	-3569
▁거▁라	-3570
▁거짓말	-3571
▁니까요	-3572
▁문화▁를	-3573
▁었▁다고	-3574
▁이▁가능	-3575
▁이유▁를	-3576
▁에▁맞▁는	-3577
▁주▁셨▁으면▁합니다	-3578
▁겨우	-3579
▁대응	-3580
▁사정	-3581
▁시달	-3582
▁조정	-3583
악▁한	-3584
▁소리▁를	-3585
▁저▁에게	-3586
▁현재▁의	-3587
▁재학▁중▁인	-3588
▁나갈	-3589
▁명목	-3590
▁선양	-3591
▁연령	-3592
▁이행	-3593
▁일어난	-3594
▁CCTV	-3595
▁또▁다시	-3596
▁영어▁를	-3597
▁을▁가지	-3598
▁보건	-3599
▁일제	-3600
▁조롱	-3601
전▁에	-3602
▁님▁들	-3603
▁부당▁한	-3604
▁이런▁식▁으로	-3605
▁탓	-3606
▁햇	-3607
▁다를	-3608
▁목표	-3609
▁기▁는	-3610
▁남성▁이	-3611
▁한국▁축구	-3612
▁청소년▁들▁의	-3613
▁뿌리	-3614
▁일상	-3615
▁지하	-3616
▁통일	-3617
▁한데	-3618
우▁는	-3619
▁가장▁큰	-3620
▁경찰▁이	-3621
▁상대▁로	-3622
▁하▁십니까	-3623
▁현장▁에서	-3624
▁J	-3625
▁00	-3626
▁나왔	-3627
▁도덕	-3628
▁명확	-3629
▁태권	-3630
▁두▁번	-3631
▁민주당	-3632
▁방송사	-3633
▁어떨까	-3634
▁을▁찾	-3635
▁모릅니다	-3636
▁으로▁만	-3637
▁것▁이▁며	-3638
▁하▁고▁있▁는데	-3639
다니	-3640
▁다르	-3641
▁이사	-3642
▁정서	-3643
방망이	-3644
▁낮▁은	-3645
▁늦▁게	-3646
▁기▁전▁에	-3647
▁국민▁여러분	-3648
▁이▁라는▁이유▁로	-3649
▁감사▁하▁겠▁습니다	-3650
▁엉	-3651
▁느낌	-3652
▁환불	-3653
▁남▁아	-3654
▁받아들	-3655
▁한마디	-3656
▁화▁가▁나	-3657
▁가▁아니▁라	-3658
▁엘	-3659
거운	-3660
▁의도	-3661
▁년▁생	-3662
▁식▁의	-3663
▁을▁해야	-3664
▁를▁보▁면	-3665
▁컴	-3666
▁대화	-3667
▁태도	-3668
▁통한	-3669
▁사생활	-3670
▁당하▁는	-3671
▁솜방망이	-3672
▁에▁해당	-3673
▁에▁가▁서	-3674
▁궁금▁합니다	-3675
▁지▁않▁을까요	-3676
▁하▁고▁있▁고	-3677
▁읽▁어▁주▁셔서▁감사▁합니다	-3678
▁탁	-3679
메라	-3680
▁건물	-3681
▁결론	-3682
▁나머	-3683
▁비중	-3684
▁전학	-3685
▁진출	-3686
▁티켓	-3687
▁폭언	-3688
▁그래야	-3689
▁그러면	-3690
▁교사▁들▁이	-3691
▁남북▁단일팀	-3692
▁스럽▁습니다	-3693
▁운영▁하▁는	-3694
▁처벌▁해▁주▁세요	-3695
▁D	-3696
▁보낼	-3697
▁에요	-3698
히▁고	-3699
▁는데요	-3700
▁러시아	-3701
▁면서▁도	-3702
▁빛	-3703
▁쌍	-3704
▁쏟	-3705
하면	-3706
▁발달	-3707
▁시켰	-3708
▁케이	-3709
▁를▁입	-3710
▁2016	-3711
▁로▁인하▁여	-3712
▁범죄▁를▁저지	-3713
18	-3714
현수	-3715
▁물질	-3716
▁시선	-3717
▁심리	-3718
▁축제	-3719
▁남학생	-3720
▁는▁이	-3721
▁의▁주	-3722
▁제도▁는	-3723
▁되▁었▁고	-3724
▁밑	-3725
▁휘	-3726
자체	-3727
▁들여	-3728
▁외면	-3729
▁중심	-3730
▁통보	-3731
대▁로	-3732
▁국가▁를	-3733
▁기준▁으로	-3734
▁들▁에게▁는	-3735
in	-3736
▁미안	-3737
▁생길	-3738
▁스케	-3739
▁일찍	-3740
▁중독	-3741
▁징병	-3742
▁형성	-3743
▁것▁처럼	-3744
▁정확▁한	-3745
▁이▁듭니다	-3746
▁찌	-3747
▁어이	-3748
▁오로	-3749
▁제품	-3750
▁경찰관	-3751
▁좋▁을	-3752
▁것▁인지	-3753
▁그럼에도	-3754
▁도▁많이	-3755
▁가▁아닙니다	-3756
▁필요▁합니다	-3757
▁입니다▁그런데	-3758
10	-3759
bs	-3760
▁획	-3761
▁공영	-3762
▁기부	-3763
▁매번	-3764
▁자극	-3765
▁휴대	-3766
▁뭐▁가	-3767
▁수▁없이	-3768
▁자기▁가	-3769
자▁들▁을	-3770
▁사이트▁를	-3771
▁부산▁여중생	-3772
▁조금▁이▁라도	-3773
▁글▁을▁올립니다	-3774
폭력	-3775
▁객관	-3776
▁면접	-3777
▁실현	-3778
▁평소	-3779
▁남▁은	-3780
▁인생▁을	-3781
▁하▁고▁있▁다	-3782
▁덮	-3783
▁가만	-3784
▁대안	-3785
▁아픈	-3786
▁엄격	-3787
▁커녕	-3788
▁피의	-3789
▁형태	-3790
▁을▁따	-3791
▁과▁같이	-3792
▁했▁는지	-3793
▁첨	-3794
▁고쳐	-3795
▁공소	-3796
▁당해	-3797
▁학과	-3798
▁확보	-3799
▁별▁로	-3800
▁에▁빠	-3801
▁노력▁을	-3802
▁가▁되▁어	-3803
▁남녀▁평등	-3804
▁볼▁수▁있	-3805
▁입니다▁제▁가	-3806
▁국방▁의▁의무▁를	-3807
▁낼	-3808
▁간단	-3809
▁부처	-3810
▁나와서	-3811
▁변호사	-3812
▁때▁까지	-3813
▁을▁보장	-3814
▁교육부▁장관	-3815
▁촉구▁합니다	-3816
으니	-3817
▁상품	-3818
▁에▁처	-3819
▁오로지	-3820
▁가▁고▁있▁습니다	-3821
▁Y	-3822
페이	-3823
▁교도	-3824
▁움직	-3825
▁종사	-3826
▁평균	-3827
▁결과▁를	-3828
▁힘들▁고	-3829
▁평가▁인증	-3830
▁간곡히▁부탁드립니다	-3831
▁색	-3832
▁가져	-3833
▁기획	-3834
문▁을	-3835
▁명▁을	-3836
▁한▁일	-3837
▁비롯▁한	-3838
▁세금▁을	-3839
▁어디▁서	-3840
▁b	-3841
▁나타	-3842
▁아미	-3843
▁흡연	-3844
▁그만큼	-3845
▁은▁없	-3846
▁지자체	-3847
▁아기▁를	-3848
▁에▁관심	-3849
▁못▁하▁게	-3850
▁될▁것▁입니다	-3851
▁학교▁에서▁는	-3852
▁칼	-3853
랜드	-3854
리아	-3855
▁34	-3856
▁감옥	-3857
▁만족	-3858
▁애초	-3859
▁줄여	-3860
▁벌어지	-3861
▁인데요	-3862
▁와▁함께	-3863
▁말씀▁드리	-3864
▁지▁않▁았▁습니다	-3865
▁더러	-3866
▁동아	-3867
▁매달	-3868
시▁를	-3869
▁겠▁다	-3870
▁씨▁는	-3871
▁임산부	-3872
▁지상파	-3873
▁이▁지나	-3874
▁이기	-3875
▁현대	-3876
▁더라고	-3877
▁을▁먹	-3878
▁이루▁어	-3879
▁사랑▁하▁는	-3880
▁에▁따르▁면	-3881
▁사회▁적▁으로	-3882
▁t	-3883
▁강남	-3884
▁공립	-3885
▁공유	-3886
▁구입	-3887
▁모른	-3888
▁벌써	-3889
▁새벽	-3890
수▁한	-3891
십니다	-3892
장▁에	-3893
전▁한	-3894
▁정말로	-3895
▁교육▁과	-3896
▁조선일보	-3897
▁최소한▁의	-3898
▁구단	-3899
▁글▁이	-3900
▁일으키	-3901
▁나중▁에	-3902
▁당하▁고	-3903
▁잘못▁을	-3904
▁할▁필요	-3905
▁간호	-3906
▁단축	-3907
▁모독	-3908
▁방관	-3909
▁을지	-3910
▁재수	-3911
▁했었	-3912
인▁들	-3913
▁방송국	-3914
▁사라지	-3915
▁핸드폰	-3916
▁유치원▁에	-3917
▁일▁이▁없	-3918
▁여성▁들▁은	-3919
▁옮	-3920
보드	-3921
▁국위	-3922
▁동등	-3923
▁빼앗	-3924
▁신상	-3925
▁어긋	-3926
▁억지	-3927
▁답니다	-3928
▁만▁의	-3929
▁부▁터	-3930
▁수▁가	-3931
▁를▁하▁는	-3932
▁심신▁미약	-3933
▁아니▁지만	-3934
▁의▁인권▁을	-3935
▁존경▁하▁는▁대통령▁님	-3936
▁U	-3937
▁걷	-3938
▁미리	-3939
비▁가	-3940
▁부끄럽	-3941
▁이▁라고▁생각	-3942
▁누리	-3943
▁당당	-3944
▁우울	-3945
▁재미	-3946
▁만▁에	-3947
▁가정▁의	-3948
▁바라▁는	-3949
▁에▁도움	-3950
야▁한다고	-3951
▁한다는▁것▁은	-3952
▁훌	-3953
분별	-3954
▁철회	-3955
▁허가	-3956
▁기준▁을	-3957
▁역사▁를	-3958
▁청원▁이	-3959
▁피해▁가	-3960
▁한▁가지	-3961
▁하▁게▁됩니다	-3962
▁하▁는▁바▁입니다	-3963
tio	-3964
▁근절	-3965
보▁는	-3966
▁의▁질	-3967
▁학▁종	-3968
▁권리▁가	-3969
▁미래▁의	-3970
▁불▁평등	-3971
▁하▁기▁때문▁에	-3972
▁가산	-3973
▁생산	-3974
▁여경	-3975
▁에▁기	-3976
▁죽▁어	-3977
▁만▁해도	-3978
▁자유▁롭▁게	-3979
▁N	-3980
▁교직	-3981
▁교체	-3982
▁깨끗	-3983
▁특례	-3984
▁갈수록	-3985
▁줍니다	-3986
▁버리▁는	-3987
▁원장▁님	-3988
▁을▁만들	-3989
▁정부▁와	-3990
▁에▁맞▁게	-3991
▁을▁받▁았	-3992
▁같▁은▁경우	-3993
▁옹	-3994
▁라며	-3995
▁수술	-3996
▁연합	-3997
▁조항	-3998
▁통학	-3999
▁보다▁도	-4000
▁올리▁는	-4001
▁게▁되▁는	-4002
▁교사▁들▁은	-4003
▁어렵▁습니다	-4004
고사	-4005
지요	-4006
▁물건	-4007
▁상위	-4008
▁왜냐	-4009
갑니다	-4010
리▁면	-4011
리▁에	-4012
체▁부	-4013
▁SBS	-4014
▁데▁도	-4015
▁해▁지	-4016
▁사고▁가	-4017
▁계속▁해서	-4018
▁국위▁선양	-4019
▁아무것▁도	-4020
▁여고	-4021
▁접근	-4022
▁오▁는	-4023
▁엄마▁가	-4024
▁을▁지키	-4025
▁가해자▁는	-4026
▁을▁받▁아야	-4027
▁표현▁의▁자유	-4028
▁개입	-4029
▁고자	-4030
▁배치	-4031
▁사상	-4032
▁애기	-4033
▁에▁입	-4034
▁대학▁을	-4035
▁문체▁부	-4036
▁어렵▁게	-4037
▁있▁어서	-4038
▁되▁고▁있	-4039
▁을▁합니다	-4040
▁교사▁들▁의	-4041
▁을▁가지▁고	-4042
▁것▁이▁아니▁라	-4043
▁법정	-4044
▁부서	-4045
▁실패	-4046
▁압박	-4047
▁제주	-4048
▁경제▁적	-4049
▁다르▁게	-4050
▁문제▁인	-4051
▁살▁아야	-4052
▁인권▁은	-4053
▁그리고▁그	-4054
▁입니다▁그	-4055
운데	-4056
▁비싸	-4057
▁연봉	-4058
▁되▁며	-4059
▁싫▁어	-4060
▁을▁맞	-4061
▁지하철	-4062
▁무기▁징역	-4063
▁아이▁들▁도	-4064
25	-4065
▁팩	-4066
▁보훈	-4067
▁놓▁은	-4068
▁상당히	-4069
▁읽▁어	-4070
▁형평▁성	-4071
▁될▁수▁있	-4072
다고▁합니다	-4073
▁없애▁주▁세요	-4074
▁감형	-4075
▁미혼	-4076
▁조성	-4077
부▁의	-4078
▁기▁전	-4079
▁악▁플	-4080
▁이▁된	-4081
▁군대▁를	-4082
▁도▁제대로	-4083
▁에▁들어가	-4084
▁되▁지▁않▁은	-4085
▁계산	-4086
▁고위	-4087
▁규모	-4088
▁발견	-4089
▁수급	-4090
▁차지	-4091
▁가▁부	-4092
▁기간제	-4093
▁무분별	-4094
▁홈페이	-4095
▁으로부터	-4096
▁편하▁게	-4097
▁애▁들▁이	-4098
▁이▁있▁고	-4099
▁진심▁으로	-4100
▁홀	-4101
▁만화	-4102
▁사장	-4103
▁이▁었	-4104
▁잘▁못	-4105
▁주▁면	-4106
▁강제▁해체	-4107
▁사람▁에게	-4108
▁청소년▁법	-4109
▁최저▁임금	-4110
다는▁것▁은	-4111
▁키우▁고▁있▁는	-4112
▁결코	-4113
▁보복	-4114
▁효율	-4115
비▁로	-4116
▁들▁에	-4117
▁말▁만	-4118
▁실시간	-4119
▁가▁없▁어	-4120
▁김보름▁박지우	-4121
▁될▁수▁있▁도록	-4122
▁느냐	-4123
▁대기	-4124
▁대전	-4125
▁리라	-4126
▁망신	-4127
▁우월	-4128
▁유도	-4129
▁씨▁가	-4130
▁짓▁을	-4131
▁영▁유아	-4132
▁라고▁합니다	-4133
▁하▁는▁행위	-4134
▁라는▁이유▁로	-4135
▁연차	-4136
▁이래	-4137
▁자면	-4138
▁호소	-4139
놓▁고	-4140
▁나▁은	-4141
▁국가▁는	-4142
▁생각▁은	-4143
▁통하▁여	-4144
▁이▁되▁면	-4145
▁이▁들▁이	-4146
▁중▁입니다	-4147
▁때문▁입니다	-4148
▁하▁겠▁다는	-4149
▁F	-4150
디오	-4151
웨덴	-4152
▁유럽	-4153
트▁를	-4154
▁등▁은	-4155
▁의▁일	-4156
▁관련▁하▁여	-4157
▁어린이집▁을	-4158
▁여성▁들▁의	-4159
▁이▁있▁는데	-4160
▁하▁는▁모습	-4161
▁해야▁하▁고	-4162
▁의무▁적▁으로	-4163
▁가▁필요▁합니다	-4164
▁수▁가▁없▁습니다	-4165
▁노예	-4166
▁지적	-4167
▁취지	-4168
어▁를	-4169
연▁한	-4170
위▁가	-4171
▁스웨덴	-4172
▁관계▁를	-4173
▁끝▁까지	-4174
▁방법▁으로	-4175
▁한국▁에서	-4176
▁사람▁들▁도	-4177
▁모르▁겠▁지만	-4178
▁캠	-4179
▁31	-4180
▁수도	-4181
▁시즌	-4182
▁영업	-4183
▁이걸	-4184
▁지진	-4185
▁추천	-4186
두▁고	-4187
▁도서관	-4188
▁나이▁가	-4189
▁현실▁은	-4190
▁활성▁화	-4191
▁에▁사▁는	-4192
▁료	-4193
차피	-4194
▁는다	-4195
▁중소	-4196
▁불▁합리	-4197
▁아니▁다	-4198
▁압▁니다	-4199
▁요즘▁은	-4200
▁해▁줘야	-4201
▁출산▁장려	-4202
▁어린이집▁은	-4203
▁루	-4204
▁예상	-4205
▁장기	-4206
▁되▁서	-4207
▁몇▁년	-4208
▁감독▁을	-4209
▁에▁시달	-4210
▁을▁사용	-4211
▁고▁싶▁어	-4212
▁살아가▁는	-4213
▁해▁놓▁고	-4214
▁마지막▁으로	-4215
▁현실▁적▁으로	-4216
50	-4217
이팅	-4218
차별	-4219
▁그분	-4220
▁시장	-4221
▁자원	-4222
▁출입	-4223
▁월▁에	-4224
▁절대로	-4225
▁규정▁을	-4226
▁들▁한테	-4227
▁안타까운	-4228
▁에▁참여	-4229
▁하▁려면	-4230
▁는▁것▁같	-4231
▁어야▁한다고▁생각▁합니다	-4232
어질	-4233
▁내일	-4234
▁버젓	-4235
▁이랑	-4236
▁익명	-4237
▁체력	-4238
▁하늘	-4239
▁로▁만	-4240
▁를▁주	-4241
▁빌보드	-4242
▁어차피	-4243
▁당연▁한	-4244
▁댓글▁을	-4245
▁명백▁한	-4246
▁부터▁는	-4247
▁비리▁를	-4248
▁을▁가져	-4249
▁천만▁원	-4250
▁하▁자는	-4251
▁아동▁수당	-4252
▁학생▁들▁도	-4253
▁하▁지▁마시▁고	-4254
▁라서	-4255
▁살펴	-4256
▁생긴	-4257
▁안심	-4258
▁여가	-4259
▁주택	-4260
▁회원	-4261
▁더▁큰	-4262
▁을▁뿐	-4263
▁있▁어	-4264
▁인권▁이	-4265
▁정책▁은	-4266
▁멋	-4267
▁사퇴	-4268
▁영역	-4269
▁점심	-4270
▁할지	-4271
▁그▁외	-4272
▁넘▁게	-4273
▁상대방	-4274
▁는▁건가요	-4275
▁을▁받▁은	-4276
▁이름▁으로	-4277
▁하▁셨▁습니다	-4278
상식	-4279
하루	-4280
▁부적	-4281
▁빙산	-4282
▁옹호	-4283
▁용서	-4284
▁유출	-4285
▁죄송	-4286
▁축소	-4287
▁파벌	-4288
리▁게	-4289
▁넘▁어	-4290
▁뉴스▁에	-4291
▁하루하루	-4292
▁못▁하▁는	-4293
▁하▁기▁에	-4294
▁꽃	-4295
구니	-4296
▁외부	-4297
▁유저	-4298
▁이곳	-4299
▁직무	-4300
납니다	-4301
히▁는	-4302
▁나머지	-4303
▁님▁의	-4304
▁없▁다	-4305
▁임▁을	-4306
▁비슷▁한	-4307
▁었▁는지	-4308
▁었▁다는	-4309
▁을▁주▁고	-4310
▁자격▁박탈	-4311
▁하▁지▁않▁으면	-4312
▁ᅮ	-4313
▁실태	-4314
▁인물	-4315
▁전반	-4316
▁중앙	-4317
위▁는	-4318
▁등▁에	-4319
▁맞▁는	-4320
▁남성▁을	-4321
▁보이▁는	-4322
▁었▁으면	-4323
▁하▁겠▁다고	-4324
▁고작	-4325
▁나누	-4326
▁도우	-4327
▁소식	-4328
▁심해	-4329
▁워킹	-4330
▁전면	-4331
▁학점	-4332
보▁고	-4333
▁사실상	-4334
▁알▁바	-4335
▁을▁기	-4336
▁부분▁은	-4337
▁수▁밖에	-4338
▁대학▁입시	-4339
▁도▁있▁지만	-4340
▁어쩔▁수▁없이	-4341
ht	-4342
▁동참	-4343
▁옛날	-4344
▁죽이	-4345
▁나▁면	-4346
▁올라가	-4347
▁감독▁이	-4348
▁보▁면서	-4349
▁직장▁을	-4350
▁목소리▁를	-4351
▁안▁하▁고	-4352
▁환경▁에서	-4353
▁자신▁들▁이	-4354
▁피해▁를▁보	-4355
▁보▁았▁습니다	-4356
▁이▁기▁때문▁에	-4357
▁공약	-4358
▁반면	-4359
▁신태	-4360
▁암표	-4361
▁어처	-4362
▁정지	-4363
법▁을	-4364
▁sns	-4365
▁기사▁가	-4366
▁는데▁왜	-4367
▁이▁되▁고	-4368
▁사실▁입니다	-4369
▁국민▁의▁한▁사람	-4370
▁X	-4371
▁90	-4372
▁감소	-4373
▁군요	-4374
▁별로	-4375
▁실습	-4376
▁약한	-4377
▁오전	-4378
▁유일	-4379
▁추첨	-4380
▁수▁는	-4381
▁내▁에서	-4382
▁언론▁이	-4383
▁전화▁를	-4384
▁떳	-4385
▁개편	-4386
▁유공	-4387
▁을▁잘	-4388
▁남성▁의	-4389
▁방송▁에서	-4390
▁선수▁에게	-4391
▁억울▁하▁게	-4392
▁친구▁들▁과	-4393
▁하▁기▁위한	-4394
▁적극▁적▁으로	-4395
▁이▁되▁었▁습니다	-4396
▁가입	-4397
▁나무	-4398
▁불쌍	-4399
▁완전	-4400
▁임대	-4401
▁가르치	-4402
▁적▁어	-4403
▁년▁이상	-4404
▁세월▁호	-4405
▁어처구니	-4406
▁워킹▁맘	-4407
▁을▁경우	-4408
▁있▁지만	-4409
▁그▁들▁을	-4410
▁자▁들▁이	-4411
▁했▁을▁때	-4412
▁오랜	-4413
▁곳▁은	-4414
▁기▁로	-4415
▁넘▁는	-4416
▁쉬▁는	-4417
▁다▁문화	-4418
▁사진▁을	-4419
▁지▁못할	-4420
▁수▁있▁고	-4421
▁하▁고▁있▁으며	-4422
리▁고▁있▁습니다	-4423
▁우리▁아이▁들▁이	-4424
▁강한	-4425
▁보고	-4426
▁정정	-4427
▁현상	-4428
▁그▁중	-4429
▁두▁발	-4430
▁씁니다	-4431
▁을▁겪	-4432
▁라고▁말	-4433
▁게▁되▁면	-4434
▁이▁들▁은	-4435
▁한▁것▁이	-4436
은이	-4437
▁강조	-4438
▁연장	-4439
▁무서운	-4440
▁벗어나	-4441
▁완전히	-4442
▁풀▁어	-4443
▁그▁동안	-4444
▁그것▁은	-4445
▁없▁어▁져	-4446
▁할▁것▁을	-4447
▁개인▁적▁인	-4448
▁을▁보▁면서	-4449
▁어린이집▁유치원	-4450
▁쉴	-4451
▁맡길	-4452
▁셋째	-4453
▁수고	-4454
▁작가	-4455
▁전기	-4456
▁허락	-4457
▁대다수	-4458
▁도▁받	-4459
▁될까요	-4460
▁신태용	-4461
▁역차별	-4462
인▁으로	-4463
▁나이▁에	-4464
▁더라고요	-4465
▁불▁이익	-4466
▁어떻▁게	-4467
▁왜냐하면	-4468
▁중고▁등	-4469
▁축구▁를	-4470
났▁습니다	-4471
▁게▁하▁고	-4472
▁이▁들▁의	-4473
▁고▁있▁지만	-4474
▁모든▁국민▁은	-4475
▁을▁수▁있▁도록	-4476
▁폰	-4477
뮤니	-4478
체육	-4479
▁소위	-4480
▁재능	-4481
▁전자	-4482
▁친일	-4483
▁먹▁는	-4484
▁체육계	-4485
▁커뮤니	-4486
▁태어난	-4487
▁해▁왔	-4488
▁경우▁도	-4489
▁을▁내려	-4490
▁최근▁에	-4491
▁시간▁동안	-4492
▁야▁하▁는	-4493
▁청소년▁이	-4494
▁맞벌이▁부부	-4495
▁넷	-4496
▁탐	-4497
석희	-4498
▁국적	-4499
▁부르	-4500
▁수상	-4501
▁작업	-4502
동▁계	-4503
▁경찰청	-4504
▁삶▁을	-4505
▁은▁왜	-4506
▁짧▁은	-4507
▁마음대로	-4508
▁성인▁이	-4509
▁수행평가	-4510
▁말▁입니까	-4511
▁을▁받▁았▁습니다	-4512
▁긍	-4513
▁구나	-4514
▁던데	-4515
▁윤리	-4516
▁이끌	-4517
▁잠재	-4518
▁재정	-4519
▁창의	-4520
▁청구	-4521
▁형식	-4522
▁교도소	-4523
▁와▁는	-4524
▁으려고	-4525
▁가슴▁이	-4526
▁만큼▁은	-4527
▁보도▁를	-4528
▁사실▁이	-4529
▁을▁많이	-4530
▁인권▁유린	-4531
▁들▁을▁위해	-4532
▁실정▁입니다	-4533
▁피해자▁들▁이	-4534
12	-4535
어날	-4536
▁안내	-4537
▁오직	-4538
▁절실	-4539
▁혈세	-4540
▁일▁로	-4541
▁점▁을	-4542
▁휴대폰	-4543
▁거기▁에	-4544
▁프로▁야구	-4545
▁남성▁들▁이	-4546
▁한▁사람▁의	-4547
퓨터	-4548
▁법인	-4549
▁병설	-4550
▁분열	-4551
▁와이	-4552
▁음식	-4553
▁제시	-4554
▁가만히	-4555
▁그▁의	-4556
▁들어오	-4557
▁남성▁은	-4558
▁상황▁에	-4559
▁누구▁를▁위한	-4560
▁살▁고▁있▁는	-4561
으면▁좋▁겠▁습니다	-4562
▁안녕▁하▁십니까▁저▁는	-4563
▁L	-4564
▁멤	-4565
져서	-4566
▁가까	-4567
▁고요	-4568
▁동료	-4569
▁아실	-4570
▁영구	-4571
▁작품	-4572
▁챙겨	-4573
▁개▁의	-4574
▁뒤▁에	-4575
▁있▁게	-4576
▁찾▁아	-4577
▁컴퓨터	-4578
▁상관없이	-4579
▁은▁물론	-4580
▁이름▁을	-4581
▁인간▁의	-4582
▁포함▁한	-4583
▁상태▁에서	-4584
▁안▁된다고	-4585
▁들▁에게▁도	-4586
▁이▁없▁어서	-4587
▁되▁어야▁한다고▁생각▁합니다	-4588
▁공격	-4589
▁입대	-4590
▁주위	-4591
▁출제	-4592
▁취득	-4593
▁이▁오	-4594
▁가능▁성	-4595
▁데리▁고	-4596
▁바라▁며	-4597
▁커뮤니티	-4598
▁행복▁한	-4599
▁생각▁하▁면	-4600
▁입니다▁그리고	-4601
▁을▁청원▁합니다	-4602
빨리	-4603
▁KB	-4604
▁문자	-4605
▁배울	-4606
▁사냥	-4607
▁편의	-4608
▁핑계	-4609
▁현역	-4610
▁년▁대	-4611
▁는▁그	-4612
▁달▁라	-4613
▁끔찍▁한	-4614
▁애초▁에	-4615
▁하▁였으나	-4616
▁부모▁들▁이	-4617
▁수▁도▁있▁습니다	-4618
한다	-4619
▁건의	-4620
▁수백	-4621
▁시정	-4622
▁심정	-4623
▁앞서	-4624
▁한심	-4625
▁는지요	-4626
▁에▁큰	-4627
▁으라고	-4628
▁했으나	-4629
▁그러▁면	-4630
▁도▁그렇	-4631
인▁들▁의	-4632
▁두▁번▁째	-4633
▁만들▁어서	-4634
▁명예▁훼손	-4635
▁무엇▁인지	-4636
▁평창동▁계	-4637
er	-4638
▁떼	-4639
▁감당	-4640
▁근처	-4641
▁동물	-4642
▁어릴	-4643
▁외치	-4644
▁가산점	-4645
▁어려워	-4646
▁위▁의	-4647
▁이▁주	-4648
▁입▁고	-4649
▁하▁러	-4650
▁영상▁을	-4651
▁자리▁를	-4652
▁좋▁습니다	-4653
▁하▁는▁등	-4654
▁공정▁하▁게	-4655
▁이해▁가▁되	-4656
▁지▁못합니다	-4657
▁하▁고▁싶▁습니다	-4658
▁놔	-4659
▁빚	-4660
▁두렵	-4661
▁명령	-4662
▁몰랐	-4663
▁미만	-4664
▁이명	-4665
▁회의	-4666
▁훌륭	-4667
▁대학원	-4668
▁볼▁때	-4669
▁이▁글	-4670
▁저질렀	-4671
▁합법화	-4672
▁가정폭력	-4673
▁군▁복무	-4674
▁방법▁을	-4675
▁이하▁의	-4676
▁저작▁권	-4677
▁도▁못하▁고	-4678
▁들▁을▁위한	-4679
▁기▁위해서▁는	-4680
▁다니▁고▁있▁는	-4681
자연	-4682
▁개개	-4683
▁남겨	-4684
▁바쁘	-4685
▁부활	-4686
▁상상	-4687
▁성실	-4688
▁심의	-4689
▁아름	-4690
▁임원	-4691
▁초중	-4692
▁축협	-4693
▁확정	-4694
▁교육비	-4695
▁내▁에	-4696
▁억▁원	-4697
▁기▁시작	-4698
▁운동▁을	-4699
▁자유▁를	-4700
▁확실▁한	-4701
▁를▁받▁고	-4702
▁한▁달▁에	-4703
▁이▁있▁다면	-4704
▁문제▁를▁해결	-4705
▁학생▁부▁종합	-4706
▁화▁가▁납니다	-4707
▁대통령▁님▁께서	-4708
▁균	-4709
▁강원	-4710
▁높이	-4711
▁대답	-4712
▁멤버	-4713
▁명절	-4714
▁셔야	-4715
▁여유	-4716
▁유리	-4717
▁재단	-4718
▁포르	-4719
스▁를	-4720
제▁로	-4721
▁일▁뿐	-4722
▁일어날	-4723
▁젊은이	-4724
▁가▁면서	-4725
▁만▁하▁는	-4726
▁학교▁생활	-4727
▁함▁으로써	-4728
▁한다고▁합니다	-4729
▁선생▁님▁들▁은	-4730
▁선생▁님▁들▁의	-4731
▁여자▁아이스하키	-4732
▁넓	-4733
▁농구	-4734
▁소개	-4735
▁이뤄	-4736
▁한두	-4737
▁거▁면	-4738
▁분위기	-4739
▁음▁을	-4740
▁이대로	-4741
▁줄▁알	-4742
▁나옵니다	-4743
▁미세먼지	-4744
▁으로▁가	-4745
▁을▁하▁면	-4746
▁입니다▁이런	-4747
▁최선▁을▁다	-4748
▁칭	-4749
▁컵	-4750
▁시각	-4751
▁정리	-4752
▁집회	-4753
관▁이	-4754
자▁인	-4755
▁달▁고	-4756
▁더욱더	-4757
▁도우미	-4758
▁바로잡	-4759
▁버젓이	-4760
▁확실히	-4761
▁누구▁도	-4762
▁부분▁이	-4763
▁현실▁을	-4764
▁수▁있▁다는	-4765
▁ᄋ	-4766
소득	-4767
▁28	-4768
▁남용	-4769
▁서울시	-4770
▁애▁를	-4771
▁그렇지만	-4772
▁언론▁은	-4773
▁을▁해서	-4774
▁화장▁을	-4775
▁지▁는▁않	-4776
▁부탁▁합니다	-4777
▁지속▁적▁으로	-4778
체능	-4779
▁구체	-4780
▁꾸준	-4781
▁논의	-4782
▁법무	-4783
▁이럴	-4784
▁인력	-4785
▁자질	-4786
▁하고	-4787
▁드▁는	-4788
▁들▁면	-4789
▁예체능	-4790
▁포르노	-4791
▁알▁아서	-4792
▁에게▁만	-4793
▁을▁주▁는	-4794
▁어른▁들▁이	-4795
▁지▁마시▁고	-4796
▁하▁다고▁봅니다	-4797
▁평창동▁계▁올림픽	-4798
와서	-4799
▁느꼈	-4800
▁선배	-4801
▁신설	-4802
▁조용	-4803
▁퇴직	-4804
▁포항	-4805
냅니다	-4806
체육회	-4807
픕니다	-4808
▁500	-4809
▁다시피	-4810
▁로▁도	-4811
▁씨▁의	-4812
▁팩▁트	-4813
▁경찰▁은	-4814
▁교육▁에	-4815
▁나가▁서	-4816
▁다수▁의	-4817
▁을▁텐데	-4818
▁대다수▁의	-4819
▁대통령▁이	-4820
▁저▁같▁은	-4821
▁해▁봅니다	-4822
▁군대▁를▁가	-4823
▁이▁필요▁한	-4824
▁아이▁를▁키우▁는	-4825
▁널	-4826
▁멍	-4827
기업	-4828
▁보단	-4829
▁은행	-4830
▁딸아이	-4831
▁았▁고	-4832
▁올라오	-4833
▁장자연	-4834
▁타▁고	-4835
▁결과▁가	-4836
▁월▁부터	-4837
▁가해자▁를	-4838
▁대한체육회	-4839
▁대한민국▁에	-4840
▁지▁도▁않▁고	-4841
▁받▁고▁있▁습니다	-4842
▁족	-4843
▁구글	-4844
▁일관	-4845
▁즉각	-4846
▁추정	-4847
▁향상	-4848
▁후배	-4849
도▁는	-4850
▁가운데	-4851
▁몇▁십	-4852
▁성▁과	-4853
▁수신료	-4854
▁저소득	-4855
▁건강▁한	-4856
▁을▁폐지	-4857
▁안▁좋▁은	-4858
▁하▁지▁않▁을까요	-4859
▁T	-4860
라이	-4861
▁그랬	-4862
▁기념	-4863
▁맡기	-4864
▁바른	-4865
▁최초	-4866
▁취하	-4867
▁탄압	-4868
▁나▁고	-4869
▁봐▁주	-4870
▁자▁의	-4871
▁얘기▁를	-4872
▁하▁다면	-4873
▁공영▁방송	-4874
▁대부분▁이	-4875
▁를▁하▁고	-4876
▁만▁합니다	-4877
▁대표▁하▁는	-4878
▁이▁나라▁의	-4879
▁발급	-4880
▁애니	-4881
▁조심	-4882
▁학력	-4883
▁를▁못	-4884
▁아동학	-4885
▁이▁어	-4886
▁나라▁는	-4887
▁부탁▁드	-4888
▁사회▁는	-4889
▁하루빨리	-4890
▁공공▁기관	-4891
▁이▁있▁어	-4892
▁일어나▁는	-4893
▁자율▁학습	-4894
▁학부모▁입니다	-4895
▁을▁하▁고▁있▁습니다	-4896
▁아니▁라고▁생각▁합니다	-4897
▁냈	-4898
▁닫	-4899
▁쥐	-4900
▁헛	-4901
유예	-4902
▁단계	-4903
▁동원	-4904
▁지구	-4905
▁하원	-4906
▁해소	-4907
▁들▁중	-4908
▁아시아	-4909
▁와▁의	-4910
▁이나마	-4911
▁2014	-4912
▁년▁부터	-4913
▁되▁어서	-4914
▁사고▁를	-4915
▁수능▁을	-4916
▁셧다운▁제	-4917
▁인기▁종목	-4918
▁게▁아니▁라	-4919
▁만들▁어▁진	-4920
▁무섭▁습니다	-4921
▁사용▁하▁는	-4922
▁대한민국▁축구	-4923
▁이▁있▁었▁습니다	-4924
▁했▁으면▁좋▁겠▁습니다	-4925
휴일	-4926
▁대단	-4927
▁대변	-4928
▁짜증	-4929
▁후원	-4930
▁눈▁에	-4931
▁에▁반	-4932
▁우울증	-4933
▁힘▁이	-4934
▁들▁끼리	-4935
▁바로▁잡	-4936
▁부분▁을	-4937
▁이▁라며	-4938
▁도▁있▁는	-4939
▁여성▁가족▁부▁는	-4940
▁미친	-4941
▁버려	-4942
▁복귀	-4943
▁불리	-4944
▁비록	-4945
▁편히	-4946
▁허나	-4947
▁회복	-4948
▁도▁가	-4949
▁막▁아	-4950
▁의▁원	-4951
▁이루어져	-4952
▁정도▁는	-4953
▁가정▁에서	-4954
▁기간▁동안	-4955
▁고등학교▁에	-4956
▁남자▁들▁이	-4957
▁이▁에▁대한	-4958
▁겸	-4959
▁45	-4960
▁성향	-4961
▁수영	-4962
▁우승	-4963
▁장치	-4964
▁특성	-4965
드▁는	-4966
▁공휴일	-4967
▁과▁그	-4968
▁살아갈	-4969
▁이라도	-4970
▁되▁면서	-4971
▁여성▁도	-4972
▁하나▁로	-4973
▁을▁하▁여	-4974
▁친구▁들▁이	-4975
▁해▁달▁라고	-4976
▁는▁안▁됩니다	-4977
le	-4978
▁멈	-4979
▁윗	-4980
▁검증	-4981
▁국기	-4982
▁기득	-4983
▁김정	-4984
▁마이	-4985
▁자고	-4986
▁전통	-4987
▁정식	-4988
▁챙기	-4989
▁고▁도	-4990
▁도▁잘	-4991
▁페이스	-4992
인▁에게	-4993
▁기간▁을	-4994
▁는데▁도	-4995
▁를▁보내	-4996
▁인데▁도	-4997
▁입장▁을	-4998
야▁하▁고	-4999
인▁들▁은	-5000
▁사건▁으로	-5001
▁이▁라고▁합니다	-5002
▁하▁지▁말▁아▁주▁세요	-5003
▁주▁셨▁으면▁좋▁겠▁습니다	-5004
▁겉	-5005
▁뺏	-5006
스크	-5007
▁단절	-5008
▁달려	-5009
▁모여	-5010
▁바란	-5011
▁접속	-5012
▁진상	-5013
▁클럽	-5014
▁남▁의	-5015
▁때▁도	-5016
▁율▁이	-5017
장▁으로	-5018
▁이▁라니	-5019
▁실▁것▁을	-5020
▁유치원▁을	-5021
▁빙상▁연맹▁의	-5022
▁요청▁드립니다	-5023
▁주▁시▁기▁를	-5024
더욱	-5025
▁건설	-5026
▁계층	-5027
▁공사	-5028
▁교회	-5029
▁떠들	-5030
▁마녀	-5031
▁미술	-5032
▁사전	-5033
▁임시	-5034
▁자치	-5035
▁참석	-5036
▁첨부	-5037
대▁에	-5038
▁로▁가	-5039
▁플레이	-5040
▁규제▁를	-5041
▁답변▁을	-5042
▁민원▁을	-5043
▁세상▁이	-5044
▁개인▁적▁으로	-5045
▁으로▁인하▁여	-5046
ar	-5047
부로	-5048
▁27	-5049
▁소중	-5050
▁의지	-5051
▁조재	-5052
▁종편	-5053
▁날▁이	-5054
▁낳▁고	-5055
▁는다고	-5056
▁교복▁을	-5057
▁았▁지만	-5058
▁없애▁고	-5059
▁할▁경우	-5060
▁해야▁한다는	-5061
▁강력▁한▁처벌	-5062
시효	-5063
▁격차	-5064
▁라니	-5065
▁안희	-5066
▁유사	-5067
▁잠시	-5068
▁일▁도	-5069
▁있▁다	-5070
▁좋▁게	-5071
▁진▁않	-5072
▁최대한	-5073
▁컨텐츠	-5074
▁함부로	-5075
▁보훈▁처	-5076
▁안▁된다	-5077
▁언론▁에	-5078
▁조금▁만	-5079
웠▁습니다	-5080
▁살인▁사건	-5081
▁하▁고▁도	-5082
▁바꿔▁주▁세요	-5083
▁볼▁수▁있▁는	-5084
▁부산▁여중생▁폭행▁사건	-5085
22	-5086
▁땐	-5087
▁큽	-5088
라우	-5089
명규	-5090
TBC	-5091
▁공권	-5092
▁명분	-5093
▁물어	-5094
▁악의	-5095
▁알리	-5096
▁테러	-5097
▁낙태죄	-5098
▁만▁명	-5099
▁보▁며	-5100
▁아니면	-5101
▁았▁던	-5102
▁비리▁가	-5103
▁을▁당하	-5104
▁자녀▁가	-5105
▁대통령▁의	-5106
▁방탄소년단▁이	-5107
▁우리▁나라▁를	-5108
▁경우▁가▁많▁습니다	-5109
▁썼	-5110
▁는가	-5111
▁독재	-5112
▁명칭	-5113
▁지시	-5114
▁짜리	-5115
▁협의	-5116
리▁로	-5117
자▁도	-5118
▁가까운	-5119
▁되▁는지	-5120
▁무엇▁을	-5121
▁적절▁한	-5122
▁중소기업	-5123
▁합당▁한	-5124
▁을▁하▁게	-5125
▁청소년▁의	-5126
▁한▁것▁은	-5127
▁마찬가지▁입니다	-5128
▁갓	-5129
이드	-5130
쳐서	-5131
▁극단	-5132
▁뛰어	-5133
▁무리	-5134
▁연결	-5135
▁질문	-5136
▁체크	-5137
▁탈락	-5138
제▁는	-5139
칩니다	-5140
▁시켜서	-5141
▁아닌지	-5142
▁아무렇	-5143
▁목숨▁을	-5144
▁소식▁을	-5145
▁학교▁로	-5146
▁헌법▁제	-5147
▁믿▁습니다	-5148
▁이▁있▁어야	-5149
▁다름▁이▁아니▁라	-5150
▁묻▁고▁싶▁습니다	-5151
▁v	-5152
축구	-5153
▁고시	-5154
▁군복	-5155
▁기울	-5156
▁내보	-5157
▁노무	-5158
▁떳떳	-5159
▁복직	-5160
▁수강	-5161
▁취해	-5162
▁피땀	-5163
부▁에	-5164
제▁가	-5165
치▁한	-5166
▁게▁는	-5167
▁은▁다	-5168
▁저지르	-5169
▁질▁않	-5170
▁큽니다	-5171
▁해결책	-5172
▁개인▁이	-5173
▁동일▁한	-5174
▁보육▁료	-5175
▁없▁다고	-5176
▁잘▁하▁는	-5177
으면▁합니다	-5178
▁대한민국▁을	-5179
▁안▁된다고▁생각▁합니다	-5180
▁앱	-5181
▁칠	-5182
▁이렇	-5183
▁점검	-5184
▁줄이	-5185
▁혁명	-5186
▁현금	-5187
▁300	-5188
▁기▁싫	-5189
▁말▁에	-5190
▁사이버	-5191
▁준다고	-5192
▁세상▁을	-5193
▁학생▁과	-5194
▁게▁되▁었	-5195
▁고▁싶▁다	-5196
▁여▁가▁부	-5197
▁올림픽▁을	-5198
▁하▁다고▁생각	-5199
▁빅	-5200
▁나영	-5201
▁느낄	-5202
▁모를	-5203
▁비방	-5204
▁선량	-5205
▁아픔	-5206
▁영아	-5207
▁예능	-5208
▁유기	-5209
▁호칭	-5210
▁답▁게	-5211
▁몇▁번	-5212
▁에▁오	-5213
▁였▁던	-5214
▁전명규	-5215
▁나가▁는	-5216
▁머리▁를	-5217
▁업무▁를	-5218
▁었▁다면	-5219
▁개인▁정보	-5220
▁방식▁으로	-5221
▁청소년▁들▁은	-5222
▁하▁는▁사람▁들▁이	-5223
▁튜	-5224
십시	-5225
은혜	-5226
▁세우	-5227
▁연수	-5228
▁자행	-5229
▁주로	-5230
▁체계	-5231
▁항의	-5232
움▁을	-5233
▁두려워	-5234
▁상▁의	-5235
▁손▁을	-5236
▁의▁고	-5237
▁가▁아니	-5238
▁공소시효	-5239
▁있▁으면	-5240
▁가▁있▁고	-5241
▁교육▁기관	-5242
▁병역▁거부	-5243
▁조금▁이나마	-5244
▁혜택▁을▁받	-5245
▁하▁지▁마세요	-5246
▁할▁수▁있▁고	-5247
▁을▁수▁없▁습니다	-5248
▁칸	-5249
까봐	-5250
ews	-5251
▁배제	-5252
▁블랙	-5253
▁자부	-5254
▁즉시	-5255
▁출판	-5256
▁기다리	-5257
▁결과▁는	-5258
▁도와▁주	-5259
▁불▁공평	-5260
▁안전▁한	-5261
▁인간▁이	-5262
▁최고▁의	-5263
▁행위▁는	-5264
▁교육▁정책	-5265
▁고등학교▁를	-5266
▁무시▁하▁는	-5267
▁긍정	-5268
▁당할	-5269
▁본질	-5270
▁야동	-5271
▁주관	-5272
▁착용	-5273
▁더더욱	-5274
▁보▁셨	-5275
▁에▁부	-5276
▁1000	-5277
▁감사▁를	-5278
▁능력▁을	-5279
▁도▁중요	-5280
▁면제▁를	-5281
▁아이▁와	-5282
▁유치원▁은	-5283
▁남자▁들▁은	-5284
▁기▁도▁하▁고	-5285
▁곡	-5286
▁깜	-5287
협회	-5288
▁경영	-5289
▁납부	-5290
▁반응	-5291
▁악마	-5292
▁억압	-5293
▁여서	-5294
▁지불	-5295
▁지연	-5296
▁초과	-5297
십시오	-5298
▁넣▁어	-5299
▁돈▁벌	-5300
▁아이템	-5301
▁유은혜	-5302
▁을▁부	-5303
▁카메라	-5304
부▁장관	-5305
▁교사▁들	-5306
▁기▁까지	-5307
▁나오▁면	-5308
▁스럽▁고	-5309
▁아십니까	-5310
▁없▁다는	-5311
▁학원▁을	-5312
▁마녀▁사냥	-5313
▁이▁없▁고	-5314
▁첫▁번▁째	-5315
▁해서▁는▁안	-5316
▁지▁말▁아▁주▁세요	-5317
rea	-5318
▁규칙	-5319
▁기만	-5320
▁냐는	-5321
▁스피	-5322
▁아울	-5323
▁여건	-5324
▁이성	-5325
▁분▁은	-5326
▁음란물	-5327
다는▁게	-5328
▁2015	-5329
▁JTBC	-5330
▁기회▁가	-5331
▁남성▁과	-5332
▁너무▁도	-5333
▁사람▁도	-5334
▁에서▁만	-5335
▁제도▁의	-5336
▁조금▁더	-5337
▁청원▁에	-5338
▁특성▁화	-5339
▁에▁있▁어	-5340
▁하▁는▁건지	-5341
▁에▁살▁고▁있▁는	-5342
▁하▁게▁해▁주▁세요	-5343
▁푼	-5344
▁데려	-5345
▁며칠	-5346
▁살려	-5347
▁수면	-5348
▁인맥	-5349
▁창출	-5350
▁회견	-5351
▁들어간	-5352
▁소방관	-5353
▁신다면	-5354
▁야▁할	-5355
▁을▁얻	-5356
▁정규직	-5357
▁해야지	-5358
▁불편▁한	-5359
▁생명▁을	-5360
▁아무▁도	-5361
▁여기▁에	-5362
▁을▁당했	-5363
▁저▁또한	-5364
▁학교▁와	-5365
▁여성▁단체	-5366
▁철저히▁조사	-5367
▁해▁달▁라는	-5368
▁합니다▁그리고	-5369
▁드리▁겠▁습니다	-5370
▁하▁지▁못하▁고	-5371
▁x	-5372
리카	-5373
▁26	-5374
▁교권	-5375
▁방통	-5376
▁배워	-5377
▁선임	-5378
▁채우	-5379
▁안희정	-5380
▁였▁고	-5381
▁으므로	-5382
▁체육관	-5383
▁기준▁이	-5384
▁나오▁고	-5385
▁방송▁에	-5386
▁에▁불과	-5387
▁정부▁를	-5388
▁페이스북	-5389
▁하▁니까	-5390
▁태극기▁를	-5391
▁교복▁을▁입	-5392
▁대통령▁님▁의	-5393
▁한▁부모▁가정	-5394
▁것▁이▁아닙니다	-5395
po	-5396
se	-5397
▁돕	-5398
게임	-5399
▁BJ	-5400
▁개설	-5401
▁배운	-5402
▁사설	-5403
▁소문	-5404
▁악질	-5405
▁으셨	-5406
▁접하	-5407
▁흘려	-5408
▁억지로	-5409
▁태극기	-5410
▁한▁적	-5411
▁감독▁의	-5412
▁건전▁한	-5413
▁어야▁할	-5414
▁에▁노출	-5415
▁이런▁것	-5416
▁이전▁에	-5417
▁폭력▁을	-5418
▁들어가▁는	-5419
▁상태▁입니다	-5420
▁올려▁봅니다	-5421
▁을▁만들▁어▁주▁세요	-5422
▁수▁있▁게▁해▁주▁세요	-5423
▁검열	-5424
▁도로	-5425
▁상당	-5426
▁소재	-5427
▁우롱	-5428
▁이외	-5429
▁존엄	-5430
▁추방	-5431
▁아울러	-5432
▁2002	-5433
▁가치▁를	-5434
▁모습▁을	-5435
▁이것▁을	-5436
▁한국▁은	-5437
▁명목▁으로	-5438
▁봉사▁활동	-5439
▁가▁없▁어서	-5440
▁선생▁님▁은	-5441
▁방탄소년단▁은	-5442
▁솜방망이▁처벌	-5443
▁하▁지▁못하▁는	-5444
▁하▁지▁않▁도록	-5445
▁했▁으면▁합니다	-5446
▁갚	-5447
▁공원	-5448
▁공포	-5449
▁난무	-5450
▁던가	-5451
▁방영	-5452
▁속상	-5453
▁유죄	-5454
▁진보	-5455
▁노무현	-5456
▁심석희	-5457
▁이▁좋	-5458
▁저▁와	-5459
▁점▁이	-5460
▁한국인	-5461
▁다▁라고	-5462
▁마저▁도	-5463
▁무▁책임	-5464
▁미래▁가	-5465
▁시대▁가	-5466
▁여론▁을	-5467
▁빙산▁연맹	-5468
▁하▁기▁를	-5469
▁하▁시▁면	-5470
▁부모▁들▁은	-5471
▁이▁로▁인해	-5472
▁라▁생각▁합니다	-5473
▁아니▁라고▁봅니다	-5474
▁학생▁부▁종합▁전형	-5475
11	-5476
즈음	-5477
▁강의	-5478
▁공산	-5479
▁공직	-5480
▁다행	-5481
▁사행	-5482
▁외모	-5483
▁회피	-5484
▁힘써	-5485
추▁어	-5486
▁님▁은	-5487
▁본▁적	-5488
▁옳▁은	-5489
▁자▁를	-5490
▁정확히	-5491
▁근무▁를	-5492
▁수준▁의	-5493
▁아야▁할	-5494
▁지▁못해	-5495
▁진실▁을	-5496
▁는▁것▁으로	-5497
▁아빠▁입니다	-5498
▁정도▁입니다	-5499
▁책임▁을▁지	-5500
▁받▁았▁습니다	-5501
▁좋▁아▁하▁는	-5502
▁피해자▁들▁은	-5503
▁하▁고▁있▁다는	-5504
▁되▁지▁않▁습니다	-5505
▁지▁않▁고▁있▁습니다	-5506
▁임▁에▁도▁불구▁하▁고	-5507
▁맛	-5508
둥이	-5509
▁날짜	-5510
▁높여	-5511
▁맡겨	-5512
▁불쾌	-5513
▁여부	-5514
▁영양	-5515
▁통화	-5516
단▁을	-5517
습니다	-5518
▁ᄏᄏᄏ	-5519
▁술▁을	-5520
▁한▁국	-5521
▁검사▁를	-5522
▁계십니다	-5523
▁군복▁무	-5524
▁방법▁은	-5525
▁범죄▁는	-5526
▁상처▁를	-5527
▁세금▁이	-5528
▁충분▁한	-5529
▁기자▁회견	-5530
▁분▁들▁께	-5531
▁하루▁종일	-5532
▁들▁때문▁에	-5533
▁만▁으로▁도	-5534
▁심각▁합니다	-5535
▁국가▁대표▁팀	-5536
de	-5537
▁낫	-5538
▁삽	-5539
▁36	-5540
▁tv	-5541
▁밝히	-5542
▁자금	-5543
▁주요	-5544
▁표준	-5545
▁횡포	-5546
▁흔히	-5547
리스트	-5548
▁점▁은	-5549
▁하▁길	-5550
▁경찰▁의	-5551
▁고소▁를	-5552
▁자신▁을	-5553
▁집행유예	-5554
▁가▁되▁는	-5555
▁돈▁을▁벌	-5556
▁스포츠▁를	-5557
▁저▁는▁이	-5558
▁엄마▁들▁이	-5559
▁여자▁들▁은	-5560
▁꾼	-5561
무니	-5562
▁그거	-5563
▁나아	-5564
▁대비	-5565
▁돌보	-5566
▁뭔가	-5567
▁버렸	-5568
▁생계	-5569
▁실천	-5570
▁예요	-5571
▁깁니다	-5572
▁을▁잡	-5573
▁함▁과	-5574
▁가족▁이	-5575
▁시간▁도	-5576
▁의▁문제	-5577
▁측▁에서	-5578
▁남성▁들▁은	-5579
▁사실▁을▁알	-5580
▁평등▁하▁게	-5581
▁학생▁들▁과	-5582
▁을▁수▁있▁습니다	-5583
▁걸로▁알▁고▁있▁습니다	-5584
▁뭡	-5585
▁좁	-5586
▁감동	-5587
▁기계	-5588
▁기숙	-5589
▁늘리	-5590
▁부패	-5591
▁비밀	-5592
▁용기	-5593
▁재벌	-5594
치▁게	-5595
▁근로자	-5596
▁뭡니까	-5597
▁체육회	-5598
▁특별법	-5599
▁겠▁네요	-5600
▁시기▁에	-5601
▁여가▁부	-5602
▁현실▁이	-5603
▁현재▁는	-5604
▁를▁받▁는	-5605
▁당당▁하▁게	-5606
릴▁수▁있▁는	-5607
▁있▁었▁습니다	-5608
이터	-5609
▁가혹	-5610
▁군사	-5611
▁등원	-5612
▁스토	-5613
▁열정	-5614
▁진단	-5615
▁최악	-5616
▁듯▁한	-5617
▁랍니다	-5618
▁에▁그	-5619
▁에▁서	-5620
▁이▁와	-5621
▁치▁고	-5622
▁경찰▁에	-5623
▁광고▁를	-5624
▁부모▁는	-5625
▁아프리카	-5626
▁이▁라서	-5627
▁전▁부터	-5628
▁하▁자면	-5629
▁분▁들▁을	-5630
▁어떨까▁요	-5631
▁에▁많▁은	-5632
▁지▁않▁나요	-5633
▁철저▁하▁게	-5634
▁을▁했▁습니다	-5635
▁평창▁동계▁올림픽	-5636
▁하▁기▁위해서▁는	-5637
▁딴	-5638
바일	-5639
속히	-5640
▁29	-5641
▁못하	-5642
▁버티	-5643
▁복잡	-5644
▁선행	-5645
▁쉬운	-5646
▁양산	-5647
▁출생	-5648
▁획득	-5649
내▁고	-5650
치▁않	-5651
▁나▁도	-5652
▁앉▁아	-5653
▁터무니	-5654
▁과▁관련	-5655
▁양심▁적	-5656
▁모르▁지만	-5657
▁국가▁장학금	-5658
▁근본▁적▁인	-5659
▁안▁전하▁게	-5660
▁앞▁으로▁도	-5661
신문	-5662
작용	-5663
▁각각	-5664
▁나경	-5665
▁노조	-5666
▁마무	-5667
▁목격	-5668
▁바닥	-5669
▁변명	-5670
▁상징	-5671
▁승리	-5672
▁식당	-5673
▁외교	-5674
▁위로	-5675
▁유발	-5676
▁투입	-5677
▁파괴	-5678
▁그만두	-5679
▁긴▁글	-5680
▁모바일	-5681
▁보내▁고	-5682
▁스케이팅	-5683
▁아침▁에	-5684
▁으로▁몰	-5685
▁지▁못했	-5686
▁평가▁를	-5687
야▁한다는	-5688
▁가해자▁의	-5689
▁무엇▁보다	-5690
▁부모▁에게	-5691
▁서비스▁를	-5692
▁시스템▁을	-5693
▁버렸▁습니다	-5694
▁을▁정도▁로	-5695
▁가해자▁들▁은	-5696
▁하▁고▁있▁지만	-5697
PO	-5698
▁w	-5699
▁가난	-5700
▁고의	-5701
▁공중	-5702
▁요소	-5703
▁특목	-5704
▁폭로	-5705
▁해석	-5706
▁휴교	-5707
범▁죄	-5708
▁꾸준히	-5709
▁들어갈	-5710
▁만▁보	-5711
▁예▁로	-5712
▁은▁안	-5713
▁더▁많이	-5714
▁무엇▁이	-5715
▁사교육비	-5716
▁뉴스▁에서	-5717
▁졌▁습니다	-5718
▁회사▁에서	-5719
▁가능▁성▁이	-5720
▁공정▁하▁고	-5721
▁근무▁하▁는	-5722
▁반대▁하▁는	-5723
▁사회▁적▁인	-5724
▁인터넷▁방송	-5725
▁자극▁적▁인	-5726
▁사람▁이▁먼저	-5727
▁실질▁적▁으로	-5728
▁안타깝▁습니다	-5729
▁하▁겠▁습니까	-5730
▁볼▁수▁있▁습니다	-5731
▁인▁것▁같▁습니다	-5732
▁해▁주▁시▁기▁를	-5733
▁탑	-5734
동산	-5735
▁감수	-5736
▁감히	-5737
▁경비	-5738
▁신입	-5739
▁유통	-5740
▁즐기	-5741
▁한참	-5742
▁항공	-5743
사▁로	-5744
심▁이	-5745
인▁과	-5746
▁간▁에	-5747
▁계약직	-5748
▁떨어진	-5749
▁분▁의	-5750
▁을▁사	-5751
▁을▁앞	-5752
▁학▁폭	-5753
▁계기▁로	-5754
▁를▁가진	-5755
▁예산▁을	-5756
▁저소득층	-5757
▁했▁더니	-5758
▁좋아하▁는	-5759
▁중학교▁에	-5760
▁국민▁으로서	-5761
▁노선영▁선수	-5762
▁심각▁하▁게	-5763
▁이▁있▁어서	-5764
▁지▁못하▁게	-5765
▁하▁였▁지만	-5766
▁받▁을▁수▁있▁는	-5767
▁것▁으로▁알▁고▁있▁습니다	-5768
이션	-5769
▁거든	-5770
▁건축	-5771
▁끝난	-5772
▁나름	-5773
▁막말	-5774
▁베트	-5775
▁빠져	-5776
▁살해	-5777
▁상승	-5778
▁십쇼	-5779
▁일지	-5780
▁자존	-5781
▁편성	-5782
▁가까이	-5783
▁모자라	-5784
▁아닐까	-5785
▁보내▁는	-5786
▁북한▁의	-5787
▁분노▁를	-5788
▁에▁거주	-5789
▁위험▁한	-5790
▁하▁셔서	-5791
▁문화▁예술	-5792
▁문제▁가▁되	-5793
▁선생▁님▁의	-5794
▁악용▁하▁는	-5795
▁일방▁적▁으로	-5796
▁입장▁에서▁는	-5797
▁정부▁에서▁는	-5798
▁대한▁축구▁협회	-5799
▁을▁것▁같▁습니다	-5800
▁나쁘	-5801
▁무능	-5802
▁오해	-5803
▁이득	-5804
▁임명	-5805
▁적응	-5806
▁전수	-5807
▁출석	-5808
▁더러운	-5809
▁를▁막	-5810
▁알아보	-5811
▁을▁둔	-5812
▁아픕니다	-5813
▁을▁조장	-5814
▁일본▁의	-5815
▁자료▁를	-5816
▁점수▁를	-5817
▁을▁하▁며	-5818
▁대통령▁님▁께	-5819
▁수▁있▁을까요	-5820
▁하▁는▁건가요	-5821
▁할▁수▁밖▁에	-5822
▁할▁수▁가▁없▁습니다	-5823
▁옥	-5824
▁펜	-5825
조리	-5826
▁가끔	-5827
▁연애	-5828
▁오보	-5829
▁제보	-5830
▁지경	-5831
▁취재	-5832
▁도▁를	-5833
▁뽑▁아	-5834
▁수시로	-5835
▁을▁두	-5836
▁의▁장	-5837
▁한▁유	-5838
원▁으로	-5839
축구협회	-5840
▁국가▁적	-5841
▁위주▁로	-5842
▁이▁사건	-5843
▁하루▁에	-5844
▁했▁으면	-5845
▁글▁을▁쓰	-5846
▁되▁는▁거	-5847
▁방향▁으로	-5848
▁생각▁이▁들	-5849
▁한▁사람▁이	-5850
▁되▁는▁것▁이	-5851
아버	-5852
▁구역	-5853
▁모순	-5854
▁부대	-5855
▁아르	-5856
▁이동	-5857
▁즐겁	-5858
▁해고	-5859
▁휴일	-5860
나▁게	-5861
라우마	-5862
▁관리▁를	-5863
▁그▁당시	-5864
▁기간▁이	-5865
▁등▁에서	-5866
▁방안▁을	-5867
▁생각▁에	-5868
▁엄중▁한	-5869
▁에▁어긋	-5870
▁의▁모든	-5871
▁이후▁에	-5872
▁트라우마	-5873
▁만▁원▁을	-5874
▁대한축구협회	-5875
▁입니다▁또한	-5876
▁대통령▁님▁이	-5877
▁할▁수▁있▁다는	-5878
▁론	-5879
▁콜	-5880
▁맞춰	-5881
▁사학	-5882
▁우습	-5883
▁택배	-5884
▁확산	-5885
도▁의	-5886
추▁고	-5887
▁계▁의	-5888
▁도▁다	-5889
▁사무실	-5890
▁엄연히	-5891
▁고통▁을	-5892
▁과도▁한	-5893
▁범죄▁의	-5894
▁소수▁의	-5895
▁신체▁적	-5896
▁은▁정말	-5897
▁경기▁에서	-5898
▁상식▁적▁으로	-5899
다고▁생각▁합니다	-5900
▁다고▁생각▁됩니다	-5901
▁밟	-5902
▁액	-5903
▁엇	-5904
▁찢	-5905
▁금전	-5906
▁나눠	-5907
▁대충	-5908
▁대형	-5909
▁마냥	-5910
▁망가	-5911
▁선언	-5912
▁성립	-5913
▁요금	-5914
▁웹툰	-5915
▁저렴	-5916
▁전교	-5917
▁회생	-5918
▁가르쳐	-5919
▁알▁아	-5920
▁찾아가	-5921
▁한▁후	-5922
▁동의▁를	-5923
▁여자▁도	-5924
▁역할▁을	-5925
▁열리▁는	-5926
▁이▁모든	-5927
▁종일▁반	-5928
▁처벌▁받	-5929
▁한반도기	-5930
▁회사▁를	-5931
▁교육▁으로	-5932
▁셨▁습니다	-5933
▁시점▁에서	-5934
▁마찬가지▁로	-5935
▁이▁많▁습니다	-5936
▁지▁도▁않▁은	-5937
▁하▁는▁것▁으로	-5938
던지	-5939
▁강릉	-5940
▁기피	-5941
▁놀라	-5942
▁당일	-5943
▁대리	-5944
▁따뜻	-5945
▁따지	-5946
▁멀리	-5947
▁바꿀	-5948
▁발휘	-5949
▁연계	-5950
▁편견	-5951
▁하키	-5952
▁가▁다	-5953
▁가▁더	-5954
▁남▁혐	-5955
▁병역면	-5956
▁수▁를	-5957
▁진정한	-5958
tions	-5959
▁기회▁에	-5960
▁올리▁고	-5961
▁키우▁기	-5962
▁태권▁도	-5963
▁평등▁한	-5964
▁아동학▁대	-5965
▁애▁들▁은	-5966
▁이▁되▁었	-5967
▁이▁많▁은	-5968
▁하▁는▁곳	-5969
▁하▁십니다	-5970
▁학생▁에게	-5971
▁선생▁님▁께	-5972
▁이▁되▁어야	-5973
▁이▁라▁생각	-5974
▁지금▁이▁라도	-5975
80	-5976
다나	-5977
말로	-5978
iew	-5979
▁디자	-5980
▁문의	-5981
▁조카	-5982
▁치밀	-5983
권▁을	-5984
▁몰라도	-5985
▁베스트	-5986
▁스피드	-5987
▁았▁다	-5988
▁에▁안	-5989
▁일▁반	-5990
▁해▁온	-5991
▁권력▁을	-5992
▁성▁소수	-5993
▁아기▁가	-5994
▁을▁주장	-5995
▁보▁고▁싶	-5996
▁사이트▁에	-5997
▁학원▁에서	-5998
▁일▁것▁입니다	-5999
▁하▁는▁일▁이	-6000
▁G	-6001
▁벤	-6002
▁더군	-6003
▁언니	-6004
▁영원	-6005
▁조기	-6006
▁하교	-6007
▁횡령	-6008
단▁의	-6009
▁나▁의	-6010
▁데이트	-6011
▁바란다	-6012
▁부동산	-6013
▁부작용	-6014
▁유▁튜	-6015
▁이미지	-6016
▁자국민	-6017
▁장현수	-6018
▁저렇게	-6019
▁한▁게	-6020
▁능력▁이	-6021
▁를▁보여	-6022
▁준비▁를	-6023
▁으로서▁의	-6024
▁자라나▁는	-6025
▁하▁십시오	-6026
자▁들▁에게	-6027
▁대통령▁께서	-6028
▁에▁대해서▁도	-6029
▁정신▁적▁으로	-6030
▁합니다▁그런데	-6031
▁씻	-6032
▁엑	-6033
▁팝	-6034
▁감싸	-6035
▁다루	-6036
▁무지	-6037
▁부회	-6038
▁소외	-6039
▁소유	-6040
▁원인	-6041
▁징수	-6042
▁자동차	-6043
▁책임지	-6044
▁들▁보다	-6045
▁배우▁고	-6046
▁지▁아니	-6047
▁초▁중고	-6048
▁됐▁습니다	-6049
▁모두▁에게	-6050
▁해▁주▁면	-6051
▁교육부▁에서	-6052
▁국가▁보훈▁처	-6053
▁비▁인기▁종목	-6054
▁하▁다▁보▁니	-6055
40	-6056
▁벽	-6057
▁슈	-6058
▁푸	-6059
▁35	-6060
▁내내	-6061
▁덕분	-6062
▁변질	-6063
▁사소	-6064
▁쇼트	-6065
▁파렴	-6066
▁편향	-6067
▁현직	-6068
▁힘드	-6069
국▁의	-6070
▁갖▁고	-6071
▁남성혐	-6072
▁아닌데	-6073
▁오▁면	-6074
▁이▁잘	-6075
부▁에서	-6076
▁하▁여도	-6077
▁혼자▁서	-6078
▁기관▁에서	-6079
▁들▁만▁의	-6080
▁만▁이라도	-6081
▁말▁합니다	-6082
▁아직▁까지	-6083
▁이▁들▁을	-6084
▁하▁지▁는	-6085
▁어른▁들▁의	-6086
▁그래서▁저▁는	-6087
oo	-6088
▁빽	-6089
▁앗	-6090
▁헬	-6091
가락	-6092
운전	-6093
환경	-6094
▁교내	-6095
▁그곳	-6096
▁기소	-6097
▁부과	-6098
▁정황	-6099
▁조절	-6100
▁화면	-6101
▁년▁의	-6102
▁는▁왜	-6103
▁시켜야	-6104
▁안타까	-6105
▁을▁꺼	-6106
▁입▁에	-6107
▁감독▁님	-6108
▁남자▁를	-6109
▁대학▁은	-6110
▁문화▁가	-6111
▁받▁아서	-6112
▁비용▁이	-6113
▁선량▁한	-6114
▁위주▁의	-6115
▁자체▁를	-6116
▁했▁다면	-6117
▁훌륭▁한	-6118
▁가▁되▁고	-6119
▁것▁들▁이	-6120
▁그러▁면서	-6121
▁만▁하▁면	-6122
▁말▁이▁되	-6123
▁하▁는▁일	-6124
▁휴게▁시간	-6125
▁그▁들▁에게	-6126
▁그▁로▁인해	-6127
▁자녀▁를▁둔	-6128
▁피해자▁에게	-6129
▁하▁는▁경우	-6130
▁가장▁중요▁한	-6131
eti	-6132
▁ᅮᅮ	-6133
▁경고	-6134
▁공인	-6135
▁교감	-6136
▁교시	-6137
▁구하	-6138
▁느낀	-6139
▁뻔뻔	-6140
▁상실	-6141
▁연관	-6142
▁이승	-6143
▁좌절	-6144
▁창작	-6145
▁콘서	-6146
▁패럴	-6147
▁편안	-6148
서▁도	-6149
▁거든요	-6150
▁률▁이	-6151
▁말▁도	-6152
▁문▁을	-6153
▁함▁이	-6154
▁국민신문	-6155
▁법▁개정	-6156
▁을▁선택	-6157
▁의▁원칙	-6158
▁이▁생기	-6159
▁있▁어야	-6160
▁처벌▁은	-6161
▁죄▁를▁지	-6162
학년	-6163
▁소녀	-6164
▁여겨	-6165
▁응시	-6166
▁지출	-6167
▁추행	-6168
▁프리	-6169
가▁가	-6170
내▁는	-6171
▁성▁은	-6172
▁이▁땅	-6173
▁찾아보	-6174
▁더군다나	-6175
▁으로▁도	-6176
▁인데▁왜	-6177
▁좋▁지만	-6178
▁수능▁최저	-6179
▁올림픽▁에	-6180
▁을▁보▁며	-6181
▁답답▁합니다	-6182
▁라는▁것▁을	-6183
▁하▁는▁바램	-6184
▁국공립▁유치원	-6185
▁하▁는▁게▁맞	-6186
▁일어나▁고▁있▁습니다	-6187
▁H	-6188
▁냉	-6189
▁룰	-6190
▁싱	-6191
퇴근	-6192
▁마구	-6193
▁바보	-6194
▁시끄	-6195
▁인종	-6196
▁자퇴	-6197
▁카카	-6198
▁카톡	-6199
▁탁상	-6200
▁회계	-6201
▁기다려	-6202
▁마무리	-6203
▁명▁은	-6204
▁법▁과	-6205
▁보조금	-6206
▁죄▁값	-6207
▁한▁채	-6208
▁느끼▁는	-6209
▁들▁까지	-6210
▁마땅▁한	-6211
▁문제▁의	-6212
▁생▁기부	-6213
▁아이▁도	-6214
▁얼굴▁을	-6215
▁우리▁도	-6216
▁을▁가르	-6217
▁자격▁을	-6218
▁말▁그대로	-6219
▁정의▁로운	-6220
▁처음▁으로	-6221
▁하▁기▁가	-6222
▁국민▁입니다	-6223
▁그▁이유▁는	-6224
▁이▁있▁으면	-6225
▁자랑▁스러운	-6226
▁할▁정도▁로	-6227
etitions	-6228
▁하▁게▁되▁면	-6229
▁야간▁자율▁학습	-6230
▁f	-6231
▁녀	-6232
▁털	-6233
막식	-6234
▁검정	-6235
▁끊임	-6236
▁미달	-6237
▁신중	-6238
▁어마	-6239
▁육성	-6240
▁재발	-6241
▁주의	-6242
이▁가	-6243
▁518	-6244
▁두려움	-6245
▁이명박	-6246
▁콘텐츠	-6247
▁한▁마	-6248
▁과정▁을	-6249
▁기관▁의	-6250
▁소속▁사	-6251
▁에▁맞춰	-6252
▁인식▁을	-6253
▁적폐▁를	-6254
▁조사▁와	-6255
▁피해▁는	-6256
▁갔▁습니다	-6257
▁것▁같▁아	-6258
▁는▁게▁맞	-6259
▁여성▁우월	-6260
▁이▁있▁었	-6261
▁자▁들▁은	-6262
▁죄▁없▁는	-6263
▁지금▁현재	-6264
▁한▁번▁도	-6265
▁교사▁입니다	-6266
▁다는▁것▁은	-6267
▁도움▁이▁될	-6268
▁여자▁들▁이	-6269
▁일방▁적▁인	-6270
▁알▁고▁있▁는	-6271
▁일▁뿐▁입니다	-6272
▁지▁않▁는다면	-6273
▁살▁고▁있▁습니다	-6274
▁청원▁을▁올립니다	-6275
▁그럼에도▁불구▁하▁고	-6276
▁지▁못하▁고▁있▁습니다	-6277
▁립	-6278
▁거절	-6279
▁대법	-6280
▁바탕	-6281
▁생존	-6282
▁수요	-6283
▁약하	-6284
▁에어	-6285
▁육체	-6286
▁이리	-6287
▁인건	-6288
▁증언	-6289
▁짐승	-6290
▁통계	-6291
▁휴식	-6292
대▁의	-6293
▁그▁에	-6294
▁바람직	-6295
▁빼▁고	-6296
▁에▁떨	-6297
▁이▁의	-6298
▁좋▁고	-6299
▁할▁거	-6300
▁남성혐오	-6301
▁사과▁를	-6302
▁상태▁로	-6303
▁시▁부터	-6304
▁을▁지급	-6305
▁조차▁도	-6306
▁더▁나아가	-6307
▁글▁을▁올리	-6308
▁시켜야▁합니다	-6309
▁해▁왔▁습니다	-6310
▁해야▁하▁나요	-6311
▁제발▁부탁드립니다	-6312
▁굴	-6313
▁띄	-6314
▁래	-6315
트랙	-6316
▁권고	-6317
▁대놓	-6318
▁서슴	-6319
▁싸우	-6320
▁조현	-6321
▁주인	-6322
▁형벌	-6323
▁흔들	-6324
바이트	-6325
▁년▁이	-6326
▁듣▁는	-6327
▁천▁원	-6328
▁카카오	-6329
▁가정▁이	-6330
▁누구▁는	-6331
▁는▁건지	-6332
▁이런▁거	-6333
▁학원▁비	-6334
▁대체▁복무	-6335
▁만▁하▁고	-6336
▁여성▁인권	-6337
▁턱	-6338
티즌	-6339
▁구청	-6340
▁다수	-6341
▁되게	-6342
▁미루	-6343
▁사찰	-6344
▁어째	-6345
▁용품	-6346
▁입주	-6347
▁항목	-6348
▁해명	-6349
▁협력	-6350
▁과▁도	-6351
▁년▁째	-6352
▁만▁은	-6353
▁미혼모	-6354
▁욕▁을	-6355
▁감독▁은	-6356
▁다니▁고	-6357
▁답답▁한	-6358
▁쇼트트랙	-6359
▁여성▁과	-6360
▁오늘▁도	-6361
▁을▁준비	-6362
▁정신▁을	-6363
▁도▁하▁고	-6364
▁심지어▁는	-6365
▁아르바이트	-6366
▁지▁마세요	-6367
▁것▁같▁아요	-6368
▁불▁필요▁한	-6369
▁어쩔▁수▁없	-6370
▁올림픽▁에서	-6371
▁이▁있▁다고	-6372
▁하▁였▁는데	-6373
bc	-6374
구나	-6375
여행	-6376
▁고사	-6377
▁모의	-6378
▁미치	-6379
▁민정	-6380
▁비서	-6381
▁소용	-6382
▁야근	-6383
▁자제	-6384
▁재량	-6385
▁정원	-6386
▁경기장	-6387
▁딸▁이	-6388
▁올라온	-6389
▁은메달	-6390
▁정신병	-6391
▁특목고	-6392
▁강하▁게	-6393
▁기득▁권	-6394
▁동등▁한	-6395
▁떠나▁서	-6396
▁무서워서	-6397
▁보▁세요	-6398
▁선수▁와	-6399
▁여러▁번	-6400
▁이▁끝나	-6401
▁이런▁일	-6402
▁있▁는지	-6403
▁패럴림픽	-6404
▁한국▁을	-6405
▁자유▁학기	-6406
▁군▁면제▁를	-6407
▁소년법▁폐지	-6408
▁방탄소년단▁의	-6409
▁자연▁스럽▁게	-6410
▁다는▁것▁입니다	-6411
▁득	-6412
▁뮤	-6413
여금	-6414
▁경악	-6415
▁중립	-6416
▁추억	-6417
▁할려	-6418
낍니다	-6419
상▁은	-6420
▁KBO	-6421
▁그▁들	-6422
▁다니요	-6423
▁와이프	-6424
▁읽▁고	-6425
▁나서▁서	-6426
▁다는▁게	-6427
▁문제▁도	-6428
▁이끌▁어	-6429
▁자리▁에	-6430
▁타인▁의	-6431
▁를▁받▁아	-6432
▁만▁보▁고	-6433
▁생활▁기록	-6434
▁교육청▁에서	-6435
▁의▁자유▁를	-6436
▁하▁겠▁지만	-6437
▁확실▁하▁게	-6438
▁늘려▁주▁세요	-6439
▁들▁을▁보▁면	-6440
▁지켜▁주▁세요	-6441
▁것▁도▁아니▁고	-6442
▁좀▁해▁주▁세요	-6443
▁몫	-6444
▁섬	-6445
우스	-6446
▁가구	-6447
▁가벼	-6448
▁계정	-6449
▁대대	-6450
▁불공	-6451
▁써서	-6452
▁아가	-6453
▁압수	-6454
▁운운	-6455
▁원아	-6456
▁유학	-6457
▁죄인	-6458
▁패널	-6459
▁홀로	-6460
▁후회	-6461
나▁고	-6462
▁대놓고	-6463
▁목소리	-6464
▁알▁게	-6465
▁정해진	-6466
▁기사▁에	-6467
▁느낍니다	-6468
▁민주▁화	-6469
▁사례▁가	-6470
▁시간▁과	-6471
▁여자▁를	-6472
▁국민신문고	-6473
▁무분별▁한	-6474
▁법▁적▁인	-6475
▁이게▁나라	-6476
▁된다고▁생각	-6477
▁이▁없▁다고	-6478
▁을▁수▁있▁게	-6479
▁처벌▁을▁강화	-6480
▁가지▁고▁있▁는	-6481
▁했▁습니다▁하지만	-6482
가족	-6483
머님	-6484
▁간통	-6485
▁그림	-6486
▁김기	-6487
▁도구	-6488
▁무대	-6489
▁바뀐	-6490
▁베이	-6491
▁새끼	-6492
▁취미	-6493
기▁의	-6494
사▁와	-6495
하▁며	-6496
▁베트남	-6497
▁유공자	-6498
▁자세히	-6499
▁한▁건	-6500
▁해▁줘	-6501
▁단어▁를	-6502
▁인원▁이	-6503
▁한국▁에	-6504
랐▁습니다	-6505
▁당신▁들▁이	-6506
▁사이트▁에서	-6507
▁제안▁합니다	-6508
▁하▁시▁나요	-6509
▁어▁이▁가▁없	-6510
▁청소년▁들▁에게	-6511
▁뜯	-6512
▁권익	-6513
▁기재	-6514
▁너희	-6515
▁본다	-6516
법▁이	-6517
▁199	-6518
▁것▁에	-6519
▁길▁을	-6520
▁김정은	-6521
▁저질러	-6522
▁친환경	-6523
▁해▁줬	-6524
▁2020	-6525
▁다음▁날	-6526
▁대책▁을	-6527
▁많▁아서	-6528
▁모습▁이	-6529
▁비용▁을	-6530
▁자▁사고	-6531
▁홈페이지	-6532
▁다▁보▁면	-6533
▁더▁나▁은	-6534
▁되▁는▁게	-6535
▁못▁하▁고	-6536
▁부터▁시작	-6537
▁성범죄▁를	-6538
▁여성▁에게	-6539
▁청와대▁에	-6540
▁학부모▁님	-6541
▁위해서▁라도	-6542
▁러시아▁월드컵	-6543
▁저▁와▁같▁은	-6544
▁가▁되▁었▁습니다	-6545
▁깔	-6546
▁킹	-6547
거나	-6548
▁ht	-6549
▁나간	-6550
▁돌봐	-6551
▁매트	-6552
▁몰아	-6553
▁빈번	-6554
▁유료	-6555
▁종료	-6556
▁주소	-6557
▁창피	-6558
▁체벌	-6559
▁포상	-6560
▁활약	-6561
장▁과	-6562
▁kbs	-6563
▁늘▁어	-6564
▁사법부	-6565
▁경우▁는	-6566
▁나가▁야	-6567
▁드리▁는	-6568
▁무고▁한	-6569
▁무료▁로	-6570
▁봤▁는데	-6571
▁알려▁주	-6572
▁으니까요	-6573
▁으로▁보	-6574
▁이▁문제	-6575
▁이▁발생	-6576
▁이용▁해	-6577
▁차이▁가	-6578
▁가▁되▁면	-6579
▁방송▁통신	-6580
▁선수▁선발	-6581
▁수▁있▁다	-6582
▁고▁있▁다고	-6583
▁뉴스▁를▁보	-6584
▁를▁만들▁어	-6585
▁을▁보여▁주	-6586
▁이용▁하▁여	-6587
▁초등▁학교▁에	-6588
▁시켜▁주▁십시오	-6589
▁말▁이▁안▁됩니다	-6590
▁공문	-6591
▁교류	-6592
▁기원	-6593
▁맞춤	-6594
▁방조	-6595
▁불신	-6596
▁아쉬	-6597
▁이웃	-6598
▁주입	-6599
▁착취	-6600
▁철학	-6601
▁태아	-6602
▁피임	-6603
▁한지	-6604
▁흘러	-6605
관▁을	-6606
법▁제	-6607
▁간호사	-6608
▁낮▁아	-6609
▁내▁어	-6610
▁되▁야	-6611
▁마땅히	-6612
▁몸▁이	-6613
▁못▁할	-6614
▁살▁고	-6615
▁어쩌면	-6616
▁지▁면	-6617
▁콘서트	-6618
▁하▁나	-6619
▁수준▁이	-6620
▁심하▁게	-6621
▁이것▁도	-6622
▁잠재▁적	-6623
▁희망▁을	-6624
▁것▁입니까	-6625
▁났▁습니다	-6626
▁불법▁촬영	-6627
▁사립▁학교	-6628
▁남성▁들▁의	-6629
▁분▁들▁에게	-6630
▁정확▁하▁게	-6631
▁조사▁하▁여	-6632
▁가해자▁들▁이	-6633
▁하▁는▁겁니다	-6634
▁꼼	-6635
민주	-6636
바로	-6637
▁논술	-6638
▁세종	-6639
▁스런	-6640
▁실험	-6641
▁야기	-6642
▁어울	-6643
▁울산	-6644
▁해임	-6645
▁호봉	-6646
이▁로	-6647
▁꿈▁과	-6648
▁맞▁고	-6649
▁에▁속	-6650
▁죽▁은	-6651
▁팀▁이	-6652
▁담배▁를	-6653
▁배우▁는	-6654
▁사이▁에	-6655
▁유▁튜버	-6656
▁을▁요구	-6657
▁을▁해도	-6658
▁하▁지요	-6659
▁생각▁으로	-6660
▁임▁에▁도	-6661
▁한▁번▁씩	-6662
▁고▁있▁는지	-6663
▁친구▁들▁은	-6664
▁현실▁적▁인	-6665
▁경제▁적▁으로	-6666
▁이▁와▁같▁은	-6667
▁그렇▁기▁때문▁에	-6668
▁많▁은▁분▁들▁이	-6669
en	-6670
▁꽤	-6671
리라	-6672
어마	-6673
행위	-6674
▁공지	-6675
▁관념	-6676
▁그날	-6677
▁널리	-6678
▁맨날	-6679
▁소지	-6680
▁영국	-6681
▁잠깐	-6682
▁저하	-6683
▁출동	-6684
명▁한	-6685
치▁면	-6686
▁네티즌	-6687
▁돈▁은	-6688
▁하▁냐	-6689
▁2000	-6690
▁단순▁한	-6691
▁되▁지만	-6692
▁북한▁이	-6693
▁위▁에서	-6694
▁을▁추구	-6695
▁자기▁들	-6696
▁주변▁에	-6697
▁교육부▁는	-6698
▁이▁없▁다	-6699
▁자리▁에서	-6700
▁것▁이▁라고	-6701
▁무엇▁입니까	-6702
▁입니다▁요즘	-6703
▁지▁않▁아도	-6704
▁행복▁하▁게	-6705
▁나라▁를▁위해	-6706
▁부산▁여중▁생	-6707
▁해야▁하▁는데	-6708
tp	-6709
▁i	-6710
▁숫	-6711
▁썬	-6712
▁게끔	-6713
▁날씨	-6714
▁누굴	-6715
▁때려	-6716
▁무릎	-6717
▁무한	-6718
▁비정	-6719
▁사각	-6720
▁승진	-6721
▁완화	-6722
▁음원	-6723
▁입법	-6724
▁절반	-6725
▁혁신	-6726
들▁어	-6727
▁건▁의	-6728
▁안▁될	-6729
▁에▁더	-6730
▁옵니다	-6731
▁출산율	-6732
▁출퇴근	-6733
▁게임▁은	-6734
▁그렇▁게	-6735
▁성적▁이	-6736
▁우습▁게	-6737
▁자식▁을	-6738
▁정신▁과	-6739
▁처리▁를	-6740
▁일자리▁를	-6741
▁정책▁으로	-6742
▁공평▁하▁게	-6743
▁를▁받▁아야	-6744
▁우리나라▁의	-6745
▁이해▁가▁가	-6746
▁입니다▁현재	-6747
▁고▁있▁었▁습니다	-6748
▁빵	-6749
▁잣	-6750
규직	-6751
▁구제	-6752
▁도망	-6753
▁시킵	-6754
▁접할	-6755
감▁이	-6756
▁걸▁고	-6757
▁년▁제	-6758
▁떨어져	-6759
▁법▁에	-6760
▁차▁를	-6761
▁교사▁와	-6762
▁기관▁에	-6763
▁사회생활	-6764
▁시위▁를	-6765
▁엄연▁한	-6766
▁에▁이르	-6767
▁을▁제외	-6768
▁이▁네요	-6769
▁가▁되▁었	-6770
▁받▁습니다	-6771
▁사건▁들▁이	-6772
▁어린이집▁이	-6773
▁이용▁하▁는	-6774
▁정치▁적▁인	-6775
▁조사▁하▁고	-6776
▁살▁기▁좋▁은	-6777
▁아이▁를▁키우	-6778
▁권리▁가▁있▁습니다	-6779
▁싹	-6780
▁걸어	-6781
▁마루	-6782
▁밀어	-6783
▁서버	-6784
▁성격	-6785
▁수원	-6786
▁엘리	-6787
▁예외	-6788
▁죽여	-6789
▁즐길	-6790
▁지침	-6791
▁최종	-6792
▁폐원	-6793
▁표기	-6794
▁표시	-6795
점▁이	-6796
주▁의	-6797
▁무서워	-6798
▁불공정	-6799
▁사각지	-6800
▁사라져	-6801
▁영원히	-6802
▁외▁에	-6803
▁인정받	-6804
▁일어났	-6805
▁2012	-6806
▁국민▁과	-6807
▁기사▁는	-6808
▁대학▁의	-6809
▁도▁못하	-6810
▁드리▁고	-6811
▁방식▁을	-6812
▁시대▁의	-6813
▁아빠▁가	-6814
▁을▁생각	-6815
▁음주운전	-6816
▁청원▁글	-6817
▁친구▁가	-6818
▁병원▁에서	-6819
▁을▁보▁니	-6820
▁있▁습니까	-6821
▁진정▁으로	-6822
▁한다는▁게	-6823
▁시민▁들▁이	-6824
▁학부모▁들▁이	-6825
▁맙	-6826
마자	-6827
▁고정	-6828
▁난이	-6829
▁매장	-6830
▁밝혔	-6831
▁법치	-6832
▁사죄	-6833
▁실적	-6834
▁앞장	-6835
▁택시	-6836
▁특검	-6837
▁학자	-6838
▁화합	-6839
대▁는	-6840
▁씨▁를	-6841
▁요즈음	-6842
▁잘▁알	-6843
▁잡▁고	-6844
▁곳▁으로	-6845
▁교복▁은	-6846
▁는데▁그	-6847
▁비율▁이	-6848
▁생기▁는	-6849
▁세▁이상	-6850
▁신경▁쓰	-6851
▁을▁일삼	-6852
▁한▁유총	-6853
▁한국▁이	-6854
▁행동▁이	-6855
▁다니▁면서	-6856
▁대통령▁을	-6857
▁사건▁사고	-6858
▁입▁니▁다	-6859
▁조두순▁이	-6860
▁억울▁합니다	-6861
▁되▁지▁않▁고	-6862
▁방과▁후▁수업	-6863
▁게▁될▁것▁입니다	-6864
an	-6865
hn	-6866
▁ᄒ	-6867
▁닿	-6868
▁봄	-6869
프트	-6870
▁강국	-6871
▁곳곳	-6872
▁남기	-6873
▁막상	-6874
▁보충	-6875
▁수년	-6876
▁올렸	-6877
▁올림	-6878
▁요원	-6879
▁이때	-6880
▁인문	-6881
▁작용	-6882
▁접종	-6883
▁지향	-6884
▁출처	-6885
▁침묵	-6886
▁향해	-6887
▁회수	-6888
감▁과	-6889
주▁는	-6890
▁공권력	-6891
▁기▁식	-6892
▁낳▁아	-6893
▁늦▁은	-6894
▁의▁기	-6895
▁토요일	-6896
점▁에서	-6897
▁나라▁에	-6898
▁발생▁한	-6899
▁에▁관해	-6900
▁중▁에서	-6901
▁하나▁요	-6902
▁행위▁가	-6903
▁관련▁해서	-6904
▁더▁좋▁은	-6905
▁안▁그래도	-6906
▁언론▁에서	-6907
▁공부▁하▁는	-6908
▁이▁없▁으면	-6909
▁프로그램▁을	-6910
▁는▁없▁습니다	-6911
▁할▁수▁가▁없	-6912
야▁할▁것▁입니다	-6913
▁조사▁해▁주▁세요	-6914
▁고▁있▁습니다▁하지만	-6915
▁d	-6916
▁PC	-6917
▁간부	-6918
▁규명	-6919
▁면허	-6920
▁블로	-6921
▁손혜	-6922
▁수수	-6923
▁스키	-6924
▁인척	-6925
▁자막	-6926
▁진료	-6927
▁청정	-6928
▁교직원	-6929
▁의▁날	-6930
▁이▁던	-6931
▁책임져	-6932
▁그▁어떤	-6933
▁노래▁를	-6934
▁두▁가지	-6935
▁비정규직	-6936
▁사행▁성	-6937
▁시켜▁주	-6938
▁실력▁이	-6939
▁아이▁돌	-6940
▁엄마▁는	-6941
▁을▁당한	-6942
▁정부▁에	-6943
▁지역▁의	-6944
▁쪽▁으로	-6945
▁초등▁생	-6946
였▁습니다	-6947
자▁입니다	-6948
▁성▁적▁인	-6949
▁양육비▁를	-6950
▁여성▁혐오	-6951
▁부정▁적▁인	-6952
▁스트레스▁를	-6953
▁할▁수▁있▁다	-6954
▁하▁지▁않▁습니까	-6955
▁넥	-6956
▁류	-6957
▁씌	-6958
란히	-6959
차례	-6960
ode	-6961
▁끌려	-6962
▁남여	-6963
▁독서	-6964
▁명단	-6965
▁명문	-6966
▁모델	-6967
▁모양	-6968
▁성욕	-6969
▁쏟아	-6970
▁염색	-6971
▁완벽	-6972
▁위함	-6973
▁유독	-6974
▁은폐	-6975
▁이란	-6976
▁져야	-6977
▁조국	-6978
▁지옥	-6979
▁차트	-6980
▁학연	-6981
▁한쪽	-6982
▁화폐	-6983
니▁다	-6984
▁바라보	-6985
▁보▁시	-6986
▁자▁고	-6987
▁적▁게	-6988
▁되▁나요	-6989
▁빠르▁게	-6990
▁수시▁를	-6991
▁일▁반고	-6992
▁일▁부터	-6993
▁저▁처럼	-6994
▁하▁던데	-6995
▁다고▁해서	-6996
▁세상▁에서	-6997
▁자원▁봉사	-6998
▁처음▁부터	-6999
▁도움▁이▁되	-7000
▁의문▁입니다	-7001
▁지▁않▁는다는	-7002
▁해야▁하▁는지	-7003
▁할▁수▁있▁을까요	-7004
▁하▁여▁주▁시▁기▁바랍니다	-7005
13	-7006
or	-7007
▁롯	-7008
영향	-7009
▁걸린	-7010
▁내놓	-7011
▁대폭	-7012
▁등장	-7013
▁손실	-7014
▁약물	-7015
▁여혐	-7016
▁예약	-7017
▁용납	-7018
▁유투	-7019
▁의구	-7020
▁입증	-7021
▁초래	-7022
▁출발	-7023
▁타이	-7024
▁헌신	-7025
read	-7026
▁깊▁은	-7027
▁뽑▁는	-7028
▁악영향	-7029
▁어째서	-7030
▁열▁어	-7031
▁표▁를	-7032
▁과정▁은	-7033
▁로▁인정	-7034
▁말씀▁을	-7035
▁방법▁이	-7036
▁서류▁를	-7037
▁어디▁에	-7038
▁에▁포함	-7039
▁원하▁는	-7040
▁이▁므로	-7041
▁저희▁도	-7042
▁취지▁는	-7043
▁행사▁를	-7044
▁힘없▁는	-7045
▁압▁니▁다	-7046
▁처우▁개선	-7047
▁가▁필요▁한	-7048
▁권리▁가▁있	-7049
▁에▁의하▁여	-7050
▁이▁라는▁것▁을	-7051
60	-7052
▁묶	-7053
▁더럽	-7054
▁만행	-7055
▁보낸	-7056
▁승부	-7057
▁심하	-7058
▁아깝	-7059
▁운행	-7060
▁이분	-7061
▁전해	-7062
▁채워	-7063
▁탄핵	-7064
▁해질	-7065
▁년▁차	-7066
▁눈▁을	-7067
▁됐▁다	-7068
▁뛰어난	-7069
▁스러워	-7070
▁아이디	-7071
▁연예계	-7072
▁지▁가	-7073
▁화▁된	-7074
▁내용▁의	-7075
▁부끄러운	-7076
▁비율▁을	-7077
▁비중▁을	-7078
▁열악▁한	-7079
▁조금▁씩	-7080
▁중계▁를	-7081
▁한▁순간	-7082
▁환경▁을	-7083
▁휴가▁를	-7084
▁게▁되▁고	-7085
▁병역▁특례	-7086
▁불법▁으로	-7087
▁이야기▁가	-7088
▁한▁명▁의	-7089
▁한▁번▁만	-7090
▁본인▁들▁이	-7091
▁세계▁적▁인	-7092
▁어린이집▁의	-7093
▁할▁수▁도▁있	-7094
▁선생▁님▁들▁도	-7095
▁하▁여야▁합니다	-7096
19	-7097
▁냄	-7098
▁둥	-7099
무실	-7100
▁52	-7101
▁격려	-7102
▁구해	-7103
▁깊이	-7104
▁꿈꾸	-7105
▁배상	-7106
▁법조	-7107
▁부실	-7108
▁설문	-7109
▁오류	-7110
▁중지	-7111
▁지인	-7112
▁케어	-7113
▁걸▁어	-7114
▁괴롭힘	-7115
▁길거리	-7116
▁손▁에	-7117
▁애니메	-7118
▁자▁들	-7119
▁할▁당	-7120
▁경기▁에	-7121
▁기본▁권	-7122
▁기사▁화	-7123
▁다릅니다	-7124
▁에▁처해	-7125
▁의▁발전	-7126
▁의미▁를	-7127
▁정권▁의	-7128
▁청원▁은	-7129
▁한▁게임	-7130
▁20180	-7131
▁그렇▁기에	-7132
▁유아▁교육	-7133
▁을▁통해서	-7134
▁일▁들▁을	-7135
▁기회▁를▁주	-7136
▁내용▁입니다	-7137
▁본인▁들▁의	-7138
▁강제▁적▁으로	-7139
▁얼마나▁많▁은	-7140
▁없▁었▁습니다	-7141
▁하▁기▁에▁는	-7142
▁도록▁해▁주▁세요	-7143
▁학년▁학생▁입니다	-7144
▁길래	-7145
▁김상	-7146
▁내리	-7147
▁마당	-7148
▁무관	-7149
▁미수	-7150
▁바뀔	-7151
▁번역	-7152
▁분리	-7153
▁웃음	-7154
▁전락	-7155
▁전원	-7156
▁취직	-7157
▁프랑	-7158
▁피부	-7159
▁한편	-7160
성▁이	-7161
심▁한	-7162
원▁에	-7163
▁것▁과	-7164
▁댓▁가	-7165
▁들어와	-7166
▁쌍둥이	-7167
▁어▁진	-7168
▁준다는	-7169
▁함▁은	-7170
민주주의	-7171
▁국가▁에	-7172
▁노력▁한	-7173
▁덕분▁에	-7174
▁들▁이나	-7175
▁막대▁한	-7176
▁성범죄자	-7177
▁없▁어서	-7178
▁하▁여서	-7179
▁환경▁이	-7180
▁회사▁에	-7181
▁것▁들▁을	-7182
▁남▁깁니다	-7183
▁말▁하▁면	-7184
▁보다▁훨씬	-7185
▁볼▁수▁없	-7186
▁사교육▁을	-7187
▁수시▁전형	-7188
▁조사▁해서	-7189
▁하▁는▁걸	-7190
▁국민▁들▁도	-7191
▁그▁에▁따른	-7192
▁스피드▁스케이팅	-7193
▁폐지▁를▁청원▁합니다	-7194
▁맹	-7195
▁왠	-7196
영업	-7197
▁강서	-7198
▁넘쳐	-7199
▁물리	-7200
▁뭔지	-7201
▁밀려	-7202
▁범법	-7203
▁법제	-7204
▁에이	-7205
▁종종	-7206
▁즐거	-7207
▁채택	-7208
▁체포	-7209
▁트위	-7210
▁한창	-7211
▁흉악	-7212
만▁한	-7213
▁명백히	-7214
▁몇▁명	-7215
▁선수단	-7216
▁아▁주	-7217
▁에▁달	-7218
▁으려면	-7219
▁조용히	-7220
▁2030	-7221
▁남자▁만	-7222
▁다는▁걸	-7223
▁무▁차별	-7224
▁신경▁써	-7225
▁여자▁의	-7226
▁을▁거부	-7227
▁이상▁이	-7228
▁잔인▁한	-7229
▁것▁이▁라	-7230
▁내용▁으로	-7231
▁를▁받▁은	-7232
▁소득▁분위	-7233
▁게▁아닙니다	-7234
▁꼭▁필요▁한	-7235
▁받▁아야▁할	-7236
▁시급▁합니다	-7237
▁잘못▁되▁었	-7238
▁모르▁겠▁네요	-7239
▁예▁를▁들▁면	-7240
▁육아▁휴직▁을	-7241
▁을▁받▁고▁있▁습니다	-7242
▁j	-7243
소리	-7244
▁가게	-7245
▁경남	-7246
▁고문	-7247
▁니깐	-7248
▁데뷔	-7249
▁또래	-7250
▁롯데	-7251
▁무단	-7252
▁발의	-7253
▁범위	-7254
▁세무	-7255
▁입국	-7256
▁입원	-7257
▁조례	-7258
▁종류	-7259
▁주체	-7260
▁추세	-7261
▁향후	-7262
▁확신	-7263
까▁요	-7264
아버지	-7265
▁책▁을	-7266
▁측▁은	-7267
▁하우스	-7268
▁한국어	-7269
▁깨끗▁한	-7270
▁도움▁을	-7271
▁들▁어서	-7272
▁본인▁은	-7273
▁상▁에서	-7274
▁세▁미만	-7275
▁아름다운	-7276
▁을▁제시	-7277
▁하▁구요	-7278
▁교육청▁에	-7279
▁사이트▁는	-7280
▁애니메이션	-7281
▁경우▁에▁는	-7282
▁선수▁들▁도	-7283
▁실질▁적▁인	-7284
▁유치원▁에서	-7285
▁자유민주주의	-7286
▁주장▁하▁는	-7287
▁지▁않▁아서	-7288
▁될▁수▁있▁는	-7289
▁방과▁후▁영어	-7290
▁하▁는▁겁니까	-7291
▁도와▁주▁십시오	-7292
슬람	-7293
시고	-7294
▁가볍	-7295
▁교재	-7296
▁내몰	-7297
▁드릴	-7298
▁마트	-7299
▁막막	-7300
▁사료	-7301
▁상습	-7302
▁상영	-7303
▁상해	-7304
▁성숙	-7305
▁소음	-7306
▁언젠	-7307
▁열람	-7308
▁예고	-7309
▁적발	-7310
▁전남	-7311
▁측면	-7312
▁는▁일	-7313
▁를▁다	-7314
▁한게임	-7315
▁2013	-7316
▁그런▁거	-7317
▁금액▁을	-7318
▁다▁같이	-7319
▁되▁도록	-7320
▁바꾸▁어	-7321
▁발언▁을	-7322
▁보내▁야	-7323
▁죽이▁는	-7324
▁행동▁은	-7325
▁대회▁에서	-7326
▁이상▁으로	-7327
▁피해자▁와	-7328
▁합니다▁이	-7329
▁과▁관련▁된	-7330
▁합니다▁저▁는	-7331
▁키울▁수▁있▁는	-7332
EC	-7333
at	-7334
he	-7335
▁랍	-7336
▁맥	-7337
▁엠	-7338
▁춤	-7339
스쿨	-7340
tic	-7341
▁관할	-7342
▁바쁜	-7343
▁벌어	-7344
▁으실	-7345
▁전담	-7346
▁전역	-7347
▁평양	-7348
▁에▁지	-7349
▁예비군	-7350
▁자영업	-7351
▁통해서	-7352
▁트위터	-7353
▁프랑스	-7354
어지▁는	-7355
지▁에서	-7356
▁공중▁파	-7357
▁교사▁로	-7358
▁권리▁는	-7359
▁도▁못한	-7360
▁을▁가질	-7361
▁이▁지난	-7362
▁이루어진	-7363
▁이후▁로	-7364
없▁습니다	-7365
▁고▁있▁어	-7366
▁공기▁청정	-7367
▁남녀▁차별	-7368
▁싫▁습니다	-7369
▁유해▁물질	-7370
▁저지르▁는	-7371
▁나라▁가▁되	-7372
▁도▁그렇▁고	-7373
▁생각▁입니다	-7374
▁억울▁하▁고	-7375
▁적극▁적▁인	-7376
▁하▁는▁바람	-7377
▁해야▁합니까	-7378
▁행위▁입니다	-7379
▁여성▁들▁에게	-7380
▁국가▁보훈▁처▁는	-7381
▁하▁지▁않▁았▁습니다	-7382
▁지▁않▁다고▁생각▁합니다	-7383
70	-7384
▁닝	-7385
▁가량	-7386
▁결제	-7387
▁공론	-7388
▁관행	-7389
▁난리	-7390
▁맞추	-7391
▁무려	-7392
▁보완	-7393
▁보편	-7394
▁수저	-7395
▁식사	-7396
▁여당	-7397
▁이수	-7398
▁준다	-7399
▁파면	-7400
▁황당	-7401
가▁의	-7402
없▁고	-7403
지▁게	-7404
▁그▁후	-7405
▁여중생	-7406
▁으리라	-7407
▁정치인	-7408
▁지나친	-7409
▁지켜보	-7410
▁아프▁고	-7411
▁을▁금지	-7412
▁의견▁이	-7413
▁이▁정도	-7414
▁이해▁를	-7415
▁있▁다고	-7416
▁전국▁의	-7417
▁제도▁로	-7418
▁참고▁로	-7419
▁추가▁로	-7420
▁교사▁에게	-7421
▁보육▁시설	-7422
▁분야▁에서	-7423
▁적▁입니다	-7424
▁학부모▁의	-7425
▁할▁만▁한	-7426
▁허위▁사실	-7427
▁모든▁것▁을	-7428
▁모습▁을▁보	-7429
▁불▁합리▁한	-7430
▁한▁것▁으로	-7431
▁도▁안▁되▁는	-7432
▁생각▁해▁주▁세요	-7433
▁했▁습니다▁그런데	-7434
▁해야▁할▁것▁입니다	-7435
al	-7436
▁짝	-7437
▁펴	-7438
사고	-7439
▁기여	-7440
▁김성	-7441
▁김지	-7442
▁나서	-7443
▁뒤집	-7444
▁멀쩡	-7445
▁명의	-7446
▁선출	-7447
▁아쉽	-7448
▁양보	-7449
▁정착	-7450
수▁는	-7451
지▁않	-7452
▁가▁된	-7453
▁강원도	-7454
▁그▁는	-7455
▁끌▁고	-7456
▁동아리	-7457
▁몸▁에	-7458
▁가정▁은	-7459
▁명예▁를	-7460
▁바르▁게	-7461
▁반대▁로	-7462
▁병역면제	-7463
▁여부▁를	-7464
▁원치▁않	-7465
▁이▁에요	-7466
▁정권▁이	-7467
▁즐겁▁게	-7468
▁지원▁이	-7469
▁훈련▁을	-7470
지▁도▁않	-7471
▁게시판▁에	-7472
▁떨어지▁는	-7473
▁몇▁년▁전	-7474
▁문제▁해결	-7475
▁분위기▁를	-7476
▁생각▁해서	-7477
▁이▁같▁은	-7478
▁인성▁교육	-7479
▁자▁들▁의	-7480
▁처벌▁강화	-7481
▁현실▁에서	-7482
▁손흥민▁선수	-7483
▁지원▁해▁주	-7484
▁합니다▁이런	-7485
▁기본▁적▁으로	-7486
▁우리▁나라▁에	-7487
▁는▁것▁이▁아니▁라	-7488
▁것▁이▁라고▁생각▁합니다	-7489
조사	-7490
POP	-7491
▁구축	-7492
▁구타	-7493
▁균형	-7494
▁다녔	-7495
▁대국	-7496
▁보인	-7497
▁상무	-7498
▁수천	-7499
▁역량	-7500
▁연속	-7501
▁오빠	-7502
▁이념	-7503
▁자본	-7504
▁좌석	-7505
▁파탄	-7506
▁호텔	-7507
서▁가	-7508
▁000	-7509
▁가벼운	-7510
▁것▁만	-7511
▁몰라라	-7512
▁손가락	-7513
▁안현수	-7514
▁없▁음	-7515
▁위▁로	-7516
▁이▁였	-7517
▁하▁든	-7518
▁해▁봤	-7519
▁가▁많이	-7520
▁가족▁의	-7521
▁것▁인데	-7522
▁국가▁와	-7523
▁기존▁의	-7524
▁년▁까지	-7525
▁언론▁을	-7526
▁정시▁를	-7527
▁책임▁은	-7528
▁특성▁상	-7529
▁한▁결과	-7530
▁들▁어▁주	-7531
▁범죄자▁를	-7532
▁절대▁평가	-7533
▁현재▁까지	-7534
▁국민▁으로써	-7535
▁는▁것▁인지	-7536
▁두렵▁습니다	-7537
▁억울▁함▁을	-7538
▁을▁위하▁여	-7539
▁지▁않▁는다	-7540
▁필요▁가▁있	-7541
▁어린이집▁원장	-7542
▁이번▁기회▁에	-7543
▁지▁못하▁도록	-7544
▁막▁아▁주▁세요	-7545
▁하▁고▁있▁습니다▁하지만	-7546
▁할▁수▁있▁게▁해▁주▁세요	-7547
ml	-7548
스럽	-7549
nhn	-7550
▁가중	-7551
▁단기	-7552
▁독점	-7553
▁붙여	-7554
▁쓸데	-7555
▁어렸	-7556
▁추운	-7557
▁클릭	-7558
▁편집	-7559
▁핵심	-7560
기▁와	-7561
답니다	-7562
소▁에	-7563
▁aid	-7564
▁구성원	-7565
▁도▁많	-7566
▁수차례	-7567
▁을▁금	-7568
▁있▁을	-7569
▁파▁면	-7570
▁하여금	-7571
▁군대▁가	-7572
▁받▁으며	-7573
▁법안▁을	-7574
▁생리▁를	-7575
▁수도▁권	-7576
▁어마어마	-7577
▁없▁으면	-7578
▁운영▁을	-7579
▁제발▁좀	-7580
▁하▁느라	-7581
야▁합니까	-7582
▁블랙리스트	-7583
▁어이없▁는	-7584
▁이게▁무슨	-7585
▁팬▁들▁이	-7586
▁해야▁된다	-7587
▁고▁싶▁어서	-7588
▁고▁있▁어요	-7589
▁느꼈▁습니다	-7590
▁되▁어야▁할	-7591
▁마땅▁합니다	-7592
▁만들▁어▁주	-7593
▁선수▁들▁과	-7594
▁지원▁하▁는	-7595
▁한▁아이▁의	-7596
▁우리▁나라▁도	-7597
▁이렇게▁청원▁을	-7598
▁지▁못했▁습니다	-7599
▁수▁있▁다고▁생각▁합니다	-7600
▁V	-7601
▁력	-7602
▁뼈	-7603
▁쫓	-7604
일비	-7605
▁계실	-7606
▁금융	-7607
▁끌어	-7608
▁떠오	-7609
▁문학	-7610
▁실형	-7611
▁한자	-7612
먹▁고	-7613
위▁로	-7614
▁110	-7615
▁남북한	-7616
▁드러나	-7617
▁뜻▁을	-7618
▁있▁었	-7619
▁남자▁와	-7620
▁님▁께서	-7621
▁방송▁은	-7622
▁상황▁은	-7623
▁시민▁의	-7624
▁예산▁이	-7625
▁왜▁이런	-7626
▁을▁지지	-7627
▁정신▁차	-7628
▁정의▁를	-7629
▁증거▁를	-7630
▁하나▁도	-7631
▁한▁마디	-7632
▁기▁에▁는	-7633
▁생리대▁를	-7634
▁수▁많▁은	-7635
▁에서▁제외	-7636
▁예전▁부터	-7637
▁중심▁으로	-7638
▁데이트▁폭력	-7639
▁부모▁님▁이	-7640
▁비하▁하▁는	-7641
▁빠른▁년▁생	-7642
▁안심▁하▁고	-7643
▁제도▁입니다	-7644
▁준비▁하▁는	-7645
▁청와대▁에서	-7646
▁하▁시▁는데	-7647
▁갈▁수▁있▁는	-7648
▁하▁기▁전▁에	-7649
▁하▁지▁않▁을까	-7650
▁했▁다고▁합니다	-7651
▁을▁보▁았▁습니다	-7652
▁해▁주▁실▁것▁을	-7653
▁깎	-7654
▁흙	-7655
뉴스	-7656
저귀	-7657
▁기반	-7658
▁내역	-7659
▁대선	-7660
▁마을	-7661
▁무용	-7662
▁벌점	-7663
▁쓰여	-7664
▁어떡	-7665
▁용인	-7666
▁으론	-7667
▁적합	-7668
▁정직	-7669
▁정체	-7670
▁진심	-7671
▁치우	-7672
▁회담	-7673
죄▁로	-7674
▁가이드	-7675
▁관광객	-7676
▁끝▁에	-7677
▁돌아오	-7678
▁들▁었	-7679
▁몇▁달	-7680
▁버▁는	-7681
▁아마도	-7682
▁중▁등	-7683
▁로서▁의	-7684
▁보▁다는	-7685
▁부담▁이	-7686
▁부모▁를	-7687
▁뿌리▁뽑	-7688
▁유일▁한	-7689
▁자리▁잡	-7690
▁정책▁에	-7691
▁평화▁를	-7692
▁게▁되▁어	-7693
▁대학▁에서	-7694
▁맞▁습니다	-7695
▁범죄자▁가	-7696
▁성매매▁를	-7697
▁올림픽▁이	-7698
▁저지르▁고	-7699
▁하▁고▁또	-7700
▁합니다▁그	-7701
야▁하▁는데	-7702
▁고▁싶▁어도	-7703
▁단일팀▁구성	-7704
▁동일▁하▁게	-7705
▁볼▁때▁마다	-7706
▁선생▁님▁을	-7707
▁아이▁를▁둔	-7708
▁열심히▁공부	-7709
▁범죄▁를▁저지른	-7710
▁알▁고▁있▁는데	-7711
서▁는▁안▁됩니다	-7712
15	-7713
on	-7714
ou	-7715
교사	-7716
전거	-7717
화문	-7718
▁거듭	-7719
▁거론	-7720
▁급급	-7721
▁김연	-7722
▁발탁	-7723
▁변하	-7724
▁비단	-7725
▁소설	-7726
▁아웃	-7727
▁예매	-7728
▁오염	-7729
▁자분	-7730
▁정한	-7731
▁커서	-7732
▁편한	-7733
▁폐기	-7734
▁한정	-7735
대▁가	-7736
스란히	-7737
일비재	-7738
▁EBS	-7739
▁경쟁력	-7740
▁들어온	-7741
▁맙시다	-7742
▁여기저	-7743
▁여성부	-7744
▁오▁고	-7745
▁원▁의	-7746
▁KPOP	-7747
▁감독▁과	-7748
▁개정▁을	-7749
▁기▁힘든	-7750
▁기자▁들	-7751
▁나라▁로	-7752
▁신청▁을	-7753
▁앉▁아서	-7754
▁에▁집중	-7755
▁용기▁를	-7756
▁유명▁한	-7757
▁이▁지요	-7758
▁정치▁권	-7759
▁가▁됩니다	-7760
▁게임▁산업	-7761
▁등▁많▁은	-7762
▁보▁시▁면	-7763
▁하▁게▁된	-7764
▁긴▁하▁지만	-7765
▁년▁이▁라는	-7766
▁대우▁를▁받	-7767
▁대표▁적▁인	-7768
▁들▁이▁많이	-7769
▁발생▁하▁는	-7770
▁여성▁들▁을	-7771
▁합니다▁또한	-7772
▁대한▁민국▁을	-7773
무지	-7774
스터	-7775
▁in	-7776
▁경질	-7777
▁교칙	-7778
▁끝내	-7779
▁따르	-7780
▁물러	-7781
▁보안	-7782
▁성관	-7783
▁순수	-7784
▁쓰러	-7785
▁어르	-7786
▁열린	-7787
▁오지	-7788
▁위법	-7789
▁위장	-7790
▁유승	-7791
▁입소	-7792
▁폐교	-7793
▁한계	-7794
▁할까	-7795
▁행해	-7796
▁후손	-7797
닙니다	-7798
사▁에	-7799
이▁며	-7800
0000	-7801
▁들으면	-7802
▁몇▁개	-7803
▁반▁에	-7804
▁부끄러	-7805
▁지나가	-7806
▁할▁뿐	-7807
▁할려고	-7808
▁나이▁를	-7809
▁는▁물론	-7810
▁비일비재	-7811
▁성과▁를	-7812
▁을▁제공	-7813
▁저희▁의	-7814
▁나▁몰라라	-7815
▁만▁원▁씩	-7816
▁만▁원▁이	-7817
▁사람▁으로	-7818
▁어린이▁집	-7819
▁해▁지▁고	-7820
▁다는▁것▁이	-7821
▁대학▁을▁가	-7822
▁온▁국민▁이	-7823
▁해야▁하▁며	-7824
▁입니다▁그러나	-7825
▁너무▁많▁습니다	-7826
▁하▁고자▁합니다	-7827
▁하▁지▁않▁아도	-7828
▁국민▁의▁한▁사람▁으로서	-7829
HD	-7830
▁런	-7831
터링	-7832
▁경향	-7833
▁공고	-7834
▁목포	-7835
▁바지	-7836
▁엑소	-7837
▁연말	-7838
▁오르	-7839
▁요새	-7840
▁일간	-7841
▁저항	-7842
▁져서	-7843
▁죄책	-7844
▁지킬	-7845
▁평일	-7846
▁한류	-7847
일▁을	-7848
회▁를	-7849
▁간통죄	-7850
▁기▁레	-7851
▁사▁서	-7852
▁엄중히	-7853
▁일반인	-7854
▁자전거	-7855
▁재미있	-7856
▁하▁되	-7857
▁한▁지	-7858
▁news	-7859
▁거▁라고	-7860
▁대회▁를	-7861
▁받아들여	-7862
▁시키▁면	-7863
▁어렵▁고	-7864
▁자식▁이	-7865
▁정당▁화	-7866
▁직원▁이	-7867
▁판결▁이	-7868
▁했▁어요	-7869
▁개개인▁의	-7870
▁교육부▁의	-7871
▁수단▁으로	-7872
▁이▁있▁다	-7873
▁일▁하▁고	-7874
▁지금▁당장	-7875
▁청소년▁들	-7876
▁학부모▁가	-7877
▁이▁들▁에게	-7878
▁존재▁하▁는	-7879
▁할▁수▁밖에	-7880
▁피해자▁들▁의	-7881
▁아이▁들▁을▁위해	-7882
▁이게▁말▁이▁됩니까	-7883
OC	-7884
▁y	-7885
▁횟	-7886
문화	-7887
부패	-7888
사람	-7889
총리	-7890
▁극악	-7891
▁긴급	-7892
▁김민	-7893
▁누릴	-7894
▁당국	-7895
▁라인	-7896
▁민감	-7897
▁보미	-7898
▁산하	-7899
▁실무	-7900
▁심히	-7901
▁위탁	-7902
▁유착	-7903
▁이중	-7904
▁인도	-7905
▁입양	-7906
▁청춘	-7907
▁태풍	-7908
▁퇴사	-7909
▁해설	-7910
간▁의	-7911
먹▁는	-7912
▁대▁는	-7913
▁들어갔	-7914
▁무거운	-7915
▁블로그	-7916
▁쏟▁아	-7917
▁여고생	-7918
▁으라는	-7919
▁가정▁을	-7920
▁보호▁받	-7921
▁부정부패	-7922
▁사회▁로	-7923
▁시대▁를	-7924
▁시험▁은	-7925
▁실력▁을	-7926
▁여기저기	-7927
▁여성▁들	-7928
▁여자▁들	-7929
▁정도▁가	-7930
▁헌법▁에	-7931
▁혜택▁이	-7932
▁년▁넘▁게	-7933
▁았▁을▁때	-7934
▁올림픽▁은	-7935
▁것▁같▁네요	-7936
▁이유▁가▁있	-7937
▁입니다▁제발	-7938
▁가짜▁뉴스▁를	-7939
▁남성▁가족▁부	-7940
▁세계▁적▁으로	-7941
▁전국▁적▁으로	-7942
▁갇	-7943
▁젠	-7944
▁픽	-7945
이크	-7946
▁가상	-7947
▁공단	-7948
▁군데	-7949
▁늘어	-7950
▁되돌	-7951
▁만연	-7952
▁못한	-7953
▁방침	-7954
▁보냈	-7955
▁불과	-7956
▁신용	-7957
▁주도	-7958
▁헤아	-7959
치▁를	-7960
▁내▁야	-7961
▁되▁니	-7962
▁몇▁백	-7963
▁쓰▁면	-7964
▁인▁당	-7965
▁주차장	-7966
▁결국▁은	-7967
▁그렇▁다	-7968
▁느끼▁고	-7969
▁버립니다	-7970
▁은▁이미	-7971
▁을▁만큼	-7972
▁이▁또한	-7973
▁있▁다면	-7974
▁즐기▁는	-7975
▁최▁민정	-7976
▁평생▁을	-7977
▁하루▁가	-7978
▁학원▁에	-7979
▁누군가▁의	-7980
▁문제점▁을	-7981
▁안▁된다는	-7982
▁여론▁조작	-7983
▁적▁습니다	-7984
▁하▁겠▁죠	-7985
▁한다는▁건	-7986
▁해▁보▁니	-7987
▁해외▁에서	-7988
▁는▁것▁처럼	-7989
▁생겼▁습니다	-7990
▁이▁나라▁는	-7991
▁감사▁드립니다	-7992
▁된다고▁봅니다	-7993
▁말씀▁드립니다	-7994
▁수업▁시간▁에	-7995
▁간절히▁바랍니다	-7996
▁어처구니▁없▁는	-7997
이▁고▁있▁습니다	-7998
▁양심▁적▁병역▁거부	-7999
et	-8000
▁l	-8001
▁떄	-8002
▁개방	-8003
▁걸음	-8004
▁내세	-8005
▁도둑	-8006
▁모니	-8007
▁묵인	-8008
▁여군	-8009
▁우대	-8010
▁은퇴	-8011
▁인류	-8012
▁저번	-8013
▁참담	-8014
▁키즈	-8015
▁터지	-8016
▁현제	-8017
▁흐름	-8018
물▁이	-8019
카메라	-8020
▁625	-8021
▁검색어	-8022
▁당당히	-8023
▁도▁그	-8024
▁삼▁아	-8025
▁썩▁은	-8026
▁친일파	-8027
▁해▁체	-8028
▁가정▁에	-8029
▁경기▁가	-8030
▁기사▁의	-8031
▁되▁거나	-8032
▁라는▁게	-8033
▁영화▁를	-8034
▁을▁알아	-8035
▁정책▁과	-8036
▁주장▁을	-8037
▁핑계▁로	-8038
▁한▁국당	-8039
▁혐의▁로	-8040
▁혜택▁은	-8041
▁기▁가▁막	-8042
▁누가▁봐도	-8043
▁몰래카메라	-8044
▁애▁들▁을	-8045
▁양육▁수당	-8046
▁언제▁부터	-8047
▁입▁에▁담	-8048
▁자▁들▁을	-8049
▁하▁기▁는	-8050
야▁하▁는지	-8051
▁가지▁고▁있	-8052
▁나왔▁습니다	-8053
▁남성▁들▁을	-8054
▁병설▁유치원	-8055
▁셔야▁합니다	-8056
▁이▁이루어지	-8057
▁입니다▁저희	-8058
▁국가▁대표▁로	-8059
▁국민▁을▁위한	-8060
▁사회▁적▁약자	-8061
▁정치▁적▁으로	-8062
▁하▁고▁있▁는지	-8063
▁될▁수▁있▁습니다	-8064
▁하▁여▁주▁십시오	-8065
▁청소년▁보호법▁폐지	-8066
▁하▁는▁것▁이▁아니▁라	-8067
▁뉘	-8068
▁맺	-8069
시코	-8070
정부	-8071
pop	-8072
▁국무	-8073
▁권위	-8074
▁기말	-8075
▁마감	-8076
▁반박	-8077
▁보일	-8078
▁부상	-8079
▁소망	-8080
▁식구	-8081
▁언행	-8082
▁업계	-8083
▁이어	-8084
▁지문	-8085
▁피하	-8086
▁허다	-8087
▁협조	-8088
▁흥미	-8089
늦▁게	-8090
분▁을	-8091
▁가▁많	-8092
▁고▁또	-8093
▁내▁서	-8094
▁는▁데	-8095
▁던▁중	-8096
▁사라진	-8097
▁시청료	-8098
▁어르신	-8099
▁의▁대	-8100
▁이슬람	-8101
▁겠▁어요	-8102
▁관심▁과	-8103
▁버리▁면	-8104
▁사업▁을	-8105
▁알▁아야	-8106
▁언론▁과	-8107
▁을▁당장	-8108
▁을▁제안	-8109
▁을▁포기	-8110
▁의▁대상	-8111
▁이▁계속	-8112
▁지만▁그	-8113
▁하▁자고	-8114
▁말▁로▁만	-8115
▁시스템▁이	-8116
▁음▁합니다	-8117
▁인권위▁는	-8118
▁최저▁시급	-8119
▁하▁였▁다	-8120
readnhn	-8121
▁경제▁적▁인	-8122
▁에▁관련▁된	-8123
▁전▁세계▁에	-8124
▁혜택▁을▁주	-8125
▁상대▁적▁으로	-8126
▁시간▁이▁지나	-8127
▁자유▁한▁국당	-8128
▁지▁도▁못하▁고	-8129
▁하▁지▁않▁나요	-8130
▁petitions	-8131
▁들▁이▁많▁습니다	-8132
▁수▁밖▁에▁없▁는	-8133
▁쇠	-8134
▁욱	-8135
▁쟁	-8136
려요	-8137
린다	-8138
벤트	-8139
워크	-8140
지현	-8141
혀서	-8142
sid	-8143
▁33	-8144
▁PD	-8145
▁감안	-8146
▁개학	-8147
▁금수	-8148
▁기량	-8149
▁김영	-8150
▁깨닫	-8151
▁둘러	-8152
▁매스	-8153
▁모임	-8154
▁민사	-8155
▁법령	-8156
▁부인	-8157
▁사범	-8158
▁실격	-8159
▁악화	-8160
▁이재	-8161
▁인신	-8162
▁전업	-8163
▁제명	-8164
▁집값	-8165
▁초반	-8166
▁혜화	-8167
관▁은	-8168
금▁의	-8169
▁갔▁다	-8170
▁강서구	-8171
▁겠▁지	-8172
▁광화문	-8173
▁기저귀	-8174
▁김연아	-8175
▁둘▁다	-8176
▁어▁플	-8177
▁잃▁고	-8178
▁지▁안	-8179
▁지난해	-8180
▁지지율	-8181
▁코리아	-8182
다는▁건	-8183
▁꿈▁나무	-8184
▁내년▁에	-8185
▁눈물▁을	-8186
▁돌아다니	-8187
▁사실▁은	-8188
▁상당▁한	-8189
▁안전▁을	-8190
▁욕설▁과	-8191
▁인권▁과	-8192
▁인식▁이	-8193
▁중대▁한	-8194
▁중요▁시	-8195
▁게▁된다면	-8196
▁경력▁단절	-8197
▁바탕▁으로	-8198
▁이▁넘▁는	-8199
▁이번▁사건	-8200
▁청와대▁는	-8201
▁하▁기▁로	-8202
▁하▁신다면	-8203
▁를▁보▁면서	-8204
▁성▁관계▁를	-8205
▁어야▁하▁는	-8206
▁한▁사람▁을	-8207
▁모든▁국민▁이	-8208
▁피해자▁들▁을	-8209
▁일▁이▁없▁도록	-8210
▁가▁있▁었▁습니다	-8211
▁아무렇▁지▁않▁게	-8212
▁이▁기▁도▁합니다	-8213
▁는▁것▁도▁아니▁고	-8214
▁이해▁가▁안▁됩니다	-8215
▁좋▁을▁것▁같▁습니다	-8216
▁하▁다고▁생각▁됩니다	-8217
▁큐	-8218
▁각자	-8219
▁공통	-8220
▁괴로	-8221
▁못해	-8222
▁미용	-8223
▁부추	-8224
▁불량	-8225
▁심화	-8226
▁엔터	-8227
▁인근	-8228
▁진다	-8229
▁최순	-8230
▁크림	-8231
▁포장	-8232
▁피고	-8233
▁하물	-8234
롭▁게	-8235
비▁는	-8236
tion	-8237
▁같▁아	-8238
▁검찰청	-8239
▁귀▁를	-8240
▁뒤▁로	-8241
▁로스쿨	-8242
▁밥▁먹	-8243
▁싫▁은	-8244
▁일부러	-8245
▁일요일	-8246
▁조재범	-8247
▁계시▁는	-8248
▁국민▁적	-8249
▁기사▁로	-8250
▁끊임없이	-8251
▁되▁어도	-8252
▁립니▁다	-8253
▁명확▁한	-8254
▁방학▁때	-8255
▁생각▁도	-8256
▁생깁니다	-8257
▁우수▁한	-8258
▁유리▁한	-8259
▁을▁알려	-8260
▁인생▁이	-8261
▁일본▁은	-8262
▁절차▁를	-8263
▁현실▁에	-8264
▁누구▁보다	-8265
▁대통령▁은	-8266
▁되▁는▁데	-8267
▁보여집니다	-8268
▁시간▁근무	-8269
▁인터넷▁에	-8270
▁주▁시▁는	-8271
▁하▁겠▁다	-8272
▁군▁복무▁를	-8273
▁사람▁들▁과	-8274
▁선생▁님▁과	-8275
▁수▁있▁다고	-8276
▁알▁면서▁도	-8277
▁영향▁을▁끼	-8278
▁일반▁적▁인	-8279
▁병역▁의▁의무	-8280
▁습니다▁그리고	-8281
▁여성▁우월주의	-8282
▁도▁중요▁하▁지만	-8283
▁보▁고▁싶▁습니다	-8284
▁처벌▁해야▁합니다	-8285
▁하▁기▁때문▁입니다	-8286
▁부탁▁드리▁겠▁습니다	-8287
▁생각▁이▁들▁었▁습니다	-8288
▁멕	-8289
나다	-8290
운동	-8291
tps	-8292
▁pc	-8293
▁걸리	-8294
▁당선	-8295
▁마크	-8296
▁묵살	-8297
▁백화	-8298
▁시효	-8299
▁아나	-8300
▁올릴	-8301
▁자발	-8302
▁재직	-8303
▁제제	-8304
▁주제	-8305
▁청문	-8306
▁호주	-8307
데▁왜	-8308
약▁한	-8309
▁150	-8310
▁대▁의	-8311
▁딸▁을	-8312
▁떨어뜨	-8313
▁똑바로	-8314
▁비디오	-8315
▁수▁도	-8316
▁위▁를	-8317
▁유승준	-8318
▁일▁명	-8319
▁잠▁을	-8320
▁지▁도	-8321
▁찍▁어	-8322
▁하물며	-8323
▁가지▁는	-8324
▁다를▁바	-8325
▁보상▁을	-8326
▁사항▁을	-8327
▁시킵니다	-8328
▁아들▁이	-8329
▁았▁다고	-8330
▁연합뉴스	-8331
▁예전▁에	-8332
▁이▁나오	-8333
▁인원▁을	-8334
▁조사▁가	-8335
▁지켜▁주	-8336
▁최순▁실	-8337
▁출소▁를	-8338
▁하▁여야	-8339
▁학교▁도	-8340
▁가▁있▁다	-8341
▁되▁었▁던	-8342
▁분▁들▁과	-8343
▁사이▁에서	-8344
▁사회▁복지	-8345
▁정시▁확대	-8346
▁조두순▁은	-8347
▁피해자▁인	-8348
▁하지만▁그	-8349
▁들▁로▁인해	-8350
▁이슈▁가▁되	-8351
▁저▁는▁현재	-8352
▁지속▁적▁인	-8353
▁투명▁하▁게	-8354
▁강제▁해체▁를	-8355
▁한다고▁봅니다	-8356
▁합니다▁그러나	-8357
▁강력▁한▁처벌▁을	-8358
▁여성▁가족▁부▁의	-8359
▁이▁될▁것▁입니다	-8360
▁해▁주▁시▁면▁좋▁겠▁습니다	-8361
SD	-8362
▁껍	-8363
▁섭	-8364
▁셈	-8365
▁앵	-8366
리사	-8367
자리	-8368
크로	-8369
▁과외	-8370
▁다스	-8371
▁분석	-8372
▁사명	-8373
▁세기	-8374
▁옮겨	-8375
▁전과	-8376
▁채무	-8377
▁특권	-8378
▁한남	-8379
▁해택	-8380
▁확충	-8381
▁후반	-8382
▁기획사	-8383
▁성교육	-8384
▁이▁두	-8385
▁잇▁는	-8386
▁징병제	-8387
▁형▁을	-8388
▁과목▁을	-8389
▁모두▁의	-8390
▁밖▁으로	-8391
▁방학▁중	-8392
▁병원▁에	-8393
▁성▁폭행	-8394
▁은▁커녕	-8395
▁이▁기에	-8396
▁이▁부분	-8397
▁있▁나요	-8398
▁정의▁가	-8399
▁줄이▁고	-8400
▁직장▁맘	-8401
▁징계▁를	-8402
▁특별▁한	-8403
▁하▁던지	-8404
▁학년▁에	-8405
▁회사▁가	-8406
▁가르치▁는	-8407
▁에▁의해서	-8408
▁으로▁인정	-8409
▁이런▁저런	-8410
▁하▁는데요	-8411
▁가▁있▁어야	-8412
▁만▁원▁정도	-8413
▁에서▁벗어나	-8414
▁인정▁하▁고	-8415
▁일자리▁창출	-8416
▁하▁면서▁도	-8417
▁한다고▁생각	-8418
▁는▁것▁입니까	-8419
▁좋▁지▁않▁은	-8420
▁학부모▁들▁의	-8421
▁를▁받▁았▁습니다	-8422
▁수▁밖▁에▁없▁습니다	-8423
▁하▁는▁것▁같▁습니다	-8424
▁짖	-8425
▁쾌	-8426
란드	-8427
아내	-8428
▁32	-8429
▁가방	-8430
▁공급	-8431
▁나갔	-8432
▁다닌	-8433
▁따돌	-8434
▁박수	-8435
▁박정	-8436
▁분류	-8437
▁비행	-8438
▁생일	-8439
▁알림	-8440
▁업적	-8441
▁오죽	-8442
▁욕심	-8443
▁유니	-8444
▁유행	-8445
▁직종	-8446
▁질병	-8447
▁충남	-8448
▁치부	-8449
▁패딩	-8450
▁퍼센	-8451
▁후진	-8452
력▁과	-8453
체▁를	-8454
▁IOC	-8455
▁악▁성	-8456
▁하▁듯	-8457
▁했으며	-8458
ticle	-8459
▁개선▁을	-8460
▁교사▁도	-8461
▁까지▁만	-8462
▁넘▁어서	-8463
▁년▁으로	-8464
▁라는▁말	-8465
▁바지▁를	-8466
▁부담▁을	-8467
▁수사▁가	-8468
▁실수▁로	-8469
▁의▁교육	-8470
▁인▁만큼	-8471
▁투명▁한	-8472
▁하▁더니	-8473
▁해야▁만	-8474
▁해체▁를	-8475
▁회사▁는	-8476
▁가해자▁로	-8477
▁강력범▁죄	-8478
▁국민▁연금	-8479
▁는▁거▁죠	-8480
▁들▁이▁다	-8481
▁어떻게▁든	-8482
▁으로▁전환	-8483
▁학교▁마다	-8484
▁엄마▁들▁은	-8485
▁여성▁들▁도	-8486
▁문▁대통령▁님	-8487
▁하▁고▁있▁다고	-8488
▁많▁은▁국민▁들▁이	-8489
▁일어나▁지▁않▁도록	-8490
▁하▁지▁않▁겠▁습니까	-8491
▁해야▁된다고▁생각▁합니다	-8492
▁똥	-8493
▁벅	-8494
▁킴	-8495
어버	-8496
풀이	-8497
mid	-8498
▁48	-8499
▁간접	-8500
▁결승	-8501
▁단정	-8502
▁무작	-8503
▁상호	-8504
▁아산	-8505
▁여태	-8506
▁연극	-8507
▁예선	-8508
▁우린	-8509
▁재범	-8510
▁젠더	-8511
▁지망	-8512
▁책상	-8513
▁추석	-8514
▁충족	-8515
▁환자	-8516
▁간다고	-8517
▁과▁이	-8518
▁괴롭히	-8519
▁남▁을	-8520
▁노동자	-8521
▁말▁한	-8522
▁멕시코	-8523
▁몇▁일	-8524
▁오늘날	-8525
▁원▁을	-8526
▁이▁맞	-8527
▁이▁왜	-8528
▁이▁일	-8529
▁중▁의	-8530
▁최저임	-8531
▁치▁는	-8532
▁등▁여러	-8533
▁때리▁고	-8534
▁말▁이나	-8535
▁성관▁계	-8536
▁여론▁몰	-8537
▁하▁므로	-8538
▁효과▁를	-8539
▁겨울▁방학	-8540
▁그런데▁도	-8541
▁단일팀▁을	-8542
▁매일▁매일	-8543
▁먹▁고▁살	-8544
▁사이트▁가	-8545
▁살인▁미수	-8546
▁성폭행▁범	-8547
▁수▁는▁없	-8548
▁수신료▁를	-8549
▁신상▁공개	-8550
▁아버지▁가	-8551
▁없▁어▁지	-8552
▁에▁따라서	-8553
▁을▁보▁는	-8554
▁조두순▁의	-8555
▁가▁있▁다고	-8556
▁고통▁받▁는	-8557
▁과▁동시▁에	-8558
▁당했▁습니다	-8559
▁되▁었▁는데	-8560
▁을▁하▁거나	-8561
▁청소년▁에게	-8562
▁국가▁를▁위해	-8563
▁이▁나라▁에서	-8564
▁하▁는▁것▁과	-8565
▁청소년▁보호법▁은	-8566
90	-8567
TN	-8568
동생	-8569
방위	-8570
부모	-8571
순환	-8572
▁경북	-8573
▁계좌	-8574
▁그녀	-8575
▁기각	-8576
▁당황	-8577
▁라이	-8578
▁마주	-8579
▁배웠	-8580
▁부조	-8581
▁소급	-8582
▁응급	-8583
▁이틀	-8584
▁점차	-8585
▁조합	-8586
▁진지	-8587
▁기숙사	-8588
▁몸▁을	-8589
▁버▁닝	-8590
▁분▁을	-8591
▁소프트	-8592
▁악순환	-8593
▁자마자	-8594
▁집▁은	-8595
▁참▁고	-8596
▁케이블	-8597
▁남자▁의	-8598
▁단체▁의	-8599
▁밖▁에서	-8600
▁여성▁만	-8601
▁은▁전혀	-8602
▁일▁까지	-8603
▁작년▁에	-8604
▁친구▁는	-8605
▁학년▁때	-8606
었▁습니다	-8607
▁가▁있▁어	-8608
▁소년법▁을	-8609
▁아시안▁컵	-8610
▁올바르▁게	-8611
▁이유▁없이	-8612
▁파렴치▁한	-8613
▁하▁였으며	-8614
▁해▁지▁는	-8615
▁가▁나서▁서	-8616
▁너무▁많▁은	-8617
▁도▁못하▁는	-8618
▁불▁가능▁한	-8619
▁해야▁됩니다	-8620
▁미래▁를▁위해	-8621
▁청와대▁관계자	-8622
▁하▁지▁않▁게	-8623
▁청와대▁국민▁청원	-8624
▁짊	-8625
디션	-8626
역시	-8627
지부	-8628
▁건립	-8629
▁격리	-8630
▁공모	-8631
▁과장	-8632
▁기독	-8633
▁끊이	-8634
▁뇌물	-8635
▁동기	-8636
▁로또	-8637
▁설득	-8638
▁알바	-8639
▁업종	-8640
▁예의	-8641
▁정가	-8642
▁주거	-8643
▁즐겨	-8644
▁직권	-8645
▁친정	-8646
▁칭찬	-8647
▁투기	-8648
성▁한	-8649
▁공기업	-8650
▁귀▁화	-8651
▁마스크	-8652
▁벌금형	-8653
▁서지현	-8654
▁숨▁어	-8655
▁에▁사	-8656
▁조속히	-8657
▁학자금	-8658
▁도▁아니	-8659
▁를▁가르	-8660
▁방통▁위	-8661
▁복지▁를	-8662
▁생활▁이	-8663
▁수능▁이	-8664
▁실수▁를	-8665
▁을▁강요	-8666
▁을▁내놓	-8667
▁이익▁을	-8668
▁자▁에게	-8669
▁자리▁가	-8670
▁집▁으로	-8671
▁친구▁들	-8672
▁친구▁를	-8673
▁관련▁링크	-8674
▁누구▁에게	-8675
▁대부분▁은	-8676
▁을▁때▁는	-8677
▁저▁는▁그	-8678
▁지금▁처럼	-8679
기▁적▁으로	-8680
▁긍정▁적▁인	-8681
▁불편▁합니다	-8682
▁월드컵▁에서	-8683
▁이▁라는▁게	-8684
▁이▁아니▁고	-8685
▁이▁없▁다는	-8686
▁이번▁에▁는	-8687
▁위▁와▁같▁은	-8688
▁화▁가▁나▁서	-8689
▁기사▁를▁보▁고	-8690
▁범죄▁를▁저지르	-8691
▁앨	-8692
두리	-8693
▁가득	-8694
▁견디	-8695
▁극복	-8696
▁김경	-8697
▁남발	-8698
▁메인	-8699
▁발굴	-8700
▁발령	-8701
▁본래	-8702
▁숙명	-8703
▁시일	-8704
▁욕구	-8705
▁용어	-8706
▁지능	-8707
▁차마	-8708
▁향한	-8709
시▁는	-8710
mode	-8711
▁내보내	-8712
▁담당자	-8713
▁대국민	-8714
▁뿐▁인	-8715
▁성▁의	-8716
▁애▁가	-8717
▁이▁번	-8718
▁입▁은	-8719
▁있▁던	-8720
▁제주도	-8721
▁준다면	-8722
▁측▁의	-8723
▁한▁곳	-8724
▁한▁바	-8725
▁힘든데	-8726
무도▁한	-8727
▁라▁생각	-8728
▁라는▁걸	-8729
▁를▁가져	-8730
▁목표▁로	-8731
▁뭐▁라고	-8732
▁사실▁상	-8733
▁사태▁가	-8734
▁성적▁을	-8735
▁와중▁에	-8736
▁으로▁돌	-8737
▁재산▁을	-8738
▁할▁당제	-8739
▁맞벌이▁를	-8740
▁외▁에▁도	-8741
▁교육▁의▁질	-8742
▁라는▁것▁은	-8743
▁문제▁가▁없	-8744
▁사건▁입니다	-8745
▁사회▁가▁되	-8746
▁어른▁들▁은	-8747
▁이▁나라▁가	-8748
▁정상▁적▁으로	-8749
▁들▁어▁주▁세요	-8750
▁의문▁이▁듭니다	-8751
▁정부▁차원▁에서	-8752
▁강력▁하▁게▁처벌	-8753
▁우리▁아이▁들▁의	-8754
▁하▁기▁도▁합니다	-8755
▁받▁을▁수▁있▁도록	-8756
▁우리▁아이▁들▁에게	-8757
▁고▁싶▁지▁않▁습니다	-8758
▁이해▁가▁되▁지▁않▁습니다	-8759
▁량	-8760
▁멘	-8761
▁융	-8762
니스	-8763
로드	-8764
소연	-8765
조작	-8766
sec	-8767
▁과제	-8768
▁매수	-8769
▁매주	-8770
▁무언	-8771
▁법규	-8772
▁본보	-8773
▁사복	-8774
▁선물	-8775
▁시원	-8776
▁여대	-8777
▁오랫	-8778
▁전술	-8779
▁조회	-8780
▁질환	-8781
▁타투	-8782
▁토토	-8783
▁페지	-8784
▁편입	-8785
▁펼치	-8786
▁활발	-8787
서▁에	-8788
차▁를	-8789
▁길▁게	-8790
▁다면서	-8791
▁대▁에	-8792
▁더▁잘	-8793
▁법▁도	-8794
▁언제나	-8795
▁오지환	-8796
▁유가족	-8797
▁저학년	-8798
▁책임질	-8799
▁팀▁을	-8800
▁가▁가능	-8801
▁간단▁한	-8802
▁공평▁한	-8803
▁낙태▁를	-8804
▁남자▁들	-8805
▁를▁폐지	-8806
▁많이▁낳	-8807
▁법안▁이	-8808
▁보다▁못	-8809
▁북한▁은	-8810
▁분노▁가	-8811
▁뿐▁더러	-8812
▁승부조작	-8813
▁이▁시작	-8814
▁최저임금	-8815
▁한▁시간	-8816
자▁합니다	-8817
▁강력▁처벌	-8818
▁되▁었▁다	-8819
▁버▁닝▁썬	-8820
▁법▁앞▁에	-8821
▁안▁되▁고	-8822
▁어디▁까지	-8823
▁얼마▁든지	-8824
▁에▁있▁던	-8825
▁열심히▁일	-8826
▁있▁었▁던	-8827
▁경우▁가▁많	-8828
▁고▁있▁으니	-8829
▁그▁에▁대한	-8830
▁기자▁들▁이	-8831
▁들▁에▁대해	-8832
▁부모▁들▁의	-8833
▁시민▁들▁의	-8834
▁인터넷▁에서	-8835
▁측▁에서▁는	-8836
▁학부모▁에게	-8837
▁글▁을▁씁니다	-8838
▁도▁안▁하▁고	-8839
▁볼▁수▁있▁게	-8840
▁청소년▁들▁을	-8841
▁하▁게▁되▁는	-8842
▁하▁지▁않▁아	-8843
▁는▁게▁아니▁라	-8844
▁하▁고자▁하▁는	-8845
▁하▁는▁사람▁들▁은	-8846
ᅳᅳ	-8847
▁앓	-8848
방송	-8849
사관	-8850
ECD	-8851
▁LG	-8852
▁갑작	-8853
▁국익	-8854
▁도중	-8855
▁동시	-8856
▁만만	-8857
▁무척	-8858
▁본론	-8859
▁숙제	-8860
▁역대	-8861
▁유전	-8862
▁주부	-8863
▁초기	-8864
▁추후	-8865
▁파견	-8866
▁피곤	-8867
▁한들	-8868
해▁를	-8869
▁개막식	-8870
▁내▁신	-8871
▁되▁길	-8872
▁라면서	-8873
▁살펴보	-8874
▁에어컨	-8875
▁일으킨	-8876
▁저▁가	-8877
▁직장인	-8878
▁학년도	-8879
▁해▁오	-8880
modeL	-8881
▁군▁입대	-8882
▁기▁힘들	-8883
▁기자▁가	-8884
▁남편▁은	-8885
▁밝혀▁지	-8886
▁사기▁를	-8887
▁손▁으로	-8888
▁었▁으며	-8889
▁유투▁브	-8890
▁이상▁을	-8891
▁잖▁아요	-8892
▁점점▁더	-8893
▁차▁산업	-8894
▁현장▁에	-8895
▁현장▁의	-8896
▁개인▁회생	-8897
▁년▁만▁에	-8898
▁는▁것▁과	-8899
▁도대체▁왜	-8900
▁범죄▁행위	-8901
▁범죄자▁로	-8902
▁엄청나▁게	-8903
▁중학교▁를	-8904
▁보호▁를▁받	-8905
▁성▁평등▁을	-8906
▁아니▁더라도	-8907
▁악의▁적▁인	-8908
▁을▁하▁면서	-8909
▁피해▁를▁주	-8910
▁희망▁합니다	-8911
▁하▁다▁보▁면	-8912
▁하▁는▁것▁인지	-8913
▁대한민국▁국민▁이	-8914
▁있▁을▁수▁없▁는	-8915
▁지▁도▁않▁습니다	-8916
readnhnmodeL	-8917
▁알▁게▁되▁었▁습니다	-8918
▁필요▁하▁다고▁생각▁합니다	-8919
14	-8920
FA	-8921
▁댄	-8922
▁뭉	-8923
▁섞	-8924
▁숭	-8925
네요	-8926
▁걸려	-8927
▁공화	-8928
▁기구	-8929
▁낮추	-8930
▁단독	-8931
▁동반	-8932
▁들이	-8933
▁만일	-8934
▁망치	-8935
▁발상	-8936
▁분쟁	-8937
▁숙박	-8938
▁스펙	-8939
▁우수	-8940
▁전북	-8941
▁절망	-8942
▁정현	-8943
▁제거	-8944
▁노래방	-8945
▁눈▁이	-8946
▁돈벌이	-8947
▁박정희	-8948
▁시상식	-8949
▁어▁져	-8950
▁어려서	-8951
▁엘리트	-8952
▁은▁더	-8953
▁이▁참	-8954
▁이뤄지	-8955
▁턱없이	-8956
▁파▁는	-8957
▁퍼센트	-8958
▁해▁본	-8959
주▁세요	-8960
▁OECD	-8961
▁교복▁이	-8962
▁남편▁이	-8963
▁당신▁의	-8964
▁당신▁이	-8965
▁도▁같이	-8966
▁로▁지정	-8967
▁를▁보장	-8968
▁비리▁와	-8969
▁생기▁면	-8970
▁소리▁가	-8971
▁에▁종사	-8972
▁오랫동안	-8973
▁을▁줄여	-8974
▁인문▁계	-8975
▁정상▁화	-8976
▁했▁다가	-8977
▁힘▁으로	-8978
▁공무원▁의	-8979
▁교육▁환경	-8980
▁대학▁입학	-8981
▁성적▁으로	-8982
▁스포츠▁는	-8983
▁알▁수▁있	-8984
▁여러분▁의	-8985
▁을▁내▁고	-8986
▁이▁얼마나	-8987
▁정보▁제공	-8988
▁특수▁교육	-8989
▁하▁십시요	-8990
▁가해자▁에게	-8991
▁나라▁입니다	-8992
▁라고▁봅니다	-8993
▁미세먼지▁가	-8994
▁아니▁잖아요	-8995
▁이▁가능▁한	-8996
▁존재▁합니다	-8997
▁포함▁하▁여	-8998
▁되▁어▁있▁고	-8999
▁보육▁교사▁의	-9000
▁아▁시▁다시피	-9001
▁우리▁사회▁의	-9002
▁이▁안▁되▁는	-9003
▁한▁것▁입니다	-9004
▁같▁은▁경우▁는	-9005
▁하▁는▁사람▁들	-9006
▁하▁는▁이유▁는	-9007
하▁고▁있▁습니다	-9008
▁하▁시▁는▁분▁들	-9009
▁하▁지▁않▁는다면	-9010
▁시키▁고▁있▁습니다	-9011
readnhnmodeLSD	-9012
17	-9013
▁쪼	-9014
▁촌	-9015
저씨	-9016
하고	-9017
▁물려	-9018
▁버릴	-9019
▁봐서	-9020
▁비웃	-9021
▁서술	-9022
▁전두	-9023
▁정년	-9024
▁주년	-9025
▁추적	-9026
▁추측	-9027
▁측정	-9028
▁평준	-9029
▁흘린	-9030
개▁를	-9031
야말로	-9032
▁나타나	-9033
▁늘어날	-9034
▁도무지	-9035
▁말▁해	-9036
▁뽑▁은	-9037
▁아저씨	-9038
▁이▁야	-9039
▁주입식	-9040
▁체육복	-9041
▁팀▁의	-9042
▁결정▁을	-9043
▁남녀▁가	-9044
▁더욱▁더	-9045
▁만▁봐도	-9046
▁문제▁와	-9047
▁성▁폭력	-9048
▁아들▁을	-9049
▁엄마▁의	-9050
▁을▁당해	-9051
▁을▁지불	-9052
▁접하▁게	-9053
▁제한▁을	-9054
▁투표▁를	-9055
▁하▁는가	-9056
▁회사▁의	-9057
▁근무▁시간	-9058
▁댓글▁조작	-9059
▁보▁시▁고	-9060
▁부모▁로써	-9061
▁분위기▁가	-9062
▁중▁한▁명	-9063
▁집단▁폭행	-9064
▁더▁이상▁의	-9065
▁아실▁겁니다	-9066
▁에▁의하▁면	-9067
▁이▁있▁는지	-9068
▁이▁있▁지만	-9069
▁이렇게▁청원	-9070
▁자기▁들▁이	-9071
▁주장▁합니다	-9072
▁하▁더라구요	-9073
▁해▁주▁셔서	-9074
▁는▁것▁이▁다	-9075
▁살▁수▁있▁는	-9076
▁알▁고▁싶▁다	-9077
▁지▁않▁는다고	-9078
▁하▁지▁않▁을	-9079
▁뿐▁만▁이▁아니▁라	-9080
▁해야▁한다고▁봅니다	-9081
▁눌	-9082
▁폼	-9083
바지	-9084
▁ᄒᄒ	-9085
▁간식	-9086
▁갈아	-9087
▁고인	-9088
▁관찰	-9089
▁국영	-9090
▁기성	-9091
▁김포	-9092
▁뉘우	-9093
▁따름	-9094
▁발찌	-9095
▁부지	-9096
▁시합	-9097
▁안일	-9098
▁이른	-9099
▁치열	-9100
▁패스	-9101
▁교무실	-9102
▁그런지	-9103
▁둘▁이	-9104
▁라니요	-9105
▁명확히	-9106
▁받▁게	-9107
▁소비자	-9108
▁수없이	-9109
▁안▁돼	-9110
▁을▁할	-9111
▁이▁신	-9112
▁하소연	-9113
▁개최▁국	-9114
▁고스란히	-9115
▁다고▁말	-9116
▁다는▁것	-9117
▁들▁처럼	-9118
▁따뜻▁한	-9119
▁만큼▁의	-9120
▁바로▁서	-9121
▁사전▁에	-9122
▁수급▁자	-9123
▁순수▁한	-9124
▁아이디어	-9125
▁원인▁은	-9126
▁으십니다	-9127
▁일본▁이	-9128
▁중간▁에	-9129
▁최악▁의	-9130
▁협회▁의	-9131
▁형량▁을	-9132
▁공동▁입장	-9133
▁나▁봅니다	-9134
▁들어가▁면	-9135
▁소년법▁은	-9136
▁아동▁센터	-9137
▁엄마▁로써	-9138
▁이제▁와서	-9139
▁지역▁에서	-9140
▁해▁보▁면	-9141
▁형사▁처벌	-9142
▁공부▁하▁고	-9143
▁범죄▁입니다	-9144
▁법▁을▁개정	-9145
▁적▁으로▁도	-9146
▁중요▁합니다	-9147
▁지▁말▁라고	-9148
▁무분별▁하▁게	-9149
▁문제▁가▁발생	-9150
▁받▁고▁있▁는	-9151
▁에▁관한▁법률	-9152
▁우리▁아이▁들	-9153
▁이▁였▁습니다	-9154
▁법▁을▁만들▁어	-9155
▁한▁학생▁입니다	-9156
▁우리▁아이▁들▁을	-9157
▁청소년▁보호법▁을	-9158
▁나오▁고▁있▁습니다	-9159
▁이해▁가▁안▁갑니다	-9160
▁하▁는▁거▁아닌가요	-9161
33	-9162
▁멸	-9163
▁묘	-9164
극히	-9165
던가	-9166
항공	-9167
▁강점	-9168
▁고령	-9169
▁골프	-9170
▁배구	-9171
▁변제	-9172
▁상업	-9173
▁저해	-9174
▁적절	-9175
▁전략	-9176
▁제약	-9177
▁커피	-9178
▁특기	-9179
▁파업	-9180
▁패배	-9181
▁폐간	-9182
▁학군	-9183
▁허리	-9184
▁혹여	-9185
▁화재	-9186
▁힘쓰	-9187
가▁서	-9188
간▁에	-9189
루▁킹	-9190
▁게▁도	-9191
▁김상곤	-9192
▁낳▁은	-9193
▁더구나	-9194
▁삶▁의	-9195
▁삽니다	-9196
▁어려울	-9197
▁올라와	-9198
▁이▁높	-9199
▁제▁로	-9200
▁캐나다	-9201
▁크▁고	-9202
▁드▁네요	-9203
▁바꾸▁고	-9204
▁불리▁는	-9205
▁사건▁과	-9206
▁사람▁과	-9207
▁사소▁한	-9208
▁에서▁일	-9209
▁저▁역시	-9210
▁https	-9211
▁군대▁에서	-9212
▁되▁기▁를	-9213
▁삶▁을▁살	-9214
▁수준▁으로	-9215
▁유치원▁이	-9216
▁하▁고▁이	-9217
▁할▁겁니다	-9218
▁고▁싶▁은데	-9219
▁구체▁적▁인	-9220
▁그렇▁습니다	-9221
▁극단▁적▁인	-9222
▁부모▁님▁의	-9223
▁악용▁하▁여	-9224
▁어떻게▁생각	-9225
▁의▁인권▁이	-9226
▁지▁못하▁면	-9227
▁선생▁님▁께서	-9228
▁줄▁수▁있▁는	-9229
▁직접▁적▁으로	-9230
▁사립▁유치원▁의	-9231
▁을▁하▁였▁습니다	-9232
▁이▁라는▁이유▁만▁으로	-9233
47	-9234
st	-9235
▁r	-9236
▁덧	-9237
▁붕	-9238
토록	-9239
▁관공	-9240
▁관중	-9241
▁구멍	-9242
▁구별	-9243
▁넘기	-9244
▁농어	-9245
▁따른	-9246
▁무식	-9247
▁물품	-9248
▁실내	-9249
▁업소	-9250
▁입맛	-9251
▁조중	-9252
▁줄일	-9253
▁중시	-9254
▁차등	-9255
▁착각	-9256
▁처사	-9257
▁그▁가	-9258
▁금지법	-9259
▁나▁요	-9260
▁니▁가	-9261
▁맘대로	-9262
▁얻▁어	-9263
▁위원장	-9264
▁으려는	-9265
▁전두환	-9266
▁테▁니	-9267
▁경기▁는	-9268
▁다니▁며	-9269
▁마음▁은	-9270
▁만듭니다	-9271
▁머리▁가	-9272
▁방송▁이	-9273
▁불리▁한	-9274
▁선수▁도	-9275
▁신입▁생	-9276
▁에▁빠져	-9277
▁의사▁를	-9278
▁이▁나왔	-9279
▁전국▁에	-9280
▁점수▁가	-9281
▁제도▁적	-9282
▁축구▁는	-9283
▁평등▁을	-9284
▁폭력▁과	-9285
▁근로자▁의	-9286
▁목소리▁가	-9287
▁일▁겁니다	-9288
▁잘▁못▁된	-9289
▁저희▁학교	-9290
▁지원금▁을	-9291
▁할▁때▁는	-9292
▁수▁있▁지만	-9293
▁앞▁으로▁의	-9294
▁치마▁를▁입	-9295
▁크림▁하우스	-9296
▁하▁기▁때문	-9297
▁한반도기▁를	-9298
▁되▁는▁것▁은	-9299
▁된다고▁합니다	-9300
▁범죄자▁들▁이	-9301
▁수▁도▁있▁는	-9302
▁여자▁팀▁추월	-9303
▁추정▁의▁원칙	-9304
▁하▁는▁거▁죠	-9305
▁하▁지▁말▁아	-9306
▁되▁지▁않▁도록	-9307
▁는▁것▁이▁아닙니다	-9308
▁g	-9309
▁잦	-9310
▁젖	-9311
▁틈	-9312
▁험	-9313
봐도	-9314
하나	-9315
▁괜히	-9316
▁꽃뱀	-9317
▁꾸미	-9318
▁반발	-9319
▁불행	-9320
▁성민	-9321
▁소홀	-9322
▁신생	-9323
▁아끼	-9324
▁원망	-9325
▁이영	-9326
▁일선	-9327
▁잔혹	-9328
▁저렇	-9329
▁전세	-9330
▁전직	-9331
▁지위	-9332
▁추락	-9333
▁포탈	-9334
▁학비	-9335
워▁지	-9336
위▁에	-9337
▁oid	-9338
▁가치관	-9339
▁기독교	-9340
▁길▁이	-9341
▁김지은	-9342
▁돈▁도	-9343
▁되▁지	-9344
▁백화점	-9345
▁벌▁어	-9346
▁알려진	-9347
▁외국어	-9348
▁을▁끼	-9349
▁의▁여	-9350
▁채▁로	-9351
▁혹시나	-9352
▁검사▁가	-9353
▁과거▁의	-9354
▁관계▁가	-9355
▁근거▁로	-9356
▁급여▁를	-9357
▁기회▁는	-9358
▁늘리▁고	-9359
▁다는▁건	-9360
▁대한항공	-9361
▁되▁네요	-9362
▁드루▁킹	-9363
▁모든▁걸	-9364
▁미치▁는	-9365
▁민족▁의	-9366
▁불안▁한	-9367
▁엄격▁한	-9368
▁유치원생	-9369
▁의▁목적	-9370
▁이▁매우	-9371
▁자녀▁의	-9372
▁정치▁를	-9373
▁제재▁를	-9374
▁증거▁가	-9375
▁차원▁의	-9376
▁한테▁는	-9377
▁현명▁한	-9378
▁흙▁수저	-9379
▁가▁없▁다	-9380
▁님▁들▁이	-9381
▁도▁없▁어	-9382
▁선행▁학습	-9383
▁연예인▁이	-9384
▁왜▁이렇게	-9385
▁자격증▁을	-9386
▁하▁시▁어	-9387
▁해▁달▁라	-9388
다는▁것▁이	-9389
▁더▁이상▁은	-9390
▁맞벌이▁가정	-9391
▁부족▁합니다	-9392
▁열심히▁노력	-9393
▁이상▁입니다	-9394
▁정당▁하▁게	-9395
▁침해▁하▁는	-9396
▁포기▁하▁고	-9397
▁하▁지▁못할	-9398
▁히딩크▁감독	-9399
▁대부분▁입니다	-9400
▁에▁대한▁처벌	-9401
▁문제▁가▁아니▁라	-9402
▁여성▁가족▁부▁가	-9403
▁많▁은▁학생▁들▁이	-9404
▁없▁다고▁생각▁합니다	-9405
▁이▁라고▁생각▁됩니다	-9406
▁하▁시▁는▁분▁들▁이	-9407
it	-9408
▁깍	-9409
▁뱃	-9410
▁엿	-9411
▁강압	-9412
▁기도	-9413
▁냄새	-9414
▁당첨	-9415
▁동포	-9416
▁메세	-9417
▁배움	-9418
▁신규	-9419
▁오픈	-9420
▁위조	-9421
▁잊혀	-9422
▁잔치	-9423
▁종이	-9424
▁해킹	-9425
서▁야	-9426
선▁을	-9427
성▁과	-9428
▁UHD	-9429
▁YTN	-9430
▁거▁다	-9431
▁농어촌	-9432
▁따돌림	-9433
▁먹▁은	-9434
▁뭐▁라	-9435
▁아나운	-9436
▁줍시다	-9437
▁징▁계	-9438
▁피의자	-9439
▁할▁줄	-9440
▁가▁는데	-9441
▁게임▁이	-9442
▁기관▁이	-9443
▁기준▁은	-9444
▁나가▁면	-9445
▁노력▁이	-9446
▁뉴스▁가	-9447
▁독립운동	-9448
▁뒤▁에서	-9449
▁로서▁는	-9450
▁명▁으로	-9451
▁모습▁은	-9452
▁무섭▁고	-9453
▁부터▁가	-9454
▁비리▁로	-9455
▁왜곡▁된	-9456
▁지역▁에	-9457
▁진로▁를	-9458
▁차별▁받	-9459
▁친▁인척	-9460
midsec	-9461
▁를▁통해서	-9462
▁아이▁돌봄	-9463
▁안▁하▁면	-9464
▁우리▁에게	-9465
▁청소년▁은	-9466
▁하▁기▁엔	-9467
▁한▁것▁을	-9468
▁해야▁할지	-9469
▁가▁있▁지만	-9470
▁건의▁합니다	-9471
▁남자▁화장실	-9472
▁는▁것▁보다	-9473
▁무기▁계약직	-9474
▁생각▁하▁며	-9475
▁알▁권리▁를	-9476
▁을▁것▁으로	-9477
▁을▁비롯▁한	-9478
▁이▁나라▁를	-9479
▁인권▁위원회	-9480
▁적▁으로▁는	-9481
▁정신▁적▁인	-9482
▁한▁나라▁의	-9483
▁미투▁운동▁이	-9484
▁을▁것▁이▁다	-9485
▁을▁받▁습니다	-9486
▁학부모▁들▁은	-9487
▁볼▁수▁있▁도록	-9488
▁에▁해당▁하▁는	-9489
▁워킹▁맘▁입니다	-9490
▁이▁란▁이유▁로	-9491
▁하▁는▁사람▁은	-9492
▁지▁않▁겠▁습니까	-9493
▁국민▁의▁세금▁으로	-9494
▁혀	-9495
▁ᅳᅳ	-9496
▁각하	-9497
▁간섭	-9498
▁감금	-9499
▁개별	-9500
▁고맙	-9501
▁고집	-9502
▁나마	-9503
▁농단	-9504
▁방어	-9505
▁신천	-9506
▁영웅	-9507
▁조폭	-9508
▁좌파	-9509
▁피눈	-9510
▁해져	-9511
▁형제	-9512
▁혼인	-9513
▁112	-9514
▁개▁가	-9515
▁개정안	-9516
▁거▁고	-9517
▁말▁과	-9518
▁보▁게	-9519
▁영화관	-9520
▁움직이	-9521
▁의▁수	-9522
▁이▁요	-9523
▁이벤트	-9524
▁죽▁을	-9525
▁지극히	-9526
적▁으로	-9527
점▁으로	-9528
▁공부▁만	-9529
▁군대▁에	-9530
▁금수▁저	-9531
▁대회▁에	-9532
▁많▁지만	-9533
▁살인▁을	-9534
▁에▁너무	-9535
▁여기▁는	-9536
▁위상▁을	-9537
▁육아▁를	-9538
▁의견▁은	-9539
▁이▁나올	-9540
▁이▁처럼	-9541
▁이런▁건	-9542
▁죽이▁고	-9543
▁지켜▁지	-9544
▁하▁듯이	-9545
▁말▁들▁이	-9546
▁바▁입니다	-9547
▁수능▁시험	-9548
▁영어▁교육	-9549
▁이용▁해서	-9550
▁장소▁에서	-9551
▁지▁않▁나	-9552
▁특성▁화고	-9553
▁후▁에▁도	-9554
▁고▁있▁어서	-9555
▁되▁었▁다는	-9556
▁라는▁것▁이	-9557
▁부모▁님▁께	-9558
▁얼마▁전▁에	-9559
▁이▁에▁대해	-9560
▁이루▁어▁졌	-9561
▁직접▁적▁인	-9562
▁가해자▁들▁의	-9563
▁도▁안▁되▁고	-9564
▁하▁지▁는▁않	-9565
▁한▁번▁이라도	-9566
▁셨▁으면▁합니다	-9567
▁하▁여▁주▁세요	-9568
▁근무▁하▁고▁있▁는	-9569
▁문제▁가▁있▁습니다	-9570
▁이▁라▁생각▁됩니다	-9571
▁이해▁할▁수▁없▁는	-9572
▁되▁었▁으면▁좋▁겠▁습니다	-9573
▁랭	-9574
▁계열	-9575
▁과감	-9576
▁다소	-9577
▁매진	-9578
▁모으	-9579
▁문구	-9580
▁불륜	-9581
▁빠지	-9582
▁설정	-9583
▁신념	-9584
▁신속	-9585
▁야당	-9586
▁유산	-9587
▁자랄	-9588
▁장사	-9589
▁정하	-9590
▁청탁	-9591
▁체제	-9592
▁해선	-9593
▁호흡	-9594
▁나▁가	-9595
▁뭔가요	-9596
▁생겨나	-9597
▁썩▁어	-9598
▁에▁전	-9599
▁으세요	-9600
▁을▁왜	-9601
▁자▁로	-9602
▁정해져	-9603
▁했▁죠	-9604
▁5000	-9605
▁가슴▁에	-9606
▁것▁인가	-9607
▁공무▁직	-9608
▁공산주의	-9609
▁교수▁가	-9610
▁눈물▁이	-9611
▁대학▁이	-9612
▁댓글▁이	-9613
▁미래▁에	-9614
▁사람▁만	-9615
▁생각▁과	-9616
▁서로▁를	-9617
▁세▁까지	-9618
▁없▁어요	-9619
▁원장▁이	-9620
▁이러▁니	-9621
▁인재▁를	-9622
▁정신▁이	-9623
▁치밀▁어	-9624
▁판매▁를	-9625
▁폭행▁을	-9626
▁근로▁기준	-9627
▁나오▁는데	-9628
▁느껴집니다	-9629
▁대학▁진학	-9630
▁떨어지▁고	-9631
▁어야▁한다	-9632
▁의무▁교육	-9633
▁하루▁빨리	-9634
▁한▁번▁의	-9635
▁거▁같▁아요	-9636
▁거▁아닌가요	-9637
▁건강▁하▁게	-9638
▁것▁같▁은데	-9639
▁무▁책임▁한	-9640
▁문제▁들▁이	-9641
▁분▁들▁께서	-9642
▁어렸▁을▁때	-9643
▁요구▁하▁는	-9644
▁이런▁일▁을	-9645
▁중▁고등학교	-9646
▁청년▁입니다	-9647
▁하▁는▁방법	-9648
▁합리▁적▁인	-9649
▁해야▁할까요	-9650
▁할▁수▁없▁다	-9651
▁그러▁다▁보▁니	-9652
▁아니▁겠▁습니까	-9653
▁초등▁학교▁입학	-9654
▁하▁기▁위하▁여	-9655
▁하▁지▁못하▁게	-9656
▁알▁수▁있▁습니다	-9657
▁하▁는▁거▁아닙니까	-9658
16	-9659
TS	-9660
▁W	-9661
▁놨	-9662
▁닉	-9663
▁짤	-9664
▁켜	-9665
갈이	-9666
수색	-9667
준영	-9668
▁02	-9669
▁갔다	-9670
▁국격	-9671
▁납치	-9672
▁낮춰	-9673
▁묵묵	-9674
▁미숙	-9675
▁미지	-9676
▁부장	-9677
▁세여	-9678
▁애매	-9679
▁앨범	-9680
▁여야	-9681
▁염려	-9682
▁워너	-9683
▁으러	-9684
▁정답	-9685
▁주권	-9686
▁펜스	-9687
▁펼쳐	-9688
▁홍대	-9689
수▁로	-9690
심▁과	-9691
졌▁다	-9692
주▁를	-9693
▁검정고	-9694
▁데▁로	-9695
▁들▁다	-9696
▁면▁그	-9697
▁봅시다	-9698
▁인▁이	-9699
▁장려금	-9700
▁저지를	-9701
▁전업주	-9702
▁조재현	-9703
▁지▁를	-9704
▁현행법	-9705
자▁로서	-9706
▁같▁아요	-9707
▁걱정▁이	-9708
▁기간▁에	-9709
▁들▁또한	-9710
▁마음▁의	-9711
▁몇▁가지	-9712
▁문화재청	-9713
▁받▁으면	-9714
▁보호▁를	-9715
▁수준▁을	-9716
▁알▁지만	-9717
▁약자▁를	-9718
▁어느▁날	-9719
▁오늘▁은	-9720
▁을▁없애	-9721
▁의원▁이	-9722
▁이슈▁화	-9723
▁지키▁는	-9724
▁카카오톡	-9725
▁한번▁더	-9726
▁할아버지	-9727
▁곳▁입니다	-9728
▁돌아오▁는	-9729
▁많▁아▁지	-9730
▁병역▁혜택	-9731
▁사이트▁의	-9732
▁성폭력▁을	-9733
▁언론사▁의	-9734
▁우리▁아이	-9735
▁운동▁선수	-9736
▁유치원▁의	-9737
▁일제▁강점	-9738
▁지방▁선거	-9739
▁지방▁자치	-9740
▁하▁기▁전	-9741
▁학연▁지연	-9742
▁것▁같▁아서	-9743
▁되▁었▁다고	-9744
▁떳떳▁하▁게	-9745
▁라는▁말▁을	-9746
▁아▁시▁나요	-9747
▁어린이집▁과	-9748
▁에▁관하▁여	-9749
▁일▁이▁발생	-9750
▁처벌▁하▁고	-9751
▁가▁고▁있▁는	-9752
▁돌봄▁교실▁을	-9753
▁되▁는▁겁니까	-9754
▁어릴▁때▁부터	-9755
▁에▁있▁습니다	-9756
▁을▁것▁이▁고	-9757
▁을▁못▁하▁게	-9758
▁저희▁아이▁는	-9759
▁지▁도▁않▁는	-9760
▁학교▁생활▁을	-9761
▁문재▁인▁대통령	-9762
▁청소년▁법▁폐지	-9763
▁하▁는▁사람▁이	-9764
▁간절히▁부탁드립니다	-9765
▁고▁있▁습니다▁그런데	-9766
▁아야▁한다고▁생각▁합니다	-9767
▁아이▁를▁키우▁고▁있▁는	-9768
▁재학▁중▁인▁학생▁입니다	-9769
ch	-9770
▁끄	-9771
트리	-9772
▁56	-9773
▁건전	-9774
▁견제	-9775
▁공항	-9776
▁까진	-9777
▁꼬박	-9778
▁내린	-9779
▁모병	-9780
▁무자	-9781
▁박물	-9782
▁변별	-9783
▁쉬쉬	-9784
▁승인	-9785
▁엉망	-9786
▁장교	-9787
▁전시	-9788
▁책정	-9789
▁출장	-9790
▁치안	-9791
▁크리	-9792
▁틀린	-9793
▁할당	-9794
▁환영	-9795
문▁이	-9796
신▁을	-9797
졌▁고	-9798
▁곳▁을	-9799
▁꺼▁면	-9800
▁넣▁고	-9801
▁뛰▁는	-9802
▁몰라서	-9803
▁법▁제	-9804
▁별▁풍	-9805
▁안▁된	-9806
▁우선시	-9807
▁원▁이	-9808
▁죄▁가	-9809
▁죄책감	-9810
▁학교장	-9811
▁할▁일	-9812
▁관계없이	-9813
▁다닙니다	-9814
▁모르▁게	-9815
▁미래▁는	-9816
▁부모▁와	-9817
▁사태▁를	-9818
▁시설▁을	-9819
▁심합니다	-9820
▁여론▁이	-9821
▁와▁관련	-9822
▁왔▁는데	-9823
▁으시▁고	-9824
▁을▁진행	-9825
▁이상▁은	-9826
▁인성▁이	-9827
▁점▁에서	-9828
▁책임▁이	-9829
▁하나하나	-9830
▁한▁사건	-9831
▁교실▁에서	-9832
▁교육부▁가	-9833
▁부분▁에서	-9834
▁사회▁복무	-9835
▁피땀▁흘려	-9836
▁가▁없▁으면	-9837
▁기▁위하▁여	-9838
▁기자▁들▁은	-9839
▁도▁모르▁고	-9840
▁만▁원▁으로	-9841
▁많▁았▁습니다	-9842
▁아직▁까지▁도	-9843
▁우리▁아이▁가	-9844
▁조치▁를▁취해	-9845
▁더불▁어▁민주당	-9846
▁만들▁었▁습니다	-9847
▁시켜▁주▁십시요	-9848
▁되▁는▁것▁입니다	-9849
▁이번▁평창▁올림픽	-9850
▁하▁는▁바램▁입니다	-9851
▁해서▁는▁안▁됩니다	-9852
▁그것▁이▁알▁고▁싶▁다	-9853
▁R	-9854
▁윈	-9855
▁콩	-9856
슬림	-9857
▁경각	-9858
▁교묘	-9859
▁나중	-9860
▁넘겨	-9861
▁다섯	-9862
▁대접	-9863
▁도전	-9864
▁먹여	-9865
▁멍청	-9866
▁보살	-9867
▁사직	-9868
▁수석	-9869
▁술집	-9870
▁시골	-9871
▁신혼	-9872
▁외벌	-9873
▁월세	-9874
▁이겨	-9875
▁인하	-9876
▁일까	-9877
▁주먹	-9878
▁질서	-9879
▁쳐다	-9880
▁커지	-9881
▁타당	-9882
▁타인	-9883
▁팬덤	-9884
▁피파	-9885
▁해진	-9886
부▁와	-9887
종▁의	-9888
▁공화국	-9889
▁꿈▁이	-9890
▁달라지	-9891
▁대법원	-9892
▁많▁다	-9893
▁모조리	-9894
▁밑▁에	-9895
▁분▁도	-9896
▁분▁에	-9897
▁사이비	-9898
▁성실히	-9899
▁쉬▁고	-9900
▁언론인	-9901
▁테스트	-9902
▁한▁쪽	-9903
▁한▁체	-9904
▁한▁해	-9905
▁한다니	-9906
▁해▁놓	-9907
식▁으로	-9908
ation	-9909
▁2022	-9910
▁감정▁을	-9911
▁계▁에서	-9912
▁공론▁화	-9913
▁관심▁이	-9914
▁노력▁과	-9915
▁는▁거의	-9916
▁를▁사용	-9917
▁문의▁를	-9918
▁방송▁의	-9919
▁비리▁는	-9920
▁생기▁고	-9921
▁압수수색	-9922
▁을▁내리	-9923
▁이▁청원	-9924
▁정치▁인	-9925
▁제외▁한	-9926
▁출산▁율	-9927
▁끝▁나▁고	-9928
▁누굴▁위한	-9929
▁대다수▁가	-9930
▁뭐▁합니까	-9931
▁방송▁으로	-9932
▁체육관▁광	-9933
▁하▁는▁짓	-9934
▁하▁여▁그	-9935
다는▁것▁을	-9936
▁가▁있▁으면	-9937
▁김보름▁선수	-9938
▁라는▁말▁이	-9939
▁와▁관련▁된	-9940
▁을▁때▁까지	-9941
▁이▁청원▁을	-9942
▁이해▁하▁고	-9943
▁청소년▁범죄	-9944
▁되▁지▁않▁아	-9945
▁적▁어▁봅니다	-9946
▁축구▁협회▁의	-9947
▁할▁수▁없▁고	-9948
▁받▁아야▁합니다	-9949
▁부모▁님▁들▁이	-9950
▁을▁만들▁어▁주	-9951
23	-9952
om	-9953
▁랜	-9954
▁옵	-9955
▁춘	-9956
든지	-9957
셔츠	-9958
▁41	-9959
▁99	-9960
▁개그	-9961
▁구현	-9962
▁글로	-9963
▁농락	-9964
▁눈감	-9965
▁대해	-9966
▁드렸	-9967
▁무궁	-9968
▁박사	-9969
▁스쿨	-9970
▁슬픈	-9971
▁실상	-9972
▁쓰이	-9973
▁영광	-9974
▁원서	-9975
▁응답	-9976
▁입금	-9977
▁자산	-9978
▁정산	-9979
▁지표	-9980
▁충실	-9981
▁캐릭	-9982
▁코스	-9983
▁토록	-9984
▁무슬림	-9985
▁불가피	-9986
▁시끄럽	-9987
▁싸이트	-9988
▁아마추	-9989
▁어머님	-9990
▁인건비	-9991
▁입▁는	-9992
▁증명서	-9993
▁침▁해	-9994
▁할려면	-9995
어지▁고	-9996
▁갈등▁을	-9997
▁마치▁고	-9998
▁만약▁에	-9999
▁맡기▁고	-10000
▁법제▁화	-10001
▁북한▁과	-10002
▁살▁면서	-10003
▁싶▁네요	-10004
▁아니▁냐	-10005
▁어디▁로	-10006
▁엔터▁테	-10007
▁이런▁걸	-10008
▁이루어질	-10009
▁이용▁한	-10010
▁자기▁의	-10011
▁자세▁한	-10012
▁접하▁고	-10013
▁직장▁내	-10014
▁하▁게끔	-10015
▁가▁없▁고	-10016
▁손혜원▁의	-10017
▁에▁가까운	-10018
▁을▁갖▁고	-10019
▁이▁라니요	-10020
▁이▁었▁던	-10021
▁인격▁모독	-10022
▁일어나▁서	-10023
▁전자▁발찌	-10024
▁출산▁휴가	-10025
▁프로▁축구	-10026
▁한마디▁로	-10027
▁힘들▁어서	-10028
▁거▁아닙니까	-10029
▁보호▁하▁고	-10030
▁의▁인권▁은	-10031
▁저희▁같▁은	-10032
▁하▁는데▁왜	-10033
▁모르▁겠▁으나	-10034
▁을▁수▁도▁있	-10035
▁하▁고▁싶▁어	-10036
▁국민▁세금▁으로	-10037
▁문화▁체육관▁광	-10038
▁보이▁지▁않▁는	-10039
▁손흥민▁선수▁의	-10040
▁이런▁일▁들▁이	-10041
▁지역▁아동▁센터	-10042
▁라고▁생각▁됩니다	-10043
▁할▁것▁같▁습니다	-10044
▁되▁었▁으면▁합니다	-10045
27	-10046
▁셀	-10047
▁쭉	-10048
는데	-10049
프라	-10050
▁UN	-10051
▁YG	-10052
▁기쁨	-10053
▁나날	-10054
▁낮잠	-10055
▁노릇	-10056
▁드립	-10057
▁들려	-10058
▁떠올	-10059
▁마인	-10060
▁메뉴	-10061
▁미사	-10062
▁배경	-10063
▁사후	-10064
▁이만	-10065
▁저버	-10066
▁전파	-10067
▁조상	-10068
▁천만	-10069
▁초범	-10070
▁총리	-10071
▁타격	-10072
▁특강	-10073
▁현황	-10074
▁형법	-10075
관▁의	-10076
로▁는	-10077
자▁에	-10078
지▁의	-10079
▁돈▁만	-10080
▁둘▁을	-10081
▁매크로	-10082
▁먼▁트	-10083
▁사▁기	-10084
▁생활비	-10085
▁옆▁에	-10086
▁은▁못	-10087
▁의구심	-10088
▁잃▁은	-10089
▁조중동	-10090
▁프로젝	-10091
▁한▁푼	-10092
▁한다며	-10093
소▁에서	-10094
▁가볍▁게	-10095
▁각자▁의	-10096
▁남편▁의	-10097
▁논리▁로	-10098
▁누구▁의	-10099
▁뒤늦▁게	-10100
▁보이▁고	-10101
▁부모▁들	-10102
▁사건▁에	-10103
▁시청▁률	-10104
▁었▁어요	-10105
▁었▁으나	-10106
▁을▁내세	-10107
▁을▁제정	-10108
▁음악▁을	-10109
▁인구▁가	-10110
▁저희▁를	-10111
▁하▁였을	-10112
▁현상▁이	-10113
▁공무원▁들	-10114
▁교육▁방식	-10115
▁그▁많▁은	-10116
▁만▁원▁의	-10117
▁말▁들▁을	-10118
▁물▁어▁보	-10119
▁빠른▁시일	-10120
▁세계▁에서	-10121
▁중▁에▁는	-10122
▁지나치▁게	-10123
자▁에▁대한	-10124
▁고▁있▁네요	-10125
▁도▁마찬가지	-10126
▁도▁모르▁는	-10127
▁사료▁됩니다	-10128
▁생활▁하▁는	-10129
▁일간▁베스트	-10130
▁전▁국민▁이	-10131
▁제외▁하▁고	-10132
▁하▁기▁힘든	-10133
▁대통령▁님▁은	-10134
▁부끄럽▁습니다	-10135
▁절대▁적▁으로	-10136
midsecsid	-10137
▁말▁도▁안▁됩니다	-10138
▁문제▁가▁아닙니다	-10139
▁일어나▁고▁있▁는	-10140
▁하▁지▁도▁않▁고	-10141
▁는지▁모르▁겠▁습니다	-10142
▁발생▁하▁고▁있▁습니다	-10143
▁이런▁말▁도▁안▁되▁는	-10144
▁조사▁해▁주▁시▁기▁바랍니다	-10145
no	-10146
▁u	-10147
▁덩	-10148
▁둬	-10149
▁땜	-10150
▁렀	-10151
▁팅	-10152
▁핀	-10153
너무	-10154
라고	-10155
퍼스	-10156
▁관대	-10157
▁교대	-10158
▁단설	-10159
▁미명	-10160
▁미칠	-10161
▁반인	-10162
▁배신	-10163
▁불문	-10164
▁사연	-10165
▁설마	-10166
▁스승	-10167
▁신랑	-10168
▁이내	-10169
▁인민	-10170
▁접촉	-10171
▁지사	-10172
▁캠페	-10173
▁피우	-10174
▁할인	-10175
▁훈장	-10176
나▁서	-10177
매▁를	-10178
위▁의	-10179
▁게시물	-10180
▁글로벌	-10181
▁네▁가	-10182
▁대▁를	-10183
▁뛰▁어	-10184
▁뜨거운	-10185
▁반▁을	-10186
▁브랜드	-10187
▁사▁고	-10188
▁스토킹	-10189
▁왔▁고	-10190
▁우연히	-10191
▁유니폼	-10192
▁인▁줄	-10193
▁잃▁어	-10194
▁잘▁살	-10195
▁학부형	-10196
▁했으니	-10197
거리▁를	-10198
▁kpop	-10199
▁게임▁의	-10200
▁계획▁을	-10201
▁과▁다른	-10202
▁그러니까	-10203
▁남성▁도	-10204
▁남성▁들	-10205
▁다를▁게	-10206
▁모니터링	-10207
▁사형▁을	-10208
▁신뢰▁를	-10209
▁아직▁은	-10210
▁에▁기여	-10211
▁의▁차이	-10212
▁이런▁게	-10213
▁자유▁롭	-10214
▁출산▁을	-10215
▁폐지▁는	-10216
▁현▁정부	-10217
▁겟▁습니다	-10218
▁경찰서▁에	-10219
▁관련▁기사	-10220
▁교육청▁은	-10221
▁너무▁많이	-10222
▁다른▁사람	-10223
▁들어가▁서	-10224
▁법원▁에서	-10225
▁사회▁전반	-10226
▁실력▁으로	-10227
▁어리▁다고	-10228
▁외국▁에서	-10229
▁을▁알▁고	-10230
▁잇▁습니다	-10231
▁현장▁실습	-10232
▁가▁있▁다면	-10233
▁교사▁들▁을	-10234
▁국가▁유공자	-10235
▁당연▁하▁게	-10236
▁보호▁하▁는	-10237
▁부모▁님▁들	-10238
▁불편▁함▁을	-10239
▁사랑▁하▁고	-10240
▁시험▁을▁치	-10241
▁으로▁부▁터	-10242
▁이▁라고▁말	-10243
▁출산▁율▁이	-10244
▁했었▁습니다	-10245
▁고등학교▁에서	-10246
▁남▁아▁있▁는	-10247
▁빙상▁연맹▁은	-10248
▁언론▁의▁자유	-10249
▁여성▁을▁위한	-10250
▁질▁않▁습니다	-10251
▁하▁다▁생각▁합니다	-10252
▁셨▁으면▁좋▁겠▁습니다	-10253
▁하▁지▁않▁고▁있▁습니다	-10254
av	-10255
▁쫒	-10256
▁강행	-10257
▁건너	-10258
▁금방	-10259
▁까요	-10260
▁깨달	-10261
▁날조	-10262
▁노후	-10263
▁누나	-10264
▁들리	-10265
▁목사	-10266
▁몰려	-10267
▁보존	-10268
▁성년	-10269
▁실기	-10270
▁어지	-10271
▁줘서	-10272
▁차원	-10273
▁취한	-10274
▁탄생	-10275
▁포인	-10276
▁한숨	-10277
린다고	-10278
무▁를	-10279
임▁을	-10280
점▁은	-10281
▁갈▁때	-10282
▁김기덕	-10283
▁무너지	-10284
▁배▁를	-10285
▁보건복	-10286
▁부회장	-10287
▁신생아	-10288
▁에이즈	-10289
▁인▁양	-10290
실▁에서	-10291
▁가격▁을	-10292
▁거기▁다	-10293
▁거기▁서	-10294
▁관심▁을	-10295
▁대우▁를	-10296
▁대학원생	-10297
▁메달▁권	-10298
▁면▁에서	-10299
▁모자이크	-10300
▁번호▁를	-10301
▁사용▁을	-10302
▁수능▁은	-10303
▁시점▁에	-10304
▁아마추어	-10305
▁여중▁생	-10306
▁요구▁를	-10307
▁이름▁이	-10308
▁직원▁들	-10309
▁판결▁을	-10310
▁혈세▁를	-10311
▁국가▁기관	-10312
▁내년▁부터	-10313
▁내부▁고발	-10314
▁는▁것▁에	-10315
▁도서▁정가	-10316
▁무고죄▁로	-10317
▁부모▁로서	-10318
▁일으키▁는	-10319
▁지나가▁는	-10320
▁직무▁유기	-10321
▁태어나▁서	-10322
▁해▁보▁고	-10323
▁가족▁들▁이	-10324
▁교사▁들▁도	-10325
▁답답▁하▁고	-10326
▁신태용▁감독	-10327
▁을▁뿐▁더러	-10328
▁줘야▁합니다	-10329
▁처음▁에▁는	-10330
▁편파▁적▁인	-10331
▁하▁는▁위치	-10332
▁가▁있▁습니까	-10333
▁국민▁청원▁을	-10334
▁근본▁적▁으로	-10335
▁손흥민▁선수▁는	-10336
▁거▁라▁생각▁합니다	-10337
▁아닌▁것▁같▁습니다	-10338
▁문제▁라고▁생각▁합니다	-10339
▁함▁에▁도▁불구▁하▁고	-10340
▁국가▁보훈▁처▁는▁인권▁침해	-10341
▁쿠	-10342
래도	-10343
시대	-10344
종환	-10345
▁갈취	-10346
▁경상	-10347
▁계기	-10348
▁공범	-10349
▁귀한	-10350
▁녹음	-10351
▁때리	-10352
▁미흡	-10353
▁배출	-10354
▁볼모	-10355
▁봐요	-10356
▁빨갱	-10357
▁선전	-10358
▁시범	-10359
▁실용	-10360
▁실효	-10361
▁쓸모	-10362
▁올랐	-10363
▁이윤	-10364
▁장병	-10365
▁중반	-10366
▁태어	-10367
▁풀려	-10368
▁합성	-10369
▁히트	-10370
터▁를	-10371
학▁적	-10372
▁간다면	-10373
▁나▁를	-10374
▁년▁은	-10375
▁는▁걸	-10376
▁님▁께	-10377
▁비▁를	-10378
▁서울대	-10379
▁아파서	-10380
▁에▁치	-10381
▁올라왔	-10382
▁웃▁고	-10383
▁의▁성	-10384
▁이▁수	-10385
▁적▁고	-10386
▁정준영	-10387
▁차▁가	-10388
▁찾아볼	-10389
▁한▁뒤	-10390
▁함▁에	-10391
▁혜화역	-10392
▁2011	-10393
▁가▁나올	-10394
▁같▁아서	-10395
▁거▁에요	-10396
▁결혼▁을	-10397
▁과거▁에	-10398
▁그런▁것	-10399
▁내▁자식	-10400
▁드리▁며	-10401
▁마당▁에	-10402
▁명예훼손	-10403
▁사실▁에	-10404
▁수시▁는	-10405
▁심판▁이	-10406
▁의미▁가	-10407
▁인지▁는	-10408
▁전체▁가	-10409
▁평화▁의	-10410
▁표현▁을	-10411
▁한▁경우	-10412
▁행태▁를	-10413
▁현장▁을	-10414
▁거의▁모든	-10415
▁동영상▁을	-10416
▁살아가▁야	-10417
▁성추행▁범	-10418
▁시간▁까지	-10419
▁외▁에▁는	-10420
▁정부▁지원	-10421
▁죠▁하지만	-10422
▁지▁마▁라	-10423
▁지▁말▁아	-10424
▁직장▁에서	-10425
▁하▁게▁될	-10426
▁학원▁으로	-10427
▁함▁에▁도	-10428
▁고등학교▁는	-10429
▁기대▁합니다	-10430
▁내▁아이▁가	-10431
▁동등▁하▁게	-10432
▁봐▁주▁세요	-10433
▁이▁되▁도록	-10434
▁이루▁어▁지	-10435
▁입니다▁물론	-10436
▁자녀▁들▁이	-10437
▁직원▁들▁이	-10438
▁청와대▁청원	-10439
▁할▁권리▁를	-10440
▁할▁때▁마다	-10441
▁할▁수▁는▁없	-10442
▁노선영▁선수▁가	-10443
▁노선영▁선수▁의	-10444
▁스트레스▁를▁받	-10445
▁을▁당했▁습니다	-10446
▁할▁수▁없▁다는	-10447
▁할▁수▁없▁도록	-10448
▁꽉	-10449
▁춥	-10450
교통	-10451
▁갖추	-10452
▁고유	-10453
▁공제	-10454
▁노리	-10455
▁다치	-10456
▁모범	-10457
▁별거	-10458
▁병사	-10459
▁불합	-10460
▁색깔	-10461
▁수첩	-10462
▁연일	-10463
▁원한	-10464
▁작전	-10465
▁재심	-10466
▁종결	-10467
▁지우	-10468
▁청렴	-10469
▁하위	-10470
▁198	-10471
▁거▁는	-10472
▁기울여	-10473
▁꼭▁좀	-10474
▁끊▁어	-10475
▁되▁게	-10476
▁때▁가	-10477
▁몰아가	-10478
▁무상급	-10479
▁바꿔서	-10480
▁애국가	-10481
▁어이없	-10482
▁이▁도	-10483
▁저▁만	-10484
▁지금껏	-10485
▁한▁분	-10486
▁한▁자	-10487
사▁에서	-10488
▁2010	-10489
▁교통사고	-10490
▁권리▁와	-10491
▁나이▁는	-10492
▁논란▁이	-10493
▁다니▁던	-10494
▁단체▁가	-10495
▁만행▁을	-10496
▁보험▁사	-10497
▁부부▁가	-10498
▁사기▁꾼	-10499
▁선수▁로	-10500
▁센터▁를	-10501
▁운영▁자	-10502
▁의문▁이	-10503
▁이▁다르	-10504
▁이▁무슨	-10505
▁자기▁네	-10506
▁정시▁로	-10507
▁찾▁아서	-10508
▁처벌▁수	-10509
▁한두▁번	-10510
자▁들▁도	-10511
▁대학교▁에	-10512
▁돈▁주▁고	-10513
▁들▁과▁의	-10514
▁성▁있▁는	-10515
▁세▁번▁째	-10516
▁여기▁까지	-10517
▁욕▁을▁먹	-10518
▁이▁라면서	-10519
▁일상▁생활	-10520
야▁하▁나요	-10521
▁가▁있▁어서	-10522
▁놀랐▁습니다	-10523
▁대한▁체육회	-10524
▁법▁을▁강화	-10525
▁시민▁입니다	-10526
▁심각▁성▁을	-10527
▁운영▁되▁는	-10528
▁을▁당하▁고	-10529
▁전문▁적▁인	-10530
▁죄송▁합니다	-10531
▁친구▁들▁도	-10532
▁판단▁됩니다	-10533
▁한▁순간▁에	-10534
▁는▁것▁같▁아	-10535
▁도▁많▁습니다	-10536
▁민주주의▁국가	-10537
▁받▁을▁수▁있	-10538
▁어린▁나이▁에	-10539
▁현재▁대한민국	-10540
▁게▁현실▁입니다	-10541
▁유치원▁어린이집	-10542
▁해▁주▁셨▁으면	-10543
▁들▁이▁있▁습니다	-10544
▁보▁고▁있▁습니다	-10545
▁었▁습니다▁하지만	-10546
▁만들▁어▁주▁십시오	-10547
▁하▁시▁기▁바랍니다	-10548
▁쏘	-10549
▁폴	-10550
데요	-10551
버스	-10552
▁OO	-10553
▁경호	-10554
▁고양	-10555
▁구독	-10556
▁군가	-10557
▁동조	-10558
▁매출	-10559
▁메시	-10560
▁부재	-10561
▁산정	-10562
▁선처	-10563
▁세뇌	-10564
▁수록	-10565
▁아팠	-10566
▁안보	-10567
▁우익	-10568
▁위기	-10569
▁일수	-10570
▁천안	-10571
▁축하	-10572
▁취약	-10573
▁플랫	-10574
▁학사	-10575
▁학창	-10576
▁휴업	-10577
국▁에	-10578
단▁이	-10579
▁기▁엔	-10580
▁는다면	-10581
▁등▁도	-10582
▁리스트	-10583
▁벗어난	-10584
▁심▁어	-10585
▁의▁전	-10586
▁좁▁은	-10587
▁찍▁은	-10588
▁과정▁에	-10589
▁과정▁이	-10590
▁교수▁의	-10591
▁그러▁고	-10592
▁기업▁의	-10593
▁남성▁만	-10594
▁년▁정도	-10595
▁답변▁은	-10596
▁모두▁를	-10597
▁보▁니까	-10598
▁봉사▁를	-10599
▁사각지대	-10600
▁시험▁에	-10601
▁아동▁을	-10602
▁알리▁고	-10603
▁옆▁에서	-10604
▁작금▁의	-10605
▁추악▁한	-10606
▁폭행▁과	-10607
▁한▁아이	-10608
▁흘리▁며	-10609
▁개월▁동안	-10610
▁게▁합니다	-10611
▁고▁있▁던	-10612
▁공무원▁이	-10613
▁그런데▁왜	-10614
▁금메달▁을	-10615
▁말▁하▁고	-10616
▁벌▁을▁받	-10617
▁부적절▁한	-10618
▁수▁없▁다	-10619
▁을▁해▁주	-10620
▁이건▁정말	-10621
▁이미지▁를	-10622
▁일▁이▁있	-10623
▁정부▁기관	-10624
▁지금▁부터	-10625
▁한▁것▁도	-10626
▁해결▁방안	-10627
▁객관▁적▁인	-10628
▁당신▁들▁은	-10629
▁도▁없▁는데	-10630
▁려고▁합니다	-10631
▁선생▁님▁도	-10632
▁이번▁에▁도	-10633
▁입니다▁그런	-10634
▁조두순▁출소	-10635
▁졸업▁하▁고	-10636
▁청년▁들▁이	-10637
▁출산▁장려금	-10638
▁페미니즘▁을	-10639
▁해▁주▁십쇼	-10640
▁되▁는▁건가요	-10641
▁보▁겠▁습니다	-10642
▁살려▁주▁세요	-10643
▁시간▁을▁보내	-10644
▁어려움▁을▁겪	-10645
▁어린이집▁이나	-10646
▁초등▁학교▁는	-10647
▁하▁고▁있▁어	-10648
▁하▁는▁데▁도	-10649
지▁도▁모릅니다	-10650
▁그렇▁지▁않▁은	-10651
▁대한민국▁이▁되	-10652
▁문제▁가▁있▁는	-10653
▁시▁기▁바랍니다	-10654
▁을▁이용▁하▁여	-10655
▁하▁지▁말▁라고	-10656
▁할▁수▁있▁지만	-10657
▁대통령▁님▁저▁는	-10658
▁방송▁통신▁위원회	-10659
▁생각▁해▁보▁세요	-10660
▁경우▁도▁있▁습니다	-10661
▁느끼▁고▁있▁습니다	-10662
▁없▁어▁져야▁합니다	-10663
▁알▁고▁있▁습니다▁하지만	-10664
26	-10665
▁ᄌ	-10666
▁곰	-10667
커녕	-10668
▁37	-10669
▁65	-10670
▁IT	-10671
▁거쳐	-10672
▁대만	-10673
▁드려	-10674
▁똑똑	-10675
▁멈추	-10676
▁멋진	-10677
▁무사	-10678
▁선도	-10679
▁소름	-10680
▁손님	-10681
▁써야	-10682
▁안중	-10683
▁어깨	-10684
▁연루	-10685
▁위생	-10686
▁유예	-10687
▁유흥	-10688
▁자란	-10689
▁전액	-10690
▁죄질	-10691
▁증설	-10692
▁지체	-10693
▁찌푸	-10694
▁찬양	-10695
▁체전	-10696
▁표출	-10697
증▁을	-10698
▁내▁의	-10699
▁더라면	-10700
▁라디오	-10701
▁몰상식	-10702
▁월요일	-10703
▁의▁시	-10704
▁이래서	-10705
▁제▁는	-10706
▁죄▁로	-10707
▁화장품	-10708
법▁으로	-10709
어집니다	-10710
▁게임▁물	-10711
▁그▁다음	-10712
▁금지▁를	-10713
▁기업▁이	-10714
▁뉴스▁로	-10715
▁당신▁들	-10716
▁도▁필요	-10717
▁도▁함께	-10718
▁모두▁다	-10719
▁물건▁을	-10720
▁불편▁함	-10721
▁선택▁권	-10722
▁시험▁의	-10723
▁심사▁를	-10724
▁얘기▁가	-10725
▁연기▁를	-10726
▁을▁줄이	-10727
▁음식▁을	-10728
▁의식▁을	-10729
▁저렇▁게	-10730
▁제▁생각	-10731
▁패널▁티	-10732
▁합의▁를	-10733
▁형편▁이	-10734
▁황당▁한	-10735
듭▁니▁다	-10736
▁고▁싶▁고	-10737
▁공소▁시효	-10738
▁국회▁에서	-10739
▁뉴스▁기사	-10740
▁대학교▁를	-10741
▁를▁받▁았	-10742
▁메▁갈리아	-10743
▁받▁으면서	-10744
▁서울▁에서	-10745
▁수치심▁을	-10746
▁여러▁차례	-10747
▁연예인▁들	-10748
▁자유▁로운	-10749
▁청소년▁을	-10750
▁특수▁학교	-10751
▁힘들▁어요	-10752
▁대학교▁에서	-10753
▁스포츠▁정신	-10754
▁아이▁들▁만	-10755
▁유일▁하▁게	-10756
▁이상▁하▁게	-10757
▁일▁이▁지만	-10758
▁지▁아니한다	-10759
리▁지▁않▁고	-10760
▁다고▁하▁는데	-10761
▁어린이▁들▁이	-10762
▁을▁만들▁어서	-10763
▁을▁뿐▁입니다	-10764
▁이▁글▁을▁쓰	-10765
▁이▁다▁보▁니	-10766
▁입니다▁그래서	-10767
▁지▁고▁있▁는	-10768
▁학교▁에서▁도	-10769
▁는▁게▁아닙니다	-10770
▁되▁어▁있▁는데	-10771
▁시▁길▁바랍니다	-10772
▁하▁지▁못합니다	-10773
▁볼▁수▁없▁습니다	-10774
▁전▁세계▁적▁으로	-10775
▁가지▁고▁있▁습니다	-10776
▁을▁수▁가▁없▁습니다	-10777
▁할▁수▁있▁도록▁해▁주▁세요	-10778
▁굶	-10779
▁껀	-10780
▁꿇	-10781
▁끈	-10782
▁뜬	-10783
▁튀	-10784
다른	-10785
▁38	-10786
▁55	-10787
▁XX	-10788
▁가려	-10789
▁광복	-10790
▁귀기	-10791
▁김치	-10792
▁깜짝	-10793
▁놓여	-10794
▁다리	-10795
▁돌리	-10796
▁뒤쳐	-10797
▁모텔	-10798
▁바우	-10799
▁배달	-10800
▁배포	-10801
▁부러	-10802
▁분단	-10803
▁비상	-10804
▁산모	-10805
▁산후	-10806
▁상주	-10807
▁설계	-10808
▁심심	-10809
▁안락	-10810
▁앞뒤	-10811
▁예쁜	-10812
▁잡혀	-10813
▁증진	-10814
▁진입	-10815
▁철거	-10816
▁파트	-10817
▁하도	-10818
▁허세	-10819
▁화해	-10820
고▁에	-10821
치▁못	-10822
화▁가	-10823
▁님▁을	-10824
▁들여다	-10825
▁마인드	-10826
▁발▁로	-10827
▁밝▁은	-10828
▁사라질	-10829
▁성과급	-10830
▁재수생	-10831
▁집▁을	-10832
▁측▁에	-10833
▁한▁대	-10834
▁3000	-10835
▁가격▁이	-10836
▁그▁자체	-10837
▁나오▁게	-10838
▁는▁정말	-10839
▁당연▁시	-10840
▁도▁너무	-10841
▁링크▁는	-10842
▁링크▁를	-10843
▁메달▁을	-10844
▁무▁관심	-10845
▁범죄▁에	-10846
▁뿌리▁를	-10847
▁수학여행	-10848
▁시험▁이	-10849
▁엄마▁들	-10850
▁없▁는데	-10851
▁은▁절대	-10852
▁있▁어도	-10853
▁자살▁을	-10854
▁자유▁로	-10855
▁지식▁을	-10856
▁판단▁을	-10857
▁한▁행동	-10858
▁관리▁감독	-10859
▁그만두▁고	-10860
▁근로▁시간	-10861
▁높▁습니다	-10862
▁되▁는▁건	-10863
▁를▁보▁며	-10864
▁삶▁의▁질	-10865
▁여러분▁들	-10866
▁올라오▁는	-10867
▁우리▁사회	-10868
▁이▁된다면	-10869
▁책임지▁고	-10870
▁학창▁시절	-10871
▁해▁주▁실	-10872
▁극악무도▁한	-10873
▁도움▁을▁주	-10874
▁되▁었▁지만	-10875
▁발생▁합니다	-10876
▁사생활▁침해	-10877
▁시켰▁습니다	-10878
▁이번▁월드컵	-10879
▁차별▁을▁받	-10880
▁책임▁을▁묻	-10881
▁해▁보▁세요	-10882
▁교사▁들▁에게	-10883
▁사건▁이▁발생	-10884
▁이▁될▁수▁있	-10885
▁이▁라고▁해서	-10886
▁하▁면▁됩니다	-10887
▁해▁줄▁것▁을	-10888
▁하▁고▁싶▁어도	-10889
▁하▁는▁경우▁가	-10890
▁대한민국▁헌법▁제	-10891
▁하▁는▁것▁입니까	-10892
▁다니▁고▁있▁습니다	-10893
▁저▁뿐▁만▁아니▁라	-10894
▁늘어나▁고▁있▁습니다	-10895
▁이▁되▁고▁있▁습니다	-10896
▁이해▁할▁수▁없▁습니다	-10897
▁하▁는지▁모르▁겠▁습니다	-10898
▁꿀	-10899
▁듀	-10900
▁듭	-10901
▁칩	-10902
스레	-10903
▁39	-10904
▁가사	-10905
▁결재	-10906
▁고충	-10907
▁공학	-10908
▁극우	-10909
▁금품	-10910
▁꺼내	-10911
▁남한	-10912
▁되찾	-10913
▁딱히	-10914
▁메일	-10915
▁무마	-10916
▁반칙	-10917
▁방금	-10918
▁성행	-10919
▁신변	-10920
▁전무	-10921
▁전주	-10922
▁징집	-10923
▁최우	-10924
▁카시	-10925
▁파일	-10926
▁하락	-10927
▁합산	-10928
▁호도	-10929
료▁가	-10930
자▁나	-10931
힙니다	-10932
▁120	-10933
▁때▁에	-10934
▁로▁남	-10935
▁문▁의	-10936
▁벌어진	-10937
▁스트리	-10938
▁십▁시	-10939
▁왔▁던	-10940
▁이▁냐	-10941
▁인프라	-10942
▁일▁과	-10943
▁정현백	-10944
▁팀워크	-10945
▁할▁시	-10946
▁2009	-10947
▁갔▁는데	-10948
▁결론▁은	-10949
▁남▁에게	-10950
▁는▁이런	-10951
▁다니▁면	-10952
▁말▁해서	-10953
▁무능▁한	-10954
▁백만▁원	-10955
▁세▁이하	-10956
▁외치▁는	-10957
▁을▁떠나	-10958
▁입대▁를	-10959
▁재학▁생	-10960
▁정하▁는	-10961
▁조치▁가	-10962
▁종교▁적	-10963
▁해▁나가	-10964
▁헬▁조선	-10965
다고▁생각	-10966
야▁하▁며	-10967
▁건강▁보험	-10968
▁곤▁합니다	-10969
▁국내▁에서	-10970
▁그리고▁이	-10971
▁끝▁나▁는	-10972
▁도▁를▁넘	-10973
▁도▁아닌데	-10974
▁딸아이▁를	-10975
▁말▁고▁도	-10976
▁말▁한마디	-10977
▁보조▁교사	-10978
▁수▁없▁고	-10979
▁수학▁능력	-10980
▁시간▁이상	-10981
▁언론▁보도	-10982
▁엄마▁로서	-10983
▁욕▁하▁고	-10984
▁을▁거▁라	-10985
▁일▁은▁없	-10986
▁입니다▁왜	-10987
▁적▁이▁며	-10988
▁지방▁법원	-10989
▁청와대▁가	-10990
▁판▁을▁치	-10991
▁하▁기▁싫	-10992
▁하▁는▁이	-10993
▁하▁면▁그	-10994
▁한국▁남자	-10995
▁가족▁들▁은	-10996
▁고▁싶▁네요	-10997
▁년▁이하▁의	-10998
▁부모▁님▁은	-10999
▁부탁▁입니다	-11000
▁불법▁적▁인	-11001
▁비리▁유치원	-11002
▁어린이집▁도	-11003
▁요즘▁들▁어	-11004
▁워▁마드▁는	-11005
▁이▁사건▁을	-11006
▁하▁시▁면서	-11007
▁가해자▁들▁을	-11008
▁너무▁힘듭니다	-11009
▁바꿔야▁합니다	-11010
▁빙상▁연맹▁이	-11011
▁한다는▁것▁이	-11012
▁가해자▁들▁에게	-11013
▁도▁있▁겠▁지만	-11014
▁초등▁돌봄▁교실	-11015
▁아시안▁게임▁에서	-11016
▁우리▁아이▁들▁은	-11017
▁으면▁좋▁겠▁어요	-11018
▁을▁거▁같▁습니다	-11019
▁적▁이▁없▁습니다	-11020
▁표현▁의▁자유▁를	-11021
▁하▁여▁주▁십시요	-11022
▁이▁기▁때문▁입니다	-11023
as	-11024
▁겹	-11025
▁늙	-11026
▁룸	-11027
▁멜	-11028
▁벨	-11029
바닥	-11030
▁간다	-11031
▁고치	-11032
▁귀찮	-11033
▁길러	-11034
▁랭킹	-11035
▁믿음	-11036
▁박스	-11037
▁발목	-11038
▁병행	-11039
▁분통	-11040
▁붙잡	-11041
▁세부	-11042
▁속옷	-11043
▁식민	-11044
▁아리	-11045
▁여도	-11046
▁열악	-11047
▁오른	-11048
▁오심	-11049
▁일가	-11050
▁적시	-11051
▁절감	-11052
▁집어	-11053
▁착오	-11054
▁착한	-11055
▁확립	-11056
▁거▁지	-11057
▁냅니다	-11058
▁는▁다	-11059
▁는다는	-11060
▁대▁가	-11061
▁디자인	-11062
▁떨어질	-11063
▁세▁로	-11064
▁을▁들	-11065
▁의▁이	-11066
▁조선족	-11067
▁즐거운	-11068
▁판▁에	-11069
▁피▁고	-11070
▁한▁이	-11071
▁한▁장	-11072
▁했▁을	-11073
▁가족▁은	-11074
▁개혁▁을	-11075
▁거리▁를	-11076
▁걸리▁는	-11077
▁교실▁에	-11078
▁군가▁산	-11079
▁기▁레기	-11080
▁남자▁도	-11081
▁눈▁으로	-11082
▁당신▁은	-11083
▁대중교통	-11084
▁등급▁을	-11085
▁로▁사용	-11086
▁맘▁카페	-11087
▁며칠▁전	-11088
▁밝히▁고	-11089
▁버스▁를	-11090
▁변화▁를	-11091
▁새롭▁게	-11092
▁성기▁를	-11093
▁시간▁의	-11094
▁심판▁의	-11095
▁에▁지원	-11096
▁영어▁는	-11097
▁영어▁로	-11098
▁이곳▁에	-11099
▁이사▁를	-11100
▁정도▁를	-11101
▁준하▁는	-11102
▁처벌▁도	-11103
▁펜스▁룰	-11104
▁평준▁화	-11105
▁해야▁될	-11106
기▁적▁인	-11107
▁걱정▁없이	-11108
▁나경원▁의	-11109
▁마음▁편히	-11110
▁마음놓▁고	-11111
▁만▁명▁이	-11112
▁문화▁체육	-11113
▁보▁고▁있	-11114
▁봤▁을▁때	-11115
▁스포츠▁가	-11116
▁어느▁나라	-11117
▁어렵▁다면	-11118
▁에▁가▁면	-11119
▁위원회▁에	-11120
▁이▁기▁도	-11121
▁일▁이▁고	-11122
▁임용▁고시	-11123
▁입시▁제도	-11124
▁점▁입니다	-11125
▁팬▁들▁은	-11126
▁가▁있▁는데	-11127
▁과▁더불▁어	-11128
▁교육▁공무원	-11129
▁기간제▁교사	-11130
▁비하▁하▁고	-11131
▁수▁없▁다는	-11132
▁스트레스▁가	-11133
▁안▁되▁나요	-11134
▁어야▁하▁고	-11135
▁올렸▁습니다	-11136
▁을▁이용▁해	-11137
▁지원▁을▁받	-11138
▁한다고▁해서	-11139
▁가▁없▁어▁지	-11140
▁다시▁는▁이런	-11141
▁대통령▁님▁과	-11142
▁민주▁화▁운동	-11143
▁수▁도▁없▁고	-11144
▁수▁도▁있▁고	-11145
▁수▁밖▁에▁없	-11146
▁청소년▁법▁을	-11147
▁화▁가▁나▁고	-11148
▁꼭▁부탁드립니다	-11149
▁을▁요청▁합니다	-11150
▁피해▁를▁입▁은	-11151
▁대한민국▁이▁라는	-11152
▁아이▁들▁을▁위한	-11153
▁간곡히▁청원▁합니다	-11154
▁무죄▁추정▁의▁원칙	-11155
▁우리▁나라▁에서▁는	-11156
▁닥	-11157
▁림	-11158
▁컷	-11159
▁폄	-11160
셔서	-11161
이나	-11162
테고	-11163
하여	-11164
ing	-11165
▁SK	-11166
▁bj	-11167
▁고지	-11168
▁근대	-11169
▁근래	-11170
▁금연	-11171
▁낙인	-11172
▁녹색	-11173
▁담보	-11174
▁디지	-11175
▁리얼	-11176
▁말살	-11177
▁메이	-11178
▁별개	-11179
▁복권	-11180
▁복장	-11181
▁부득	-11182
▁불이	-11183
▁선호	-11184
▁수렴	-11185
▁외투	-11186
▁유엔	-11187
▁유형	-11188
▁자긍	-11189
▁정몽	-11190
▁죽인	-11191
▁지휘	-11192
▁쳐도	-11193
▁충북	-11194
▁환수	-11195
가▁고	-11196
라▁는	-11197
욕▁을	-11198
▁m▁a	-11199
▁그▁전	-11200
▁도▁이	-11201
▁밝혀진	-11202
▁사회악	-11203
▁살아남	-11204
▁상관없	-11205
▁아이즈	-11206
▁안▁고	-11207
▁암표상	-11208
▁없▁에	-11209
▁직▁을	-11210
▁카테고	-11211
▁탁상행	-11212
▁해야죠	-11213
▁흉악범	-11214
▁가난▁한	-11215
▁검사▁는	-11216
▁경찰▁과	-11217
▁경찰▁을	-11218
▁공개▁를	-11219
▁국무총리	-11220
▁극심▁한	-11221
▁등▁하원	-11222
▁문제▁에	-11223
▁문화▁적	-11224
▁밖에▁안	-11225
▁불쌍▁한	-11226
▁사고▁로	-11227
▁선수▁권	-11228
▁세계▁에	-11229
▁세금▁은	-11230
▁시대▁는	-11231
▁아▁는데	-11232
▁에▁걸맞	-11233
▁역사▁적	-11234
▁을▁통한	-11235
▁입시▁를	-11236
▁준비▁한	-11237
▁지역▁은	-11238
▁차이▁는	-11239
▁판사▁는	-11240
▁평가▁원	-11241
▁평소▁에	-11242
▁학생▁도	-11243
▁해외여행	-11244
자▁들▁과	-11245
자▁하▁는	-11246
쳤▁습니다	-11247
▁가상▁화폐	-11248
▁감독▁으로	-11249
▁고정▁관념	-11250
▁교과서▁를	-11251
▁나라▁다운	-11252
▁년▁전▁에	-11253
▁비하▁발언	-11254
▁생각▁보다	-11255
▁여름▁방학	-11256
▁있▁을까요	-11257
▁그▁누구▁도	-11258
▁대학▁등록금	-11259
▁도▁못하▁게	-11260
▁등▁다양▁한	-11261
▁보호▁해▁주	-11262
▁부탁▁드려요	-11263
▁시험▁을▁보	-11264
▁에▁위치▁한	-11265
▁올림픽▁출전	-11266
▁이▁라고▁는	-11267
▁이▁라는▁걸	-11268
▁일▁주일▁에	-11269
▁정말▁이▁지	-11270
▁좋▁은▁성적	-11271
▁치료▁를▁받	-11272
▁프로그램▁이	-11273
▁한▁사람▁은	-11274
▁할▁때▁까지	-11275
▁홈페이지▁에	-11276
▁공무원▁들▁이	-11277
▁교육▁과정▁을	-11278
▁기▁만▁합니다	-11279
▁대책▁을▁마련	-11280
▁등▁여러▁가지	-11281
▁알▁았▁습니다	-11282
▁위안부▁할머니	-11283
▁이렇게▁글▁을	-11284
▁할▁뿐▁입니다	-11285
▁기▁위해서▁라도	-11286
▁는▁것▁이▁아닌	-11287
▁많이▁있▁습니다	-11288
▁생각▁해▁보▁면	-11289
▁시킬▁수▁있▁는	-11290
▁하▁는▁것▁보다	-11291
▁이게▁나라▁입니까	-11292
▁폐지▁해야▁합니다	-11293
▁했▁습니다▁그리고	-11294
▁수▁있▁도록▁해▁주▁세요	-11295
es	-11296
▁ᄀ	-11297
▁껴	-11298
로운	-11299
부인	-11300
▁75	-11301
▁강구	-11302
▁강도	-11303
▁과밀	-11304
▁과실	-11305
▁나뉘	-11306
▁노벨	-11307
▁문서	-11308
▁미뤄	-11309
▁변해	-11310
▁비참	-11311
▁빌미	-11312
▁빨간	-11313
▁속히	-11314
▁숨기	-11315
▁시리	-11316
▁쌍방	-11317
▁엉덩	-11318
▁완성	-11319
▁은닉	-11320
▁인공	-11321
▁재밌	-11322
▁주최	-11323
▁지필	-11324
▁토익	-11325
▁파헤	-11326
▁프레	-11327
▁학문	-11328
▁휴전	-11329
단▁은	-11330
박▁한	-11331
쁩니다	-11332
표▁를	-11333
html	-11334
▁180	-11335
▁가▁게	-11336
▁년▁뒤	-11337
▁듣▁기	-11338
▁명▁중	-11339
▁바우처	-11340
▁박지성	-11341
▁본다면	-11342
▁시▁경	-11343
▁알아주	-11344
▁월▁달	-11345
▁인▁적	-11346
▁일본군	-11347
▁중▁고	-11348
▁진▁흥	-11349
▁징역형	-11350
▁피▁가	-11351
▁한▁남	-11352
▁공부▁는	-11353
▁공정▁성	-11354
▁뉴스▁는	-11355
▁많▁아요	-11356
▁바뀌▁고	-11357
▁사회▁와	-11358
▁상위▁권	-11359
▁생계▁를	-11360
▁서민▁들	-11361
▁성▁교육	-11362
▁시▁나요	-11363
▁시▁에서	-11364
▁시간▁씩	-11365
▁신상▁을	-11366
▁얼굴▁에	-11367
▁에▁대학	-11368
▁에▁의거	-11369
▁이▁가장	-11370
▁이▁고요	-11371
▁정원▁을	-11372
▁좋▁다고	-11373
▁투자▁를	-11374
▁특히▁나	-11375
▁하▁냐고	-11376
▁하나▁만	-11377
▁형량▁이	-11378
▁게임▁중독	-11379
▁고▁있▁음	-11380
▁과목▁으로	-11381
▁그▁들▁도	-11382
▁기초▁생활	-11383
▁답답▁해서	-11384
▁성범죄▁가	-11385
▁성범죄▁는	-11386
▁숙명▁여고	-11387
▁시간▁으로	-11388
▁안▁될까요	-11389
▁우리▁국민	-11390
▁이▁아닌가	-11391
▁일어납니다	-11392
▁저희▁에게	-11393
▁팬▁들▁의	-11394
▁학생▁인권	-11395
▁한▁명▁이	-11396
▁한▁번▁쯤	-11397
▁힘▁없▁는	-11398
▁m▁a▁in	-11399
▁글▁올립니다	-11400
▁노력▁하▁는	-11401
▁만들▁어▁졌	-11402
▁부모▁입니다	-11403
▁뻔뻔▁하▁게	-11404
▁이▁있▁다는	-11405
▁일제▁강점기	-11406
▁입니다▁이번	-11407
▁지▁못한다면	-11408
▁진지▁하▁게	-11409
▁페미니즘▁은	-11410
▁하▁시▁는지	-11411
다는▁이유▁로	-11412
▁말▁았▁습니다	-11413
▁범죄자▁들▁을	-11414
▁사건▁사고▁가	-11415
▁셧다운▁제▁를	-11416
▁중요▁하▁지만	-11417
▁초등▁학교▁를	-11418
▁할▁때▁입니다	-11419
▁아▁시▁겠▁지만	-11420
▁았▁으면▁합니다	-11421
▁이▁라고▁봅니다	-11422
▁한▁사람▁들▁은	-11423
▁었▁습니다▁그런데	-11424
▁지▁않▁을▁것▁입니다	-11425
▁해▁지▁고▁있▁습니다	-11426
▁지▁않▁게▁해▁주▁세요	-11427
▁폐지▁하▁고▁인권위▁는	-11428
▁청소년▁이▁라는▁이유▁로	-11429
ig	-11430
il	-11431
oc	-11432
▁뚜	-11433
▁몹	-11434
▁줌	-11435
▁튼	-11436
공격	-11437
선미	-11438
유산	-11439
▁43	-11440
▁간청	-11441
▁검출	-11442
▁구미	-11443
▁구형	-11444
▁무겁	-11445
▁미개	-11446
▁반납	-11447
▁반말	-11448
▁빌려	-11449
▁슬프	-11450
▁실장	-11451
▁여아	-11452
▁요양	-11453
▁우편	-11454
▁주간	-11455
▁청각	-11456
▁충당	-11457
▁퍼져	-11458
▁피겨	-11459
▁피할	-11460
▁합창	-11461
단▁에	-11462
View	-11463
▁010	-11464
▁귀기울	-11465
▁놀▁고	-11466
▁도종환	-11467
▁미지급	-11468
▁베이비	-11469
▁어리석	-11470
▁엄격히	-11471
▁였▁다	-11472
▁와▁도	-11473
▁이승훈	-11474
▁일▁때	-11475
▁중간광	-11476
▁컨디션	-11477
▁타이틀	-11478
▁포상금	-11479
▁피▁를	-11480
▁한▁점	-11481
회▁에서	-11482
▁가족▁을	-11483
▁고통▁과	-11484
▁군대▁는	-11485
▁금액▁이	-11486
▁너무너무	-11487
▁대체▁왜	-11488
▁로▁만들	-11489
▁모든▁게	-11490
▁모의고사	-11491
▁빼앗▁아	-11492
▁사실▁로	-11493
▁셨▁나요	-11494
▁시간▁만	-11495
▁실명▁제	-11496
▁아무▁나	-11497
▁안▁해도	-11498
▁알려▁지	-11499
▁야구▁를	-11500
▁였▁는데	-11501
▁원인▁이	-11502
▁장관▁이	-11503
▁저렴▁한	-11504
▁전체▁를	-11505
▁제▁주변	-11506
▁지위▁를	-11507
▁치료▁를	-11508
▁탁상행정	-11509
▁하나▁가	-11510
▁하나▁를	-11511
▁학대▁를	-11512
▁허가▁를	-11513
▁형태▁로	-11514
▁돈▁없▁는	-11515
▁들▁이▁있	-11516
▁말▁이▁다	-11517
▁여자▁하키	-11518
▁을▁입▁고	-11519
▁을▁제대로	-11520
▁이런▁상황	-11521
▁전수▁조사	-11522
▁학부모▁와	-11523
▁한다는▁것	-11524
▁할▁것▁이	-11525
▁가▁없▁다고	-11526
▁가▁있▁는지	-11527
▁걱정▁됩니다	-11528
▁경악▁을▁금	-11529
▁고발▁합니다	-11530
▁군대▁에▁가	-11531
▁를▁가지▁고	-11532
▁부분▁입니다	-11533
▁불▁공정▁한	-11534
▁에▁필요▁한	-11535
▁인▁것▁처럼	-11536
▁정책▁입니다	-11537
▁중▁고등학생	-11538
▁하▁게▁하▁고	-11539
▁하▁여야▁한다	-11540
▁기▁때문▁이▁다	-11541
▁압▁니다▁하지만	-11542
▁이▁라는▁것▁이	-11543
▁초등▁학교▁에서	-11544
▁밖▁에▁없▁습니다	-11545
▁을▁하▁고▁있▁는	-11546
▁아니▁지▁않▁습니까	-11547
▁살아가▁고▁있▁습니다	-11548
▁수▁있▁도록▁도와▁주▁세요	-11549
▁할▁수▁있▁다고▁생각▁합니다	-11550
▁낯	-11551
▁냅	-11552
▁샤	-11553
▁즈	-11554
경기	-11555
러스	-11556
어리	-11557
여서	-11558
▁67	-11559
▁가계	-11560
▁개돼	-11561
▁근간	-11562
▁단위	-11563
▁달성	-11564
▁대가	-11565
▁뮤직	-11566
▁민망	-11567
▁바래	-11568
▁보유	-11569
▁부리	-11570
▁빈부	-11571
▁사병	-11572
▁쇼핑	-11573
▁아까	-11574
▁아티	-11575
▁안양	-11576
▁야외	-11577
▁연휴	-11578
▁영유	-11579
▁위자	-11580
▁유적	-11581
▁조취	-11582
▁탐구	-11583
▁판독	-11584
▁피시	-11585
이▁면	-11586
주▁가	-11587
▁400	-11588
▁sbs	-11589
▁공동체	-11590
▁달라진	-11591
▁도▁주	-11592
▁돈▁과	-11593
▁디지털	-11594
▁무너뜨	-11595
▁물▁을	-11596
▁밀▁어	-11597
▁살인범	-11598
▁시▁반	-11599
▁신▁고	-11600
▁옷▁을	-11601
▁와▁그	-11602
▁잃어버	-11603
▁중범죄	-11604
▁최우선	-11605
▁퇴직금	-11606
▁하▁교	-11607
▁한▁줄	-11608
▁기간▁은	-11609
▁대화▁를	-11610
▁반대▁를	-11611
▁방지▁를	-11612
▁법원▁의	-11613
▁보여▁지	-11614
▁생명▁이	-11615
▁아내▁가	-11616
▁약자▁가	-11617
▁은▁너무	-11618
▁을▁거쳐	-11619
▁을▁지킬	-11620
▁전부▁다	-11621
▁정보▁가	-11622
▁정시▁의	-11623
▁주말▁에	-11624
▁처벌▁과	-11625
▁폭력▁이	-11626
▁할▁만큼	-11627
▁해▁마다	-11628
▁혈세▁로	-11629
갔▁습니다	-11630
냈▁습니다	-11631
▁감옥▁에서	-11632
▁개인▁방송	-11633
▁경찰▁검찰	-11634
▁교육청▁의	-11635
▁사실▁확인	-11636
▁생각▁해도	-11637
▁소급▁적용	-11638
▁이야기▁는	-11639
▁이제▁라도	-11640
▁주민▁센터	-11641
▁청와대▁의	-11642
▁하루▁라도	-11643
▁행복▁추구	-11644
▁걱정▁입니다	-11645
▁국가▁적▁인	-11646
▁그냥▁넘어가	-11647
▁남성▁들▁도	-11648
▁도움▁을▁받	-11649
▁들▁과▁함께	-11650
▁사람▁으로서	-11651
▁엔터▁테▁인	-11652
▁이▁없▁다면	-11653
▁이루어지▁는	-11654
▁학생▁들▁만	-11655
▁공무원▁들▁은	-11656
▁나라▁에서▁는	-11657
▁쓰레기▁같▁은	-11658
▁어린이집▁으로	-11659
▁에▁있▁었▁던	-11660
▁여성▁에▁대한	-11661
▁자랑▁스럽▁게	-11662
▁지▁않▁았▁고	-11663
▁도와▁주▁십시요	-11664
▁아이▁를▁낳▁고	-11665
▁청소년▁범죄▁가	-11666
▁하▁는▁것▁처럼	-11667
▁힘들▁어▁하▁는	-11668
▁일▁하▁고▁있▁는	-11669
▁있▁습니다▁하지만	-11670
▁하▁는▁것▁이▁맞	-11671
▁고▁있▁다고▁생각▁합니다	-11672
▁롱	-11673
▁몽	-11674
▁휩	-11675
버려	-11676
벤지	-11677
학습	-11678
▁ar	-11679
▁건가	-11680
▁관여	-11681
▁날라	-11682
▁노골	-11683
▁닉네	-11684
▁다툼	-11685
▁당직	-11686
▁댄스	-11687
▁덧붙	-11688
▁망언	-11689
▁면담	-11690
▁모호	-11691
▁백철	-11692
▁보급	-11693
▁빠진	-11694
▁상사	-11695
▁서명	-11696
▁소모	-11697
▁소요	-11698
▁슈퍼	-11699
▁스튜	-11700
▁신축	-11701
▁악랄	-11702
▁없앤	-11703
▁영진	-11704
▁온상	-11705
▁옮기	-11706
▁조그	-11707
▁조리	-11708
▁주사	-11709
▁처참	-11710
▁총장	-11711
▁크로	-11712
▁타임	-11713
▁폭염	-11714
▁허탈	-11715
▁호기	-11716
▁휘두	-11717
▁휘둘	-11718
내▁서	-11719
지▁와	-11720
했▁던	-11721
▁BTS	-11722
▁강간범	-11723
▁경기력	-11724
▁깊▁게	-11725
▁더욱이	-11726
▁두▁명	-11727
▁두▁서	-11728
▁리벤지	-11729
▁비상식	-11730
▁안▁좋	-11731
▁영향력	-11732
▁움직임	-11733
▁유소년	-11734
▁칩니다	-11735
▁편의점	-11736
▁한▁개	-11737
▁한국사	-11738
▁후진국	-11739
▁가▁나왔	-11740
▁까지▁이	-11741
▁동생▁은	-11742
▁동생▁이	-11743
▁무상급식	-11744
▁문화▁의	-11745
▁바뀌▁어	-11746
▁발표▁를	-11747
▁볼모▁로	-11748
▁아니▁며	-11749
▁아무래도	-11750
▁아빠▁는	-11751
▁안전▁과	-11752
▁여자▁만	-11753
▁오래▁된	-11754
▁욕설▁을	-11755
▁우리▁를	-11756
▁은▁매우	-11757
▁이▁부족	-11758
▁입▁니다	-11759
▁자존▁감	-11760
▁조금▁은	-11761
▁책임▁감	-11762
▁체험학습	-11763
▁토대▁로	-11764
▁판사▁가	-11765
▁폐지▁가	-11766
▁행태▁는	-11767
▁국민▁세금	-11768
▁글▁들▁이	-11769
▁누군가▁는	-11770
▁들어갑니다	-11771
▁라고▁해서	-11772
▁로▁인해서	-11773
▁만▁있▁는	-11774
▁맞▁습니까	-11775
▁비용▁으로	-11776
▁써▁봅니다	-11777
▁안▁되▁면	-11778
▁안타깝▁고	-11779
▁어렵▁다는	-11780
▁억울▁해서	-11781
▁외국인▁이	-11782
▁인권▁보호	-11783
▁자유▁학년	-11784
▁직권▁남용	-11785
▁통학▁차량	-11786
▁기원▁합니다	-11787
▁도▁아닙니다	-11788
▁문재인▁정부	-11789
▁민주주의▁를	-11790
▁생각▁하▁여	-11791
▁생활▁기록부	-11792
▁순간▁에▁도	-11793
▁앞▁으로▁는	-11794
▁어▁주▁세요	-11795
▁의▁경우▁는	-11796
▁의무▁를▁다	-11797
▁저▁는▁지금	-11798
▁중▁하나▁인	-11799
▁지▁않▁으며	-11800
▁폭행▁하▁고	-11801
▁하루▁가▁멀	-11802
▁현▁정부▁의	-11803
▁경찰▁에▁신고	-11804
▁국민▁청원▁에	-11805
▁되▁겠▁습니까	-11806
▁발전▁을▁위해	-11807
▁연예인▁들▁이	-11808
▁오래▁전▁부터	-11809
▁이▁되▁지▁않	-11810
▁자격▁을▁박탈	-11811
▁저희▁학교▁는	-11812
▁하▁게▁된다면	-11813
▁할▁것▁이▁다	-11814
▁걱정▁이▁됩니다	-11815
▁범죄▁를▁저질렀	-11816
▁생각▁을▁합니다	-11817
▁일▁이▁아닙니다	-11818
▁중학교▁고등학교	-11819
▁필요▁없▁습니다	-11820
▁할▁수▁있▁다고	-11821
▁하▁는▁게▁아니▁라	-11822
▁국방▁의▁의무▁를▁다	-11823
▁수▁있▁을▁것▁입니다	-11824
▁하▁시▁는▁분▁들▁도	-11825
▁하▁였▁습니다▁하지만	-11826
▁주▁시▁길▁부탁드립니다	-11827
am	-11828
▁낚	-11829
▁낱	-11830
▁뺨	-11831
▁섹	-11832
▁웬	-11833
▁찰	-11834
▁팟	-11835
▁힙	-11836
아먹	-11837
▁05	-11838
▁95	-11839
▁개탄	-11840
▁고액	-11841
▁국고	-11842
▁될까	-11843
▁망정	-11844
▁매국	-11845
▁매매	-11846
▁모색	-11847
▁발음	-11848
▁복용	-11849
▁붕괴	-11850
▁사춘	-11851
▁살리	-11852
▁시립	-11853
▁식품	-11854
▁악법	-11855
▁양아	-11856
▁엉뚱	-11857
▁영장	-11858
▁원비	-11859
▁유용	-11860
▁이민	-11861
▁인체	-11862
▁장악	-11863
▁쟁이	-11864
▁적정	-11865
▁제사	-11866
▁중대	-11867
▁직후	-11868
▁청장	-11869
▁체류	-11870
▁초청	-11871
▁치유	-11872
▁파출	-11873
▁합당	-11874
▁합쳐	-11875
미▁한	-11876
방▁에	-11877
비▁한	-11878
의▁의	-11879
▁감독관	-11880
▁같▁다	-11881
▁귀▁가	-11882
▁글▁로	-11883
▁글▁에	-11884
▁나온다	-11885
▁다스려	-11886
▁마음껏	-11887
▁맞▁은	-11888
▁무작정	-11889
▁박물관	-11890
▁비▁가	-11891
▁사리사	-11892
▁살인죄	-11893
▁세▁종	-11894
▁수수료	-11895
▁순▁없	-11896
▁신문사	-11897
▁아리랑	-11898
▁여▁명	-11899
▁와▁닿	-11900
▁자존심	-11901
▁캐릭터	-11902
▁팀▁은	-11903
▁해▁가	-11904
▁거리▁가	-11905
▁걸▁그룹	-11906
▁검정고시	-11907
▁겠▁는가	-11908
▁공부▁에	-11909
▁공연▁을	-11910
▁괜찮▁은	-11911
▁교육▁계	-11912
▁교육▁도	-11913
▁그▁결과	-11914
▁기자▁는	-11915
▁대단▁한	-11916
▁둘째▁는	-11917
▁모습▁에	-11918
▁범위▁를	-11919
▁비용▁은	-11920
▁비중▁이	-11921
▁상품▁화	-11922
▁심판▁을	-11923
▁아들▁은	-11924
▁아티스트	-11925
▁없▁는지	-11926
▁없애▁야	-11927
▁이▁아닐	-11928
▁이번▁엔	-11929
▁인신공격	-11930
▁일▁인지	-11931
▁저▁한테	-11932
▁정서▁적	-11933
▁제안▁을	-11934
▁질서▁를	-11935
▁집단▁의	-11936
▁차별▁을	-11937
▁청소▁를	-11938
▁타당▁한	-11939
▁학년▁이	-11940
응▁하▁는	-11941
▁갑▁질▁을	-11942
▁고용▁노동	-11943
▁관계자▁는	-11944
▁남성▁에게	-11945
▁대책▁마련	-11946
▁됬▁습니다	-11947
▁로▁부▁터	-11948
▁빈부▁격차	-11949
▁성▁소수자	-11950
▁수능▁연기	-11951
▁안▁하▁는	-11952
▁을▁막▁아	-11953
▁일본▁에서	-11954
▁티비▁조선	-11955
article	-11956
▁길▁바라▁며	-11957
▁만▁있▁으면	-11958
▁메달▁을▁따	-11959
▁반복▁되▁는	-11960
▁실시간▁으로	-11961
▁주▁셨▁으면	-11962
▁국민▁을▁위해	-11963
▁연예인▁들▁의	-11964
▁인▁것▁입니다	-11965
▁기▁때문▁이▁죠	-11966
▁말▁이▁되▁나요	-11967
▁벌▁을▁받▁아야	-11968
▁여성▁가족▁부를	-11969
▁이▁라는▁것▁은	-11970
▁하▁지▁않▁는다	-11971
▁도▁있▁었▁습니다	-11972
▁마음▁이▁아픕니다	-11973
▁부산▁여중생▁폭행	-11974
▁했▁습니다▁그러나	-11975
▁다고▁들▁었▁습니다	-11976
▁하▁는▁바람▁입니다	-11977
▁해야▁합니다▁그리고	-11978
▁h	-11979
▁뚫	-11980
▁찔	-11981
가운	-11982
밀히	-11983
을까	-11984
▁CJ	-11985
▁MB	-11986
▁구석	-11987
▁극소	-11988
▁극히	-11989
▁놔두	-11990
▁누드	-11991
▁단죄	-11992
▁단호	-11993
▁대인	-11994
▁동호	-11995
▁멈춰	-11996
▁명심	-11997
▁발행	-11998
▁부를	-11999
▁분별	-12000
▁소아	-12001
▁시댁	-12002
▁시사	-12003
▁신장	-12004
▁실추	-12005
▁악행	-12006
▁요약	-12007
▁운용	-12008
▁위키	-12009
▁이딴	-12010
▁이라	-12011
▁일시	-12012
▁일일	-12013
▁자매	-12014
▁작곡	-12015
▁장래	-12016
▁저조	-12017
▁종전	-12018
▁중복	-12019
▁지니	-12020
▁투쟁	-12021
▁한때	-12022
▁해제	-12023
▁허술	-12024
드▁를	-12025
소▁가	-12026
우▁면	-12027
▁글▁은	-12028
▁난이도	-12029
▁다녀오	-12030
▁답▁을	-12031
▁대상자	-12032
▁땀▁과	-12033
▁뛰어놀	-12034
▁마구잡	-12035
▁뭐▁니	-12036
▁백철기	-12037
▁빨갱이	-12038
▁살▁게	-12039
▁선수촌	-12040
▁술▁에	-12041
▁없▁던	-12042
▁을▁쓰	-12043
▁의▁불	-12044
▁이▁난	-12045
▁인▁거	-12046
▁입▁을	-12047
▁자▁한	-12048
▁진선미	-12049
▁캠퍼스	-12050
▁태어날	-12051
▁경찰▁서	-12052
▁기자▁의	-12053
▁기존▁에	-12054
▁끝▁으로	-12055
▁다는▁데	-12056
▁다수▁가	-12057
▁등등▁의	-12058
▁많이▁들	-12059
▁무슨▁죄	-12060
▁물의▁를	-12061
▁별도▁로	-12062
▁보▁는데	-12063
▁부르▁는	-12064
▁분야▁의	-12065
▁사항▁은	-12066
▁상대▁적	-12067
▁수익▁을	-12068
▁시기▁를	-12069
▁억울▁함	-12070
▁에▁걸쳐	-12071
▁여기▁고	-12072
▁역사▁가	-12073
▁영어▁가	-12074
▁으십니까	-12075
▁을▁다녀	-12076
▁이러▁면	-12077
▁이름▁은	-12078
▁인기▁가	-12079
▁있▁다는	-12080
▁있▁으며	-12081
▁자유▁와	-12082
▁저질러도	-12083
▁적폐▁가	-12084
▁주▁셔서	-12085
▁지원▁은	-12086
▁직장▁인	-12087
▁최소▁화	-12088
▁항의▁를	-12089
▁해▁봐야	-12090
▁공간▁에서	-12091
▁교육▁제도	-12092
▁교육▁지원	-12093
▁국정▁감사	-12094
▁그런데▁그	-12095
▁기▁어려운	-12096
▁년▁간▁의	-12097
▁년▁도▁에	-12098
▁노력▁으로	-12099
▁도▁없▁다	-12100
▁만▁되▁면	-12101
▁많▁게▁는	-12102
▁명분▁으로	-12103
▁밥▁을▁먹	-12104
▁벌써▁부터	-12105
▁수업▁시간	-12106
▁시▁에▁는	-12107
▁이▁고▁그	-12108
▁이▁참▁에	-12109
▁태극▁마크	-12110
▁해▁가▁며	-12111
▁했▁을까요	-12112
▁것▁에▁대해	-12113
▁고려▁하▁여	-12114
▁남자▁들▁의	-12115
▁바로▁잡▁아	-12116
▁불편▁하▁고	-12117
▁상처▁를▁입	-12118
▁예전▁에▁는	-12119
▁을▁제외▁한	-12120
▁이▁나라▁에	-12121
▁이▁되▁어서	-12122
▁이유▁가▁없	-12123
▁입니다▁부디	-12124
▁입니다▁지금	-12125
▁최근▁에▁는	-12126
▁할▁것▁으로	-12127
▁합니다▁제발	-12128
▁공식▁적▁으로	-12129
▁들▁을▁위해서	-12130
▁문제▁가▁해결	-12131
▁여성▁할▁당제	-12132
▁이익▁을▁위해	-12133
▁국가▁대표▁선발	-12134
▁부모▁님▁들▁은	-12135
▁불▁가능▁합니다	-12136
야▁한다고▁봅니다	-12137
▁보이▁지▁않▁습니다	-12138
▁안녕▁하▁세요▁현재	-12139
▁조사▁부탁▁드립니다	-12140
▁고▁있▁는▁상황▁입니다	-12141
▁하▁는▁위치▁정보▁제공	-12142
▁중요▁하▁다고▁생각▁합니다	-12143
▁폐지▁하▁고▁인권위▁는▁바로	-12144
29	-12145
lo	-12146
▁넉	-12147
▁넌	-12148
▁돋	-12149
▁개성	-12150
▁교양	-12151
▁교화	-12152
▁균등	-12153
▁남아	-12154
▁눌러	-12155
▁매월	-12156
▁문법	-12157
▁바이	-12158
▁방패	-12159
▁버튼	-12160
▁변태	-12161
▁부도	-12162
▁수감	-12163
▁아플	-12164
▁예민	-12165
▁입사	-12166
▁자니	-12167
▁장점	-12168
▁적성	-12169
▁정비	-12170
▁주목	-12171
▁지각	-12172
▁지목	-12173
▁참조	-12174
▁채팅	-12175
▁출국	-12176
▁투성	-12177
▁피로	-12178
▁흘리	-12179
뜩이나	-12180
렸▁다	-12181
스▁가	-12182
학▁과	-12183
▁가▁잘	-12184
▁겪▁는	-12185
▁관공서	-12186
▁금요일	-12187
▁길▁로	-12188
▁끝▁나	-12189
▁돌▁아	-12190
▁두▁달	-12191
▁라고요	-12192
▁모아서	-12193
▁민방위	-12194
▁밤▁에	-12195
▁사업자	-12196
▁스타킹	-12197
▁알려져	-12198
▁애▁는	-12199
▁어▁보	-12200
▁일본어	-12201
▁정교사	-12202
▁차▁고	-12203
▁가리▁고	-12204
▁게▁만들	-12205
▁게임▁에	-12206
▁국제▁적	-12207
▁권한▁을	-12208
▁그리하여	-12209
▁기사▁와	-12210
▁단체▁는	-12211
▁단체▁로	-12212
▁돌보▁는	-12213
▁등교▁를	-12214
▁바라▁고	-12215
▁부부▁는	-12216
▁비롯▁해	-12217
▁수업▁이	-12218
▁순위▁를	-12219
▁씨▁에게	-12220
▁아니▁죠	-12221
▁없▁네요	-12222
▁없이▁는	-12223
▁에서▁보	-12224
▁영상▁이	-12225
▁을▁선고	-12226
▁응원▁을	-12227
▁제제▁를	-12228
▁줍▁니까	-12229
▁출산▁후	-12230
▁행사▁에	-12231
▁현재▁도	-12232
다고▁해서	-12233
▁가▁얼마나	-12234
▁가해자▁들	-12235
▁공무원▁은	-12236
▁남북▁관계	-12237
▁되▁어▁지	-12238
▁때▁에▁는	-12239
▁마루▁마루	-12240
▁무슨▁의미	-12241
▁문제점▁은	-12242
▁법▁을▁어	-12243
▁변호사▁를	-12244
▁수▁가▁있	-12245
▁쓸데없▁는	-12246
▁아버지▁는	-12247
▁에▁시달리	-12248
▁영향력▁을	-12249
▁우리▁모두	-12250
▁으면서▁도	-12251
▁인▁들▁이	-12252
▁일반▁시민	-12253
▁조건▁으로	-12254
▁진상▁규명	-12255
▁책임지▁는	-12256
▁축구▁선수	-12257
▁하▁는▁법	-12258
▁하▁였▁던	-12259
▁학교▁급식	-12260
▁할▁때▁도	-12261
▁행동▁으로	-12262
▁남자▁들▁도	-12263
▁남자▁들▁을	-12264
▁되▁었▁는지	-12265
▁등▁을▁통해	-12266
▁문제▁들▁을	-12267
▁봐야▁합니다	-12268
▁서슴▁치▁않	-12269
▁엄격▁하▁게	-12270
▁이▁끝나▁고	-12271
▁이런▁식▁의	-12272
▁자유▁학기제	-12273
▁지▁말▁라는	-12274
▁직원▁들▁의	-12275
▁피해▁를▁받	-12276
▁해야▁되▁는	-12277
▁사건▁에▁대한	-12278
▁에▁대한▁민국	-12279
▁질▁것▁입니다	-12280
▁할▁것▁이▁고	-12281
▁뉴스▁를▁보▁고	-12282
▁여성▁분▁들▁이	-12283
▁중요▁한▁것▁은	-12284
▁지원▁해▁주▁는	-12285
▁하▁게▁만드▁는	-12286
▁되▁지▁않▁을까요	-12287
▁선생▁님▁들▁께서	-12288
▁으면▁좋▁겠▁네요	-12289
▁해▁줄▁수▁있▁는	-12290
▁폐지▁되▁어야▁합니다	-12291
▁할▁수▁도▁있▁습니다	-12292
▁것▁이▁라▁생각▁합니다	-12293
▁청원▁하▁는▁바▁입니다	-12294
▁법▁을▁만들▁어▁주▁세요	-12295
28	-12296
VE	-12297
▁곁	-12298
▁됀	-12299
▁롤	-12300
▁뷰	-12301
▁샘	-12302
▁컸	-12303
▁팽	-12304
겨운	-12305
림돌	-12306
의식	-12307
지사	-12308
지않	-12309
토토	-12310
▁NC	-12311
▁간첩	-12312
▁결사	-12313
▁결석	-12314
▁경계	-12315
▁경주	-12316
▁과금	-12317
▁그지	-12318
▁내주	-12319
▁담사	-12320
▁대략	-12321
▁돼지	-12322
▁망쳐	-12323
▁멜론	-12324
▁문신	-12325
▁배팅	-12326
▁벤투	-12327
▁복원	-12328
▁세반	-12329
▁소장	-12330
▁수립	-12331
▁암묵	-12332
▁어두	-12333
▁역행	-12334
▁연간	-12335
▁열받	-12336
▁예쁘	-12337
▁완료	-12338
▁자괴	-12339
▁자궁	-12340
▁자습	-12341
▁자아	-12342
▁재고	-12343
▁재난	-12344
▁전전	-12345
▁좌우	-12346
▁지배	-12347
▁진흥	-12348
▁창원	-12349
▁초대	-12350
▁치루	-12351
▁파마	-12352
▁펼칠	-12353
▁폐업	-12354
부▁로	-12355
학▁생	-12356
▁고위직	-12357
▁권▁이	-12358
▁나경원	-12359
▁넘어갈	-12360
▁년▁형	-12361
▁는▁등	-12362
▁덮▁어	-12363
▁들어왔	-12364
▁때▁의	-12365
▁랍시고	-12366
▁만▁잘	-12367
▁모여서	-12368
▁묵묵히	-12369
▁번▁의	-12370
▁생겨서	-12371
▁속▁이	-12372
▁스타트	-12373
▁시▁가	-12374
▁싶▁어	-12375
▁애▁낳	-12376
▁얻▁은	-12377
▁에▁못	-12378
▁온전히	-12379
▁올려서	-12380
▁울▁고	-12381
▁제▁딸	-12382
▁테▁고	-12383
▁헤아려	-12384
▁1102	-12385
▁다음▁에	-12386
▁많▁으면	-12387
▁명의▁로	-12388
▁몇▁개월	-12389
▁목적▁은	-12390
▁민감▁한	-12391
▁밝혔▁다	-12392
▁방▁에서	-12393
▁시작▁한	-12394
▁아나운서	-12395
▁알▁권리	-12396
▁얼굴▁이	-12397
▁업무▁가	-12398
▁의원▁은	-12399
▁이유▁도	-12400
▁인생▁의	-12401
▁잘못▁됐	-12402
▁키우▁고	-12403
▁타▁지역	-12404
▁한▁마음	-12405
▁한국▁당	-12406
▁한테▁도	-12407
▁해집니다	-12408
▁활동▁이	-12409
▁갈▁수▁있	-12410
▁것▁같▁다	-12411
▁것▁이▁죠	-12412
▁교장▁교감	-12413
▁구속▁수사	-12414
▁기▁위해선	-12415
▁기다리▁는	-12416
▁등록금▁을	-12417
▁를▁보▁는	-12418
▁스포츠토토	-12419
▁아니▁라는	-12420
▁이▁일어나	-12421
▁일▁이▁다	-12422
▁자신▁에게	-12423
▁적폐▁세력	-12424
▁전▁대통령	-12425
▁죄▁를▁짓	-12426
▁주▁는▁게	-12427
▁지▁않▁다	-12428
▁청소년▁도	-12429
▁하▁시▁죠	-12430
▁경찰▁들▁이	-12431
▁근거▁없▁는	-12432
▁늦▁게▁까지	-12433
▁말▁하▁자면	-12434
▁몰랐▁습니다	-12435
▁반대▁입니다	-12436
▁어디▁에▁도	-12437
▁여자▁화장실	-12438
▁유치원▁원장	-12439
▁으로▁인해서	-12440
▁이외▁에▁도	-12441
▁인간▁들▁이	-12442
▁하▁는▁그런	-12443
▁하▁다▁못해	-12444
▁하▁셨▁는데	-12445
▁해▁보입니다	-12446
▁국가▁적▁으로	-12447
▁정치인▁들▁이	-12448
▁축구▁협회▁는	-12449
▁하▁게▁되▁어	-12450
▁하▁기▁어려운	-12451
▁법▁앞▁에▁평등	-12452
▁지▁도▁못하▁는	-12453
▁청원▁을▁합니다	-12454
▁하▁고▁있▁으니	-12455
▁한▁사람▁입니다	-12456
치▁고▁있▁습니다	-12457
▁내▁고▁있▁습니다	-12458
▁년▁이하▁의▁징역	-12459
▁해결▁해▁주▁세요	-12460
▁엔터▁테▁인▁먼▁트	-12461
▁어▁이▁가▁없▁습니다	-12462
▁할▁수▁있▁겠▁습니까	-12463
▁일▁이▁라고▁생각▁합니다	-12464
▁해▁주▁시▁길▁청원▁합니다	-12465
34	-12466
▁ᄂ	-12467
▁띠	-12468
▁벼	-12469
▁엎	-12470
▁잉	-12471
▁헐	-12472
▁흑	-12473
데체	-12474
무원	-12475
조합	-12476
e▁t	-12477
▁FI	-12478
▁간주	-12479
▁걸러	-12480
▁골목	-12481
▁공짜	-12482
▁과도	-12483
▁관료	-12484
▁그라	-12485
▁금일	-12486
▁노역	-12487
▁대두	-12488
▁돌볼	-12489
▁두산	-12490
▁따져	-12491
▁만점	-12492
▁매도	-12493
▁무방	-12494
▁물가	-12495
▁미쳐	-12496
▁반환	-12497
▁벌이	-12498
▁복수	-12499
▁본선	-12500
▁사면	-12501
▁설사	-12502
▁영리	-12503
▁외신	-12504
▁유혹	-12505
▁임기	-12506
▁재혼	-12507
▁적혀	-12508
▁정유	-12509
▁제게	-12510
▁제압	-12511
▁척결	-12512
▁취할	-12513
▁친절	-12514
▁친척	-12515
▁폐해	-12516
▁화성	-12517
각▁한	-12518
▁119	-12519
▁같▁고	-12520
▁남▁는	-12521
▁넓▁은	-12522
▁년▁후	-12523
▁놀이터	-12524
▁다시금	-12525
▁도▁더	-12526
▁도▁좋	-12527
▁많▁을	-12528
▁말▁했	-12529
▁살▁의	-12530
▁싶▁은	-12531
▁운동장	-12532
▁재수사	-12533
▁짧▁게	-12534
▁찍▁고	-12535
▁큐▁알	-12536
▁할▁짓	-12537
▁가족▁과	-12538
▁개월▁된	-12539
▁경력▁이	-12540
▁관계▁로	-12541
▁관련▁한	-12542
▁광고▁가	-12543
▁그렇▁고	-12544
▁근거▁를	-12545
▁기▁위함	-12546
▁기대▁를	-12547
▁나가▁고	-12548
▁내용▁과	-12549
▁단속▁을	-12550
▁대하▁는	-12551
▁독일▁전	-12552
▁맞▁는지	-12553
▁몸▁으로	-12554
▁문화유산	-12555
▁방탄▁이	-12556
▁보냅니다	-12557
▁부정▁한	-12558
▁분▁까지	-12559
▁사상▁을	-12560
▁서로▁의	-12561
▁세우▁고	-12562
▁수업▁은	-12563
▁시설▁에	-12564
▁시작▁된	-12565
▁시키▁며	-12566
▁신성▁한	-12567
▁어른▁들	-12568
▁에▁동의	-12569
▁연락▁이	-12570
▁위기▁에	-12571
▁을▁맞이	-12572
▁을▁부추	-12573
▁을▁유지	-12574
▁이▁면서	-12575
▁인▁가요	-12576
▁인데▁그	-12577
▁인력▁을	-12578
▁있▁으니	-12579
▁작성▁한	-12580
▁장관▁님	-12581
▁정도▁면	-12582
▁지키▁고	-12583
▁직업▁을	-12584
▁직업▁이	-12585
▁판사▁의	-12586
▁하▁셔야	-12587
▁학생▁수	-12588
▁행정▁실	-12589
연▁하▁게	-12590
▁가만히▁있	-12591
▁거짓▁으로	-12592
▁글▁들▁을	-12593
▁돈▁많▁은	-12594
▁못▁합니다	-12595
▁무상▁교육	-12596
▁범죄자▁의	-12597
▁사라지▁고	-12598
▁사유▁재산	-12599
▁설문▁조사	-12600
▁알▁수▁없	-12601
▁어머니▁는	-12602
▁을▁들▁고	-12603
▁을▁하▁셨	-12604
▁이제▁그만	-12605
▁인종▁차별	-12606
▁정상▁회담	-12607
▁조선▁시대	-12608
▁주민▁등록	-12609
▁중학교▁는	-12610
▁특별▁활동	-12611
▁힘들▁다고	-12612
▁길▁바라▁는	-12613
▁두▁번▁다시	-12614
▁만들▁어▁지	-12615
▁본인▁들▁은	-12616
▁사람▁이▁고	-12617
▁수행평가▁를	-12618
▁위원회▁에서	-12619
▁응원▁하▁는	-12620
▁응원▁합니다	-12621
▁이▁있▁어도	-12622
▁인터넷▁으로	-12623
▁친구▁들▁을	-12624
▁하▁는▁모든	-12625
▁그렇게▁되▁면	-12626
▁대표▁적▁으로	-12627
▁대한민국▁헌법	-12628
▁되▁지▁않▁았	-12629
▁리벤지▁포르노	-12630
▁미투▁운동▁을	-12631
▁범죄자▁들▁은	-12632
▁사건▁에▁대해	-12633
▁알▁수▁없▁는	-12634
▁알▁수▁있▁는	-12635
▁을▁수▁가▁없	-12636
▁이▁되▁었▁고	-12637
▁처벌▁받▁아야	-12638
▁청소년▁들▁도	-12639
▁치▁않▁습니다	-12640
▁폭력▁을▁행사	-12641
▁하▁게▁하▁는	-12642
▁보여▁주▁기▁식	-12643
▁생각▁해▁봅니다	-12644
▁어디▁있▁습니까	-12645
▁의▁경우▁에▁는	-12646
▁있▁어서▁는▁안	-12647
▁한다고▁하▁는데	-12648
▁할▁필요▁가▁있	-12649
▁는▁거▁같▁습니다	-12650
▁쉽▁지▁않▁습니다	-12651
▁알▁고▁싶▁습니다	-12652
▁음▁좋▁겠▁습니다	-12653
▁하▁지▁도▁않▁은	-12654
▁학생▁들▁에게▁는	-12655
▁부산▁여중▁생▁사건	-12656
▁이▁될▁수▁있▁도록	-12657
▁이▁라는▁이름▁으로	-12658
▁기사▁를▁보▁았▁습니다	-12659
▁하▁고▁있▁습니다▁그런데	-12660
▁하▁고▁있▁습니다▁그리고	-12661
▁이해▁가▁가▁지▁않▁습니다	-12662
21	-12663
▁갤	-12664
▁갱	-12665
▁냥	-12666
▁닦	-12667
▁슴	-12668
▁앙	-12669
어준	-12670
▁ᄋᄋ	-12671
▁감기	-12672
▁계급	-12673
▁골라	-12674
▁공장	-12675
▁과태	-12676
▁권유	-12677
▁기르	-12678
▁기뻐	-12679
▁노숙	-12680
▁단점	-12681
▁도용	-12682
▁동사	-12683
▁두발	-12684
▁로그	-12685
▁마친	-12686
▁면죄	-12687
▁무참	-12688
▁방사	-12689
▁부천	-12690
▁비속	-12691
▁뻔한	-12692
▁사원	-12693
▁성남	-12694
▁슬로	-12695
▁써도	-12696
▁암기	-12697
▁애쓰	-12698
▁영수	-12699
▁유족	-12700
▁이모	-12701
▁인용	-12702
▁임의	-12703
▁전투	-12704
▁전후	-12705
▁주심	-12706
▁죽일	-12707
▁지명	-12708
▁직전	-12709
▁창녀	-12710
▁커져	-12711
▁키운	-12712
▁탈북	-12713
▁탈세	-12714
▁터진	-12715
▁표절	-12716
▁하차	-12717
나▁요	-12718
동▁을	-12719
상▁의	-12720
▁mbc	-12721
▁국정원	-12722
▁권▁과	-12723
▁김어준	-12724
▁는▁못	-12725
▁늘어난	-12726
▁닉네임	-12727
▁다행히	-12728
▁대▁고	-12729
▁동메달	-12730
▁따▁기	-12731
▁뜨▁고	-12732
▁맘▁이	-12733
▁별다른	-12734
▁보여준	-12735
▁불합격	-12736
▁붙▁어	-12737
▁사기업	-12738
▁신다고	-12739
▁쓰▁게	-12740
▁아무튼	-12741
▁양아치	-12742
▁어린애	-12743
▁이▁그	-12744
▁전교조	-12745
▁절실히	-12746
▁차▁에	-12747
▁치▁면	-12748
▁태어났	-12749
▁피시방	-12750
▁하▁셔	-12751
감▁으로	-12752
▁가뜩이나	-12753
▁교실▁을	-12754
▁기록▁을	-12755
▁끝나▁고	-12756
▁만들▁면	-12757
▁먹이▁고	-12758
▁무고▁로	-12759
▁미국▁의	-12760
▁바뀌▁는	-12761
▁받아들이	-12762
▁법▁에서	-12763
▁부모▁도	-12764
▁세상▁은	-12765
▁싶▁어서	-12766
▁아기▁는	-12767
▁안▁으로	-12768
▁에서부터	-12769
▁외벌▁이	-12770
▁웃▁으며	-12771
▁월급▁은	-12772
▁유사▁한	-12773
▁육체▁적	-12774
▁있▁으나	-12775
▁정원▁이	-12776
▁주변▁의	-12777
▁직원▁은	-12778
▁직원▁의	-12779
▁축제▁를	-12780
▁케이▁팝	-12781
▁하▁다니	-12782
▁학교▁나	-12783
▁한▁남충	-12784
▁한▁선수	-12785
▁함▁으로	-12786
▁합리▁적	-12787
▁가족▁관계	-12788
▁것▁같▁고	-12789
▁것▁들▁은	-12790
▁것▁인가요	-12791
▁높▁아▁지	-12792
▁누군가▁가	-12793
▁다른▁지역	-12794
▁도▁많▁고	-12795
▁려▁합니다	-12796
▁문▁대통령	-12797
▁상관▁없이	-12798
▁스웨덴▁전	-12799
▁시작▁으로	-12800
▁유튜브▁를	-12801
▁인터뷰▁를	-12802
▁자부심▁을	-12803
▁특별▁전형	-12804
▁한다는▁데	-12805
▁간단▁하▁게	-12806
▁공개▁하▁고	-12807
▁따름▁입니다	-12808
▁모든▁것▁이	-12809
▁무엇▁일까요	-12810
▁물론▁이▁고	-12811
▁북한▁과▁의	-12812
▁성▁에▁대한	-12813
▁성범죄자▁로	-12814
▁수준▁입니다	-12815
▁쉬▁는▁시간	-12816
▁안▁전하▁고	-12817
▁어찌▁보▁면	-12818
▁이기▁적▁인	-12819
▁일▁하▁면서	-12820
▁자▁들▁에게	-12821
▁접했▁습니다	-12822
▁충격▁적▁인	-12823
▁판결▁을▁내	-12824
▁한▁것▁처럼	-12825
▁고▁있▁는데요	-12826
▁과▁같▁습니다	-12827
▁그▁들▁만▁의	-12828
▁날▁이▁갈수록	-12829
▁되▁어야▁한다	-12830
▁말▁이▁되▁는	-12831
▁무엇▁보다▁도	-12832
▁병역▁의무▁를	-12833
▁안전▁을▁위해	-12834
▁엄벌▁에▁처해	-12835
▁우리▁사회▁가	-12836
▁의도▁적▁으로	-12837
▁이▁라는▁단어	-12838
▁이▁안▁됩니다	-12839
▁일▁수▁도▁있	-12840
▁청원▁올립니다	-12841
▁한국▁축구▁의	-12842
▁고▁그▁로▁인해	-12843
▁노선영▁선수▁를	-12844
▁피해▁를▁보▁는	-12845
▁하▁고▁싶▁어서	-12846
▁수▁있▁겠▁습니까	-12847
▁에▁맞▁지▁않▁는	-12848
▁환경▁을▁만들▁어	-12849
▁경우▁도▁많▁습니다	-12850
▁그렇▁지▁않▁습니다	-12851
▁제발▁도와▁주▁세요	-12852
▁하▁는▁사람▁들▁도	-12853
▁하▁는▁것▁도▁아니▁고	-12854
24	-12855
▁웁	-12856
▁톡	-12857
느니	-12858
려면	-12859
▁간혹	-12860
▁개판	-12861
▁개헌	-12862
▁결여	-12863
▁국군	-12864
▁권장	-12865
▁그릇	-12866
▁글자	-12867
▁김대	-12868
▁김학	-12869
▁도청	-12870
▁디스	-12871
▁리니	-12872
▁목록	-12873
▁박용	-12874
▁반사	-12875
▁부문	-12876
▁분산	-12877
▁수비	-12878
▁숨겨	-12879
▁약간	-12880
▁엘지	-12881
▁역활	-12882
▁연설	-12883
▁유능	-12884
▁의뢰	-12885
▁장례	-12886
▁지법	-12887
▁학위	-12888
▁허무	-12889
▁훈육	-12890
▁휴무	-12891
▁힘겹	-12892
떨어진	-12893
스▁는	-12894
▁그▁를	-12895
▁남▁과	-12896
▁당사자	-12897
▁돼▁는	-12898
▁따라가	-12899
▁땀▁을	-12900
▁맞▁아	-12901
▁명▁만	-12902
▁살아온	-12903
▁시리즈	-12904
▁이▁건	-12905
▁이▁불	-12906
▁일▁일	-12907
▁전기세	-12908
▁주세요	-12909
▁참▁아	-12910
▁포인트	-12911
▁휴교령	-12912
면▁으로	-12913
▁교복▁의	-12914
▁그▁이후	-12915
▁기▁마련	-12916
▁기능▁을	-12917
▁년▁마다	-12918
▁누구▁를	-12919
▁늘리▁는	-12920
▁댓글▁은	-12921
▁들어와서	-12922
▁별▁풍선	-12923
▁상태▁를	-12924
▁수년▁간	-12925
▁수시▁의	-12926
▁스튜디오	-12927
▁신고▁가	-12928
▁십▁시오	-12929
▁았▁으나	-12930
▁얼마▁남	-12931
▁연락▁을	-12932
▁욕구▁를	-12933
▁위하▁는	-12934
▁유해▁한	-12935
▁으시▁는	-12936
▁을▁지원	-12937
▁인▁스타	-12938
▁인격▁을	-12939
▁임금▁을	-12940
▁정의▁로	-12941
▁좋▁은데	-12942
▁죽▁어라	-12943
▁지▁마시	-12944
▁짓밟▁는	-12945
▁처리▁가	-12946
▁특혜▁를	-12947
▁평가▁가	-12948
▁하▁던가	-12949
▁하나▁씩	-12950
▁한답니다	-12951
▁합니다만	-12952
▁행복▁을	-12953
▁그▁전▁에	-12954
▁년▁에▁는	-12955
▁늘어나▁는	-12956
▁몇▁년▁간	-12957
▁무상▁으로	-12958
▁바라보▁는	-12959
▁사▁는▁게	-12960
▁사법부▁의	-12961
▁사생활▁을	-12962
▁스포츠▁인	-12963
▁시험▁으로	-12964
▁심정▁으로	-12965
▁어렵▁다고	-12966
▁연예인▁의	-12967
▁올라가▁는	-12968
▁입장▁에선	-12969
▁정보▁공개	-12970
▁제▁가▁알	-12971
▁타인▁에게	-12972
▁피해▁보상	-12973
▁하▁는지요	-12974
▁하▁여▁주	-12975
▁환경▁오염	-12976
인▁들▁에게	-12977
▁게▁만드▁는	-12978
▁나라▁입니까	-12979
▁대대▁적▁인	-12980
▁도▁있▁는데	-12981
▁두▁아이▁의	-12982
▁라고▁하▁면	-12983
▁방법▁이▁없	-12984
▁아이돌▁그룹	-12985
▁유치원▁교사	-12986
▁을▁받▁으며	-12987
▁이▁있▁으며	-12988
▁인재▁들▁이	-12989
▁자기▁들▁의	-12990
▁제공▁하▁는	-12991
▁중요▁하▁고	-12992
▁추구▁하▁는	-12993
▁국민▁모두▁가	-12994
▁는▁것▁이▁맞	-12995
▁대통령▁님▁도	-12996
▁우리▁사회▁는	-12997
▁으로▁만들▁어	-12998
▁은▁없▁습니다	-12999
▁을▁수▁있▁고	-13000
▁이▁라는▁이름	-13001
▁이▁있▁습니까	-13002
▁제도▁를▁마련	-13003
▁하▁게▁되▁고	-13004
▁합니다▁그래서	-13005
▁게▁된▁이유▁는	-13006
▁국공립▁어린이집	-13007
▁하▁다는▁것▁을	-13008
▁한▁사람▁으로서	-13009
▁강화▁해▁주▁세요	-13010
▁대한민국▁에서▁는	-13011
▁하▁기▁도▁하▁고	-13012
▁하▁는▁것▁이▁다	-13013
▁당하▁고▁있▁습니다	-13014
▁을▁수▁도▁있▁습니다	-13015
▁하▁는▁것▁이▁아닙니다	-13016
▁주▁시▁면▁좋▁겠▁습니다	-13017
ac	-13018
ed	-13019
ts	-13020
▁썰	-13021
▁앤	-13022
나큰	-13023
운드	-13024
재기	-13025
지노	-13026
타깝	-13027
xno	-13028
▁78	-13029
▁88	-13030
▁가출	-13031
▁감면	-13032
▁감추	-13033
▁개봉	-13034
▁개종	-13035
▁곤란	-13036
▁긴장	-13037
▁김재	-13038
▁낱낱	-13039
▁담긴	-13040
▁따위	-13041
▁루머	-13042
▁박상	-13043
▁박진	-13044
▁버텨	-13045
▁비자	-13046
▁비제	-13047
▁상세	-13048
▁소변	-13049
▁소집	-13050
▁스페	-13051
▁슬픔	-13052
▁씁쓸	-13053
▁악습	-13054
▁엄정	-13055
▁엄한	-13056
▁오버	-13057
▁외출	-13058
▁원활	-13059
▁이론	-13060
▁인강	-13061
▁장비	-13062
▁장수	-13063
▁절벽	-13064
▁주무	-13065
▁증인	-13066
▁쳐서	-13067
▁치뤄	-13068
▁터져	-13069
▁퍼뜨	-13070
▁항소	-13071
▁행보	-13072
물▁로	-13073
음에도	-13074
이▁한	-13075
재▁를	-13076
적으로	-13077
▁남녀노	-13078
▁드러내	-13079
▁막▁고	-13080
▁백▁년	-13081
▁수사관	-13082
▁쌓▁아	-13083
▁알▁았	-13084
▁에▁요	-13085
▁올바르	-13086
▁왔▁다	-13087
▁왜▁냐	-13088
▁울▁며	-13089
▁을▁만	-13090
▁이▁만	-13091
▁좋▁다	-13092
▁주▁의	-13093
▁지도자	-13094
▁짜▁고	-13095
▁크나큰	-13096
▁팀▁킴	-13097
▁할▁말	-13098
▁가혹▁한	-13099
▁갈등▁이	-13100
▁갔▁다가	-13101
▁거짓▁된	-13102
▁군▁생활	-13103
▁기부▁를	-13104
▁단체▁를	-13105
▁마음▁도	-13106
▁맘▁편히	-13107
▁무▁개념	-13108
▁방식▁은	-13109
▁사진▁이	-13110
▁아동▁의	-13111
▁운▁영진	-13112
▁의무▁는	-13113
▁이▁다른	-13114
▁이▁지켜	-13115
▁일▁경우	-13116
▁일삼▁는	-13117
▁전화▁가	-13118
▁지나▁면	-13119
▁직원▁을	-13120
▁진행▁중	-13121
▁퇴사▁를	-13122
▁프로젝트	-13123
▁하나▁는	-13124
▁해외▁로	-13125
▁형태▁의	-13126
▁가해자▁와	-13127
▁같▁은▁거	-13128
▁교육감▁은	-13129
▁군사▁훈련	-13130
▁누구▁든지	-13131
▁는▁하지만	-13132
▁돌아가▁는	-13133
▁동의▁없이	-13134
▁문▁을▁닫	-13135
▁바뀌▁어야	-13136
▁생활▁체육	-13137
▁스스로▁가	-13138
▁스포츠▁계	-13139
▁아야▁한다	-13140
▁언론사▁가	-13141
▁엄중▁처벌	-13142
▁에▁대해선	-13143
▁이▁란▁게	-13144
▁이▁일▁을	-13145
▁일▁년▁에	-13146
▁점심▁시간	-13147
▁제도▁개선	-13148
▁해도▁너무	-13149
▁가족▁들▁의	-13150
▁강력히▁처벌	-13151
▁고▁싶▁어요	-13152
▁도와▁주▁는	-13153
▁비판▁하▁는	-13154
▁엄마▁들▁의	-13155
▁이렇게▁까지	-13156
▁조장▁하▁는	-13157
▁지▁못한▁채	-13158
▁학교▁를▁가	-13159
▁갈등▁을▁조장	-13160
▁국가▁대표▁의	-13161
▁도▁제대로▁못	-13162
▁사람▁이▁라면	-13163
▁어느▁정도▁의	-13164
▁여성▁의▁인권	-13165
▁이▁글▁을▁보	-13166
▁젊은이▁들▁이	-13167
▁정부▁에서▁도	-13168
▁하나▁만▁으로	-13169
▁학년▁때▁부터	-13170
▁할▁수▁없▁어	-13171
▁합법▁적▁으로	-13172
▁힘▁이▁듭니다	-13173
▁도▁불구▁하▁고	-13174
▁소년법▁폐지▁를	-13175
▁손흥민▁선수▁가	-13176
▁을▁제안▁합니다	-13177
▁대한민국▁의▁미래	-13178
▁병역▁의▁의무▁를	-13179
▁어린▁아이▁들▁이	-13180
▁했▁다는▁이유▁로	-13181
▁다는▁이유▁만▁으로	-13182
▁어리▁다는▁이유▁로	-13183
▁하▁시▁길▁바랍니다	-13184
▁말씀▁드리▁겠▁습니다	-13185
▁좋▁다고▁생각▁합니다	-13186
▁을▁거▁라▁생각▁합니다	-13187
▁소년법▁폐지▁해▁주▁세요	-13188
ec	-13189
▁빡	-13190
▁캡	-13191
▁훔	-13192
▁거두	-13193
▁겠죠	-13194
▁과언	-13195
▁구경	-13196
▁넉넉	-13197
▁논문	-13198
▁는대	-13199
▁다뤄	-13200
▁독도	-13201
▁동작	-13202
▁랜덤	-13203
▁명명	-13204
▁무효	-13205
▁문정	-13206
▁바꾼	-13207
▁부딪	-13208
▁붙이	-13209
▁비극	-13210
▁비례	-13211
▁상기	-13212
▁선별	-13213
▁성취	-13214
▁스카	-13215
▁시술	-13216
▁싸이	-13217
▁양질	-13218
▁원천	-13219
▁자칫	-13220
▁재검	-13221
▁중등	-13222
▁줘도	-13223
▁증축	-13224
▁큰일	-13225
▁탑승	-13226
▁파울	-13227
▁학벌	-13228
▁해방	-13229
▁해산	-13230
▁회식	-13231
▁회화	-13232
▁횟수	-13233
생▁을	-13234
습니까	-13235
야▁만	-13236
움▁과	-13237
news	-13238
▁가▁도	-13239
▁그래요	-13240
▁도▁박	-13241
▁돌아갈	-13242
▁땜▁에	-13243
▁몸▁과	-13244
▁물러나	-13245
▁빠져나	-13246
▁살▁된	-13247
▁서▁는	-13248
▁성▁에	-13249
▁스케줄	-13250
▁시▁죠	-13251
▁신천지	-13252
▁월▁말	-13253
▁일으켜	-13254
▁잡▁는	-13255
▁정정당	-13256
▁청문회	-13257
금▁으로	-13258
▁FIFA	-13259
▁걱정▁을	-13260
▁교육▁적	-13261
▁남북▁이	-13262
▁대표▁가	-13263
▁도▁문제	-13264
▁보육▁을	-13265
▁북한▁에	-13266
▁분명▁한	-13267
▁빅▁히트	-13268
▁사례▁를	-13269
▁상태▁가	-13270
▁알리▁는	-13271
▁업체▁는	-13272
▁없▁도록	-13273
▁에서▁나	-13274
▁역▁으로	-13275
▁으시▁면	-13276
▁을▁높이	-13277
▁을▁요청	-13278
▁을▁지향	-13279
▁의▁평등	-13280
▁의미▁로	-13281
▁이▁나온	-13282
▁이▁전혀	-13283
▁이▁존재	-13284
▁이런▁데	-13285
▁자리▁는	-13286
▁잘못▁은	-13287
▁전▁까지	-13288
▁전화▁로	-13289
▁정책▁의	-13290
▁정하▁고	-13291
▁제도▁와	-13292
▁종교▁를	-13293
▁직장▁에	-13294
▁차이▁를	-13295
▁학년▁은	-13296
▁경각심▁을	-13297
▁근로자▁가	-13298
▁또▁한▁번	-13299
▁생▁들▁이	-13300
▁실제로▁는	-13301
▁에서▁나온	-13302
▁여자▁친구	-13303
▁유치원▁도	-13304
▁인터넷▁을	-13305
▁일자리▁가	-13306
▁특수▁교사	-13307
▁하▁게▁되	-13308
▁것▁이▁라는	-13309
▁경기장▁에서	-13310
▁고▁싶▁다는	-13311
▁권▁을▁침해	-13312
▁기사▁들▁을	-13313
▁논란▁이▁되	-13314
▁당연▁한▁거	-13315
▁등▁에▁대한	-13316
▁라고▁하▁는	-13317
▁법무부▁장관	-13318
▁악질▁적▁인	-13319
▁원치▁않▁는	-13320
▁을▁받▁아서	-13321
▁이▁문제▁는	-13322
▁지▁않▁지만	-13323
▁지경▁입니다	-13324
▁하루▁에▁도	-13325
▁학년▁입니다	-13326
▁학생▁수▁가	-13327
▁게임▁물▁관리	-13328
▁교육▁공무▁직	-13329
▁국가▁대표▁를	-13330
▁국가▁에서▁는	-13331
▁기▁도▁전▁에	-13332
▁남성▁들▁에게	-13333
▁대상▁으로▁한	-13334
▁대한▁민국▁의	-13335
▁방탄소년단▁을	-13336
▁보호▁받▁아야	-13337
▁여학생▁입니다	-13338
▁이▁아니▁라고	-13339
▁일어났▁습니다	-13340
▁하루▁아침▁에	-13341
▁행복▁을▁추구	-13342
▁과▁관련▁하▁여	-13343
▁김보름▁선수▁의	-13344
▁읽▁어▁주▁셔서	-13345
▁죽▁을▁때▁까지	-13346
▁청소년▁을▁보호	-13347
▁해야▁하▁는▁것	-13348
▁고▁있▁는▁것▁이	-13349
▁대한민국▁국민▁의	-13350
▁어린이집▁에▁보내	-13351
▁어린이집▁을▁보내	-13352
▁제도▁를▁만들▁어	-13353
▁조▁모든▁국민▁은	-13354
▁하▁면▁안▁됩니다	-13355
▁하▁지▁못하▁도록	-13356
▁할▁수▁있▁습니까	-13357
▁해▁주▁는▁것▁이	-13358
▁키우▁고▁있▁습니다	-13359
▁하▁는▁것▁이▁아닌	-13360
▁고통▁받▁고▁있▁습니다	-13361
▁하▁고▁있▁습니다▁또한	-13362
▁할▁수▁있▁을▁것▁입니다	-13363
▁해▁주▁시▁기▁를▁바랍니다	-13364
ub	-13365
▁ᅵ	-13366
▁락	-13367
▁랄	-13368
▁르	-13369
▁맏	-13370
▁샀	-13371
▁텍	-13372
▁핫	-13373
거품	-13374
시간	-13375
▁간판	-13376
▁건드	-13377
▁검거	-13378
▁고마	-13379
▁교습	-13380
▁국한	-13381
▁근친	-13382
▁녹화	-13383
▁드림	-13384
▁레이	-13385
▁매니	-13386
▁보증	-13387
▁설령	-13388
▁세탁	-13389
▁싸워	-13390
▁압력	-13391
▁앞날	-13392
▁앵커	-13393
▁양쪽	-13394
▁업주	-13395
▁여초	-13396
▁온통	-13397
▁외고	-13398
▁욕먹	-13399
▁일치	-13400
▁자정	-13401
▁전력	-13402
▁좌지	-13403
▁지대	-13404
▁참전	-13405
▁채점	-13406
▁투신	-13407
▁편하	-13408
▁필기	-13409
▁행하	-13410
▁현지	-13411
상▁위	-13412
우▁며	-13413
지▁요	-13414
▁가르칠	-13415
▁간다는	-13416
▁개▁를	-13417
▁겪▁은	-13418
▁권▁은	-13419
▁냐고요	-13420
▁눈▁과	-13421
▁담▁아	-13422
▁당해도	-13423
▁더▁낳	-13424
▁돌려주	-13425
▁를▁한	-13426
▁몰▁아	-13427
▁물거품	-13428
▁반▁은	-13429
▁보▁러	-13430
▁부사관	-13431
▁안중근	-13432
▁양▁의	-13433
▁을▁땐	-13434
▁이▁기	-13435
▁이▁날	-13436
▁인▁듯	-13437
▁임▁이	-13438
▁전라도	-13439
▁쪽▁에	-13440
▁테니스	-13441
▁틀▁어	-13442
▁하▁긴	-13443
전▁에서	-13444
▁개인▁적	-13445
▁결국▁엔	-13446
▁계약▁을	-13447
▁높이▁고	-13448
▁누명▁을	-13449
▁뉴스▁나	-13450
▁돌▁보미	-13451
▁를▁설치	-13452
▁많▁다고	-13453
▁맞춤▁형	-13454
▁몇▁시간	-13455
▁받▁아도	-13456
▁법치주의	-13457
▁병원▁을	-13458
▁사유▁로	-13459
▁신▁도시	-13460
▁실질▁적	-13461
▁앞두▁고	-13462
▁에▁이용	-13463
▁완벽▁한	-13464
▁외국▁의	-13465
▁원장▁은	-13466
▁월급▁이	-13467
▁을▁보낼	-13468
▁이▁니까	-13469
▁이▁보장	-13470
▁이▁지났	-13471
▁조건▁이	-13472
▁폭력▁은	-13473
▁폭행▁한	-13474
▁하▁느냐	-13475
▁해외▁에	-13476
▁현실▁과	-13477
▁확인▁이	-13478
▁남성▁보다	-13479
▁네이버▁는	-13480
▁년▁월드컵	-13481
▁로▁하여금	-13482
▁리그▁에서	-13483
▁만▁원▁에	-13484
▁범죄자▁는	-13485
▁범죄자▁들	-13486
▁상대▁평가	-13487
▁상황▁인데	-13488
▁성폭행▁을	-13489
▁아침▁부터	-13490
▁엄마▁아빠	-13491
▁우선▁순위	-13492
▁유튜브▁에	-13493
▁을▁찾▁아	-13494
▁이▁안▁되	-13495
▁이▁제대로	-13496
▁가능▁합니다	-13497
▁경우▁에▁도	-13498
▁공기▁청정기	-13499
▁명목▁하▁에	-13500
▁명확▁하▁게	-13501
▁믿▁고▁맡길	-13502
▁법▁의▁심판	-13503
▁서민▁들▁은	-13504
▁시▁겠▁지만	-13505
▁아야▁하▁는	-13506
▁악▁성▁댓글	-13507
▁언론▁들▁이	-13508
▁와▁더불▁어	-13509
▁이▁불▁가능	-13510
▁이▁에▁따라	-13511
▁이후▁에▁도	-13512
▁적폐▁입니다	-13513
▁중요▁한▁건	-13514
▁청년▁들▁의	-13515
▁최근▁들▁어	-13516
▁하▁겠▁지요	-13517
▁한▁것▁인지	-13518
▁호소▁합니다	-13519
▁개인▁정보▁를	-13520
▁공개▁적▁으로	-13521
▁맞▁지▁않▁는	-13522
▁쓸▁수▁있▁는	-13523
▁우리▁선수▁들	-13524
▁인권▁을▁유린	-13525
▁차▁산업▁혁명	-13526
▁하▁시▁는▁분	-13527
▁하▁지▁맙시다	-13528
▁만▁원▁이하▁의	-13529
▁을▁요구▁합니다	-13530
▁이▁시급▁합니다	-13531
▁풀▁어▁주▁세요	-13532
▁하▁다고▁합니다	-13533
▁바뀌▁어야▁합니다	-13534
▁생기▁지▁않▁도록	-13535
▁의심▁스럽▁습니다	-13536
▁적▁이▁있▁습니다	-13537
▁고▁있▁습니다▁또한	-13538
▁범죄▁를▁저지르▁고	-13539
▁수▁밖에▁없▁습니다	-13540
▁꺾	-13541
▁련	-13542
▁쉼	-13543
▁탕	-13544
리어	-13545
빠진	-13546
터리	-13547
회식	-13548
▁03	-13549
▁KT	-13550
▁ex	-13551
▁각성	-13552
▁갖춰	-13553
▁고급	-13554
▁고향	-13555
▁국보	-13556
▁넥슨	-13557
▁대립	-13558
▁될지	-13559
▁문득	-13560
▁미필	-13561
▁반값	-13562
▁범인	-13563
▁보관	-13564
▁분유	-13565
▁세습	-13566
▁없앨	-13567
▁에너	-13568
▁역겹	-13569
▁열리	-13570
▁오타	-13571
▁요리	-13572
▁용산	-13573
▁울타	-13574
▁위배	-13575
▁유감	-13576
▁유급	-13577
▁일괄	-13578
▁일용	-13579
▁적법	-13580
▁지낼	-13581
▁취임	-13582
▁헌데	-13583
▁현혹	-13584
금▁은	-13585
보▁육	-13586
부인과	-13587
적▁을	-13588
▁nav	-13589
▁가▁왜	-13590
▁개▁나	-13591
▁공직자	-13592
▁권▁의	-13593
▁넘어선	-13594
▁년▁만	-13595
▁는▁더	-13596
▁또▁그	-13597
▁멋대로	-13598
▁몰아주	-13599
▁무궁화	-13600
▁불▁법	-13601
▁불안감	-13602
▁뽑▁기	-13603
▁상▁을	-13604
▁수요일	-13605
▁앗▁아	-13606
▁언젠가	-13607
▁업로드	-13608
▁열▁고	-13609
▁위자료	-13610
▁이▁하	-13611
▁인권위	-13612
▁일▁만	-13613
▁적당히	-13614
▁전남편	-13615
▁죽▁고	-13616
▁줄▁어	-13617
▁지▁어	-13618
▁카지노	-13619
▁타▁는	-13620
▁피▁와	-13621
▁현저히	-13622
졌▁다고	-13623
idxno	-13624
▁같▁네요	-13625
▁경우▁를	-13626
▁뉴스▁와	-13627
▁는▁건데	-13628
▁대▁초반	-13629
▁독도▁를	-13630
▁때로▁는	-13631
▁만들▁었	-13632
▁못하▁는	-13633
▁무시▁한	-13634
▁본인▁들	-13635
▁본질▁을	-13636
▁사건▁들	-13637
▁산부인과	-13638
▁생명▁의	-13639
▁선택▁을	-13640
▁선택▁한	-13641
▁성▁관계	-13642
▁세력▁이	-13643
▁실상▁은	-13644
▁심리▁적	-13645
▁아주머니	-13646
▁언제▁든	-13647
▁에▁부합	-13648
▁연맹▁의	-13649
▁였▁다면	-13650
▁영화▁가	-13651
▁용▁으로	-13652
▁을▁보도	-13653
▁을▁앞둔	-13654
▁을▁이끌	-13655
▁의사▁가	-13656
▁이▁거나	-13657
▁이▁나와	-13658
▁이▁라뇨	-13659
▁인사▁를	-13660
▁일반▁인	-13661
▁정의▁롭	-13662
▁종목▁은	-13663
▁좋▁아서	-13664
▁지원▁받	-13665
▁티켓▁을	-13666
▁평화▁와	-13667
▁학원▁은	-13668
▁해서라도	-13669
▁가르치▁고	-13670
▁강제▁추행	-13671
▁님▁들▁은	-13672
▁대학교▁는	-13673
▁도▁많▁은	-13674
▁돈▁있▁는	-13675
▁바라보▁고	-13676
▁병역▁기피	-13677
▁불안▁해서	-13678
▁사▁적▁인	-13679
▁스포츠▁의	-13680
▁애▁들▁도	-13681
▁애▁를▁낳	-13682
▁영어▁수업	-13683
▁을▁받아들	-13684
▁을▁쓰▁고	-13685
▁의▁갑▁질	-13686
▁정치인▁들	-13687
▁학부모▁들	-13688
▁해▁주▁길	-13689
▁가능▁하▁게	-13690
▁기사▁들▁이	-13691
▁깨끗▁하▁고	-13692
▁마음▁입니다	-13693
▁박근혜▁정부	-13694
▁부당▁하▁게	-13695
▁서지현▁검사	-13696
▁을▁당하▁는	-13697
▁이▁없▁도록	-13698
▁인터뷰▁에서	-13699
▁하▁기▁까지	-13700
▁하▁기▁시작	-13701
▁하▁는▁방안	-13702
▁하▁였▁다고	-13703
▁하▁지▁못했	-13704
▁한다고▁해도	-13705
▁확인▁하▁고	-13706
▁단▁한▁번▁도	-13707
▁되▁어▁있▁어	-13708
▁밝혀▁주▁세요	-13709
▁어린이집▁차량	-13710
▁어야▁하▁는데	-13711
▁와▁같▁습니다	-13712
▁이▁있▁을까요	-13713
▁이렇게▁되▁면	-13714
▁인권▁을▁침해	-13715
▁청원▁을▁올리	-13716
▁하▁고▁이▁를	-13717
▁하▁지▁않▁나	-13718
▁한▁마음▁으로	-13719
▁한다는▁것▁을	-13720
▁했▁습니다▁그	-13721
▁허위▁사실▁을	-13722
▁꼭▁필요▁합니다	-13723
▁문재인▁정부▁는	-13724
▁청소년▁이▁라고	-13725
▁하▁지▁마십시오	-13726
▁할▁수▁있▁는데	-13727
▁보호▁해▁주▁세요	-13728
▁지▁는▁않▁습니다	-13729
▁할▁것▁이▁아니▁라	-13730
▁한▁사람▁의▁인생▁을	-13731
▁국민▁의▁한▁사람▁으로써	-13732
▁수▁있▁게▁도와▁주▁세요	-13733
▁ᄅ	-13734
▁깡	-13735
▁션	-13736
▁휠	-13737
▁힐	-13738
공론	-13739
그릇	-13740
북도	-13741
재판	-13742
100	-13743
▁AB	-13744
▁가관	-13745
▁감축	-13746
▁그치	-13747
▁깜깜	-13748
▁내외	-13749
▁단합	-13750
▁돼서	-13751
▁떠넘	-13752
▁만난	-13753
▁미러	-13754
▁바깥	-13755
▁바램	-13756
▁병폐	-13757
▁복도	-13758
▁사단	-13759
▁상한	-13760
▁소환	-13761
▁손쉽	-13762
▁순번	-13763
▁스티	-13764
▁연대	-13765
▁영혼	-13766
▁예측	-13767
▁유익	-13768
▁음성	-13769
▁이스	-13770
▁일개	-13771
▁일원	-13772
▁재외	-13773
▁전라	-13774
▁천사	-13775
▁친한	-13776
▁호구	-13777
름▁을	-13778
▁800	-13779
▁the	-13780
▁나아갈	-13781
▁내▁면	-13782
▁님▁과	-13783
▁되▁기	-13784
▁되풀이	-13785
▁들▁아	-13786
▁로▁보	-13787
▁료▁를	-13788
▁를▁끼	-13789
▁리니지	-13790
▁말▁까	-13791
▁몇▁자	-13792
▁모른다	-13793
▁무▁기	-13794
▁미성숙	-13795
▁밥그릇	-13796
▁배▁로	-13797
▁벗어날	-13798
▁불이익	-13799
▁뽑▁고	-13800
▁상▁에	-13801
▁슬로건	-13802
▁시▁요	-13803
▁에▁나	-13804
▁운전기	-13805
▁일▁의	-13806
▁정몽규	-13807
▁조▁제	-13808
▁조현우	-13809
▁주인공	-13810
▁출판사	-13811
▁팔▁아	-13812
▁흐지부	-13813
▁희생양	-13814
다는▁것	-13815
렸▁다고	-13816
었▁는데	-13817
졌▁는데	-13818
▁2008	-13819
▁강의▁를	-13820
▁경쟁▁을	-13821
▁기말고사	-13822
▁내▁아이	-13823
▁는지▁도	-13824
▁도덕▁적	-13825
▁둘째▁를	-13826
▁들▁자면	-13827
▁렀습니다	-13828
▁를▁해서	-13829
▁만나▁서	-13830
▁메뉴▁얼	-13831
▁면서▁왜	-13832
▁무리▁한	-13833
▁바뀌▁면	-13834
▁방식▁이	-13835
▁복잡▁한	-13836
▁사고▁는	-13837
▁수시▁가	-13838
▁수시▁와	-13839
▁시민▁이	-13840
▁에▁도착	-13841
▁왕따▁를	-13842
▁우려▁가	-13843
▁워너▁원	-13844
▁월▁까지	-13845
▁을▁다시	-13846
▁을▁안겨	-13847
▁을▁제기	-13848
▁이▁구요	-13849
▁이▁시급	-13850
▁자▁한당	-13851
▁자녀▁는	-13852
▁잡▁아서	-13853
▁졸업▁한	-13854
▁주위▁에	-13855
▁챙기▁고	-13856
▁처우▁를	-13857
▁처음▁에	-13858
▁콜▁센터	-13859
▁탁상공론	-13860
▁프로▁듀	-13861
▁하▁리라	-13862
▁학생▁다	-13863
▁해결▁될	-13864
▁확률▁형	-13865
질▁적▁인	-13866
▁감독▁에게	-13867
▁게임▁으로	-13868
▁고▁있▁을	-13869
▁공부▁해서	-13870
▁국제▁대회	-13871
▁기사▁제목	-13872
▁나름▁대로	-13873
▁남자▁여자	-13874
▁당사자▁가	-13875
▁들어오▁는	-13876
▁말▁로▁는	-13877
▁무엇▁인가	-13878
▁문제점▁이	-13879
▁예전▁처럼	-13880
▁올해▁부터	-13881
▁은닉▁방조	-13882
▁을▁받▁게	-13883
▁자영업▁자	-13884
▁정말▁너무	-13885
▁정부▁부처	-13886
▁직장▁생활	-13887
▁청년▁실업	-13888
▁키우▁는데	-13889
▁파벌▁싸움	-13890
▁피해자▁로	-13891
▁혐오▁발언	-13892
▁형식▁으로	-13893
▁국가▁입니다	-13894
▁그▁사람▁이	-13895
▁대표▁팀▁의	-13896
▁들▁었▁는데	-13897
▁부모▁들▁도	-13898
▁불안▁합니다	-13899
▁비롯▁하▁여	-13900
▁생각▁하▁니	-13901
▁세금▁을▁내	-13902
▁아동▁청소년	-13903
▁에▁맞추▁어	-13904
▁올림픽▁정신	-13905
▁이▁때문▁에	-13906
▁제▁가▁생각	-13907
▁좋▁겠▁지만	-13908
▁준비▁하▁고	-13909
▁지▁않▁네요	-13910
▁지▁않▁으니	-13911
▁해▁주▁셔야	-13912
▁화장실▁에서	-13913
▁도▁안▁됩니다	-13914
▁범죄자▁들▁의	-13915
▁살▁아▁있▁는	-13916
▁수▁있▁습니까	-13917
▁알▁수▁가▁없	-13918
▁할▁수▁없▁게	-13919
▁했▁음▁에▁도	-13920
▁국가▁차원▁에서	-13921
▁를▁청원▁합니다	-13922
▁비▁정상▁적▁인	-13923
▁생각▁이▁됩니다	-13924
▁소위▁말▁하▁는	-13925
▁평창▁올림픽▁을	-13926
▁한다는▁이유▁로	-13927
▁할▁수▁있▁으며	-13928
▁살아가▁고▁있▁는	-13929
▁어렸▁을▁때▁부터	-13930
▁을▁받▁고▁있▁는	-13931
▁을▁지켜▁주▁세요	-13932
▁고▁있▁다는▁것▁을	-13933
▁김보름▁박지우▁선수	-13934
▁문제▁가▁많▁습니다	-13935
▁해▁주▁세요▁그리고	-13936
▁고▁있▁습니다▁저▁는	-13937
▁하▁고▁있▁었▁습니다	-13938
▁명시▁되▁어▁있▁습니다	-13939
▁이렇게▁글▁을▁올립니다	-13940
▁주▁시▁길▁청원▁합니다	-13941
PL	-13942
ic	-13943
▁꼽	-13944
▁뛸	-13945
▁랴	-13946
▁렌	-13947
▁짱	-13948
▁쳤	-13949
낙연	-13950
대문	-13951
들이	-13952
바이	-13953
시마	-13954
우지	-13955
해야	-13956
▁44	-13957
▁cm	-13958
▁가질	-13959
▁경로	-13960
▁계셨	-13961
▁관객	-13962
▁그간	-13963
▁그려	-13964
▁그쪽	-13965
▁급격	-13966
▁노름	-13967
▁뚜렷	-13968
▁뜯어	-13969
▁복학	-13970
▁소견	-13971
▁소신	-13972
▁수긍	-13973
▁시비	-13974
▁양해	-13975
▁얼룩	-13976
▁염원	-13977
▁용돈	-13978
▁위헌	-13979
▁인해	-13980
▁일벌	-13981
▁장담	-13982
▁저기	-13983
▁접대	-13984
▁조민	-13985
▁질타	-13986
▁차출	-13987
▁치명	-13988
▁친족	-13989
▁투약	-13990
▁틀림	-13991
▁판례	-13992
▁하복	-13993
▁힘내	-13994
다하고	-13995
둥▁이	-13996
릅니까	-13997
실▁에	-13998
연▁에	-13999
인▁도	-14000
장▁애	-14001
▁KBL	-14002
▁겠▁냐	-14003
▁경조사	-14004
▁내버려	-14005
▁놀▁러	-14006
▁님▁도	-14007
▁데이터	-14008
▁말▁할	-14009
▁멀▁어	-14010
▁바꿔야	-14011
▁박용진	-14012
▁반인륜	-14013
▁배▁가	-14014
▁보▁신	-14015
▁사▁가	-14016
▁삶▁이	-14017
▁쉽▁고	-14018
▁스타일	-14019
▁시청자	-14020
▁신분증	-14021
▁아세요	-14022
▁아쉬운	-14023
▁영상물	-14024
▁영양사	-14025
▁웹▁하	-14026
▁을▁달	-14027
▁을▁어	-14028
▁이윤택	-14029
▁장난감	-14030
▁정유라	-14031
▁진다고	-14032
▁진다면	-14033
▁파렴치	-14034
▁팔▁고	-14035
▁팬▁들	-14036
▁프리미	-14037
▁할머님	-14038
고사▁를	-14039
방▁에서	-14040
▁게시▁글	-14041
▁계십니까	-14042
▁고생▁한	-14043
▁공부▁할	-14044
▁과목▁은	-14045
▁교수▁는	-14046
▁내리▁는	-14047
▁는지▁는	-14048
▁대학▁가	-14049
▁될▁경우	-14050
▁맞▁지만	-14051
▁맡기▁는	-14052
▁바꾸▁는	-14053
▁바쁘▁신	-14054
▁반▁대로	-14055
▁받▁는다	-14056
▁방탄▁은	-14057
▁번▁이나	-14058
▁벌금▁을	-14059
▁비▁양육	-14060
▁사건▁도	-14061
▁생명▁과	-14062
▁성인▁과	-14063
▁세계▁의	-14064
▁소득▁이	-14065
▁수당▁을	-14066
▁숙제▁를	-14067
▁시▁이후	-14068
▁시간▁제	-14069
▁실력▁과	-14070
▁씩▁이나	-14071
▁아무▁일	-14072
▁업체▁가	-14073
▁에▁가입	-14074
▁에▁동참	-14075
▁오릅니다	-14076
▁올해▁는	-14077
▁은▁국민	-14078
▁을▁보이	-14079
▁을▁수행	-14080
▁의원▁의	-14081
▁이▁되게	-14082
▁인간▁은	-14083
▁입학▁한	-14084
▁자신▁은	-14085
▁장관▁은	-14086
▁중간고사	-14087
▁지원▁도	-14088
▁책임▁과	-14089
▁청원▁의	-14090
▁키즈▁존	-14091
▁플랫▁폼	-14092
▁학년▁인	-14093
▁흐지부지	-14094
겼▁습니다	-14095
야▁할까요	-14096
▁것▁이▁지	-14097
▁것▁일까요	-14098
▁관계자▁들	-14099
▁국민▁제안	-14100
▁군▁가산점	-14101
▁나라▁망신	-14102
▁년▁이▁넘	-14103
▁노력▁해서	-14104
▁대통령▁과	-14105
▁를▁보▁니	-14106
▁마음▁에서	-14107
▁못▁하▁면	-14108
▁사람▁인데	-14109
▁사형▁집행	-14110
▁수도▁없이	-14111
▁어려움▁을	-14112
▁얼굴▁공개	-14113
▁예산▁으로	-14114
▁이▁되▁서	-14115
▁인권▁탄압	-14116
▁좋▁아▁지	-14117
▁지역▁주민	-14118
▁지원금▁이	-14119
▁해▁놓▁은	-14120
서▁를▁제출	-14121
▁경찰서▁에서	-14122
▁꿈▁과▁희망	-14123
▁년▁이▁지난	-14124
▁댓글▁들▁이	-14125
▁를▁보여▁주	-14126
▁법▁을▁제정	-14127
▁부족▁하▁고	-14128
▁불문▁하▁고	-14129
▁불안▁에▁떨	-14130
▁사람▁답▁게	-14131
▁상응▁하▁는	-14132
▁수▁있▁다면	-14133
▁신중▁하▁게	-14134
▁양육비▁이행	-14135
▁에▁반하▁는	-14136
▁여성▁분▁들	-14137
▁우리▁들▁의	-14138
▁으면▁하▁는	-14139
▁이▁문제▁를	-14140
▁이▁사건▁은	-14141
▁이▁없▁으니	-14142
▁저렴▁하▁게	-14143
▁직원▁들▁은	-14144
▁팩▁트▁체크	-14145
▁허다▁합니다	-14146
질▁것▁입니다	-14147
▁관심▁을▁가져	-14148
▁교육▁을▁실시	-14149
▁구체▁적▁으로	-14150
▁국가▁를▁대표	-14151
▁그런▁식▁으로	-14152
▁두▁고▁있▁는	-14153
▁많▁은▁것▁을	-14154
▁모든▁사람▁이	-14155
▁신체▁적▁으로	-14156
▁우리▁아이▁는	-14157
▁우선▁적▁으로	-14158
▁자발▁적▁으로	-14159
▁전▁세계▁에서	-14160
▁종교▁의▁자유	-14161
▁해▁주▁시▁기	-14162
▁노선영▁선수▁는	-14163
▁누릴▁수▁있▁는	-14164
▁대통령▁님▁제발	-14165
▁만▁원▁이▁라는	-14166
▁미래▁를▁위해서	-14167
▁수험▁생▁들▁이	-14168
▁우리▁나라▁축구	-14169
▁을▁위해서▁라도	-14170
▁을▁해야▁합니다	-14171
▁입니다▁이러▁한	-14172
▁하▁는▁이유▁가	-14173
▁흔히▁말▁하▁는	-14174
▁경우▁가▁있▁습니다	-14175
▁잘▁모르▁겠▁습니다	-14176
▁대한민국▁국민▁으로서	-14177
▁있▁을▁수▁없▁는▁일▁입니다	-14178
▁델	-14179
▁듬	-14180
▁퀴	-14181
러리	-14182
망정	-14183
받침	-14184
서야	-14185
▁46	-14186
▁감성	-14187
▁겉옷	-14188
▁고속	-14189
▁교환	-14190
▁구할	-14191
▁국토	-14192
▁기하	-14193
▁기한	-14194
▁더운	-14195
▁때린	-14196
▁먼지	-14197
▁바다	-14198
▁밝힌	-14199
▁배부	-14200
▁뱃속	-14201
▁병들	-14202
▁보드	-14203
▁삭감	-14204
▁석방	-14205
▁소라	-14206
▁수령	-14207
▁순서	-14208
▁쌓여	-14209
▁악성	-14210
▁앞세	-14211
▁야자	-14212
▁여럿	-14213
▁영토	-14214
▁오니	-14215
▁오프	-14216
▁온몸	-14217
▁유입	-14218
▁의존	-14219
▁인형	-14220
▁일조	-14221
▁자진	-14222
▁재롱	-14223
▁전입	-14224
▁충원	-14225
▁친권	-14226
▁침입	-14227
▁퍼트	-14228
▁편리	-14229
▁하청	-14230
더군요	-14231
실▁을	-14232
오▁면	-14233
호▁를	-14234
▁걸림돌	-14235
▁껍니다	-14236
▁날▁에	-14237
▁넘▁은	-14238
▁넘어간	-14239
▁더▁많	-14240
▁덜▁어	-14241
▁도▁보	-14242
▁도▁한	-14243
▁뒷받침	-14244
▁라던지	-14245
▁몰▁고	-14246
▁물갈이	-14247
▁믿▁어	-14248
▁봤▁자	-14249
▁씨▁와	-14250
▁양육권	-14251
▁없▁게	-14252
▁었▁죠	-14253
▁을▁넣	-14254
▁의▁가	-14255
▁의▁지	-14256
▁이▁과	-14257
▁일일이	-14258
▁자부심	-14259
▁재검토	-14260
▁중국어	-14261
▁투성이	-14262
▁풀▁고	-14263
▁해▁볼	-14264
▁가▁폐지	-14265
▁거대▁한	-14266
▁국가▁로	-14267
▁규정▁이	-14268
▁그런▁건	-14269
▁근데▁왜	-14270
▁기관▁은	-14271
▁나라▁와	-14272
▁노동조합	-14273
▁는▁다른	-14274
▁는▁커녕	-14275
▁대▁보험	-14276
▁따지▁면	-14277
▁모른▁척	-14278
▁미러▁링	-14279
▁사례▁는	-14280
▁사회주의	-14281
▁살▁짜리	-14282
▁상▁으로	-14283
▁성▁으로	-14284
▁소리▁에	-14285
▁스케이트	-14286
▁시설▁이	-14287
▁아이▁낳	-14288
▁언어폭력	-14289
▁업체▁의	-14290
▁여자▁와	-14291
▁와이셔츠	-14292
▁원장▁의	-14293
▁으로▁한	-14294
▁이▁다가	-14295
▁인권▁의	-14296
▁장치▁를	-14297
▁저희▁집	-14298
▁접수▁를	-14299
▁정치▁가	-14300
▁졸업▁후	-14301
▁좌지우지	-14302
▁챙기▁는	-14303
▁처음▁엔	-14304
▁초중▁고	-14305
▁출산▁률	-14306
▁태도▁가	-14307
▁평가▁는	-14308
▁포기▁한	-14309
▁폭언▁과	-14310
▁할▁예정	-14311
▁효과▁가	-14312
론▁하▁고	-14313
▁군가▁산점	-14314
▁기회▁조차	-14315
▁년▁이▁란	-14316
▁대학교▁의	-14317
▁말▁이▁안	-14318
▁맘▁에▁안	-14319
▁보충▁수업	-14320
▁살아갑니다	-14321
▁스포츠▁에	-14322
▁시키▁려는	-14323
▁악▁플▁러	-14324
▁알▁게▁된	-14325
▁야▁말▁로	-14326
▁언젠가▁는	-14327
▁에▁비해서	-14328
▁여▁명▁의	-14329
▁여자▁컬링	-14330
▁인▁것▁을	-14331
▁전▁에▁는	-14332
▁정신▁건강	-14333
▁집단▁으로	-14334
▁태극기▁가	-14335
▁하나▁라도	-14336
▁학교▁운영	-14337
▁한▁일▁이	-14338
▁해▁준다고	-14339
▁해도▁과언	-14340
▁헌법▁재판	-14341
▁화▁하▁고	-14342
▁가▁있▁다는	-14343
▁거▁같▁은데	-14344
▁고등학교▁의	-14345
▁고민▁하▁고	-14346
▁보다▁더▁한	-14347
▁신고▁하▁고	-14348
▁아깝▁습니다	-14349
▁알▁고▁계시	-14350
▁어떻▁습니까	-14351
▁유튜브▁에서	-14352
▁을▁하▁다가	-14353
▁이▁없▁는데	-14354
▁이▁있▁나요	-14355
▁인간▁으로서	-14356
▁있▁겠▁지만	-14357
▁청원▁글▁을	-14358
▁청원▁입니다	-14359
▁판매▁하▁는	-14360
▁평가▁하▁는	-14361
▁게▁되▁었▁고	-14362
▁교육▁에▁대한	-14363
▁선생▁님▁에게	-14364
▁수▁도▁없▁는	-14365
▁어린이집▁교사	-14366
▁어린이집▁운영	-14367
▁우리▁대한민국	-14368
▁인권▁을▁보호	-14369
▁지금▁까지▁의	-14370
▁축구▁협회▁를	-14371
▁것▁은▁아닙니다	-14372
▁시켜▁주▁시▁고	-14373
▁아이▁를▁낳▁아	-14374
▁어린아이▁들▁이	-14375
▁은▁물론▁이▁고	-14376
▁할▁수▁있▁는지	-14377
▁것▁으로▁보입니다	-14378
▁답답▁한▁마음▁에	-14379
▁될▁것▁같▁습니다	-14380
▁모든▁아이▁들▁이	-14381
▁빠른▁시일▁내▁에	-14382
▁지원▁해▁주▁세요	-14383
▁하루▁가▁멀다하고	-14384
▁학생▁들▁에게▁도	-14385
▁고▁있▁습니다▁이런	-14386
▁이▁되▁어야▁합니다	-14387
▁학생▁입니다▁저▁는	-14388
▁다시▁는▁이런▁일▁이	-14389
▁대한민국▁국민▁으로써	-14390
▁발생▁하▁지▁않▁도록	-14391
▁알▁수▁가▁없▁습니다	-14392
▁잘▁알▁고▁있▁습니다	-14393
▁할▁수▁밖▁에▁없▁는	-14394
▁피해▁를▁보▁고▁있▁습니다	-14395
78	-14396
▁령	-14397
▁린	-14398
▁맑	-14399
▁얽	-14400
▁죗	-14401
▁툭	-14402
기소	-14403
꾸로	-14404
남도	-14405
뉴얼	-14406
무가	-14407
이머	-14408
저것	-14409
조선	-14410
카드	-14411
▁거치	-14412
▁귀하	-14413
▁남긴	-14414
▁내면	-14415
▁넷째	-14416
▁논쟁	-14417
▁농협	-14418
▁누려	-14419
▁다이	-14420
▁던져	-14421
▁드린	-14422
▁떄문	-14423
▁려니	-14424
▁매입	-14425
▁머니	-14426
▁모셔	-14427
▁문란	-14428
▁민중	-14429
▁범행	-14430
▁보람	-14431
▁불려	-14432
▁뻔히	-14433
▁시인	-14434
▁신발	-14435
▁십사	-14436
▁우스	-14437
▁유시	-14438
▁이자	-14439
▁전날	-14440
▁제조	-14441
▁죗값	-14442
▁중산	-14443
▁증원	-14444
▁지났	-14445
▁지쳐	-14446
▁직결	-14447
▁치사	-14448
▁퍼지	-14449
▁협약	-14450
렸▁고	-14451
오▁를	-14452
하▁에	-14453
view	-14454
▁1▁2	-14455
▁나▁니	-14456
▁높▁고	-14457
▁더▁는	-14458
▁도데체	-14459
▁돌아와	-14460
▁된▁것	-14461
▁막▁는	-14462
▁매뉴얼	-14463
▁먹▁을	-14464
▁밀어주	-14465
▁발▁을	-14466
▁보▁실	-14467
▁부득이	-14468
▁사이즈	-14469
▁아까운	-14470
▁야구팬	-14471
▁이▁십	-14472
▁제작진	-14473
▁조부모	-14474
▁죄▁는	-14475
▁지▁은	-14476
▁통신사	-14477
▁폐막식	-14478
▁하나님	-14479
▁화이팅	-14480
▁건의▁를	-14481
▁경제▁가	-14482
▁고통▁받	-14483
▁공감▁을	-14484
▁공사▁를	-14485
▁국영▁수	-14486
▁까지▁의	-14487
▁나누▁어	-14488
▁느껴▁지	-14489
▁느끼▁며	-14490
▁뒤집▁어	-14491
▁들▁에서	-14492
▁만▁생각	-14493
▁몰카▁범	-14494
▁무식▁한	-14495
▁미연▁에	-14496
▁밑▁에서	-14497
▁바닥▁에	-14498
▁반면▁에	-14499
▁발표▁한	-14500
▁보▁다가	-14501
▁보도▁가	-14502
▁분▁께서	-14503
▁불법▁을	-14504
▁비용▁도	-14505
▁사건▁등	-14506
▁생리▁는	-14507
▁아픔▁을	-14508
▁어느▁한	-14509
▁어릴▁때	-14510
▁어릴▁적	-14511
▁에▁반영	-14512
▁역사▁의	-14513
▁을▁불러	-14514
▁이▁내려	-14515
▁이것저것	-14516
▁이루▁말	-14517
▁일방▁적	-14518
▁잖습니까	-14519
▁종목▁의	-14520
▁좋▁아요	-14521
▁주장▁은	-14522
▁최초▁로	-14523
▁취지▁를	-14524
▁퇴근▁후	-14525
▁학교▁내	-14526
▁한▁민족	-14527
▁회장▁의	-14528
▁가장▁많이	-14529
▁년▁가까이	-14530
▁님▁들▁의	-14531
▁떨어집니다	-14532
▁말▁했▁다	-14533
▁모습▁으로	-14534
▁보▁기▁싫	-14535
▁봐▁주▁는	-14536
▁상관없▁는	-14537
▁세금▁낭비	-14538
▁수▁도▁없	-14539
▁수▁있▁을	-14540
▁시험▁기간	-14541
▁아니▁라면	-14542
▁애국가▁를	-14543
▁었▁을▁때	-14544
▁에▁어긋난	-14545
▁위원회▁는	-14546
▁이▁기▁에	-14547
▁이▁땅▁에	-14548
▁이▁있▁을	-14549
▁임대▁주택	-14550
▁장학금▁을	-14551
▁저희▁나라	-14552
▁조▁차▁도	-14553
▁줄어들▁고	-14554
▁지원▁사업	-14555
▁징병제▁를	-14556
▁치▁않▁게	-14557
▁하▁시▁던	-14558
▁학년▁부터	-14559
▁가능▁성▁을	-14560
▁고▁싶▁지만	-14561
▁고▁있▁으나	-14562
▁꿈▁을▁이루	-14563
▁남자▁입니다	-14564
▁담당▁하▁는	-14565
▁만▁도▁못한	-14566
▁문화재▁관람	-14567
▁미성년자▁가	-14568
▁속▁에서▁도	-14569
▁스포츠▁협회	-14570
▁어마어마▁한	-14571
▁여자▁들▁도	-14572
▁유치원▁이나	-14573
▁이▁아니▁다	-14574
▁중▁하나▁가	-14575
▁진행▁하▁는	-14576
▁판단▁하▁여	-14577
▁폭력▁적▁인	-14578
▁하▁는데▁그	-14579
▁학자금▁대출	-14580
▁할▁것▁없이	-14581
▁합니다▁현재	-14582
▁합법▁적▁인	-14583
▁고통▁속▁에서	-14584
▁금메달▁을▁따	-14585
▁기▁위해▁노력	-14586
▁미투▁운동▁의	-14587
▁봉사▁활동▁을	-14588
▁쉴▁수▁있▁는	-14589
▁어떤▁식▁으로	-14590
▁영어▁교육▁을	-14591
▁올라왔▁습니다	-14592
▁일반▁적▁으로	-14593
▁필수▁적▁으로	-14594
▁해▁주▁시▁는	-14595
▁국가▁대표▁라는	-14596
▁되▁어야▁하▁며	-14597
▁수험▁생▁들▁은	-14598
▁었▁다고▁합니다	-14599
▁이▁필요▁하▁다	-14600
▁할▁수▁있▁나요	-14601
▁이▁될▁수▁있▁는	-14602
▁하▁였으면▁합니다	-14603
▁라는▁이유▁만▁으로	-14604
▁만들▁어▁주▁십시요	-14605
▁여성▁가족▁부▁에서	-14606
▁을▁가지▁고▁있▁는	-14607
▁벌어지▁고▁있▁습니다	-14608
▁을▁거▁라고▁생각▁합니다	-14609
45	-14610
▁빗	-14611
▁쌤	-14612
▁쏠	-14613
계약	-14614
너스	-14615
르타	-14616
소통	-14617
스티	-14618
줌마	-14619
▁57	-14620
▁vs	-14621
▁거세	-14622
▁걸릴	-14623
▁고로	-14624
▁그램	-14625
▁금번	-14626
▁까다	-14627
▁끝날	-14628
▁네덜	-14629
▁담겨	-14630
▁대결	-14631
▁든가	-14632
▁들으	-14633
▁만날	-14634
▁만남	-14635
▁먹이	-14636
▁밀양	-14637
▁바랄	-14638
▁발암	-14639
▁밤새	-14640
▁병무	-14641
▁보였	-14642
▁섬김	-14643
▁안산	-14644
▁여과	-14645
▁영입	-14646
▁위축	-14647
▁음반	-14648
▁자르	-14649
▁장군	-14650
▁조별	-14651
▁지검	-14652
▁처지	-14653
▁체감	-14654
▁출시	-14655
▁취향	-14656
▁통행	-14657
▁팀장	-14658
과▁를	-14659
락▁을	-14660
르▁며	-14661
연▁의	-14662
웁니다	-14663
▁140	-14664
▁you	-14665
▁간단히	-14666
▁고학년	-14667
▁날▁은	-14668
▁내▁며	-14669
▁노리개	-14670
▁다▁는	-14671
▁담▁은	-14672
▁됐▁고	-14673
▁들어도	-14674
▁리얼돌	-14675
▁몇▁천	-14676
▁모욕죄	-14677
▁무용지	-14678
▁믿▁는	-14679
▁법무부	-14680
▁보인다	-14681
▁비속어	-14682
▁사형제	-14683
▁살▁았	-14684
▁생▁을	-14685
▁시행령	-14686
▁아줌마	-14687
▁약▁을	-14688
▁연락처	-14689
▁이▁시	-14690
▁이▁큰	-14691
▁조▁의	-14692
▁죄의식	-14693
▁주머니	-14694
▁진짜로	-14695
▁카시트	-14696
▁크리에	-14697
▁태권도	-14698
▁피눈물	-14699
▁하▁네	-14700
▁한▁살	-14701
▁항▁의	-14702
▁행정부	-14703
상▁으로	-14704
▁가장▁한	-14705
▁경력▁을	-14706
▁관련▁법	-14707
▁규제▁가	-14708
▁끝나▁면	-14709
▁네덜란드	-14710
▁다면▁그	-14711
▁대상▁이	-14712
▁대신▁에	-14713
▁댓글▁에	-14714
▁보도▁된	-14715
▁불만▁을	-14716
▁사▁는데	-14717
▁사과▁와	-14718
▁사실▁과	-14719
▁설치▁를	-14720
▁세대▁가	-14721
▁소송▁을	-14722
▁손쉽▁게	-14723
▁에▁이어	-14724
▁연수▁를	-14725
▁원서▁를	-14726
▁은▁계속	-14727
▁을▁제한	-14728
▁을▁해결	-14729
▁의▁온상	-14730
▁의▁위험	-14731
▁일정▁을	-14732
▁자살▁률	-14733
▁잘못▁한	-14734
▁전▁국민	-14735
▁전문▁성	-14736
▁존엄▁과	-14737
▁졸업▁생	-14738
▁중앙일보	-14739
▁지역▁을	-14740
▁차▁피해	-14741
▁취지▁로	-14742
▁카드▁를	-14743
▁투표▁로	-14744
▁편의▁를	-14745
▁학대▁가	-14746
▁할▁정도	-14747
▁확대▁를	-14748
▁환경▁과	-14749
▁힘겹▁게	-14750
▁가장▁먼저	-14751
▁기본▁으로	-14752
▁는▁게▁더	-14753
▁돈▁없▁고	-14754
▁밖▁에▁안	-14755
▁상황▁으로	-14756
▁성폭행▁한	-14757
▁술▁을▁마	-14758
▁시스템▁은	-14759
▁시절▁부터	-14760
▁신혼▁부부	-14761
▁심▁어▁주	-14762
▁심사▁위원	-14763
▁아▁시▁죠	-14764
▁알아보▁니	-14765
▁어제▁오늘	-14766
▁영어▁학원	-14767
▁옳▁고▁그	-14768
▁왜▁그렇게	-14769
▁위원회▁가	-14770
▁유치원▁과	-14771
▁으신▁가요	-14772
▁을▁이▁어	-14773
▁이번▁사태	-14774
▁인▁것▁은	-14775
▁자랑▁스런	-14776
▁저희▁아이	-14777
▁전화▁해서	-14778
▁정보▁통신	-14779
▁제대로▁못	-14780
▁주▁시▁기	-14781
▁줬▁습니다	-14782
▁평창▁에서	-14783
▁폭행▁으로	-14784
▁풀▁어▁주	-14785
▁프로▁듀스	-14786
▁하▁니까요	-14787
▁한국▁으로	-14788
▁해▁왔▁던	-14789
▁가장▁입니다	-14790
▁거▁같▁네요	-14791
▁고▁싶▁으면	-14792
▁공식▁적▁인	-14793
▁국민▁들▁과	-14794
▁국제▁적▁인	-14795
▁군대▁를▁안	-14796
▁그▁돈▁으로	-14797
▁기▁식▁으로	-14798
▁되▁어서▁는	-14799
▁로▁만들▁어	-14800
▁불▁평등▁한	-14801
▁사과▁하▁고	-14802
▁선정▁적▁인	-14803
▁수▁있▁나요	-14804
▁아이돌▁보미	-14805
▁아파트▁단지	-14806
▁여성▁입니다	-14807
▁을▁상대▁로	-14808
▁이▁라는▁데	-14809
▁인정▁하▁는	-14810
▁자격▁이▁없	-14811
▁편안▁하▁게	-14812
▁하▁시▁네요	-14813
▁해▁주▁어야	-14814
▁가▁야▁합니다	-14815
▁는▁것▁이▁고	-14816
▁라고▁하▁는데	-14817
▁라고▁하▁지만	-14818
▁문제▁에▁대해	-14819
▁물▁어▁보▁니	-14820
▁범죄▁에▁대한	-14821
▁영향▁을▁미치	-14822
▁적폐▁를▁청산	-14823
▁지금▁까지▁도	-14824
▁진▁않▁습니다	-14825
▁할▁수▁있▁을	-14826
▁고등학생▁입니다	-14827
▁그▁중▁에서▁도	-14828
▁되▁길▁바랍니다	-14829
▁되▁지▁않▁을까	-14830
▁메▁갈▁워▁마드	-14831
▁아이▁들▁입니다	-14832
▁현재▁우리▁나라	-14833
▁개선▁해▁주▁세요	-14834
▁벌어지▁고▁있▁는	-14835
▁하▁지▁않▁은▁채	-14836
▁해야▁한다고▁생각	-14837
articleView	-14838
▁이렇게▁청원▁합니다	-14839
▁거▁라고▁생각▁합니다	-14840
▁인데▁도▁불구▁하▁고	-14841
▁문재인▁대통령▁님▁께서	-14842
▁운영▁하▁고▁있▁습니다	-14843
▁해▁주▁시▁길▁부탁드립니다	-14844
▁뭣	-14845
▁즘	-14846
▁쿼	-14847
▁훗	-14848
▁흠	-14849
불성	-14850
저리	-14851
▁가스	-14852
▁개천	-14853
▁눈살	-14854
▁느니	-14855
▁달린	-14856
▁돌이	-14857
▁떠돌	-14858
▁리더	-14859
▁만료	-14860
▁본부	-14861
▁부자	-14862
▁부채	-14863
▁생물	-14864
▁속출	-14865
▁수갑	-14866
▁수여	-14867
▁수장	-14868
▁수집	-14869
▁수호	-14870
▁슬퍼	-14871
▁습니	-14872
▁연세	-14873
▁와중	-14874
▁이날	-14875
▁이탈	-14876
▁익숙	-14877
▁임직	-14878
▁입구	-14879
▁재앙	-14880
▁저러	-14881
▁전염	-14882
▁정녕	-14883
▁지수	-14884
▁직책	-14885
▁차후	-14886
▁처단	-14887
▁철폐	-14888
▁청사	-14889
▁청주	-14890
▁타락	-14891
▁특징	-14892
▁하이	-14893
▁할꺼	-14894
▁해온	-14895
▁협동	-14896
▁화려	-14897
각▁을	-14898
광역시	-14899
까▁봐	-14900
상▁에	-14901
속▁한	-14902
식▁이	-14903
쌉니다	-14904
이▁의	-14905
전▁을	-14906
카르타	-14907
▁123	-14908
▁개그맨	-14909
▁광역시	-14910
▁급식비	-14911
▁까▁요	-14912
▁데려다	-14913
▁되▁요	-14914
▁명▁당	-14915
▁무너져	-14916
▁무한도	-14917
▁방사능	-14918
▁보▁아	-14919
▁손▁이	-14920
▁승무원	-14921
▁실업팀	-14922
▁어두운	-14923
▁어떤지	-14924
▁의▁힘	-14925
▁입장료	-14926
▁저작권	-14927
▁제정신	-14928
▁한▁짓	-14929
▁혹여나	-14930
대▁에서	-14931
e▁too	-14932
▁2007	-14933
▁7080	-14934
▁가족▁들	-14935
▁계정▁을	-14936
▁공부▁가	-14937
▁관대▁한	-14938
▁국격▁을	-14939
▁군인▁이	-14940
▁그야말로	-14941
▁급하▁게	-14942
▁기사▁나	-14943
▁까지▁다	-14944
▁누리▁는	-14945
▁대회▁가	-14946
▁동아일보	-14947
▁먹▁으면	-14948
▁멀쩡▁한	-14949
▁명칭▁을	-14950
▁모두▁들	-14951
▁민원▁이	-14952
▁범죄▁로	-14953
▁법률▁이	-14954
▁법원▁은	-14955
▁보▁려고	-14956
▁봤▁지만	-14957
▁부분▁도	-14958
▁부패▁한	-14959
▁비▁공개	-14960
▁서로▁가	-14961
▁술▁담배	-14962
▁안▁전한	-14963
▁없▁으니	-14964
▁였▁지만	-14965
▁와▁달리	-14966
▁운동▁이	-14967
▁을▁계속	-14968
▁이런▁식	-14969
▁일▁동안	-14970
▁임신▁을	-14971
▁자체▁는	-14972
▁장면▁을	-14973
▁적당▁한	-14974
▁접하▁는	-14975
▁조건▁을	-14976
▁지방▁의	-14977
▁초중▁등	-14978
▁필요▁성	-14979
▁할지라도	-14980
▁했▁다며	-14981
▁현상▁을	-14982
요▁그리고	-14983
▁길▁입니다	-14984
▁다른▁학교	-14985
▁단일팀▁은	-14986
▁대통령▁도	-14987
▁도▁높▁은	-14988
▁도▁있▁다	-14989
▁매일▁같이	-14990
▁받▁는다고	-14991
▁발암▁물질	-14992
▁벌어지▁는	-14993
▁봐▁주▁고	-14994
▁술▁먹▁고	-14995
▁쉬▁는▁날	-14996
▁시설▁에서	-14997
▁안▁되▁죠	-14998
▁었▁을까요	-14999
▁에▁관해서	-15000
▁에▁도▁큰	-15001
▁여겨집니다	-15002
▁영구▁제명	-15003
▁오랜▁시간	-15004
▁을▁알아보	-15005
▁이▁납니다	-15006
▁제목▁으로	-15007
▁하▁시▁며	-15008
▁하▁잖아요	-15009
▁학교▁수업	-15010
▁학부모▁를	-15011
▁한다▁해도	-15012
▁할▁수▁는	-15013
▁해▁주▁신	-15014
▁했▁습니까	-15015
▁공부▁를▁잘	-15016
▁기자▁들▁의	-15017
▁라고▁하▁고	-15018
▁몇▁년▁동안	-15019
▁사람▁들▁만	-15020
▁생리대▁판매	-15021
▁시간▁에▁도	-15022
▁실시▁하▁여	-15023
▁엄중▁하▁게	-15024
▁에▁상관없이	-15025
▁에▁이르▁게	-15026
▁운운▁하▁며	-15027
▁의심▁되▁는	-15028
▁이▁문제▁가	-15029
▁이번▁올림픽	-15030
▁피해▁보▁는	-15031
▁필요▁없▁는	-15032
▁하▁는▁행동	-15033
▁하나▁도▁없	-15034
▁활동▁하▁는	-15035
▁활용▁하▁여	-15036
▁가▁있▁을까요	-15037
▁가정▁어린이집	-15038
▁겠▁죠▁하지만	-15039
▁고▁있▁는▁게	-15040
▁누구▁에게▁나	-15041
▁대통령▁님▁을	-15042
▁라는▁생각▁을	-15043
▁바라지▁도▁않	-15044
▁상황▁에서▁도	-15045
▁셧다운▁제▁는	-15046
▁쉽▁지▁않▁은	-15047
▁에▁어긋나▁는	-15048
▁인권▁을▁보장	-15049
▁저희▁아이▁가	-15050
▁제도▁적▁으로	-15051
▁지▁않▁았▁다	-15052
▁친구▁들▁에게	-15053
▁하▁는▁것▁에	-15054
▁학교▁폭력▁은	-15055
▁한국▁에서▁는	-15056
▁했▁습니다▁이	-15057
▁갈▁수▁있▁도록	-15058
▁보낼▁수▁있▁는	-15059
▁이런▁상황▁에서	-15060
▁같▁지▁도▁않▁은	-15061
▁모든▁사람▁들▁이	-15062
▁무▁차별▁적▁으로	-15063
▁학생▁들▁을▁위해	-15064
▁고▁있▁다고▁합니다	-15065
▁바라▁지▁않▁습니다	-15066
▁아무것▁도▁모르▁는	-15067
▁자격▁이▁없▁습니다	-15068
▁처벌▁할▁수▁있▁는	-15069
▁다는▁생각▁이▁듭니다	-15070
▁이▁되▁지▁않▁습니다	-15071
▁인지▁모르▁겠▁습니다	-15072
▁처벌▁을▁청원▁합니다	-15073
▁하▁도록▁해▁주▁세요	-15074
▁하▁면▁좋▁겠▁습니다	-15075
▁되▁어▁가▁고▁있▁습니다	-15076
▁시켜▁주▁시▁기▁바랍니다	-15077
46	-15078
99	-15079
▁덴	-15080
▁륜	-15081
▁뺑	-15082
▁쫌	-15083
꼬박	-15084
두룩	-15085
드백	-15086
스코	-15087
야지	-15088
준다	-15089
짜피	-15090
▁of	-15091
▁가을	-15092
▁갖춘	-15093
▁공백	-15094
▁공용	-15095
▁귀가	-15096
▁기용	-15097
▁꼬리	-15098
▁난다	-15099
▁남경	-15100
▁눈높	-15101
▁랜드	-15102
▁맞이	-15103
▁무력	-15104
▁무산	-15105
▁부풀	-15106
▁비소	-15107
▁생략	-15108
▁서양	-15109
▁서열	-15110
▁성기	-15111
▁수만	-15112
▁스크	-15113
▁스텝	-15114
▁시내	-15115
▁여의	-15116
▁연출	-15117
▁예시	-15118
▁오브	-15119
▁외화	-15120
▁웃기	-15121
▁원생	-15122
▁육군	-15123
▁이룰	-15124
▁일보	-15125
▁재기	-15126
▁제대	-15127
▁제자	-15128
▁증빙	-15129
▁처방	-15130
▁초빙	-15131
▁콘돔	-15132
▁파워	-15133
▁포괄	-15134
▁하계	-15135
▁헛되	-15136
▁호랑	-15137
▁홍익	-15138
▁후유	-15139
▁흔한	-15140
▁희롱	-15141
배▁를	-15142
불성설	-15143
왔▁고	-15144
웠▁던	-15145
음▁을	-15146
판▁을	-15147
했▁다	-15148
▁갑니까	-15149
▁검▁은	-15150
▁경비원	-15151
▁곳▁도	-15152
▁구시대	-15153
▁그▁때	-15154
▁김민정	-15155
▁낮▁게	-15156
▁당해서	-15157
▁돌아온	-15158
▁들어야	-15159
▁디스패	-15160
▁뛰어나	-15161
▁말▁안	-15162
▁명▁씩	-15163
▁무언가	-15164
▁벌▁을	-15165
▁부조리	-15166
▁살인마	-15167
▁서▁서	-15168
▁세▁의	-15169
▁소라넷	-15170
▁씻▁고	-15171
▁않▁고	-15172
▁어지럽	-15173
▁어짜피	-15174
▁에▁들	-15175
▁여동생	-15176
▁올라갈	-15177
▁원▁에	-15178
▁을▁뽑	-15179
▁의▁사	-15180
▁인지라	-15181
▁줄어드	-15182
▁지나치	-15183
▁찾▁는	-15184
▁찾아와	-15185
▁파출소	-15186
▁협의회	-15187
▁1500	-15188
▁가▁나온	-15189
▁가정▁과	-15190
▁감옥▁에	-15191
▁감정▁이	-15192
▁겨울▁에	-15193
▁경험▁을	-15194
▁곳곳▁에	-15195
▁구성▁된	-15196
▁국기▁를	-15197
▁꼬박꼬박	-15198
▁꿈꾸▁는	-15199
▁나▁다름	-15200
▁능력▁과	-15201
▁다▁자녀	-15202
▁다는▁거	-15203
▁다둥▁이	-15204
▁도▁없애	-15205
▁독도▁가	-15206
▁를▁없애	-15207
▁무용지물	-15208
▁문화▁와	-15209
▁발전▁을	-15210
▁부모▁나	-15211
▁사회▁인	-15212
▁속이▁고	-15213
▁수사▁와	-15214
▁순위▁가	-15215
▁스트라이	-15216
▁심의▁를	-15217
▁쓰▁면서	-15218
▁아닌지요	-15219
▁애기▁를	-15220
▁어른▁이	-15221
▁어리▁고	-15222
▁어불성설	-15223
▁엄마▁를	-15224
▁업무▁는	-15225
▁없▁지만	-15226
▁연애▁인	-15227
▁원▁에서	-15228
▁을▁신청	-15229
▁의▁결과	-15230
▁의▁역사	-15231
▁의견▁에	-15232
▁의사소통	-15233
▁의식▁이	-15234
▁이런▁글	-15235
▁입▁으면	-15236
▁있▁다가	-15237
▁자라▁는	-15238
▁자카르타	-15239
▁장애▁를	-15240
▁전업주부	-15241
▁정권▁을	-15242
▁제발▁요	-15243
▁주▁면서	-15244
▁주장▁이	-15245
▁차▁가해	-15246
▁차별▁과	-15247
▁채우▁고	-15248
▁최선▁의	-15249
▁취소▁를	-15250
▁키우▁며	-15251
▁투표▁권	-15252
▁팀▁에서	-15253
▁한▁만큼	-15254
▁회장▁이	-15255
비▁하▁게	-15256
▁가▁제대로	-15257
▁같▁은▁데	-15258
▁고려▁해서	-15259
▁공교육▁의	-15260
▁꿈▁도▁못	-15261
▁당했▁다고	-15262
▁도▁안▁된	-15263
▁몰상식▁한	-15264
▁무대▁에서	-15265
▁바람직▁한	-15266
▁밖▁에▁없	-15267
▁사교육▁은	-15268
▁사교육▁이	-15269
▁센터▁에서	-15270
▁순간▁부터	-15271
▁시청료▁를	-15272
▁시키▁거나	-15273
▁어리석▁은	-15274
▁어린▁나이	-15275
▁위해서▁는	-15276
▁을▁받▁을	-15277
▁을▁일으키	-15278
▁을▁하▁니	-15279
▁을▁하▁던	-15280
▁이▁니까요	-15281
▁자기▁자식	-15282
▁종목▁에서	-15283
▁지▁말▁라	-15284
▁지▁못해서	-15285
▁지방▁에서	-15286
▁찾아가▁서	-15287
▁친구▁에게	-15288
▁크리에이터	-15289
▁통학▁버스	-15290
▁피해자▁만	-15291
▁하루▁이틀	-15292
▁학부모▁는	-15293
▁한▁명▁당	-15294
▁한▁번▁에	-15295
▁햇▁습니다	-15296
▁화▁하▁여	-15297
▁힘▁을▁실	-15298
▁힘드▁네요	-15299
감▁을▁느끼	-15300
▁고▁싶▁다고	-15301
▁고자▁하▁는	-15302
▁공정▁성▁을	-15303
▁다는▁겁니다	-15304
▁들▁이▁너무	-15305
▁만▁원▁이상	-15306
▁불안▁하▁고	-15307
▁사이트▁차단	-15308
▁상식▁적▁인	-15309
▁성공▁적▁인	-15310
▁언론▁플레이	-15311
▁이▁아닌가요	-15312
▁이▁없▁네요	-15313
▁인간▁적▁인	-15314
▁자기▁들▁은	-15315
▁저출산▁대책	-15316
▁주관▁적▁인	-15317
▁하▁는▁이런	-15318
▁형식▁적▁인	-15319
▁확신▁합니다	-15320
▁가▁야▁하▁는	-15321
▁교육▁정책▁을	-15322
▁교육▁지원▁청	-15323
▁는▁것▁인가요	-15324
▁모습▁을▁보여	-15325
▁문제▁때문▁에	-15326
▁부모▁들▁에게	-15327
▁실시간▁검색어	-15328
▁알려▁주▁세요	-15329
▁우리▁사회▁에	-15330
▁잃▁었▁습니다	-15331
▁전체▁적▁으로	-15332
▁조직▁적▁으로	-15333
▁첫▁번▁째▁로	-15334
▁축구▁협회▁가	-15335
▁하▁고▁나▁서	-15336
▁하▁지▁마▁라	-15337
▁학교▁폭력▁을	-15338
▁학부모▁님▁들	-15339
▁할▁것▁이▁며	-15340
▁교육청▁에서▁는	-15341
▁군대▁를▁가▁야	-15342
▁사립▁유치원▁에	-15343
▁이▁나왔▁습니다	-15344
▁지▁않▁는▁이상	-15345
▁하▁지▁말▁라는	-15346
▁학교▁생활▁기록	-15347
▁글▁을▁남▁깁니다	-15348
▁너무나▁많▁습니다	-15349
▁살▁고▁싶▁습니다	-15350
▁처벌▁을▁받▁아야	-15351
▁한다는▁것▁입니다	-15352
▁만들▁고▁있▁습니다	-15353
▁많▁은▁사람▁들▁의	-15354
▁어▁이▁가▁없▁네요	-15355
▁일▁하▁고▁있▁습니다	-15356
▁있▁다고▁생각▁합니다	-15357
▁하▁였▁습니다▁그런데	-15358
▁고▁있▁는▁실정▁입니다	-15359
▁국민▁의▁한▁사람▁으로	-15360
▁주▁시▁기▁를▁바랍니다	-15361
▁할▁것▁을▁청원▁합니다	-15362
▁해▁주▁었▁으면▁합니다	-15363
▁하▁였으면▁좋▁겠▁습니다	-15364
▁안녕▁하▁세요▁저▁는▁현재	-15365
▁옳▁지▁않▁다고▁생각▁합니다	-15366
48	-15367
▁ᄉ	-15368
▁깃	-15369
▁덥	-15370
▁람	-15371
▁팍	-15372
보내	-15373
연맹	-15374
쪼록	-15375
▁EC	-15376
▁가리	-15377
▁감찰	-15378
▁겨자	-15379
▁고개	-15380
▁교정	-15381
▁꺼려	-15382
▁나랏	-15383
▁냐며	-15384
▁노약	-15385
▁달래	-15386
▁대사	-15387
▁뒷돈	-15388
▁맛있	-15389
▁모방	-15390
▁무게	-15391
▁미터	-15392
▁배당	-15393
▁별도	-15394
▁복구	-15395
▁불렀	-15396
▁사귀	-15397
▁상급	-15398
▁상장	-15399
▁상하	-15400
▁셔츠	-15401
▁손잡	-15402
▁순직	-15403
▁습관	-15404
▁신세	-15405
▁실직	-15406
▁압류	-15407
▁여권	-15408
▁옳바	-15409
▁욕망	-15410
▁용의	-15411
▁원정	-15412
▁유교	-15413
▁입건	-15414
▁잘난	-15415
▁잘라	-15416
▁재료	-15417
▁정화	-15418
▁조명	-15419
▁족구	-15420
▁지워	-15421
▁퀴어	-15422
▁클래	-15423
▁태형	-15424
▁하향	-15425
▁흔적	-15426
▁흥행	-15427
경▁을	-15428
식▁의	-15429
진▁을	-15430
청▁에	-15431
▁가져가	-15432
▁교육자	-15433
▁교통비	-15434
▁노▁는	-15435
▁다녀온	-15436
▁도▁내	-15437
▁동사무	-15438
▁드러난	-15439
▁들▁께	-15440
▁등▁과	-15441
▁매스컴	-15442
▁문▁닫	-15443
▁배우자	-15444
▁벌▁고	-15445
▁보▁았	-15446
▁부▁와	-15447
▁세▁는	-15448
▁손석희	-15449
▁스러울	-15450
▁시험지	-15451
▁앞장서	-15452
▁야구장	-15453
▁어야지	-15454
▁어울리	-15455
▁에다가	-15456
▁연합회	-15457
▁영수증	-15458
▁예비역	-15459
▁을▁맡	-15460
▁일▁년	-15461
▁일용직	-15462
▁임대료	-15463
▁장애아	-15464
▁적▁일	-15465
▁전▁과	-15466
▁주▁에	-15467
▁지도층	-15468
▁차▁로	-15469
▁출연료	-15470
▁친▁일	-15471
▁트레이	-15472
▁특히나	-15473
▁해▁두	-15474
다▁해도	-15475
스럽▁게	-15476
▁강▁진출	-15477
▁개월▁간	-15478
▁계기▁가	-15479
▁고민▁을	-15480
▁과목▁의	-15481
▁꼭▁필요	-15482
▁내용▁에	-15483
▁답변▁만	-15484
▁등▁하교	-15485
▁때리▁는	-15486
▁또한▁이	-15487
▁말▁인가	-15488
▁무죄▁를	-15489
▁받▁는데	-15490
▁상처▁받	-15491
▁서슴없이	-15492
▁세▁종시	-15493
▁소통▁을	-15494
▁실태▁를	-15495
▁심▁에서	-15496
▁심각▁성	-15497
▁악행▁을	-15498
▁알▁면서	-15499
▁야자▁를	-15500
▁에▁사용	-15501
▁에▁출연	-15502
▁왜▁자꾸	-15503
▁용도▁로	-15504
▁을▁거두	-15505
▁을▁지속	-15506
▁이▁난무	-15507
▁이▁지급	-15508
▁이▁지속	-15509
▁이득▁을	-15510
▁인권▁도	-15511
▁인기▁를	-15512
▁일본▁과	-15513
▁자기▁는	-15514
▁정도▁만	-15515
▁정지▁를	-15516
▁조항▁을	-15517
▁중▁인데	-15518
▁중간광고	-15519
▁집단▁을	-15520
▁축구▁팬	-15521
▁특수교육	-15522
▁행위▁로	-15523
▁협회▁장	-15524
▁홍보▁를	-15525
▁회▁이상	-15526
▁같▁은▁반	-15527
▁국민▁으로	-15528
▁기업▁에서	-15529
▁나이▁제한	-15530
▁남▁과▁북	-15531
▁니▁들▁이	-15532
▁단체▁에서	-15533
▁보▁는▁게	-15534
▁세무▁조사	-15535
▁소년법▁이	-15536
▁속▁에▁살	-15537
▁쉽▁지▁않	-15538
▁스트라이크	-15539
▁실태▁조사	-15540
▁에▁이바지	-15541
▁을▁가르치	-15542
▁일▁입니까	-15543
▁저▁들▁은	-15544
▁정권▁에서	-15545
▁지켜야▁할	-15546
▁치▁않▁은	-15547
▁키우▁면서	-15548
▁피해▁학생	-15549
▁해▁봤▁자	-15550
▁혹시▁라도	-15551
▁후▁에▁는	-15552
▁고통▁속▁에	-15553
▁군▁입대▁를	-15554
▁권▁을▁보장	-15555
▁그런▁일▁을	-15556
▁그렇▁지▁않	-15557
▁댓글▁을▁달	-15558
▁도▁좋▁지만	-15559
▁만들▁어▁낸	-15560
▁모욕▁적▁인	-15561
▁무시▁한▁채	-15562
▁법▁개정▁을	-15563
▁보다▁못▁한	-15564
▁불▁공평▁한	-15565
▁비디오▁판독	-15566
▁스승▁의▁날	-15567
▁심석희▁선수	-15568
▁아무런▁조치	-15569
▁아이▁둘▁을	-15570
▁안정▁적▁인	-15571
▁에▁비하▁면	-15572
▁울▁며▁겨자	-15573
▁이런▁말▁을	-15574
▁입니다▁근데	-15575
▁입학▁하▁는	-15576
▁저▁에게▁는	-15577
▁중▁에서▁도	-15578
▁지▁도▁못하	-15579
▁차이▁가▁나	-15580
▁친환경▁인증	-15581
▁하▁는▁건데	-15582
▁학교▁에▁가	-15583
▁행복▁하▁고	-15584
▁현▁정부▁가	-15585
▁결과▁적▁으로	-15586
▁공무원▁들▁의	-15587
▁국민▁을▁우롱	-15588
▁궁금▁하▁네요	-15589
▁도▁못▁받▁고	-15590
▁미연▁에▁방지	-15591
▁방과▁후▁과정	-15592
▁볼▁수▁없▁는	-15593
▁아동▁학대▁가	-15594
▁을▁위해서▁는	-15595
▁적▁지▁않▁은	-15596
▁제도▁를▁도입	-15597
▁라는▁이름▁으로	-15598
▁문재인▁정부▁가	-15599
▁밖에▁없▁습니다	-15600
▁선생▁님▁들▁과	-15601
▁소년법▁을▁폐지	-15602
▁여성▁가족▁부가	-15603
▁우리▁사회▁에서	-15604
▁저▁를▁포함▁한	-15605
▁전국▁에▁있▁는	-15606
▁하▁고▁있▁어요	-15607
▁하▁고▁있▁으나	-15608
▁하▁길▁바랍니다	-15609
▁하▁려고▁합니다	-15610
▁해도▁해도▁너무	-15611
▁고▁싶▁어▁하▁는	-15612
▁국방▁의▁의무▁는	-15613
▁받▁을▁수▁있▁게	-15614
▁씻▁을▁수▁없▁는	-15615
▁아이▁들▁의▁안전	-15616
▁아이▁엄마▁입니다	-15617
▁을▁받▁을▁수▁있	-15618
▁범죄▁를▁저지르▁는	-15619
▁여성▁가족▁부▁폐지	-15620
▁처벌▁해▁주▁십시오	-15621
▁국민신문고▁국민▁제안	-15622
▁이▁될▁수▁있▁습니다	-15623
▁지금▁이▁순간▁에▁도	-15624
▁하▁였▁습니다▁그러나	-15625
ph	-15626
▁딩	-15627
▁똘	-15628
구장	-15629
러니	-15630
태근	-15631
tbc	-15632
▁km	-15633
▁가옥	-15634
▁간과	-15635
▁갇혀	-15636
▁견뎌	-15637
▁결단	-15638
▁공과	-15639
▁궁극	-15640
▁규탄	-15641
▁그놈	-15642
▁급한	-15643
▁꼴찌	-15644
▁나빠	-15645
▁낚시	-15646
▁내뱉	-15647
▁내요	-15648
▁대수	-15649
▁대왕	-15650
▁동거	-15651
▁동복	-15652
▁동행	-15653
▁들먹	-15654
▁무전	-15655
▁묵과	-15656
▁묻히	-15657
▁백종	-15658
▁부각	-15659
▁부유	-15660
▁브라	-15661
▁빼돌	-15662
▁선사	-15663
▁소액	-15664
▁소원	-15665
▁수리	-15666
▁싱글	-15667
▁약해	-15668
▁영문	-15669
▁오토	-15670
▁워낙	-15671
▁유무	-15672
▁일당	-15673
▁일탈	-15674
▁자숙	-15675
▁자칭	-15676
▁작태	-15677
▁전가	-15678
▁제지	-15679
▁죄다	-15680
▁주기	-15681
▁진급	-15682
▁진영	-15683
▁찍힌	-15684
▁총재	-15685
▁퇴보	-15686
▁편법	-15687
▁한겨	-15688
▁합동	-15689
▁환원	-15690
▁후쿠	-15691
▁훗날	-15692
▁휴지	-15693
답시고	-15694
로▁를	-15695
민▁이	-15696
베이터	-15697
분▁이	-15698
시▁고	-15699
장▁한	-15700
▁게▁한	-15701
▁계▁에	-15702
▁그걸로	-15703
▁그토록	-15704
▁김영란	-15705
▁끝▁날	-15706
▁대단히	-15707
▁덕▁에	-15708
▁되▁도	-15709
▁두▁개	-15710
▁들어올	-15711
▁뜻▁이	-15712
▁막무가	-15713
▁몇▁분	-15714
▁뭐▁든	-15715
▁아▁육	-15716
▁아름답	-15717
▁안▁을	-15718
▁연습생	-15719
▁원해서	-15720
▁위▁는	-15721
▁의▁제	-15722
▁이▁통	-15723
▁읽▁는	-15724
▁있▁음	-15725
▁장애인	-15726
▁지▁들	-15727
▁집▁이	-15728
▁큰아이	-15729
▁형▁이	-15730
국▁에서	-15731
▁2500	-15732
▁가▁다가	-15733
▁검찰▁에	-15734
▁검찰▁은	-15735
▁겠▁으나	-15736
▁경제▁를	-15737
▁경찰▁도	-15738
▁고▁그걸	-15739
▁귀기울여	-15740
▁금전▁적	-15741
▁기자▁를	-15742
▁남녀▁의	-15743
▁는▁이미	-15744
▁댓글▁로	-15745
▁도구▁로	-15746
▁등▁모든	-15747
▁방학▁이	-15748
▁본인▁도	-15749
▁부르▁고	-15750
▁사비▁로	-15751
▁사정▁을	-15752
▁생활▁에	-15753
▁쓰이▁는	-15754
▁아내▁는	-15755
▁아무▁말	-15756
▁아이러니	-15757
▁안▁전하	-15758
▁양질▁의	-15759
▁어렵▁다	-15760
▁언급▁한	-15761
▁에▁의존	-15762
▁원하▁고	-15763
▁을▁해소	-15764
▁이슈▁로	-15765
▁이혼▁후	-15766
▁인간▁들	-15767
▁인생▁은	-15768
▁인지▁도	-15769
▁일▁오후	-15770
▁일본▁에	-15771
▁일종▁의	-15772
▁입학▁을	-15773
▁있▁어요	-15774
▁자체▁도	-15775
▁잣대▁로	-15776
▁정부▁도	-15777
▁즐기▁고	-15778
▁취업▁을	-15779
▁태도▁로	-15780
▁필요▁로	-15781
▁하루▁를	-15782
▁학기▁에	-15783
▁한▁여성	-15784
▁한▁학기	-15785
▁횡포▁를	-15786
▁가▁야▁할	-15787
▁강제▁개종	-15788
▁같▁은▁건	-15789
▁경쟁력▁을	-15790
▁교과서▁에	-15791
▁냈▁습니다	-15792
▁당사자▁는	-15793
▁된▁것▁이	-15794
▁들▁이▁많	-15795
▁들어가▁고	-15796
▁묻▁지▁마	-15797
▁방학▁기간	-15798
▁법▁입니다	-15799
▁보조금▁을	-15800
▁성범죄▁의	-15801
▁성폭력▁이	-15802
▁아니▁에요	-15803
▁안▁합니다	-15804
▁어머니▁가	-15805
▁연말▁정산	-15806
▁예방▁접종	-15807
▁은▁반드시	-15808
▁은▁없▁고	-15809
▁을▁때▁도	-15810
▁이▁많▁아	-15811
▁이▁었▁고	-15812
▁일정▁기간	-15813
▁자기▁결정	-15814
▁자동▁으로	-15815
▁재판▁결과	-15816
▁전적▁으로	-15817
▁정신▁차리	-15818
▁중▁에▁도	-15819
▁청소년▁과	-15820
서▁를▁작성	-15821
▁금전▁적▁인	-15822
▁기▁힘듭니다	-15823
▁년▁전▁부터	-15824
▁노력▁하▁고	-15825
▁다양▁하▁게	-15826
▁당신▁들▁의	-15827
▁댓글▁들▁을	-15828
▁되▁었▁으나	-15829
▁민원▁을▁넣	-15830
▁받▁지▁못하	-15831
▁부모▁님▁과	-15832
▁부족▁하▁여	-15833
▁사람▁으로써	-15834
▁시행▁하▁는	-15835
▁실명▁제▁를	-15836
▁에▁문제▁가	-15837
▁여자▁들▁의	-15838
▁예비군▁훈련	-15839
▁예상▁됩니다	-15840
▁옹호▁하▁는	-15841
▁을▁통하▁여	-15842
▁자식▁들▁이	-15843
▁잔인▁하▁게	-15844
▁적용▁되▁는	-15845
▁전반▁적▁인	-15846
▁전형▁적▁인	-15847
▁정책▁들▁이	-15848
▁제▁가▁청원	-15849
▁책임▁을▁져	-15850
▁프로그램▁은	-15851
▁한▁가정▁의	-15852
▁힘▁을▁모아	-15853
▁고의▁적▁으로	-15854
▁관심▁을▁가지	-15855
▁그▁외▁에▁도	-15856
▁나라▁를▁지키	-15857
▁는▁것▁이▁지	-15858
▁대대▁적▁으로	-15859
▁돈▁을▁주▁고	-15860
▁될▁수▁있▁게	-15861
▁보육▁교사▁가	-15862
▁볼▁수▁가▁없	-15863
▁빙상▁연맹▁을	-15864
▁사실▁이▁라면	-15865
▁악영향▁을▁끼	-15866
▁어떻게▁하▁면	-15867
▁엄중▁한▁처벌	-15868
▁여러분▁들▁이	-15869
▁이번▁사건▁을	-15870
▁중학생▁입니다	-15871
▁프로그램▁에서	-15872
▁해▁주▁신다면	-15873
다는▁것▁입니다	-15874
▁국가▁대표▁선수	-15875
▁다음▁과▁같▁은	-15876
▁명예▁훼손▁으로	-15877
▁범죄▁를▁저지를	-15878
▁부터▁시작▁해서	-15879
▁수▁밖에▁없▁는	-15880
▁에▁거주▁하▁는	-15881
▁울▁며▁겨자▁먹	-15882
▁인간▁으로서▁의	-15883
▁평창▁올림픽▁이	-15884
▁기▁도▁했▁습니다	-15885
▁수▁는▁없▁습니다	-15886
▁우리▁나라▁에▁는	-15887
▁이▁필요▁하▁다고	-15888
▁절대▁반대▁합니다	-15889
▁초등▁학교▁저학년	-15890
▁검토▁부탁▁드립니다	-15891
▁문제▁인▁대통령▁님	-15892
▁이유▁하나▁만▁으로	-15893
▁가▁되▁고▁있▁습니다	-15894
▁되▁지▁않▁았▁습니다	-15895
▁두▁아이▁를▁키우▁는	-15896
▁하▁시▁는▁분▁들▁은	-15897
▁할▁필요▁가▁있▁습니다	-15898
▁을▁것▁이▁라고▁생각▁합니다	-15899
bo	-15900
▁굽	-15901
▁닷	-15902
▁떡	-15903
▁랏	-15904
▁텔	-15905
거래	-15906
년생	-15907
니어	-15908
던데	-15909
의미	-15910
인지	-15911
자보	-15912
장학	-15913
케팅	-15914
트롤	-15915
asp	-15916
por	-15917
▁01	-15918
▁게재	-15919
▁공존	-15920
▁구간	-15921
▁남짓	-15922
▁내지	-15923
▁높일	-15924
▁대피	-15925
▁도착	-15926
▁동급	-15927
▁부턴	-15928
▁분양	-15929
▁불미	-15930
▁빠듯	-15931
▁성명	-15932
▁숫자	-15933
▁스위	-15934
▁실종	-15935
▁아우	-15936
▁아웅	-15937
▁어딜	-15938
▁어의	-15939
▁엄두	-15940
▁여직	-15941
▁예멘	-15942
▁예절	-15943
▁왕복	-15944
▁우유	-15945
▁웃긴	-15946
▁위력	-15947
▁이치	-15948
▁일명	-15949
▁자의	-15950
▁조희	-15951
▁주식	-15952
▁직위	-15953
▁충동	-15954
▁충청	-15955
▁코너	-15956
▁탈출	-15957
▁파산	-15958
▁피아	-15959
▁한탄	-15960
▁혈안	-15961
▁흡수	-15962
보▁면	-15963
심▁에	-15964
심▁의	-15965
였▁다	-15966
장학재	-15967
접▁한	-15968
▁250	-15969
▁600	-15970
▁개돼지	-15971
▁거꾸로	-15972
▁걸어서	-15973
▁겪▁어	-15974
▁계약서	-15975
▁글▁도	-15976
▁길▁에	-15977
▁김대중	-15978
▁날▁을	-15979
▁된▁지	-15980
▁딸▁의	-15981
▁문제집	-15982
▁묻▁고	-15983
▁번▁을	-15984
▁변별력	-15985
▁부산시	-15986
▁부적합	-15987
▁사고방	-15988
▁시켜라	-15989
▁안▁가	-15990
▁었▁을	-15991
▁조현민	-15992
▁주▁실	-15993
▁지구대	-15994
▁테두리	-15995
▁특별히	-15996
▁한▁시	-15997
▁할▁곳	-15998
▁각각▁의	-15999
▁게임▁사	-16000
▁겠▁다며	-16001
▁권력▁이	-16002
▁그▁정도	-16003
▁그때▁는	-16004
▁급식▁을	-16005
▁기간▁도	-16006
▁까지▁가	-16007
▁나영▁이	-16008
▁남기▁고	-16009
▁낮추▁고	-16010
▁는▁절대	-16011
▁들으면서	-16012
▁막무가내	-16013
▁물리▁적	-16014
▁벌점▁을	-16015
▁비싸▁게	-16016
▁비쌉니다	-16017
▁선▁에서	-16018
▁성▁관련	-16019
▁속▁으로	-16020
▁시장▁이	-16021
▁심하▁고	-16022
▁어쩌▁고	-16023
▁언제▁쯤	-16024
▁은▁현재	-16025
▁을▁가리	-16026
▁을까▁봐	-16027
▁이▁먼저	-16028
▁이▁우선	-16029
▁이건▁뭐	-16030
▁인력▁이	-16031
▁일정▁한	-16032
▁임신▁은	-16033
▁재능▁을	-16034
▁정책▁도	-16035
▁중산▁층	-16036
▁집단▁이	-16037
▁쪽▁에서	-16038
▁카드▁로	-16039
▁패▁드립	-16040
▁필수▁로	-16041
▁할▁생각	-16042
▁합리▁화	-16043
▁해▁체하	-16044
▁행동▁에	-16045
▁행태▁가	-16046
▁형▁으로	-16047
▁확률▁이	-16048
▁활동▁은	-16049
▁회의▁를	-16050
다고▁해도	-16051
▁가▁아닌가	-16052
▁가족▁에게	-16053
▁게임▁회사	-16054
▁공교육▁을	-16055
▁교육부▁와	-16056
▁교육청▁과	-16057
▁권력▁으로	-16058
▁기▁싫▁어	-16059
▁나왔▁는데	-16060
▁남성▁혐오	-16061
▁늘어나▁고	-16062
▁댓글▁부대	-16063
▁독립운동가	-16064
▁동성애▁를	-16065
▁들▁그리고	-16066
▁라는▁단어	-16067
▁목소리▁에	-16068
▁받▁았▁던	-16069
▁별▁따▁기	-16070
▁부산▁에서	-16071
▁부족▁해서	-16072
▁수강▁신청	-16073
▁시험▁에서	-16074
▁아이즈▁원	-16075
▁업체▁에서	-16076
▁엇▁습니다	-16077
▁연예인▁은	-16078
▁이▁좋▁은	-16079
▁인▁미디어	-16080
▁일어나▁고	-16081
▁입장▁으로	-16082
▁있▁었▁고	-16083
▁저▁들▁이	-16084
▁정식▁으로	-16085
▁중▁이▁고	-16086
▁증거▁자료	-16087
▁지▁가▁않	-16088
▁촛불▁혁명	-16089
▁피의자▁가	-16090
▁피해▁자분	-16091
▁하▁게▁도	-16092
▁하▁고▁요	-16093
▁학교▁에선	-16094
▁한국장학재	-16095
▁해▁왔▁고	-16096
▁해야▁하나	-16097
▁가▁있▁나요	-16098
▁것▁아닙니까	-16099
▁국회의원▁이	-16100
▁낙태죄▁폐지	-16101
▁남녀▁간▁의	-16102
▁년▁이상▁의	-16103
▁노▁키즈▁존	-16104
▁눈▁가리▁고	-16105
▁들▁은▁모두	-16106
▁반성▁하▁고	-16107
▁보여▁주▁는	-16108
▁사건▁들▁을	-16109
▁상처▁를▁받	-16110
▁서민▁들▁이	-16111
▁소중▁하▁고	-16112
▁수▁있▁으며	-16113
▁시간▁입니다	-16114
▁어린아이▁를	-16115
▁에▁나오▁는	-16116
▁영어▁유치원	-16117
▁우려▁됩니다	-16118
▁이런▁것▁을	-16119
▁이럴▁거▁면	-16120
▁전▁세계▁의	-16121
▁제목▁그대로	-16122
▁지원▁되▁는	-16123
▁지원▁하▁고	-16124
▁처벌▁하▁는	-16125
▁평등▁하▁고	-16126
▁하▁고▁계신	-16127
▁하▁기▁위함	-16128
▁하▁더라고요	-16129
▁갖▁고▁있▁는	-16130
▁근로▁기준▁법	-16131
▁대학▁에▁진학	-16132
▁돈▁을▁받▁고	-16133
▁많▁아▁지▁고	-16134
▁방안▁을▁마련	-16135
▁보▁기▁에▁는	-16136
▁연예인▁들▁은	-16137
▁이▁아니▁라는	-16138
▁이▁아니▁라면	-16139
▁이야기▁입니다	-16140
▁인권▁을▁존중	-16141
▁주▁었▁습니다	-16142
▁것▁도▁아닙니다	-16143
▁기▁를▁바라▁는	-16144
▁뉴스▁를▁보▁면	-16145
▁드리▁고▁싶▁은	-16146
▁배울▁수▁있▁는	-16147
▁생각▁했▁습니다	-16148
▁여성▁분▁들▁은	-16149
▁을▁막▁기▁위해	-16150
▁조두순▁이▁출소	-16151
▁피해자▁의▁인권	-16152
▁하▁지▁못하▁면	-16153
▁한▁사람▁으로써	-16154
▁할▁수▁없▁다면	-16155
▁고▁있▁습니다▁그	-16156
▁보육▁교사▁들▁의	-16157
▁시간▁이▁지나▁면	-16158
▁안녕▁하▁세요▁전	-16159
▁인▁거▁같▁습니다	-16160
▁줄▁알▁았▁습니다	-16161
▁하▁는▁과정▁에서	-16162
▁학생▁들▁을▁위한	-16163
▁같▁은▁경우▁에▁는	-16164
▁이▁글▁을▁올립니다	-16165
▁하▁는▁사람▁들▁의	-16166
▁국가▁를▁대표▁하▁는	-16167
▁뿐▁만▁아니▁라▁모든	-16168
▁지▁않▁을까▁싶▁습니다	-16169
▁많▁아▁지▁고▁있▁습니다	-16170
76	-16171
AN	-16172
▁걍	-16173
▁땄	-16174
▁밴	-16175
▁삐	-16176
▁왼	-16177
관계	-16178
께요	-16179
다란	-16180
라지	-16181
아지	-16182
진다	-16183
▁89	-16184
▁개막	-16185
▁개원	-16186
▁개조	-16187
▁거액	-16188
▁구급	-16189
▁구치	-16190
▁군필	-16191
▁그딴	-16192
▁기아	-16193
▁꼼꼼	-16194
▁난임	-16195
▁날로	-16196
▁내국	-16197
▁놓치	-16198
▁눈앞	-16199
▁다친	-16200
▁대행	-16201
▁먹방	-16202
▁명품	-16203
▁몰지	-16204
▁바쳐	-16205
▁벌레	-16206
▁부려	-16207
▁북미	-16208
▁분할	-16209
▁브리	-16210
▁살짝	-16211
▁새싹	-16212
▁서점	-16213
▁소멸	-16214
▁손길	-16215
▁손상	-16216
▁습득	-16217
▁심야	-16218
▁씨씨	-16219
▁안건	-16220
▁안티	-16221
▁원룸	-16222
▁원주	-16223
▁원할	-16224
▁유망	-16225
▁유효	-16226
▁잡히	-16227
▁장동	-16228
▁재원	-16229
▁제고	-16230
▁중도	-16231
▁직급	-16232
▁직시	-16233
▁짐작	-16234
▁쪼개	-16235
▁차리	-16236
▁창설	-16237
▁창업	-16238
▁천재	-16239
▁충주	-16240
▁치러	-16241
▁컨설	-16242
▁타령	-16243
▁탈퇴	-16244
▁터질	-16245
▁통상	-16246
▁통지	-16247
▁홍명	-16248
▁화나	-16249
▁확장	-16250
▁황금	-16251
금▁이	-16252
렸▁던	-16253
소▁의	-16254
안▁에	-16255
어▁로	-16256
통▁을	-16257
판▁에	-16258
▁국▁방	-16259
▁기▁나	-16260
▁김경두	-16261
▁놈▁들	-16262
▁눈치보	-16263
▁따▁면	-16264
▁목▁을	-16265
▁부적절	-16266
▁사▁적	-16267
▁서▁도	-16268
▁싹▁다	-16269
▁안▁받	-16270
▁안태근	-16271
▁양▁예	-16272
▁어떨지	-16273
▁에▁어	-16274
▁월▁생	-16275
▁을려고	-16276
▁응원단	-16277
▁이른바	-16278
▁일으킬	-16279
▁자괴감	-16280
▁적▁폐	-16281
▁제자리	-16282
▁좋아하	-16283
▁주▁길	-16284
▁피드백	-16285
▁한▁을	-16286
▁했▁지	-16287
다면▁그	-16288
단▁에서	-16289
자▁라고	-16290
주의▁로	-16291
지▁오래	-16292
▁거리▁는	-16293
▁군인▁들	-16294
▁권리▁만	-16295
▁그▁순간	-16296
▁그▁자리	-16297
▁급여▁가	-16298
▁급여▁는	-16299
▁기▁라도	-16300
▁꼴▁페미	-16301
▁남녀노소	-16302
▁눈물▁로	-16303
▁대표▁로	-16304
▁더럽▁고	-16305
▁도중▁에	-16306
▁망치▁는	-16307
▁명▁정도	-16308
▁무한도전	-16309
▁미▁성년	-16310
▁미혼▁부	-16311
▁보건복지	-16312
▁보내▁면	-16313
▁부끄러워	-16314
▁북한▁을	-16315
▁비교▁적	-16316
▁상처▁가	-16317
▁새벽▁에	-16318
▁서울▁과	-16319
▁성숙▁한	-16320
▁숨▁어서	-16321
▁시급▁한	-16322
▁식사▁를	-16323
▁아빠▁의	-16324
▁안일▁한	-16325
▁약▁쟁이	-16326
▁에▁참가	-16327
▁영상▁은	-16328
▁예정▁인	-16329
▁왜▁그런	-16330
▁운영▁이	-16331
▁웹▁하드	-16332
▁의▁중요	-16333
▁의도▁가	-16334
▁이렇▁듯	-16335
▁이전▁의	-16336
▁이제▁막	-16337
▁인간▁을	-16338
▁인정▁을	-16339
▁입장▁은	-16340
▁저▁보다	-16341
▁제기▁를	-16342
▁줄이▁는	-16343
▁줘야▁할	-16344
▁차량▁에	-16345
▁참여▁를	-16346
▁처벌▁로	-16347
▁큰▁문제	-16348
▁태도▁를	-16349
▁판결▁은	-16350
▁포함▁된	-16351
▁학원▁이	-16352
▁할▁텐데	-16353
▁해서▁는	-16354
▁혐의▁를	-16355
▁협회▁를	-16356
▁훨씬▁더	-16357
인▁들▁을	-16358
▁20170	-16359
▁경찰▁조사	-16360
▁고소▁고발	-16361
▁교사▁라는	-16362
▁교육▁당국	-16363
▁교육청▁이	-16364
▁그러▁다가	-16365
▁꿈▁을▁꾸	-16366
▁나머지▁는	-16367
▁낮▁습니다	-16368
▁다음▁세대	-16369
▁당사자▁인	-16370
▁대한▁항공	-16371
▁돈▁내▁고	-16372
▁돌아가▁신	-16373
▁된▁것▁은	-16374
▁만▁명▁의	-16375
▁면서▁까지	-16376
▁문화▁산업	-16377
▁보▁기▁가	-16378
▁본론▁으로	-16379
▁사형▁제도	-16380
▁성인▁용품	-16381
▁세종▁대왕	-16382
▁손가락▁질	-16383
▁수▁없▁게	-16384
▁실▁겁니다	-16385
▁아래▁링크	-16386
▁언제▁든지	-16387
▁없▁어▁졌	-16388
▁여과▁없이	-16389
▁으로▁보내	-16390
▁재량▁으로	-16391
▁주변▁에서	-16392
▁컨텐츠▁를	-16393
▁팬▁들▁을	-16394
▁하▁진▁않	-16395
▁할▁거▁면	-16396
▁가▁되▁어야	-16397
▁기▁는▁커녕	-16398
▁녹색▁어머니	-16399
▁는▁것▁인데	-16400
▁단일팀▁으로	-16401
▁단체▁들▁이	-16402
▁막막▁합니다	-16403
▁목숨▁을▁끊	-16404
▁수▁없▁다고	-16405
▁수▁있▁는데	-16406
▁수능▁을▁치	-16407
▁수십▁년▁간	-16408
▁시민▁들▁은	-16409
▁실시▁하▁는	-16410
▁아기▁들▁이	-16411
▁언론▁들▁은	-16412
▁없▁어▁져야	-16413
▁역사▁적▁인	-16414
▁옹호▁하▁고	-16415
▁용기▁내▁어	-16416
▁우리나라▁는	-16417
▁을▁앞두▁고	-16418
▁이▁를▁위해	-16419
▁자녀▁장려금	-16420
▁자신▁들▁은	-16421
▁자신▁만▁의	-16422
▁잔인▁하▁고	-16423
▁저▁는▁이런	-16424
▁저▁로서▁는	-16425
▁조롱▁하▁는	-16426
▁좋▁겠▁네요	-16427
▁좋▁은▁대학	-16428
▁좋▁은▁방법	-16429
▁집▁에▁와서	-16430
▁차별▁입니다	-16431
▁친구▁들▁의	-16432
▁터무니없▁는	-16433
▁하▁는▁교육	-16434
▁행동▁들▁을	-16435
▁고▁있▁읍니다	-16436
▁국가▁대표▁는	-16437
▁국민▁이▁라면	-16438
▁너무나▁많▁은	-16439
▁대통령▁이▁되	-16440
▁되▁야▁합니다	-16441
▁두려움▁에▁떨	-16442
▁반복▁적▁으로	-16443
▁사이트▁입니다	-16444
▁살▁았▁습니다	-16445
▁아르바이트▁를	-16446
▁아이▁키우▁기	-16447
▁에▁들어가▁는	-16448
▁조사▁를▁통해	-16449
▁중고▁등▁학교	-16450
▁지▁않▁은▁채	-16451
▁초등▁학교▁의	-16452
▁나와▁있▁습니다	-16453
▁라는▁명목▁으로	-16454
▁막▁아야▁합니다	-16455
▁바라▁겠▁습니다	-16456
▁선생▁님▁들▁께	-16457
▁어쩔▁수▁없▁는	-16458
▁에▁불과▁합니다	-16459
▁자유▁학기제▁를	-16460
▁즐길▁수▁있▁는	-16461
▁하▁는▁행위▁는	-16462
▁학생▁인권▁조례	-16463
▁할▁수▁있▁다면	-16464
▁히딩크▁감독▁님	-16465
▁국가▁인권▁위원회	-16466
▁다시▁한▁번▁생각	-16467
▁말▁이▁안▁되▁는	-16468
▁시▁는▁분▁들▁이	-16469
▁옳▁지▁않▁습니다	-16470
▁있▁을▁것▁입니다	-16471
▁좋▁습니다▁하지만	-16472
▁하▁기▁만▁합니다	-16473
▁드리▁고▁싶▁습니다	-16474
▁아시안▁게임▁금메달	-16475
▁우리▁나라▁의▁교육	-16476
▁하▁는▁사람▁들▁을	-16477
▁해야▁하▁는▁것▁이	-16478
▁사람▁들▁이▁많▁습니다	-16479
▁지▁않▁았▁으면▁합니다	-16480
▁청소년▁보호법▁을▁폐지	-16481
▁고등학교▁에▁재학▁중▁인	-16482
▁는▁안▁된다고▁생각▁합니다	-16483
op	-16484
▁댁	-16485
▁뻗	-16486
▁쇄	-16487
▁싼	-16488
▁엮	-16489
기야	-16490
마다	-16491
스타	-16492
싸움	-16493
전입	-16494
정호	-16495
▁54	-16496
▁59	-16497
▁an	-16498
▁xx	-16499
▁강하	-16500
▁교포	-16501
▁농담	-16502
▁대량	-16503
▁대치	-16504
▁데로	-16505
▁독거	-16506
▁독단	-16507
▁등재	-16508
▁레전	-16509
▁마침	-16510
▁마포	-16511
▁무더	-16512
▁무수	-16513
▁묻혀	-16514
▁미화	-16515
▁밝힐	-16516
▁버릇	-16517
▁부진	-16518
▁불명	-16519
▁비호	-16520
▁빈곤	-16521
▁뺑뺑	-16522
▁사익	-16523
▁살피	-16524
▁상의	-16525
▁새해	-16526
▁소나	-16527
▁수련	-16528
▁식비	-16529
▁신호	-16530
▁알릴	-16531
▁에스	-16532
▁여지	-16533
▁예우	-16534
▁요번	-16535
▁원본	-16536
▁월등	-16537
▁유신	-16538
▁자켓	-16539
▁작동	-16540
▁잔재	-16541
▁정경	-16542
▁정교	-16543
▁퇴학	-16544
▁팀웍	-16545
▁판명	-16546
▁편가	-16547
▁폄하	-16548
▁포커	-16549
▁표정	-16550
▁허울	-16551
▁휴학	-16552
들▁고	-16553
혐▁의	-16554
ᅳᅳᅳᅳ	-16555
▁갈▁아	-16556
▁고▁요	-16557
▁대자보	-16558
▁들여서	-16559
▁떄문에	-16560
▁뛰▁고	-16561
▁마케팅	-16562
▁만▁듭	-16563
▁만▁안	-16564
▁메세지	-16565
▁무참히	-16566
▁밥▁을	-16567
▁분▁께	-16568
▁불기소	-16569
▁사회봉	-16570
▁선동열	-16571
▁수두룩	-16572
▁실생활	-16573
▁쓸▁때	-16574
▁엔트리	-16575
▁을▁쓴	-16576
▁인▁건	-16577
▁임직원	-16578
▁죽▁는	-16579
▁죽여도	-16580
▁지▁요	-16581
▁지난번	-16582
▁찾▁고	-16583
▁푸▁는	-16584
▁해▁봐	-16585
▁화▁와	-16586
아이▁는	-16587
청▁에서	-16588
▁개월▁로	-16589
▁건강▁을	-16590
▁구조▁를	-16591
▁그런▁게	-16592
▁기업▁은	-16593
▁낳▁아서	-16594
▁누구▁든	-16595
▁뉴스▁의	-16596
▁다는▁점	-16597
▁돌봄▁전	-16598
▁등급▁이	-16599
▁모르▁시	-16600
▁몰카▁를	-16601
▁무릎▁을	-16602
▁문자▁가	-16603
▁문화▁는	-16604
▁미개▁한	-16605
▁발생▁시	-16606
▁별개▁로	-16607
▁상대▁를	-16608
▁세▁부터	-16609
▁센터▁에	-16610
▁시설▁은	-16611
▁심판▁은	-16612
▁아이▁셋	-16613
▁안정▁된	-16614
▁약간▁의	-16615
▁약자▁인	-16616
▁약합니다	-16617
▁언어▁를	-16618
▁올리▁면	-16619
▁왜▁그러	-16620
▁용어▁를	-16621
▁월급▁을	-16622
▁위대▁한	-16623
▁위장전입	-16624
▁유능▁한	-16625
▁을▁맞추	-16626
▁을▁배우	-16627
▁의▁기회	-16628
▁의지▁가	-16629
▁이▁수역	-16630
▁잘못▁이	-16631
▁정시▁가	-16632
▁정시▁는	-16633
▁종류▁의	-16634
▁종목▁에	-16635
▁주의▁를	-16636
▁준비▁생	-16637
▁진상▁을	-16638
▁친구▁와	-16639
▁코치▁가	-16640
▁팀▁으로	-16641
▁포털▁의	-16642
▁할▁방법	-16643
▁희망▁과	-16644
▁가▁있▁었	-16645
▁가슴▁아픈	-16646
▁관점▁에서	-16647
▁국가▁유공	-16648
▁도우미▁를	-16649
▁돈▁을▁받	-16650
▁될▁수▁없	-16651
▁많▁아▁질	-16652
▁반대▁한다	-16653
▁방탄▁소년	-16654
▁보▁기▁에	-16655
▁보▁십니까	-16656
▁사교육▁의	-16657
▁사회▁생활	-16658
▁선택▁해서	-16659
▁알▁바▁를	-16660
▁언론사▁는	-16661
▁에▁가▁는	-16662
▁여학생▁의	-16663
▁오히려▁더	-16664
▁은▁어떻게	-16665
▁이▁나▁서	-16666
▁이▁안▁된	-16667
▁자격▁으로	-16668
▁자살▁사건	-16669
[...]
