[UNK]	0
[PAD]	0
니다	-0
▁이	-1
▁있	-2
습니다	-3
▁아	-4
▁그	-5
▁하	-6
▁사	-7
▁대	-8
으로	-9
합니다	-10
에서	-11
▁수	-12
하는	-13
입니다	-14
▁정	-15
▁보	-16
▁가	-17
▁지	-18
하고	-19
▁학	-20
▁국	-21
▁한	-22
▁생	-23
▁어	-24
▁없	-25
▁자	-26
▁것	-27
들이	-28
▁일	-29
▁여	-30
▁제	-31
▁다	-32
▁부	-33
▁저	-34
▁해	-35
▁인	-36
▁시	-37
다고	-38
▁교	-39
▁안	-40
▁않	-41
▁나	-42
▁기	-43
▁생각	-44
▁주	-45
▁아이	-46
▁1	-47
▁선	-48
지만	-49
▁모	-50
▁되	-51
▁위	-52
▁있는	-53
▁전	-54
▁공	-55
▁청	-56
▁우	-57
▁성	-58
▁있습니다	-59
▁많	-60
세요	-61
▁대한	-62
에게	-63
▁문	-64
▁경	-65
▁무	-66
▁남	-67
▁말	-68
이라	-69
▁바	-70
▁국민	-71
들은	-72
▁2	-73
다는	-74
니까	-75
▁조	-76
▁고	-77
▁사람	-78
▁받	-79
▁유	-80
▁방	-81
▁내	-82
▁우리	-83
▁만	-84
들의	-85
▁더	-86
▁합니다	-87
▁상	-88
▁의	-89
▁하는	-90
▁현	-91
▁중	-92
▁못	-93
▁비	-94
▁학생	-95
▁불	-96
하게	-97
해서	-98
들을	-99
▁마	-100
▁피	-101
▁교육	-102
하여	-103
▁같	-104
까지	-105
▁관	-106
리고	-107
▁소	-108
▁학교	-109
▁할	-110
▁아니	-111
▁처	-112
▁개	-113
들어	-114
▁법	-115
▁등	-116
▁또	-117
▁여성	-118
는데	-119
주세요	-120
으면	-121
▁올	-122
▁도	-123
▁미	-124
▁알	-125
라고	-126
적으로	-127
▁강	-128
▁당	-129
적인	-130
▁이런	-131
▁오	-132
라는	-133
학교	-134
▁좋	-135
민국	-136
▁신	-137
▁실	-138
▁문제	-139
▁생각합니다	-140
▁입	-141
▁잘	-142
▁감	-143
▁대한민국	-144
▁세	-145
▁때	-146
▁피해	-147
▁반	-148
▁너	-149
▁동	-150
▁살	-151
하지	-152
▁진	-153
▁선수	-154
▁3	-155
다면	-156
▁요	-157
▁국가	-158
▁청원	-159
▁저는	-160
범죄	-161
▁너무	-162
▁행	-163
▁하고	-164
면서	-165
▁영	-166
▁연	-167
▁적	-168
▁분	-169
▁거	-170
▁평	-171
도록	-172
었습니다	-173
▁왜	-174
▁노	-175
들에게	-176
▁지금	-177
▁발	-178
▁심	-179
▁원	-180
▁단	-181
▁그런	-182
소년	-183
▁스	-184
▁그리고	-185
해야	-186
▁어린	-187
▁많은	-188
▁언	-189
▁서	-190
▁장	-191
▁차	-192
통령	-193
▁사회	-194
대로	-195
▁결	-196
▁예	-197
나라	-198
▁최	-199
▁처벌	-200
▁힘	-201
▁20	-202
▁과	-203
▁통	-204
부터	-205
립니다	-206
▁것이	-207
▁재	-208
▁구	-209
▁계	-210
▁나라	-211
▁필	-212
이나	-213
렇게	-214
▁직	-215
▁출	-216
▁했	-217
됩니다	-218
에도	-219
▁하지만	-220
▁맞	-221
▁대통령	-222
▁한국	-223
▁폐	-224
▁특	-225
▁정부	-226
▁근	-227
교육	-228
기를	-229
▁아닌	-230
▁따	-231
▁이유	-232
되는	-233
▁군	-234
▁정말	-235
▁초	-236
▁현재	-237
▁청소년	-238
▁누	-239
▁없는	-240
▁엄	-241
에는	-242
▁다른	-243
▁어린이	-244
▁배	-245
어야	-246
사를	-247
▁게	-248
겠습니다	-249
▁필요	-250
▁물	-251
▁집	-252
이고	-253
▁위해	-254
▁매	-255
시간	-256
문에	-257
▁그러	-258
▁운	-259
▁범죄	-260
▁부모	-261
▁피해자	-262
하면	-263
주시	-264
▁사건	-265
▁외	-266
▁두	-267
치원	-268
▁인권	-269
▁모든	-270
있는	-271
▁돈	-272
랍니다	-273
까요	-274
드립니다	-275
▁폭	-276
학생	-277
들도	-278
▁우리나라	-279
▁같은	-280
▁본	-281
십시	-282
▁4	-283
지고	-284
▁남성	-285
네요	-286
▁또한	-287
등학교	-288
▁없습니다	-289
하기	-290
▁여자	-291
▁싶	-292
이라는	-293
▁어린이집	-294
▁명	-295
▁교사	-296
▁저희	-297
▁참	-298
▁판	-299
가요	-300
▁5	-301
▁많이	-302
▁및	-303
▁자신	-304
이라고	-305
▁건	-306
라도	-307
▁경우	-308
▁확	-309
▁들어	-310
림픽	-311
▁양	-312
▁폐지	-313
어서	-314
▁글	-315
▁지원	-316
▁추	-317
▁10	-318
▁시간	-319
▁된	-320
▁바랍니다	-321
에서는	-322
▁부탁	-323
▁간	-324
▁제가	-325
▁언론	-326
▁만들어	-327
보다	-328
▁해야	-329
▁돌	-330
▁얼	-331
▁남자	-332
것이	-333
지는	-334
▁취	-335
▁권	-336
▁하지	-337
생님	-338
▁것은	-339
축구	-340
▁아니라	-341
▁것입니다	-342
▁이번	-343
나요	-344
▁다시	-345
거나	-346
▁아무	-347
리는	-348
▁될	-349
리를	-350
▁애	-351
습니까	-352
▁포	-353
▁후	-354
▁상황	-355
인데	-356
되어	-357
▁들	-358
▁사실	-359
▁이렇게	-360
▁아닙	-361
뉴스	-362
▁금	-363
▁방송	-364
▁이상	-365
▁민	-366
▁가해	-367
▁열	-368
▁김	-369
▁합	-370
▁제발	-371
하며	-372
▁대통령님	-373
▁입니다	-374
▁치	-375
▁검	-376
▁않는	-377
▁회	-378
▁모두	-379
▁앞	-380
기에	-381
▁몇	-382
▁경찰	-383
▁책	-384
▁작	-385
▁종	-386
▁친	-387
이트	-388
▁유치원	-389
▁병	-390
▁임	-391
▁역	-392
▁잘못	-393
아야	-394
▁화	-395
▁그래	-396
▁쓰	-397
▁안녕	-398
▁보호	-399
▁모르	-400
▁막	-401
아이	-402
▁큰	-403
▁대학	-404
▁201	-405
▁줄	-406
지않	-407
▁있을	-408
▁이러	-409
▁마음	-410
▁여러	-411
▁안녕하	-412
▁위한	-413
▁선생님	-414
▁정책	-415
▁존	-416
▁벌	-417
▁점	-418
가는	-419
처럼	-420
봅니다	-421
되고	-422
▁보고	-423
▁내용	-424
십시오	-425
만원	-426
선수	-427
▁목	-428
으며	-429
▁그런데	-430
▁하나	-431
▁공부	-432
사람	-433
▁손	-434
▁요즘	-435
▁가해자	-436
▁관련	-437
없이	-438
▁때문에	-439
부모	-440
▁넘	-441
해주	-442
▁형	-443
▁체	-444
▁되는	-445
있습니다	-446
▁어떻	-447
해주세요	-448
▁있도록	-449
▁개인	-450
시는	-451
들과	-452
▁박	-453
지도	-454
▁이제	-455
▁것을	-456
▁않고	-457
▁각	-458
▁허	-459
▁사용	-460
00	-461
▁부탁드립니다	-462
▁절	-463
▁약	-464
▁편	-465
할수	-466
▁변	-467
▁아닙니다	-468
▁악	-469
▁의무	-470
▁자유	-471
▁얼마	-472
어나	-473
▁6	-474
지요	-475
▁키	-476
▁알고	-477
▁현실	-478
▁어떻게	-479
▁태	-480
것은	-481
▁죽	-482
겁니다	-483
▁축구	-484
▁대해	-485
했습니다	-486
▁않습니다	-487
폭력	-488
▁걸	-489
▁가정	-490
▁올림픽	-491
▁제대로	-492
▁감사	-493
▁설	-494
▁책임	-495
▁아이를	-496
▁달	-497
기가	-498
▁파	-499
▁한다고	-500
같은	-501
았습니다	-502
▁답	-503
▁좋은	-504
▁복	-505
▁이러한	-506
기도	-507
것도	-508
▁운영	-509
▁뉴스	-510
프로	-511
▁꼭	-512
▁게임	-513
교사	-514
▁같습니다	-515
▁월	-516
▁이해	-517
▁늘	-518
▁몰	-519
였습니다	-520
시고	-521
학년	-522
포츠	-523
▁물론	-524
▁안녕하세요	-525
▁증	-526
▁함	-527
없는	-528
▁느	-529
▁있고	-530
▁죄	-531
인이	-532
자가	-533
▁따라	-534
▁눈	-535
▁이용	-536
▁버	-537
다가	-538
▁인터	-539
▁규	-540
▁그렇	-541
▁좋겠습니다	-542
재인	-543
▁정치	-544
▁엄마	-545
▁계속	-546
지를	-547
▁준	-548
▁문화	-549
▁아이들이	-550
부분	-551
▁담	-552
▁활	-553
▁해결	-554
▁어떤	-555
리가	-556
▁기사	-557
▁조사	-558
▁제도	-559
▁문제가	-560
▁야	-561
인지	-562
▁좀	-563
▁문재인	-564
▁가장	-565
정을	-566
것을	-567
▁아직	-568
▁드	-569
▁페	-570
려고	-571
▁말이	-572
▁환	-573
▁충	-574
입니까	-575
▁억	-576
한다	-577
하다고	-578
▁중요	-579
▁사람이	-580
▁표	-581
▁되어	-582
한다고	-583
▁나오	-584
이상	-585
▁있다고	-586
▁시험	-587
▁위해서	-588
아서	-589
▁볼	-590
장을	-591
▁높	-592
▁뿐	-593
원을	-594
▁보육	-595
밖에	-596
주의	-597
시키	-598
▁누구	-599
▁바로	-600
▁채	-601
▁투	-602
▁됩니다	-603
▁그래서	-604
▁곳	-605
▁폭행	-606
에서도	-607
▁휴	-608
▁일반	-609
▁갑	-610
아가	-611
▁일이	-612
▁수능	-613
▁국민의	-614
기는	-615
▁북	-616
대표	-617
▁노력	-618
▁않을	-619
▁미래	-620
▁청원합니다	-621
▁만들	-622
▁보내	-623
▁있는데	-624
▁반대	-625
동안	-626
▁7	-627
▁끝	-628
▁찾	-629
▁스포츠	-630
▁감독	-631
▁봅니다	-632
▁갈	-633
▁해주	-634
이라도	-635
▁타	-636
▁이유로	-637
가지	-638
▁받고	-639
▁독	-640
▁없이	-641
▁음	-642
▁업	-643
사건	-644
▁학부모	-645
▁그냥	-646
동을	-647
▁군대	-648
▁정도	-649
상을	-650
▁먹	-651
하는데	-652
▁욕	-653
▁강력	-654
▁하루	-655
▁정신	-656
▁글을	-657
▁육	-658
▁자기	-659
▁불법	-660
▁않은	-661
▁해주세요	-662
▁하면	-663
▁주세요	-664
▁일부	-665
▁이미	-666
▁사람들이	-667
▁온	-668
▁인해	-669
▁수업	-670
▁없어	-671
▁가능	-672
이다	-673
제를	-674
▁있었	-675
▁난	-676
정도	-677
▁통해	-678
해도	-679
폭행	-680
▁영어	-681
▁많습니다	-682
▁아동	-683
협회	-684
평등	-685
▁다니	-686
▁속	-687
▁인터넷	-688
▁그렇게	-689
자는	-690
▁철	-691
▁한번	-692
▁해서	-693
시켜	-694
▁접	-695
원이	-696
▁8	-697
▁프로	-698
▁뭐	-699
▁해당	-700
혜택	-701
▁당연	-702
▁날	-703
▁대부분	-704
▁생활	-705
▁희	-706
▁발생	-707
구요	-708
▁광	-709
▁가족	-710
▁보면	-711
▁세금	-712
성을	-713
화를	-714
댓글	-715
▁일본	-716
▁새	-717
▁학생들이	-718
가족	-719
▁그러나	-720
▁어려	-721
▁초등학교	-722
하면서	-723
는지	-724
제도	-725
정이	-726
수가	-727
▁잡	-728
▁이루	-729
▁자신의	-730
▁논	-731
▁항	-732
▁서울	-733
▁어느	-734
▁키우	-735
▁근무	-736
▁시작	-737
▁공정	-738
▁주시	-739
▁대한민국의	-740
▁대표	-741
▁되었	-742
어도	-743
▁같이	-744
▁메	-745
▁일을	-746
▁고등학교	-747
▁성범죄	-748
들에	-749
▁세계	-750
▁9	-751
▁이게	-752
▁북한	-753
▁있다	-754
▁강제	-755
셨으면	-756
▁아이들을	-757
놓고	-758
▁안전	-759
사가	-760
▁친구	-761
▁조금	-762
생활	-763
듭니다	-764
한다는	-765
▁하여	-766
하다	-767
▁무슨	-768
▁혼	-769
▁관리	-770
▁꿈	-771
▁받는	-772
께서	-773
력을	-774
▁이야	-775
때문에	-776
▁하는데	-777
▁무엇	-778
▁방법	-779
군요	-780
겠지만	-781
▁징	-782
으나	-783
▁얼마나	-784
▁질	-785
▁결과	-786
▁요구	-787
무원	-788
자를	-789
▁최근	-790
▁함께	-791
해주시	-792
▁외국	-793
어요	-794
▁장애	-795
▁신고	-796
▁순	-797
▁있게	-798
▁국가대표	-799
▁부분	-800
스트	-801
와대	-802
▁댓글	-803
▁힘들	-804
▁도와	-805
▁지역	-806
▁있다는	-807
대한	-808
▁사이트	-809
▁먼	-810
▁대해서	-811
▁차별	-812
이는	-813
▁페미	-814
▁행위	-815
▁되고	-816
▁되었습니다	-817
▁보여	-818
이며	-819
▁개선	-820
▁아이들	-821
▁기회	-822
▁12	-823
▁자녀	-824
더라도	-825
▁용	-826
▁오늘	-827
▁가지고	-828
이가	-829
▁청와대	-830
▁혹	-831
겠습니까	-832
▁적폐	-833
▁출산	-834
▁밝	-835
력이	-836
▁학원	-837
▁급	-838
▁또는	-839
▁믿	-840
▁인간	-841
히려	-842
▁빙	-843
으니	-844
방송	-845
장이	-846
▁억울	-847
▁호	-848
▁지켜	-849
이지	-850
▁본인	-851
▁관심	-852
▁받을	-853
당한	-854
▁너무나	-855
▁크	-856
마다	-857
▁처벌을	-858
▁못하고	-859
▁낳	-860
▁받아	-861
수있	-862
성이	-863
자의	-864
심히	-865
▁봐	-866
▁고통	-867
으로서	-868
▁빠	-869
▁진행	-870
▁면	-871
▁퇴	-872
▁오히려	-873
▁한다	-874
십니까	-875
▁없고	-876
▁떨	-877
것입니다	-878
▁뒤	-879
▁식	-880
▁혜택	-881
▁생각이	-882
십시요	-883
개월	-884
한테	-885
▁모습	-886
▁인정	-887
▁아이가	-888
▁도움	-889
▁산	-890
▁방탄	-891
▁병역	-892
▁기본	-893
▁육아	-894
▁특히	-895
▁기준	-896
▁사립	-897
주는	-898
▁경기	-899
▁의견	-900
▁때문	-901
▁자격	-902
전에	-903
▁더욱	-904
유치원	-905
▁네	-906
되었	-907
▁심각	-908
▁요청	-909
▁않았	-910
▁듣	-911
▁했습니다	-912
▁되지	-913
▁열심히	-914
▁교복	-915
등학생	-916
▁똑	-917
▁이루어	-918
▁어디	-919
▁준비	-920
▁평창	-921
▁길	-922
보고	-923
하였	-924
▁평등	-925
▁커	-926
침해	-927
▁선택	-928
구하고	-929
▁피해를	-930
상이	-931
식을	-932
연맹	-933
되지	-934
시다	-935
▁무시	-936
▁수시	-937
▁시행	-938
의를	-939
▁앞으로	-940
▁없애	-941
드시	-942
▁평가	-943
▁카	-944
금을	-945
▁말도	-946
▁이건	-947
▁헌	-948
▁살인	-949
▁K	-950
▁번	-951
▁교육부	-952
아요	-953
벌이	-954
▁행동	-955
▁떠	-956
▁지난	-957
▁이에	-958
▁학교에서	-959
▁둘	-960
▁수사	-961
▁응	-962
▁남녀	-963
▁진짜	-964
▁사교육	-965
▁해도	-966
▁뽑	-967
▁입장	-968
▁존재	-969
▁싶습니다	-970
올림픽	-971
▁놀	-972
치는	-973
더군요	-974
▁교육을	-975
▁망	-976
▁잠	-977
▁올라	-978
▁갖	-979
기관	-980
일이	-981
하지만	-982
▁먼저	-983
가족부	-984
▁사고	-985
▁국민들이	-986
▁살아	-987
▁성폭행	-988
▁성적	-989
▁있지만	-990
▁보도	-991
▁회사	-992
▁반드시	-993
대를	-994
▁말씀	-995
▁운동	-996
▁체육	-997
져야	-998
▁법을	-999
▁직접	-1000
주고	-1001
▁못하는	-1002
▁감사합니다	-1003
만큼	-1004
▁30	-1005
▁데	-1006
▁협	-1007
스럽	-1008
▁관계	-1009
▁안되는	-1010
▁불구하고	-1011
▁일어나	-1012
▁팀	-1013
게임	-1014
▁이를	-1015
▁확인	-1016
▁돈을	-1017
▁연예	-1018
지가	-1019
▁과연	-1020
▁저지	-1021
문제	-1022
▁결국	-1023
▁그럼	-1024
▁국민이	-1025
는게	-1026
법을	-1027
▁절대	-1028
▁중학교	-1029
▁환경	-1030
▁아니고	-1031
▁직장	-1032
수를	-1033
치를	-1034
TV	-1035
많은	-1036
▁매우	-1037
▁안된	-1038
로서	-1039
추행	-1040
▁행복	-1041
▁부모님	-1042
▁창	-1043
정부	-1044
▁할수	-1045
▁워	-1046
▁페미니	-1047
▁인권을	-1048
▁읽	-1049
▁전혀	-1050
▁아시	-1051
▁주장	-1052
명을	-1053
▁양육	-1054
▁어렵	-1055
▁청원을	-1056
▁쉽	-1057
▁공무원	-1058
와서	-1059
▁더이상	-1060
일팀	-1061
▁것도	-1062
▁어른	-1063
▁잘못된	-1064
회의	-1065
▁소년	-1066
▁지나	-1067
▁걱	-1068
국민	-1069
그램	-1070
▁귀	-1071
▁밖에	-1072
▁못한	-1073
▁배우	-1074
되었습니다	-1075
되어야	-1076
▁맡	-1077
▁것으로	-1078
위를	-1079
지어	-1080
▁빙상	-1081
▁최소	-1082
인가요	-1083
으로써	-1084
권을	-1085
▁게시	-1086
위원	-1087
▁무고	-1088
▁100	-1089
받고	-1090
▁누가	-1091
▁이름	-1092
▁말을	-1093
▁딸	-1094
▁나이	-1095
보니	-1096
▁기자	-1097
▁낮	-1098
▁민주	-1099
사는	-1100
▁다음	-1101
▁폭력	-1102
중에	-1103
▁이는	-1104
▁2018	-1105
▁하게	-1106
머니	-1107
이란	-1108
▁분명	-1109
▁필요한	-1110
같이	-1111
가고	-1112
업을	-1113
조건	-1114
드컵	-1115
▁학생들의	-1116
셔서	-1117
▁살고	-1118
▁시민	-1119
▁입학	-1120
조차	-1121
▁강화	-1122
차별	-1123
비를	-1124
▁성폭력	-1125
▁답변	-1126
▁몸	-1127
체가	-1128
▁언제	-1129
▁공개	-1130
▁원장	-1131
▁해외	-1132
▁떨어	-1133
▁얘	-1134
▁짓	-1135
▁부족	-1136
▁경제	-1137
▁판단	-1138
▁극	-1139
▁부산	-1140
▁이후	-1141
대에	-1142
▁즉	-1143
▁별	-1144
▁주는	-1145
▁안됩니다	-1146
시에	-1147
▁여성가족부	-1148
소년단	-1149
명이	-1150
치고	-1151
드는	-1152
▁수도	-1153
▁심지어	-1154
▁사랑	-1155
▁신청	-1156
▁마련	-1157
▁승	-1158
▁여기	-1159
▁부디	-1160
▁기간	-1161
▁없다고	-1162
려는	-1163
왔습니다	-1164
인을	-1165
르고	-1166
식으로	-1167
▁삼	-1168
▁쉬	-1169
하시	-1170
▁납	-1171
▁성추행	-1172
▁부담	-1173
▁있어	-1174
가를	-1175
▁라는	-1176
라면	-1177
리에	-1178
▁토	-1179
원의	-1180
▁있어서	-1181
스로	-1182
▁싫	-1183
▁보는	-1184
▁보장	-1185
▁철저	-1186
▁힘든	-1187
▁생각을	-1188
▁학생들은	-1189
안을	-1190
정한	-1191
BS	-1192
인의	-1193
▁겁니다	-1194
▁은	-1195
료를	-1196
스템	-1197
겁니까	-1198
▁처음	-1199
▁첫	-1200
아니	-1201
▁방탄소년단	-1202
이버	-1203
▁지급	-1204
▁자살	-1205
▁의해	-1206
▁머	-1207
다니	-1208
▁11	-1209
▁가르	-1210
▁에	-1211
▁훈	-1212
줘야	-1213
▁실제	-1214
▁좋아	-1215
▁포함	-1216
▁총	-1217
▁패	-1218
▁중요한	-1219
계를	-1220
▁싸	-1221
▁업무	-1222
기간	-1223
▁전문	-1224
▁당장	-1225
▁성인	-1226
▁수준	-1227
▁아니면	-1228
▁세상	-1229
20	-1230
문화	-1231
므로	-1232
▁하며	-1233
대가	-1234
식이	-1235
러운	-1236
▁거의	-1237
▁알려	-1238
▁압	-1239
▁정시	-1240
하시는	-1241
▁넘어	-1242
▁축	-1243
지지	-1244
▁범죄자	-1245
▁받지	-1246
▁시청	-1247
▁미투	-1248
▁증거	-1249
▁생각해	-1250
보면	-1251
▁만약	-1252
▁완	-1253
적이	-1254
▁한다는	-1255
▁S	-1256
하나	-1257
▁기사를	-1258
정책	-1259
만이	-1260
▁건강	-1261
▁서로	-1262
▁아이들의	-1263
되면	-1264
▁여러분	-1265
▁월드컵	-1266
수도	-1267
▁판결	-1268
▁혐	-1269
▁정보	-1270
▁충분	-1271
하거나	-1272
▁무조건	-1273
▁학교에	-1274
기로	-1275
▁금지	-1276
▁돌아	-1277
▁적용	-1278
▁사회적	-1279
▁시키	-1280
▁우선	-1281
▁하면서	-1282
▁남북	-1283
▁바뀌	-1284
▁침해	-1285
▁상처	-1286
▁즐	-1287
▁단일팀	-1288
▁아무리	-1289
▁아주	-1290
집니다	-1291
▁비리	-1292
▁표현	-1293
▁받아야	-1294
▁국민들의	-1295
▁스트	-1296
로운	-1297
서를	-1298
▁이유는	-1299
▁졸	-1300
만을	-1301
하였습니다	-1302
▁빨	-1303
출산	-1304
했다	-1305
수의	-1306
▁전국	-1307
▁갑질	-1308
▁낙	-1309
려면	-1310
하도록	-1311
▁200	-1312
▁불편	-1313
기업	-1314
▁엄청	-1315
▁헌법	-1316
▁술	-1317
자에	-1318
사의	-1319
▁과거	-1320
▁당신	-1321
▁아이들은	-1322
대체	-1323
생을	-1324
을때	-1325
▁발전	-1326
사이트	-1327
▁사과	-1328
▁저의	-1329
▁항상	-1330
▁필요합니다	-1331
했던	-1332
기고	-1333
▁다양	-1334
▁상태	-1335
▁의미	-1336
르게	-1337
▁문제를	-1338
가서	-1339
받는	-1340
▁근로	-1341
▁결혼	-1342
▁등등	-1343
▁등을	-1344
▁삶	-1345
▁각종	-1346
▁묻	-1347
▁가진	-1348
▁법이	-1349
▁안타	-1350
▁나라를	-1351
사회	-1352
▁찾아	-1353
▁희망	-1354
▁혹은	-1355
위해	-1356
▁생각됩니다	-1357
▁거짓	-1358
▁주십시오	-1359
▁하였	-1360
▁있었습니다	-1361
▁이해가	-1362
▁맞벌이	-1363
겠다고	-1364
▁팬	-1365
체를	-1366
▁코	-1367
▁홍	-1368
▁바라	-1369
▁활동	-1370
▁저도	-1371
▁있으며	-1372
생각	-1373
▁느끼	-1374
겠죠	-1375
한다면	-1376
▁수많은	-1377
만으로	-1378
▁능	-1379
▁써	-1380
▁울	-1381
▁대체	-1382
명의	-1383
▁피해자가	-1384
음에도	-1385
사고	-1386
▁국민을	-1387
▁범죄를	-1388
▁참여	-1389
▁사람은	-1390
▁풀	-1391
원에	-1392
▁되면	-1393
▁사는	-1394
▁없다	-1395
▁당연히	-1396
▁내용이	-1397
▁있어야	-1398
들만	-1399
▁듭니다	-1400
▁이야기	-1401
▁근데	-1402
▁라고	-1403
▁빙상연맹	-1404
▁여론	-1405
원에서	-1406
레스	-1407
▁등의	-1408
▁시켜	-1409
▁해주시	-1410
▁도대체	-1411
점을	-1412
▁가지	-1413
▁사람들은	-1414
▁경우가	-1415
▁리	-1416
▁시간이	-1417
나는	-1418
나라는	-1419
▁부터	-1420
▁경쟁	-1421
▁광고	-1422
실을	-1423
▁천	-1424
▁올해	-1425
이라면	-1426
▁봉	-1427
▁싶은	-1428
▁노동	-1429
▁불가	-1430
▁때문입니다	-1431
▁제한	-1432
제가	-1433
▁영향	-1434
▁비용	-1435
▁정상	-1436
▁백	-1437
▁방과	-1438
▁사라	-1439
▁동의	-1440
▁스스로	-1441
▁유튜	-1442
▁아닐	-1443
년에	-1444
▁국방	-1445
▁보다	-1446
▁나라가	-1447
어난	-1448
▁이제는	-1449
대통령	-1450
센터	-1451
▁고소	-1452
▁장애인	-1453
▁혼자	-1454
▁프로그램	-1455
▁정부가	-1456
보호	-1457
▁국내	-1458
년간	-1459
르는	-1460
인가	-1461
▁올립니다	-1462
▁아이들에게	-1463
▁결정	-1464
▁방학	-1465
▁입시	-1466
▁뛰	-1467
▁교육청	-1468
일을	-1469
▁지방	-1470
▁따라서	-1471
▁성평등	-1472
▁시스템	-1473
▁얻	-1474
▁15	-1475
▁그만	-1476
더니	-1477
▁아직도	-1478
건가요	-1479
▁대상	-1480
▁행정	-1481
▁범	-1482
운동	-1483
▁없을	-1484
▁보육교사	-1485
▁우리나라의	-1486
듯이	-1487
▁우리가	-1488
▁밝혀	-1489
▁않게	-1490
▁지키	-1491
▁않도록	-1492
▁넣	-1493
▁내려	-1494
▁현장	-1495
겠다는	-1496
▁기업	-1497
▁사람을	-1498
▁까지	-1499
▁예산	-1500
매매	-1501
▁유아	-1502
감을	-1503
자녀	-1504
▁19	-1505
▁연예인	-1506
▁집단	-1507
▁없다는	-1508
▁수가	-1509
▁얼굴	-1510
합니까	-1511
분들	-1512
이면	-1513
보는	-1514
▁지지	-1515
▁미성	-1516
▁당시	-1517
▁단순	-1518
▁대책	-1519
▁말고	-1520
▁사진	-1521
▁안되	-1522
▁주고	-1523
이지만	-1524
부를	-1525
원은	-1526
▁그에	-1527
▁하기	-1528
▁문제는	-1529
▁늦	-1530
▁사람들	-1531
▁와	-1532
▁가는	-1533
▁돌봄	-1534
▁정책을	-1535
▁바꿔	-1536
▁원하는	-1537
▁걱정	-1538
▁영화	-1539
▁나라에서	-1540
▁바꾸	-1541
▁불안	-1542
▁공부를	-1543
▁아무런	-1544
▁심판	-1545
▁주변	-1546
▁시간을	-1547
10	-1548
▁빼	-1549
▁야구	-1550
▁저출산	-1551
▁초등	-1552
으면서	-1553
▁아니라고	-1554
하니	-1555
▁직업	-1556
▁된다고	-1557
심을	-1558
▁겨	-1559
비스	-1560
▁인한	-1561
▁하시	-1562
▁정부는	-1563
▁훈련	-1564
▁젊	-1565
▁없었	-1566
▁아빠	-1567
어린	-1568
▁기관	-1569
▁받은	-1570
▁겪	-1571
▁솔	-1572
두순	-1573
조사	-1574
▁나서	-1575
▁개정	-1576
▁깨	-1577
체육	-1578
▁분노	-1579
자들이	-1580
▁방과후	-1581
▁밀	-1582
평가	-1583
▁장관	-1584
▁네이버	-1585
▁고민	-1586
▁받았	-1587
▁못하게	-1588
▁탈	-1589
▁미국	-1590
▁중국	-1591
▁아닌가요	-1592
관계	-1593
▁올바	-1594
▁숨	-1595
국가	-1596
지원	-1597
▁특별	-1598
▁화가	-1599
▁어려운	-1600
▁우리는	-1601
▁상대	-1602
▁조작	-1603
▁책임을	-1604
다운	-1605
▁임신	-1606
메달	-1607
▁사형	-1608
▁최저	-1609
▁국가가	-1610
▁쉽게	-1611
▁학생들에게	-1612
▁청년	-1613
▁조두순	-1614
도를	-1615
▁알아	-1616
▁점점	-1617
▁소년법	-1618
▁학교폭력	-1619
▁터	-1620
링크	-1621
중한	-1622
하라	-1623
▁대학교	-1624
익을	-1625
함을	-1626
▁특정	-1627
위원회	-1628
▁미성년	-1629
▁스트레스	-1630
▁로	-1631
▁여성의	-1632
▁최소한	-1633
자로	-1634
▁선수들이	-1635
내고	-1636
▁학교를	-1637
▁효	-1638
▁생리	-1639
▁잔	-1640
▁월급	-1641
▁맞는	-1642
▁화장	-1643
등을	-1644
▁성매매	-1645
▁강력한	-1646
나고	-1647
▁존경	-1648
▁암	-1649
화가	-1650
▁소득	-1651
어주	-1652
▁50	-1653
▁아파	-1654
▁선수가	-1655
마드	-1656
▁않아	-1657
말고	-1658
▁과정	-1659
▁수정	-1660
▁실시	-1661
▁자신이	-1662
▁그저	-1663
있고	-1664
▁옳	-1665
▁티	-1666
과정	-1667
▁우리나라는	-1668
▁특수	-1669
▁지금까지	-1670
▁돈이	-1671
▁다양한	-1672
▁우리의	-1673
▁가짜	-1674
▁국제	-1675
▁내가	-1676
▁둔	-1677
시험	-1678
이기	-1679
▁궁	-1680
하다는	-1681
▁담당	-1682
▁향	-1683
건지	-1684
▁생기	-1685
▁젊은	-1686
▁판매	-1687
대학	-1688
▁정확	-1689
▁포기	-1690
▁것이다	-1691
▁아닙니까	-1692
리지	-1693
서는	-1694
▁역사	-1695
흥민	-1696
▁검찰	-1697
▁선발	-1698
▁정작	-1699
공립	-1700
▁괴	-1701
▁웃	-1702
▁단체	-1703
▁만든	-1704
▁직원	-1705
시키고	-1706
▁정부에서	-1707
id	-1708
휴직	-1709
하는게	-1710
▁사건이	-1711
▁박탈	-1712
▁정의	-1713
했다고	-1714
▁간곡	-1715
▁도움이	-1716
30	-1717
BC	-1718
▁되어야	-1719
▁모르는	-1720
▁유튜브	-1721
오는	-1722
▁가슴	-1723
▁있지	-1724
▁부정	-1725
▁위험	-1726
수있는	-1727
▁들었습니다	-1728
물을	-1729
교육을	-1730
▁그대로	-1731
▁혜택을	-1732
▁매일	-1733
▁어떠	-1734
▁졸업	-1735
▁국회의	-1736
경우	-1737
정보	-1738
▁그들의	-1739
▁사실을	-1740
▁있는지	-1741
▁사립유치원	-1742
전히	-1743
▁등록	-1744
▁확실	-1745
▁들어가	-1746
▁쓸	-1747
▁제안	-1748
▁M	-1749
▁맘	-1750
적이고	-1751
이를	-1752
릅니다	-1753
들로	-1754
▁많아	-1755
▁힘들어	-1756
▁놓	-1757
▁잃	-1758
▁저런	-1759
▁사건을	-1760
감독	-1761
▁출전	-1762
▁아이의	-1763
▁조선	-1764
▁손흥민	-1765
주십시오	-1766
▁도와주세요	-1767
▁반대합니다	-1768
▁긴	-1769
▁밥	-1770
▁양성	-1771
분이	-1772
▁고려	-1773
▁적극	-1774
▁제공	-1775
▁이유가	-1776
▁페미니즘	-1777
▁동안	-1778
▁명예	-1779
▁외국인	-1780
격을	-1781
시설	-1782
▁나가	-1783
▁올려	-1784
▁국공립	-1785
▁찍	-1786
지로	-1787
▁내신	-1788
▁뿐만	-1789
▁국가의	-1790
▁발언	-1791
▁재판	-1792
▁나온	-1793
▁학생입니다	-1794
부가	-1795
▁논란	-1796
▁분들이	-1797
▁상황이	-1798
▁솔직	-1799
▁아시안	-1800
▁의무를	-1801
▁꿈을	-1802
▁난민	-1803
에게는	-1804
을까요	-1805
▁관한	-1806
▁추가	-1807
▁여성이	-1808
▁공공	-1809
▁기다	-1810
▁정부의	-1811
지막	-1812
할때	-1813
글을	-1814
임을	-1815
▁수행	-1816
▁역시	-1817
▁노출	-1818
▁보니	-1819
점이	-1820
▁만큼	-1821
▁학생들을	-1822
▁농	-1823
▁답답	-1824
▁메달	-1825
▁제외	-1826
▁나라의	-1827
단체	-1828
▁아이돌	-1829
▁처벌이	-1830
000	-1831
아주세요	-1832
▁교과	-1833
▁하였습니다	-1834
▁밤	-1835
▁육아휴직	-1836
▁유지	-1837
소를	-1838
▁마땅	-1839
했고	-1840
행위	-1841
▁다니는	-1842
▁저희는	-1843
▁을	-1844
던지	-1845
보름	-1846
▁벌어	-1847
▁크게	-1848
▁워마드	-1849
▁이것은	-1850
ti	-1851
▁갔	-1852
▁TV	-1853
▁간곡히	-1854
▁C	-1855
▁권리	-1856
▁권리를	-1857
▁끊	-1858
▁동성	-1859
▁듣고	-1860
▁시설	-1861
▁모르겠습니다	-1862
겠다	-1863
▁지속	-1864
선생님	-1865
활동	-1866
▁악용	-1867
▁이어	-1868
▁뜻	-1869
수당	-1870
행을	-1871
▁작은	-1872
어린이	-1873
▁학생이	-1874
같습니다	-1875
▁봤	-1876
▁틀	-1877
관련	-1878
▁서류	-1879
▁법률	-1880
됩니까	-1881
에선	-1882
▁종교	-1883
했는데	-1884
▁A	-1885
▁필요하다고	-1886
에만	-1887
자리	-1888
중생	-1889
처벌	-1890
▁줄어	-1891
▁국가에서	-1892
▁심각한	-1893
▁주시기	-1894
음을	-1895
하신	-1896
▁누군	-1897
▁사례	-1898
▁아래	-1899
▁사이	-1900
▁아버	-1901
도가	-1902
▁빨리	-1903
▁안녕하십니까	-1904
을수	-1905
중인	-1906
치가	-1907
분들이	-1908
▁대하여	-1909
고등학교	-1910
▁이슈	-1911
아닌	-1912
십니다	-1913
▁기회를	-1914
▁마지막	-1915
▁미래를	-1916
▁학생들	-1917
▁충분히	-1918
까운	-1919
어를	-1920
▁낙태	-1921
▁0	-1922
문을	-1923
인권	-1924
▁있다면	-1925
시키는	-1926
▁김보름	-1927
야합니다	-1928
▁만들고	-1929
▁초등학생	-1930
자기	-1931
▁남편	-1932
▁뉴스를	-1933
▁그게	-1934
▁모두가	-1935
▁키우는	-1936
자들	-1937
▁노선	-1938
▁위배	-1939
▁개인의	-1940
렸습니다	-1941
▁취업	-1942
졌습니다	-1943
▁착	-1944
년을	-1945
복무	-1946
▁발표	-1947
▁얘기	-1948
리게	-1949
훼손	-1950
▁모습을	-1951
▁트	-1952
법이	-1953
▁무서	-1954
▁만드는	-1955
▁마찬	-1956
tv	-1957
대의	-1958
▁전화	-1959
▁나오는	-1960
▁대회	-1961
시간을	-1962
▁둘째	-1963
장애	-1964
▁처리	-1965
▁그동안	-1966
환경	-1967
▁사법	-1968
▁작성	-1969
하지않	-1970
▁합니까	-1971
년이	-1972
▁과목	-1973
▁높은	-1974
▁솔직히	-1975
▁반복	-1976
▁종목	-1977
▁마음이	-1978
▁이번에	-1979
▁의심	-1980
안이	-1981
우는	-1982
지에	-1983
▁않으면	-1984
▁어떠한	-1985
라인	-1986
▁구성	-1987
▁그래도	-1988
▁없어서	-1989
야하는	-1990
▁멀	-1991
또한	-1992
▁그걸	-1993
▁사업	-1994
▁설치	-1995
▁한달	-1996
▁노선영	-1997
하겠습니다	-1998
▁정권	-1999
▁혐오	-2000
▁골	-2001
▁삭	-2002
로써	-2003
▁규정	-2004
▁기억	-2005
없습니다	-2006
▁챙	-2007
▁군면	-2008
▁아침	-2009
▁전부	-2010
일에	-2011
▁존중	-2012
자들은	-2013
▁근거	-2014
▁어찌	-2015
▁차단	-2016
▁있으면	-2017
▁붙	-2018
냐고	-2019
▁선수들	-2020
▁대부분의	-2021
더라	-2022
▁예를	-2023
▁좌	-2024
사에	-2025
▁예술	-2026
▁찬	-2027
건에	-2028
▁한다면	-2029
▁비판	-2030
18	-2031
자들의	-2032
▁격	-2033
▁빌	-2034
▁축구협회	-2035
▁조직	-2036
▁검토	-2037
▁나쁜	-2038
▁왕	-2039
▁노래	-2040
▁응원	-2041
▁국민들	-2042
▁폐지를	-2043
▁마찬가지	-2044
생이	-2045
▁목소	-2046
▁상관	-2047
▁추진	-2048
▁살아가	-2049
▁고등학생	-2050
▁간절	-2051
▁평범	-2052
▁허위	-2053
해야합니다	-2054
▁꾸	-2055
▁서민	-2056
▁차량	-2057
▁협박	-2058
어린이집	-2059
라리	-2060
▁비난	-2061
▁여학생	-2062
▁생각하는	-2063
▁벗	-2064
▁상담	-2065
▁숙	-2066
▁KBS	-2067
▁이혼	-2068
▁자랑	-2069
전형	-2070
겠지요	-2071
▁뭔	-2072
부는	-2073
지역	-2074
촬영	-2075
텐데	-2076
▁궁금	-2077
▁연락	-2078
▁한반	-2079
▁선수들의	-2080
▁끼	-2081
▁영상	-2082
갑니다	-2083
▁공정한	-2084
▁의견을	-2085
▁지금은	-2086
드리	-2087
문이	-2088
▁규제	-2089
▁따른	-2090
▁게시물	-2091
▁전에	-2092
▁민주주의	-2093
▁퍼	-2094
▁40	-2095
▁자식	-2096
▁지도	-2097
▁내용을	-2098
워서	-2099
▁신경	-2100
▁오래	-2101
▁지원을	-2102
▁측	-2103
▁18	-2104
▁정도로	-2105
▁드립니다	-2106
12	-2107
장은	-2108
▁나와	-2109
▁봉사	-2110
▁태극	-2111
▁베	-2112
내는	-2113
▁제도를	-2114
▁c	-2115
하키	-2116
▁가고	-2117
▁단지	-2118
▁욕설	-2119
잖아요	-2120
▁그것도	-2121
▁부모가	-2122
▁수업을	-2123
학을	-2124
▁사회에	-2125
▁어린이집에	-2126
희롱	-2127
▁링크	-2128
스러운	-2129
▁일어	-2130
▁보면서	-2131
▁존경하는	-2132
없고	-2133
▁국민들은	-2134
경기	-2135
로는	-2136
▁거부	-2137
▁두고	-2138
▁소속	-2139
▁국방의	-2140
▁도입	-2141
▁복지	-2142
옵니다	-2143
▁아이는	-2144
▁흘	-2145
▁힘이	-2146
▁올바른	-2147
나서	-2148
▁가져	-2149
▁믿고	-2150
▁강요	-2151
▁기대	-2152
▁아동학	-2153
었고	-2154
▁확대	-2155
▁아기	-2156
▁누구나	-2157
▁차라리	-2158
인은	-2159
▁국민은	-2160
셨습니다	-2161
▁팔	-2162
고를	-2163
년도	-2164
▁몰카	-2165
▁비롯	-2166
▁비하	-2167
거리	-2168
기준	-2169
위에	-2170
▁동일	-2171
▁뿌	-2172
▁대다	-2173
▁언어	-2174
▁정당	-2175
여성	-2176
▁권력	-2177
에서의	-2178
▁있을까요	-2179
레기	-2180
▁희생	-2181
년동안	-2182
▁똑같이	-2183
▁슬	-2184
▁흔	-2185
라서	-2186
▁다름	-2187
▁서비스	-2188
▁이것이	-2189
▁가서	-2190
▁분들	-2191
한번	-2192
▁요청합니다	-2193
마트	-2194
▁평화	-2195
▁법적	-2196
▁군대를	-2197
▁자유를	-2198
자에게	-2199
▁안된다고	-2200
▁s	-2201
▁앉	-2202
▁신체	-2203
납니다	-2204
었는데	-2205
▁다시는	-2206
▁일입니다	-2207
▁대한민국은	-2208
▁페미니스트	-2209
기사	-2210
선을	-2211
하자	-2212
▁평생	-2213
세계	-2214
▁방치	-2215
▁예전	-2216
▁재산	-2217
있는데	-2218
▁갑자기	-2219
▁상황에서	-2220
번째	-2221
용을	-2222
장의	-2223
▁못할	-2224
▁무기	-2225
▁진정	-2226
일까요	-2227
▁관련된	-2228
▁적어도	-2229
▁대한민국에서	-2230
진국	-2231
▁된다	-2232
▁먹고	-2233
▁선수를	-2234
▁시험을	-2235
▁왔	-2236
케이	-2237
▁인천	-2238
▁그것이	-2239
대는	-2240
롭게	-2241
분을	-2242
▁계약	-2243
▁자리	-2244
▁저를	-2245
▁징역	-2246
것으로	-2247
계올림픽	-2248
나마	-2249
하던	-2250
▁아프	-2251
된다고	-2252
두고	-2253
수는	-2254
보다는	-2255
▁생각하고	-2256
▁경험	-2257
▁반성	-2258
▁위하여	-2259
지게	-2260
▁공연	-2261
▁구속	-2262
▁협회	-2263
▁행동을	-2264
걸로	-2265
▁성희롱	-2266
▁교실	-2267
▁부끄	-2268
▁집에	-2269
▁다니고	-2270
▁새로운	-2271
▁진정한	-2272
▁평범한	-2273
이니	-2274
▁늘려	-2275
심으로	-2276
▁그들이	-2277
▁똑같은	-2278
▁지금도	-2279
▁한반도	-2280
경찰	-2281
과를	-2282
▁금액	-2283
생활을	-2284
했다는	-2285
▁너무나도	-2286
간에	-2287
거라	-2288
급을	-2289
도로	-2290
▁검색	-2291
하나요	-2292
▁보조	-2293
▁쓰는	-2294
▁알게	-2295
아니라	-2296
▁철저히	-2297
▁16	-2298
▁더불	-2299
▁있으	-2300
었으면	-2301
▁교육의	-2302
▁국회의원	-2303
▁짧	-2304
▁그때	-2305
▁소통	-2306
▁죄를	-2307
장에서	-2308
▁않았습니다	-2309
우고	-2310
움을	-2311
▁물어	-2312
▁어쩔	-2313
▁포털	-2314
▁그러면	-2315
▁사회가	-2316
▁아파트	-2317
▁청소년들이	-2318
간의	-2319
부에	-2320
뿐만	-2321
▁경기도	-2322
▁촉	-2323
위가	-2324
스하키	-2325
▁지금의	-2326
▁평창올림픽	-2327
님이	-2328
든지	-2329
마저	-2330
▁사람의	-2331
리한	-2332
▁기존	-2333
▁2017	-2334
구를	-2335
라마	-2336
▁받게	-2337
▁자율	-2338
▁무고죄	-2339
▁피해자의	-2340
이유	-2341
인해	-2342
▁성장	-2343
▁집중	-2344
▁합법	-2345
학습	-2346
▁힘을	-2347
▁교사가	-2348
▁주시길	-2349
▁한사람	-2350
▁강간	-2351
지않고	-2352
▁관심을	-2353
▁하는지	-2354
에요	-2355
▁것에	-2356
▁힘들게	-2357
▁받았습니다	-2358
르면	-2359
성에	-2360
일보	-2361
▁마치	-2362
▁수험	-2363
▁학습	-2364
▁더불어	-2365
▁여성을	-2366
▁원합니다	-2367
▁대한민국이	-2368
▁끌	-2369
과는	-2370
비가	-2371
▁군인	-2372
▁탄	-2373
심이	-2374
▁바람	-2375
▁벌금	-2376
대학교	-2377
들고	-2378
▁아시안게임	-2379
수록	-2380
▁담배	-2381
▁사태	-2382
▁채용	-2383
▁했는데	-2384
▁대신	-2385
▁아예	-2386
▁일베	-2387
▁일으	-2388
▁금메달	-2389
▁동성애	-2390
▁중학생	-2391
▁한국의	-2392
▁않을까	-2393
▁보입니다	-2394
증을	-2395
▁그럴	-2396
주시길	-2397
▁말입니다	-2398
▁사람들을	-2399
▁않을까요	-2400
▁훨	-2401
호사	-2402
▁실력	-2403
▁최고	-2404
▁학대	-2405
니까요	-2406
▁국민청	-2407
▁그들은	-2408
▁법으로	-2409
▁선수의	-2410
▁조사를	-2411
▁괜	-2412
▁주민	-2413
▁행사	-2414
▁엄청난	-2415
▁기록	-2416
▁쓰고	-2417
▁제재	-2418
하라고	-2419
▁교육이	-2420
▁키우고	-2421
▁학생의	-2422
리면	-2423
▁교수	-2424
▁현실입니다	-2425
지않는	-2426
▁상황입니다	-2427
관이	-2428
▁가야	-2429
▁인식	-2430
▁국민들에게	-2431
▁대한민국을	-2432
만한	-2433
▁인하여	-2434
더라구요	-2435
▁몇몇	-2436
▁수학	-2437
바랍니다	-2438
▁여러가지	-2439
▁만들어주세요	-2440
대회	-2441
피해	-2442
▁변경	-2443
▁어제	-2444
▁인성	-2445
▁법적으로	-2446
▁황	-2447
끼리	-2448
이자	-2449
자인	-2450
▁투표	-2451
▁홍보	-2452
하시고	-2453
▁영향을	-2454
▁라	-2455
▁짜	-2456
▁처럼	-2457
기위해	-2458
▁히	-2459
해주는	-2460
▁않습니까	-2461
▁클	-2462
▁계획	-2463
▁나올	-2464
하는거	-2465
▁인권이	-2466
해주십시오	-2467
었던	-2468
▁검사	-2469
▁불가능	-2470
▁선거	-2471
▁소리	-2472
▁집행	-2473
▁실제로	-2474
좋은	-2475
▁삭제	-2476
▁원칙	-2477
▁학교는	-2478
▁사망	-2479
▁사람들의	-2480
물이	-2481
지면	-2482
▁요건에	-2483
무를	-2484
시면	-2485
학기	-2486
▁내고	-2487
▁이하	-2488
시간에	-2489
▁그러니	-2490
▁된다면	-2491
주셨으면	-2492
▁택	-2493
명한	-2494
▁방송을	-2495
▁저지른	-2496
▁혈	-2497
당히	-2498
세를	-2499
저히	-2500
▁배려	-2501
▁위치	-2502
▁억울한	-2503
▁일하는	-2504
▁관리자에	-2505
▁개최	-2506
▁대우	-2507
▁출근	-2508
▁해체	-2509
에게도	-2510
할수있	-2511
▁스마트	-2512
▁이야기를	-2513
on	-2514
▁조치	-2515
스럽게	-2516
하세요	-2517
▁게시물의	-2518
▁말하는	-2519
▁자체가	-2520
▁것이라고	-2521
▁위해서는	-2522
감이	-2523
▁보상	-2524
▁아마	-2525
▁제목	-2526
리그	-2527
▁들고	-2528
▁모욕	-2529
▁보기	-2530
▁일방	-2531
▁자연	-2532
아이를	-2533
금이	-2534
필요	-2535
▁위배되어	-2536
가가	-2537
여서	-2538
▁훨씬	-2539
▁주십시요	-2540
▁수정되었습니다	-2541
것에	-2542
먹고	-2543
자와	-2544
▁14	-2545
▁그리	-2546
▁개혁	-2547
달라고	-2548
▁양육비	-2549
▁없었습니다	-2550
낭비	-2551
해보	-2552
▁명백	-2553
▁비율	-2554
▁저질	-2555
▁하니	-2556
▁가짜뉴스	-2557
▁자신들의	-2558
▁사람들에게	-2559
레이	-2560
▁따로	-2561
▁반영	-2562
▁여가	-2563
▁일단	-2564
▁안타깝	-2565
▁인터뷰	-2566
수업	-2567
장에	-2568
했으면	-2569
▁늘어나	-2570
대통령님	-2571
겠네요	-2572
자들을	-2573
근혜	-2574
받을	-2575
▁드러	-2576
▁필요가	-2577
▁학교가	-2578
▁프	-2579
부로	-2580
▁도박	-2581
▁예방	-2582
시를	-2583
지못	-2584
▁급여	-2585
▁병원	-2586
▁인생	-2587
▁언론의	-2588
부의	-2589
제로	-2590
수있게	-2591
▁B	-2592
망이	-2593
▁거주	-2594
▁다녀	-2595
▁집에서	-2596
▁엄마입니다	-2597
▁빈	-2598
▁나왔	-2599
▁잊	-2600
▁무죄	-2601
▁빠른	-2602
▁합의	-2603
하는지	-2604
▁강력히	-2605
▁두려	-2606
▁말로	-2607
▁것이고	-2608
▁를	-2609
부탁	-2610
▁음악	-2611
▁조차	-2612
▁참고	-2613
▁퇴근	-2614
▁도움을	-2615
▁하는게	-2616
▁윤	-2617
▁국회	-2618
▁단속	-2619
▁보이	-2620
▁제출	-2621
▁행태	-2622
▁디	-2623
주시고	-2624
▁상황을	-2625
▁어머니	-2626
려서	-2627
지우	-2628
▁자주	-2629
▁폐쇄	-2630
▁활용	-2631
▁뿐입니다	-2632
50	-2633
▁부당	-2634
▁역할	-2635
▁허용	-2636
▁가능한	-2637
▁대해서는	-2638
▁굳	-2639
관리	-2640
히고	-2641
▁무섭	-2642
▁신뢰	-2643
인들이	-2644
구가	-2645
이든	-2646
청산	-2647
▁있기	-2648
▁전체	-2649
▁간절히	-2650
▁고용	-2651
▁구매	-2652
▁아는	-2653
주시기	-2654
하네요	-2655
ᄏᄏ	-2656
교실	-2657
▁목적	-2658
▁분위	-2659
▁첫째	-2660
▁피해자를	-2661
▁듯	-2662
말을	-2663
어가	-2664
▁소비	-2665
▁자체	-2666
▁그것을	-2667
▁옷	-2668
▁능력	-2669
▁비해	-2670
▁경우도	-2671
▁보내고	-2672
구나	-2673
▁23	-2674
▁불공	-2675
▁설명	-2676
스포츠	-2677
▁못합니다	-2678
가정	-2679
제는	-2680
까지는	-2681
시간이	-2682
했지만	-2683
▁게임을	-2684
▁학생을	-2685
리라	-2686
▁입고	-2687
▁제작	-2688
수로	-2689
시아	-2690
안에	-2691
▁갖고	-2692
▁강제로	-2693
▁고통을	-2694
▁국민들을	-2695
리로	-2696
▁취소	-2697
▁형사	-2698
단을	-2699
마디	-2700
▁괴롭	-2701
▁달라	-2702
▁일은	-2703
▁시급	-2704
▁인사	-2705
▁소중한	-2706
▁염	-2707
▁공간	-2708
▁예비	-2709
▁주어	-2710
▁선수는	-2711
▁없도록	-2712
▁요구합니다	-2713
▁뒷	-2714
▁놓고	-2715
▁신문	-2716
▁온갖	-2717
▁촉구	-2718
▁촬영	-2719
▁아닌가	-2720
▁스마트폰	-2721
세먼	-2722
차를	-2723
▁13	-2724
▁참가	-2725
▁마시고	-2726
성화	-2727
직원	-2728
직을	-2729
하기도	-2730
▁여중생	-2731
해주시기	-2732
▁그렇다고	-2733
▁뻔	-2734
▁익	-2735
▁당한	-2736
▁치료	-2737
▁있습니까	-2738
▁묵	-2739
조선	-2740
▁많고	-2741
▁성별	-2742
▁전형	-2743
▁정해	-2744
으로는	-2745
▁화장실	-2746
▁씨	-2747
복지	-2748
▁우려	-2749
▁이전	-2750
하고자	-2751
▁경기를	-2752
▁다자녀	-2753
▁사회의	-2754
▁선수들을	-2755
던데	-2756
▁권리가	-2757
▁사람입니다	-2758
▁블	-2759
▁테	-2760
상황	-2761
▁나는	-2762
▁양심	-2763
▁왜곡	-2764
▁그나마	-2765
▁사회를	-2766
▁수험생	-2767
▁주셨으면	-2768
▁대학을	-2769
▁이상한	-2770
▁비슷	-2771
▁하시는	-2772
기만	-2773
싶은	-2774
요일	-2775
▁면제	-2776
사람이	-2777
▁국가를	-2778
▁선진국	-2779
▁곧	-2780
▁셋	-2781
었다	-2782
하려	-2783
▁설립	-2784
▁조건	-2785
답니다	-2786
▁보았습니다	-2787
▁쓴	-2788
오고	-2789
▁곳이	-2790
▁성공	-2791
▁오후	-2792
▁의사	-2793
▁통과	-2794
▁됩니까	-2795
▁문제로	-2796
▁부모의	-2797
▁언론사	-2798
▁피해자는	-2799
▁깊	-2800
과목	-2801
셔야	-2802
전용	-2803
하에	-2804
ctv	-2805
▁돌려	-2806
▁형량	-2807
▁전세계	-2808
▁하지않	-2809
들입니다	-2810
과의	-2811
영상	-2812
▁장난	-2813
▁여자가	-2814
▁무너	-2815
▁바라는	-2816
났습니다	-2817
▁땅	-2818
▁담임	-2819
▁선동	-2820
▁선정	-2821
▁대표팀	-2822
▁문화재	-2823
▁방법이	-2824
▁학교의	-2825
건데	-2826
▁시위	-2827
▁조장	-2828
▁당하고	-2829
▁한부모	-2830
ew	-2831
곳에	-2832
컬링	-2833
▁방향	-2834
▁사유	-2835
▁제정	-2836
▁겁니까	-2837
▁본인이	-2838
▁가해자가	-2839
거죠	-2840
▁느껴	-2841
▁삶을	-2842
▁생겨	-2843
원으로	-2844
▁드라마	-2845
▁마음에	-2846
▁힘듭니다	-2847
등의	-2848
소에	-2849
이죠	-2850
전을	-2851
▁목숨	-2852
▁의혹	-2853
▁재학	-2854
▁대학생	-2855
아도	-2856
▁어쩌	-2857
▁인재	-2858
▁초중	-2859
▁가격	-2860
▁공평	-2861
▁법은	-2862
▁상식	-2863
분들은	-2864
▁아무것도	-2865
11	-2866
▁견	-2867
▁무상	-2868
▁실망	-2869
▁제일	-2870
▁교복을	-2871
▁상처를	-2872
▁세금으로	-2873
▁침	-2874
▁17	-2875
▁교사의	-2876
▁도저히	-2877
조작	-2878
▁국정	-2879
▁모자	-2880
▁어떨	-2881
▁돌아가	-2882
▁성차별	-2883
▁하더라도	-2884
▁대입	-2885
▁사기	-2886
▁사항	-2887
▁순간	-2888
하는것	-2889
▁노력을	-2890
▁등으로	-2891
▁모르고	-2892
서에	-2893
시대	-2894
▁공동	-2895
▁이라는	-2896
▁끔	-2897
주지	-2898
▁세월	-2899
금지	-2900
받지	-2901
▁다들	-2902
▁분야	-2903
▁않으	-2904
는데요	-2905
▁미세먼	-2906
▁해야합니다	-2907
▁산업	-2908
▁시대	-2909
▁본인의	-2910
NS	-2911
▁굉	-2912
▁대중	-2913
▁비교	-2914
▁수십	-2915
▁좋을	-2916
▁강력하게	-2917
▁썩	-2918
▁쳐	-2919
▁실질	-2920
▁위반	-2921
▁유포	-2922
▁이것	-2923
▁세금을	-2924
▁쌓	-2925
장관	-2926
▁이젠	-2927
▁정책이	-2928
▁선생님이	-2929
▁여성들이	-2930
권이	-2931
성과	-2932
▁실정	-2933
▁의한	-2934
▁마음을	-2935
▁쓰레기	-2936
▁압니다	-2937
▁그렇다면	-2938
신을	-2939
▁당사	-2940
▁애들	-2941
▁작년	-2942
▁있으니	-2943
하는것이	-2944
해주시길	-2945
디어	-2946
사항	-2947
져서	-2948
▁이와	-2949
까지도	-2950
받아야	-2951
만의	-2952
임금	-2953
▁굉장	-2954
▁교원	-2955
▁매년	-2956
▁법의	-2957
▁보통	-2958
▁위안	-2959
▁증가	-2960
▁출연	-2961
▁한명	-2962
▁혹시	-2963
다보니	-2964
▁의무화	-2965
▁학생부	-2966
▁아이스하키	-2967
▁근본	-2968
▁머리	-2969
님들	-2970
의가	-2971
▁굳이	-2972
▁자라	-2973
▁저와	-2974
▁2019	-2975
▁미성년자	-2976
▁사회에서	-2977
다른	-2978
워야	-2979
▁방해	-2980
▁왕따	-2981
▁필수	-2982
에대한	-2983
▁사실이	-2984
▁k	-2985
▁덜	-2986
▁뭘	-2987
말로	-2988
민주	-2989
운영	-2990
▁방문	-2991
▁지정	-2992
▁그러한	-2993
해주시고	-2994
▁일어나고	-2995
▁내년	-2996
▁합격	-2997
▁게다가	-2998
▁여전히	-2999
ᅲᅲ	-3000
질이	-3001
▁구조	-3002
▁없게	-3003
▁전쟁	-3004
▁이나라	-3005
▁통해서	-3006
텐츠	-3007
▁다르	-3008
▁적폐청산	-3009
다며	-3010
▁등교	-3011
▁생명	-3012
▁약속	-3013
▁당연한	-3014
▁박근혜	-3015
내용	-3016
▁대구	-3017
▁이거	-3018
▁나아가	-3019
▁된다는	-3020
▁시간에	-3021
▁읽어주	-3022
▁선수들에게	-3023
▁잇	-3024
했을	-3025
▁연맹	-3026
▁자세	-3027
▁중계	-3028
읍니다	-3029
▁핸	-3030
▁흐	-3031
자체	-3032
촛불	-3033
▁시점	-3034
▁치마	-3035
▁하나요	-3036
유아	-3037
▁음주	-3038
▁징계	-3039
된다면	-3040
▁많은데	-3041
▁정당한	-3042
▁행위를	-3043
▁컨	-3044
▁횡	-3045
리며	-3046
▁나타	-3047
▁묻고	-3048
▁보며	-3049
▁그렇지	-3050
▁남자가	-3051
▁단순히	-3052
▁사람도	-3053
▁얼마전	-3054
축구협회	-3055
▁입장에서	-3056
▁까	-3057
▁헤	-3058
▁홈	-3059
정은	-3060
▁처우	-3061
▁부족한	-3062
▁대상으로	-3063
상에	-3064
일은	-3065
자격	-3066
▁다만	-3067
▁등에	-3068
▁맞지	-3069
▁좋아하는	-3070
▁펼	-3071
보를	-3072
인증	-3073
▁독립	-3074
▁버스	-3075
▁이기	-3076
▁일삼	-3077
▁잡아	-3078
▁공교육	-3079
▁대학에	-3080
▁해주십시오	-3081
▁납득	-3082
▁정규	-3083
하려고	-3084
▁생각하	-3085
▁아버지	-3086
▁I	-3087
▁민원	-3088
▁것인지	-3089
▁여기서	-3090
엄마	-3091
▁혼란	-3092
로부터	-3093
▁정치적	-3094
▁무시하고	-3095
▁흡	-3096
버린	-3097
위는	-3098
▁높아	-3099
▁누군가	-3100
▁분명히	-3101
법은	-3102
혐오	-3103
▁고발	-3104
▁끔찍	-3105
▁넘는	-3106
▁늘어	-3107
▁주지	-3108
단이	-3109
된다	-3110
보내	-3111
종목	-3112
▁21	-3113
▁급식	-3114
▁끝나	-3115
▁전환	-3116
▁촛불	-3117
임에도	-3118
하려는	-3119
해서는	-3120
▁사실상	-3121
▁정신적	-3122
주십시요	-3123
▁m	-3124
과가	-3125
제한	-3126
폐지	-3127
▁고생	-3128
▁괜찮	-3129
▁국립	-3130
▁콘	-3131
인들	-3132
▁심한	-3133
▁주말	-3134
▁우리나라가	-3135
▁유해	-3136
▁투자	-3137
라고요	-3138
▁SNS	-3139
▁인권은	-3140
▁cctv	-3141
▁됐	-3142
딩크	-3143
분에	-3144
수사	-3145
▁뭐가	-3146
는데도	-3147
▁양성평등	-3148
▁어린이집을	-3149
▁플	-3150
움이	-3151
▁기초	-3152
▁중에	-3153
깁니다	-3154
차례	-3155
▁24	-3156
▁저희가	-3157
싶습니다	-3158
▁옆	-3159
다시	-3160
소득	-3161
이스	-3162
▁고객	-3163
▁불이	-3164
▁원래	-3165
▁일정	-3166
▁학업	-3167
▁관심이	-3168
▁여성은	-3169
리기	-3170
▁낭비	-3171
▁굉장히	-3172
▁이상의	-3173
▁잘못을	-3174
▁했다고	-3175
▁언제까지	-3176
▁흉	-3177
▁겨울	-3178
▁말은	-3179
▁위협	-3180
▁일주	-3181
▁저녁	-3182
▁MBC	-3183
▁바입니다	-3184
re	-3185
▁녹	-3186
▁맞춰	-3187
▁상황에	-3188
▁여자는	-3189
▁있나요	-3190
▁있었던	-3191
▁하나의	-3192
스럽습니다	-3193
해주셨으면	-3194
▁딱	-3195
느라	-3196
▁보낼	-3197
▁인지	-3198
▁전달	-3199
▁피해가	-3200
년전	-3201
약을	-3202
자고	-3203
해요	-3204
▁남아	-3205
▁부부	-3206
▁으로	-3207
었다고	-3208
▁범죄가	-3209
하고있습니다	-3210
▁쇼	-3211
등급	-3212
품을	-3213
▁메갈	-3214
▁저작	-3215
▁청소년보호	-3216
▁꼴	-3217
▁돼	-3218
보육	-3219
사업	-3220
씨가	-3221
회를	-3222
▁줄여	-3223
셧다운	-3224
아이가	-3225
제도를	-3226
하지도	-3227
때는	-3228
▁가수	-3229
▁아님	-3230
▁안될	-3231
▁언급	-3232
▁임용	-3233
▁제기	-3234
▁지상	-3235
▁판사	-3236
▁휴게	-3237
▁군면제	-3238
▁청원이	-3239
▁다시한번	-3240
▁쪽	-3241
권도	-3242
도한	-3243
위한	-3244
주기	-3245
▁그건	-3246
▁교육은	-3247
▁시대에	-3248
▁식으로	-3249
▁폭행을	-3250
▁P	-3251
트를	-3252
▁와서	-3253
께서는	-3254
하였고	-3255
▁남성이	-3256
▁인생을	-3257
는거	-3258
▁공감	-3259
▁명시	-3260
▁불합	-3261
▁에서	-3262
▁진술	-3263
▁현행	-3264
해지고	-3265
▁대기업	-3266
▁되었으면	-3267
▁운영하는	-3268
▁밖	-3269
▁부여	-3270
▁중고	-3271
▁일들이	-3272
▁자녀를	-3273
25	-3274
▁땀	-3275
▁대처	-3276
▁연구	-3277
▁출소	-3278
▁아니다	-3279
▁조치를	-3280
▁미투운동	-3281
노동	-3282
절한	-3283
▁진로	-3284
하여야	-3285
▁부분이	-3286
것같습니다	-3287
기록	-3288
비로	-3289
연히	-3290
자도	-3291
▁교장	-3292
▁내부	-3293
▁수신	-3294
▁청산	-3295
▁객	-3296
공개	-3297
려야	-3298
을까	-3299
▁60	-3300
▁비싼	-3301
▁충격	-3302
▁했던	-3303
▁형평	-3304
선수가	-3305
▁했지만	-3306
▁선생님들	-3307
▁청원드립니다	-3308
스러	-3309
▁광주	-3310
▁음란	-3311
▁이끌	-3312
▁경찰이	-3313
▁무엇을	-3314
▁올리는	-3315
▁기본적인	-3316
▁뜨	-3317
▁송	-3318
질을	-3319
▁내는	-3320
▁방지	-3321
▁동시에	-3322
▁셧다운	-3323
▁없으면	-3324
▁제도가	-3325
▁히딩크	-3326
▁사랑하는	-3327
원도	-3328
책임	-3329
▁교통	-3330
▁무료	-3331
▁세상이	-3332
수한	-3333
하루	-3334
▁가게	-3335
▁그로	-3336
▁욕을	-3337
▁이사	-3338
▁있던	-3339
▁키울	-3340
공무원	-3341
▁군복무	-3342
▁사건은	-3343
▁수사를	-3344
▁학원을	-3345
▁아이들과	-3346
▁어느정도	-3347
▁꼬	-3348
등이	-3349
받은	-3350
야구	-3351
하죠	-3352
▁도서	-3353
▁제시	-3354
▁누구를	-3355
▁태어나	-3356
▁한마디	-3357
말이	-3358
보드	-3359
▁자료	-3360
▁진실	-3361
▁짓밟	-3362
▁세상에	-3363
▁하네요	-3364
▁문제입니다	-3365
적을	-3366
▁변화	-3367
▁보게	-3368
▁답변을	-3369
▁선수들은	-3370
▁대한민국에	-3371
▁솜	-3372
신청	-3373
악한	-3374
▁건의	-3375
▁공식	-3376
▁컬링	-3377
▁현재의	-3378
17	-3379
업체	-3380
해를	-3381
▁다를	-3382
▁불러	-3383
▁살기	-3384
▁생겼	-3385
▁인격	-3386
금으로	-3387
▁수능을	-3388
▁일자리	-3389
▁뇌	-3390
▁옛	-3391
소시	-3392
의로	-3393
▁가만	-3394
▁그것	-3395
▁등이	-3396
▁민간	-3397
▁야간	-3398
▁임산	-3399
▁영어를	-3400
▁니	-3401
▁움	-3402
▁캐	-3403
곳이	-3404
상태	-3405
▁70	-3406
▁CC	-3407
▁보험	-3408
▁엄중	-3409
▁투명	-3410
▁편파	-3411
그리고	-3412
▁사건에	-3413
률이	-3414
히는	-3415
▁심신	-3416
▁왜냐	-3417
▁읽어	-3418
때마다	-3419
시까지	-3420
▁그러므로	-3421
▁의료	-3422
▁청소	-3423
▁것이라	-3424
▁나중에	-3425
▁살아야	-3426
들에게는	-3427
▁마음으로	-3428
▁올림픽을	-3429
이었습니다	-3430
▁대한축구협회	-3431
가며	-3432
보험	-3433
한데	-3434
▁수는	-3435
▁시달	-3436
때부터	-3437
줍니다	-3438
할까요	-3439
▁사건의	-3440
▁있으나	-3441
▁조금이라도	-3442
▁p	-3443
복을	-3444
형을	-3445
▁공영	-3446
▁명목	-3447
▁잔인	-3448
▁안하고	-3449
▁저에게	-3450
▁러	-3451
계가	-3452
던가	-3453
봐야	-3454
▁어리	-3455
▁통합	-3456
▁특혜	-3457
방망이	-3458
▁결과를	-3459
▁말이죠	-3460
▁철저한	-3461
▁국민에게	-3462
in	-3463
▁짐	-3464
속에	-3465
▁기술	-3466
▁나머	-3467
▁명확	-3468
▁시절	-3469
▁남자는	-3470
▁방법을	-3471
▁참으로	-3472
▁꺼	-3473
거운	-3474
서가	-3475
▁가면	-3476
▁가치	-3477
▁민족	-3478
▁보지	-3479
▁이익	-3480
▁적은	-3481
▁좀더	-3482
▁추구	-3483
▁해보	-3484
정도로	-3485
▁아닐까요	-3486
지않습니다	-3487
▁읽어주셔서	-3488
별로	-3489
아버	-3490
지기	-3491
▁엄벌	-3492
▁부당한	-3493
▁신고를	-3494
▁그럼에도	-3495
▁아동학대	-3496
▁아이에게	-3497
부탁드립니다	-3498
년생	-3499
님의	-3500
친구	-3501
▁거기	-3502
▁업체	-3503
▁이뤄	-3504
하는건	-3505
▁우리나라에서	-3506
▁겨우	-3507
▁권한	-3508
▁선고	-3509
▁통한	-3510
당하고	-3511
▁나오고	-3512
▁댓글을	-3513
▁어이가	-3514
▁자기가	-3515
▁대통령이	-3516
▁왔습니다	-3517
관을	-3518
사실	-3519
상은	-3520
▁기타	-3521
▁스타	-3522
▁심사	-3523
▁유명	-3524
장으로	-3525
▁돈으로	-3526
▁위안부	-3527
▁했으면	-3528
▁활동을	-3529
ar	-3530
그래	-3531
까봐	-3532
치지	-3533
▁대응	-3534
▁소송	-3535
▁핸드	-3536
▁나와서	-3537
▁정보를	-3538
▁주시고	-3539
▁지상파	-3540
▁CCTV	-3541
▁사용하는	-3542
▁선생님들이	-3543
▁맨	-3544
▁달리	-3545
곳에서	-3546
▁일하고	-3547
▁목적으로	-3548
▁살아가는	-3549
근무	-3550
봐도	-3551
소가	-3552
▁25	-3553
▁결론	-3554
▁뿌리	-3555
▁실행	-3556
▁자동	-3557
▁따르면	-3558
▁학생은	-3559
▁이유만으로	-3560
▁쏟	-3561
리아	-3562
시킨	-3563
▁수치	-3564
▁종합	-3565
▁좋지	-3566
▁하셨	-3567
거라고	-3568
만원을	-3569
정으로	-3570
▁분들은	-3571
▁차별을	-3572
가면	-3573
고사	-3574
도는	-3575
로지	-3576
으신	-3577
▁몰래	-3578
▁올린	-3579
▁조롱	-3580
지않은	-3581
▁경우는	-3582
▁교육과	-3583
▁그래야	-3584
▁청소년들의	-3585
▁80	-3586
▁느낌	-3587
▁맞게	-3588
▁목표	-3589
▁벌을	-3590
▁연기	-3591
▁연습	-3592
▁자꾸	-3593
소시효	-3594
▁그만큼	-3595
▁보내는	-3596
▁상대로	-3597
▁없네요	-3598
▁이유를	-3599
할수있는	-3600
받아	-3601
신문	-3602
▁대출	-3603
▁남성의	-3604
▁최소한의	-3605
▁폭행사건	-3606
산업	-3607
초에	-3608
▁엄격	-3609
▁일제	-3610
▁진학	-3611
▁성인이	-3612
▁할머니	-3613
▁제대로된	-3614
▁폐지하고	-3615
15	-3616
40	-3617
계의	-3618
나게	-3619
분별	-3620
어진	-3621
▁객관	-3622
▁다닐	-3623
▁외면	-3624
인들의	-3625
▁내용은	-3626
▁않다고	-3627
▁온라인	-3628
▁출산율	-3629
정의	-3630
▁고쳐	-3631
▁못해	-3632
▁보수	-3633
▁주차	-3634
▁어린이집에서	-3635
▁폐지해주세요	-3636
bs	-3637
▁엉	-3638
▁핵	-3639
메라	-3640
시절	-3641
▁면접	-3642
▁불과	-3643
▁소방	-3644
▁수용	-3645
▁이로	-3646
▁나이가	-3647
스타	-3648
시가	-3649
월에	-3650
▁퇴출	-3651
▁피의	-3652
하라는	-3653
해주고	-3654
▁다름이	-3655
사람들이	-3656
이에	-3657
▁비정	-3658
▁시도	-3659
인들은	-3660
▁건가요	-3661
문입니다	-3662
▁J	-3663
▁그룹	-3664
▁어긋	-3665
▁일도	-3666
▁중단	-3667
면서도	-3668
안되는	-3669
▁남학생	-3670
▁오로지	-3671
▁자격이	-3672
▁전화를	-3673
▁공소시효	-3674
▁대한체육	-3675
▁정상적인	-3676
▁감사하겠습니다	-3677
22	-3678
입을	-3679
자연	-3680
정에	-3681
징역	-3682
처리	-3683
▁공익	-3684
▁두발	-3685
▁실현	-3686
▁자극	-3687
▁토론	-3688
▁폭력을	-3689
▁O	-3690
▁웹	-3691
▁획	-3692
▁낳고	-3693
▁싫어	-3694
▁알바	-3695
▁되어서	-3696
▁생활을	-3697
▁일어난	-3698
▁정확한	-3699
▁줄어들	-3700
▁사실입니다	-3701
가능	-3702
▁매번	-3703
▁복무	-3704
▁봐도	-3705
▁살펴	-3706
▁앞에	-3707
▁전공	-3708
▁환불	-3709
▁맞다고	-3710
▁2016	-3711
▁솜방망이	-3712
무실	-3713
자면	-3714
▁국어	-3715
▁아내	-3716
▁훼손	-3717
▁관계자	-3718
▁교육에	-3719
▁안되고	-3720
▁우리아이	-3721
▁저지르고	-3722
▁동계올림픽	-3723
▁빛	-3724
소리	-3725
▁간단	-3726
▁미안	-3727
▁이행	-3728
▁장학	-3729
▁러시아	-3730
▁미래의	-3731
▁비롯한	-3732
▁하나도	-3733
▁모릅니다	-3734
▁말아주세요	-3735
▁E	-3736
고가	-3737
▁같아	-3738
▁관광	-3739
▁중간	-3740
▁했고	-3741
▁남성을	-3742
▁궁금합니다	-3743
금은	-3744
▁낮은	-3745
▁어이	-3746
▁코치	-3747
▁폭언	-3748
었지만	-3749
▁논란이	-3750
▁문제점	-3751
▁어디서	-3752
▁차이가	-3753
대해	-3754
▁단어	-3755
▁동네	-3756
▁맞추	-3757
▁보건	-3758
▁삼성	-3759
▁안보	-3760
▁움직	-3761
▁위원	-3762
▁나라는	-3763
▁세상을	-3764
▁만들어서	-3765
▁인권침해	-3766
▁옮	-3767
너무	-3768
시킬	-3769
차가	-3770
▁경력	-3771
▁다가	-3772
▁보았	-3773
▁싶어	-3774
▁파악	-3775
▁휴대	-3776
해야할	-3777
▁아닌데	-3778
▁이름을	-3779
▁현실이	-3780
▁있음에도	-3781
19	-3782
▁덮	-3783
▁품	-3784
방을	-3785
아닙	-3786
위로	-3787
▁고교	-3788
▁들이	-3789
▁벌써	-3790
▁빼앗	-3791
▁안정	-3792
▁지적	-3793
▁친일	-3794
▁가까운	-3795
▁교육감	-3796
상의	-3797
전한	-3798
▁몰아	-3799
▁올리	-3800
다는게	-3801
청소년	-3802
▁걱정이	-3803
▁청원에	-3804
▁사교육을	-3805
▁사회적으로	-3806
능력	-3807
능을	-3808
용이	-3809
하셨	-3810
▁모른	-3811
▁제주	-3812
▁커녕	-3813
▁합리	-3814
▁어쩔수	-3815
▁명예훼손	-3816
▁사람들도	-3817
▁휘	-3818
이터	-3819
▁눈치	-3820
▁안내	-3821
▁적이	-3822
▁채널	-3823
▁게시판	-3824
▁납니다	-3825
▁받을수	-3826
▁안전을	-3827
▁영유아	-3828
▁이익을	-3829
▁정말로	-3830
▁있겠지만	-3831
▁쌍	-3832
운데	-3833
장님	-3834
저는	-3835
▁감옥	-3836
▁생길	-3837
▁지불	-3838
부에서	-3839
속에서	-3840
인으로	-3841
▁기준을	-3842
▁박지우	-3843
▁보이지	-3844
그룹	-3845
단의	-3846
등록	-3847
여러	-3848
인과	-3849
통신	-3850
▁계신	-3851
▁공립	-3852
▁매달	-3853
▁일상	-3854
▁평균	-3855
교육이	-3856
tion	-3857
▁다르게	-3858
▁시키고	-3859
▁영상을	-3860
▁현실을	-3861
▁힘들고	-3862
▁아니지만	-3863
시켜주세요	-3864
▁위해서라도	-3865
ht	-3866
▁강남	-3867
▁국위	-3868
▁발달	-3869
▁볼수	-3870
▁찬성	-3871
▁키워	-3872
▁하다	-3873
달라는	-3874
▁무분별	-3875
▁입니까	-3876
▁핸드폰	-3877
프로그램	-3878
▁자유롭게	-3879
▁첨	-3880
▁핑	-3881
▁뛰어	-3882
▁미리	-3883
▁실업	-3884
▁줘야	-3885
▁국가는	-3886
▁칼	-3887
기와	-3888
하철	-3889
▁동등	-3890
▁만족	-3891
▁받으	-3892
▁봐야	-3893
▁새벽	-3894
▁여름	-3895
▁종사	-3896
▁학종	-3897
▁보이는	-3898
▁보호법	-3899
▁앞에서	-3900
▁가해자는	-3901
▁것입니까	-3902
▁컴	-3903
우리	-3904
▁마약	-3905
것이고	-3906
▁탁	-3907
랜드	-3908
스를	-3909
장학	-3910
▁이래	-3911
▁갑니다	-3912
▁생각은	-3913
▁어렵게	-3914
▁표현의	-3915
▁희망을	-3916
▁교사들이	-3917
▁생각하지	-3918
아동	-3919
있게	-3920
▁문체	-3921
▁아미	-3922
▁의원	-3923
▁한글	-3924
명으로	-3925
▁되는데	-3926
▁미래가	-3927
▁서울시	-3928
▁언론이	-3929
▁지자체	-3930
▁기준으로	-3931
▁않는다면	-3932
만에	-3933
옹호	-3934
현수	-3935
▁늦게	-3936
▁미혼	-3937
▁호소	-3938
▁후보	-3939
▁흡연	-3940
겠어요	-3941
▁결과가	-3942
▁당하는	-3943
▁엄마가	-3944
▁없는데	-3945
▁정도의	-3946
▁Y	-3947
▁는	-3948
▁훌	-3949
먹는	-3950
씨는	-3951
장과	-3952
해라	-3953
▁것과	-3954
▁고작	-3955
▁깨끗	-3956
▁독일	-3957
▁운전	-3958
▁재미	-3959
▁차지	-3960
▁티켓	-3961
▁했다	-3962
▁기회가	-3963
▁이대로	-3964
▁하거나	-3965
▁돌봄교실	-3966
▁받습니다	-3967
▁사람에게	-3968
▁유치원에	-3969
▁지속적으로	-3970
ns	-3971
등등	-3972
지와	-3973
▁결코	-3974
▁되기	-3975
▁일찍	-3976
▁창의	-3977
▁SBS	-3978
▁거기에	-3979
▁상당히	-3980
▁역할을	-3981
▁지원이	-3982
▁차원에서	-3983
▁어렵습니다	-3984
계에	-3985
니요	-3986
사로	-3987
장려	-3988
추월	-3989
▁발견	-3990
하기에	-3991
▁곳에서	-3992
▁교사는	-3993
▁부끄럽	-3994
▁이들이	-3995
▁하는거	-3996
▁상관없이	-3997
▁청소년이	-3998
▁마지막으로	-3999
▁U	-4000
계약	-4001
함이	-4002
▁나아	-4003
▁수당	-4004
▁그들을	-4005
▁배우고	-4006
▁불평등	-4007
▁아기를	-4008
▁알고있습니다	-4009
것같	-4010
국의	-4011
연한	-4012
하실	-4013
▁아들	-4014
▁기사가	-4015
▁되었고	-4016
▁명백한	-4017
▁무엇이	-4018
▁생리대	-4019
▁이라고	-4020
▁통하여	-4021
▁할까요	-4022
▁최저임금	-4023
명은	-4024
웨덴	-4025
▁단축	-4026
▁법에	-4027
▁여경	-4028
▁접근	-4029
▁형편	-4030
▁방안을	-4031
▁의미가	-4032
수있도록	-4033
▁가정폭력	-4034
▁공영방송	-4035
▁들어가는	-4036
▁안타까운	-4037
▁여성전용	-4038
▁밑	-4039
정권	-4040
▁개발	-4041
▁도덕	-4042
▁도시	-4043
▁시기	-4044
▁장면	-4045
▁집안	-4046
보다도	-4047
상으로	-4048
중학교	-4049
▁같은데	-4050
▁나라에	-4051
▁축구를	-4052
▁하더군요	-4053
▁촉구합니다	-4054
▁구분	-4055
▁법안	-4056
주시면	-4057
▁나서서	-4058
▁비슷한	-4059
▁소리를	-4060
▁않나요	-4061
▁가해자를	-4062
▁계속해서	-4063
선양	-4064
수준	-4065
식의	-4066
언론	-4067
▁안심	-4068
인데요	-4069
활동을	-4070
▁것이며	-4071
▁했다는	-4072
▁여성들은	-4073
생각합니다	-4074
▁엘	-4075
디오	-4076
마음	-4077
▁종일	-4078
▁증거가	-4079
▁경우에는	-4080
▁조선일보	-4081
▁씁	-4082
구니	-4083
번호	-4084
여야	-4085
예술	-4086
있다	-4087
▁근절	-4088
▁많을	-4089
▁방관	-4090
▁실패	-4091
▁후에	-4092
▁느끼고	-4093
▁있어요	-4094
▁하는것	-4095
▁진심으로	-4096
▁한국에서	-4097
고에	-4098
치게	-4099
한국	-4100
지않게	-4101
▁나머지	-4102
▁다문화	-4103
▁나옵니다	-4104
▁어린아이	-4105
▁스트레스를	-4106
▁찌	-4107
그러	-4108
빨리	-4109
이로	-4110
▁감시	-4111
▁분이	-4112
페이지	-4113
자들에게	-4114
▁걷	-4115
성은	-4116
차피	-4117
▁쏟아	-4118
▁애국	-4119
▁오는	-4120
▁취급	-4121
▁없다면	-4122
▁전문가	-4123
▁못하도록	-4124
▁무기징역	-4125
▁여성들의	-4126
▁대통령님께서	-4127
전문	-4128
▁버젓	-4129
▁옹호	-4130
당하게	-4131
드리고	-4132
만원이	-4133
합시다	-4134
▁나오지	-4135
▁사진을	-4136
▁언론에	-4137
▁이들은	-4138
▁의무적으로	-4139
▁현실적으로	-4140
▁e	-4141
▁덕	-4142
나가	-4143
법원	-4144
이런	-4145
▁공유	-4146
▁남은	-4147
▁신상	-4148
▁연령	-4149
▁이동	-4150
▁일자	-4151
▁적어	-4152
▁케이	-4153
▁역사를	-4154
▁정부와	-4155
▁레	-4156
법에	-4157
오면	-4158
▁국대	-4159
▁그의	-4160
▁나누	-4161
▁막는	-4162
▁빠져	-4163
▁통제	-4164
▁의문이	-4165
▁임산부	-4166
▁한게임	-4167
▁무시하는	-4168
▁낸	-4169
값을	-4170
주로	-4171
증이	-4172
▁관람	-4173
▁막아	-4174
▁상위	-4175
▁오랜	-4176
▁위에	-4177
▁카페	-4178
▁풀어	-4179
▁가만히	-4180
▁보호를	-4181
▁사고가	-4182
▁아무도	-4183
▁최근에	-4184
▁그렇지만	-4185
결과	-4186
단에	-4187
▁들을	-4188
▁비싸	-4189
▁연봉	-4190
▁의도	-4191
▁임금	-4192
▁전면	-4193
▁출신	-4194
▁기간제	-4195
▁변호사	-4196
▁심신미	-4197
▁과정에서	-4198
고있습니다	-4199
▁교도	-4200
▁예상	-4201
▁죽음	-4202
▁형태	-4203
하다가	-4204
▁가슴이	-4205
▁그것은	-4206
▁대책을	-4207
▁여기에	-4208
▁일으키	-4209
▁모르겠지만	-4210
er	-4211
역시	-4212
▁나은	-4213
▁배정	-4214
▁세워	-4215
▁끝까지	-4216
▁속에서	-4217
▁스웨덴	-4218
▁실시간	-4219
▁안된다	-4220
▁자신을	-4221
▁절대로	-4222
▁실정입니다	-4223
▁흥	-4224
검사	-4225
▁악플	-4226
▁인기	-4227
들한테	-4228
▁발전을	-4229
▁이용해	-4230
▁현실은	-4231
▁환경을	-4232
▁국위선양	-4233
살인	-4234
쓰고	-4235
자료	-4236
▁글이	-4237
▁물건	-4238
▁압박	-4239
▁중소	-4240
▁하늘	-4241
처구니	-4242
▁어차피	-4243
▁직장을	-4244
▁국민청원	-4245
▁이름으로	-4246
그런	-4247
르지	-4248
세가	-4249
쳐서	-4250
한거	-4251
회에	-4252
▁개념	-4253
▁과학	-4254
▁대기	-4255
▁잠재	-4256
단으로	-4257
된다는	-4258
▁문화를	-4259
▁분들도	-4260
▁교사들은	-4261
▁운동선수	-4262
▁학교에서는	-4263
▁앞서	-4264
▁워킹	-4265
▁유럽	-4266
▁철회	-4267
행위를	-4268
▁생명을	-4269
▁애초에	-4270
▁이들의	-4271
초등학교	-4272
하는것은	-4273
▁생각해보	-4274
▁적극적으로	-4275
권력	-4276
산점	-4277
한지	-4278
▁강조	-4279
▁고위	-4280
▁말아	-4281
▁심리	-4282
▁인구	-4283
것이다	-4284
▁갈수록	-4285
▁교사를	-4286
▁이글을	-4287
▁가능성이	-4288
▁방법으로	-4289
▁석	-4290
고요	-4291
느냐	-4292
되게	-4293
뮤니	-4294
▁가질	-4295
▁우울	-4296
▁이명	-4297
되는데	-4298
시켜야	-4299
▁경찰관	-4300
▁동영상	-4301
▁알아야	-4302
▁이것을	-4303
▁이슈가	-4304
▁한국에	-4305
▁생각하면	-4306
▁어처구니	-4307
▁자신들이	-4308
▁있겠습니까	-4309
달라	-4310
▁가입	-4311
▁동아	-4312
▁두번	-4313
▁떠나	-4314
▁생긴	-4315
▁안나	-4316
▁것처럼	-4317
▁대학입	-4318
▁병역의	-4319
▁저렇게	-4320
▁남녀평등	-4321
▁수행평가	-4322
▁꽃	-4323
▁엔	-4324
수에	-4325
이후	-4326
▁34	-4327
▁계산	-4328
▁비인	-4329
▁빙산	-4330
▁생산	-4331
▁이걸	-4332
▁최대	-4333
▁문제인	-4334
▁요즘은	-4335
▁개인정보	-4336
▁포털사이트	-4337
서도	-4338
▁가까	-4339
▁문의	-4340
▁법정	-4341
▁신태	-4342
▁쓰게	-4343
▁오전	-4344
▁위로	-4345
교육청	-4346
▁벗어나	-4347
▁않아도	-4348
기때문에	-4349
하더라도	-4350
▁며	-4351
보도	-4352
상식	-4353
제에	-4354
▁동참	-4355
▁아픈	-4356
▁죄송	-4357
▁체험	-4358
▁추천	-4359
▁감독이	-4360
▁세월호	-4361
▁장자연	-4362
▁요구하는	-4363
▁재학중인	-4364
▁주시기를	-4365
▁주장하는	-4366
▁우리나라를	-4367
▁해주셨으면	-4368
▁척	-4369
어버	-4370
▁곳에	-4371
▁눈물	-4372
▁방식	-4373
▁부적	-4374
▁쉬는	-4375
▁실명	-4376
▁유일	-4377
▁이렇	-4378
▁지진	-4379
등으로	-4380
▁원장님	-4381
▁의무가	-4382
▁아동수당	-4383
▁하루하루	-4384
▁해주시길	-4385
▁없애주세요	-4386
▁이런식으로	-4387
▁구입	-4388
▁반면	-4389
▁수입	-4390
▁일에	-4391
▁점심	-4392
소에서	-4393
▁빌보드	-4394
▁안전한	-4395
▁있어도	-4396
▁해야할	-4397
더라고요	-4398
▁교사들의	-4399
▁교육정책	-4400
▁목소리를	-4401
▁아이들도	-4402
▁좋습니다	-4403
▁긍	-4404
분위	-4405
비는	-4406
일로	-4407
중을	-4408
▁셋째	-4409
▁소위	-4410
▁수상	-4411
▁지고	-4412
▁짧은	-4413
인에게	-4414
조사를	-4415
▁경제적	-4416
▁기준이	-4417
▁뉴스에	-4418
▁대우를	-4419
▁아이와	-4420
▁워킹맘	-4421
▁진실을	-4422
▁팀추월	-4423
▁편하게	-4424
▁해야하는	-4425
▁멋	-4426
▁풍	-4427
▁홀	-4428
개의	-4429
세로	-4430
야할	-4431
이크	-4432
행이	-4433
▁22	-4434
▁말만	-4435
▁별로	-4436
▁술을	-4437
▁장려	-4438
▁접수	-4439
뮤니티	-4440
▁가정의	-4441
▁같아요	-4442
▁운동을	-4443
▁인간의	-4444
놓은	-4445
스크	-4446
▁동생	-4447
▁애기	-4448
▁유도	-4449
▁통학	-4450
▁파면	-4451
▁확보	-4452
분들도	-4453
▁남성은	-4454
▁바로잡	-4455
▁받아들	-4456
▁법안을	-4457
▁완전히	-4458
▁지하철	-4459
▁사이트를	-4460
▁없어져야	-4461
▁일어나는	-4462
▁일어나지	-4463
▁N	-4464
▁n	-4465
게는	-4466
대상	-4467
소한	-4468
우기	-4469
우미	-4470
정신	-4471
퓨터	-4472
▁90	-4473
▁변호	-4474
▁새로	-4475
▁옛날	-4476
▁징병	-4477
사에서	-4478
▁끔찍한	-4479
▁데리고	-4480
▁문제에	-4481
▁비리를	-4482
▁판결을	-4483
으로부터	-4484
▁이용하는	-4485
광고	-4486
되며	-4487
의식	-4488
▁대답	-4489
▁사퇴	-4490
▁안좋	-4491
▁와이	-4492
▁티비	-4493
가지고	-4494
▁다수의	-4495
▁말하고	-4496
▁관련하여	-4497
▁남성들이	-4498
▁반대하는	-4499
▁억울하게	-4500
▁현장에서	-4501
석희	-4502
▁만드	-4503
▁이럴	-4504
▁절실	-4505
▁정서	-4506
▁짓을	-4507
▁한두	-4508
▁sns	-4509
▁너무도	-4510
▁얼굴을	-4511
▁역차별	-4512
▁포함한	-4513
▁심신미약	-4514
▁대한체육회	-4515
▁놈	-4516
신고	-4517
욕을	-4518
향을	-4519
▁감정	-4520
▁강한	-4521
▁남의	-4522
▁불쌍	-4523
▁오직	-4524
▁일관	-4525
▁하신	-4526
▁허락	-4527
고있는	-4528
졌으면	-4529
▁목숨을	-4530
▁올리고	-4531
▁초중고	-4532
▁해주는	-4533
▁가해자의	-4534
▁개인적인	-4535
▁공정하게	-4536
▁다른나라	-4537
▁이용하여	-4538
▁국민으로서	-4539
▁어린이집은	-4540
13	-4541
60	-4542
le	-4543
or	-4544
방학	-4545
봉사	-4546
분의	-4547
이야	-4548
퇴근	-4549
▁개입	-4550
▁암표	-4551
▁어릴	-4552
▁체력	-4553
▁현대	-4554
▁확률	-4555
▁이런일이	-4556
▁넓	-4557
책을	-4558
카드	-4559
▁맡길	-4560
▁손해	-4561
▁완전	-4562
▁가르쳐	-4563
▁모습이	-4564
▁일주일	-4565
▁행복한	-4566
웠습니다	-4567
▁아니라는	-4568
▁왜냐하면	-4569
때도	-4570
르노	-4571
▁넘게	-4572
▁노인	-4573
▁대화	-4574
▁방안	-4575
▁재수	-4576
▁무서운	-4577
▁인간이	-4578
▁저작권	-4579
▁태어난	-4580
▁하라고	-4581
해야하는	-4582
▁마음대로	-4583
▁친구들과	-4584
▁학생들도	-4585
더러	-4586
시민	-4587
에겐	-4588
▁동료	-4589
▁들여	-4590
▁여유	-4591
▁여행	-4592
관계를	-4593
으로만	-4594
▁부담이	-4595
▁시키는	-4596
▁아닌지	-4597
들에게도	-4598
▁청소년법	-4599
▁피해자들이	-4600
14	-4601
▁t	-4602
년대	-4603
아빠	-4604
TBC	-4605
▁건물	-4606
▁공무	-4607
▁더더	-4608
▁몰랐	-4609
▁무관	-4610
▁손을	-4611
▁추첨	-4612
▁한심	-4613
▁형성	-4614
▁민주당	-4615
▁저질렀	-4616
▁최선을	-4617
▁하려고	-4618
▁평가인증	-4619
▁대통령님께	-4620
▁브	-4621
유예	-4622
▁개개	-4623
▁세대	-4624
▁조용	-4625
▁경찰서	-4626
▁버젓이	-4627
▁범죄에	-4628
▁사생활	-4629
▁하세요	-4630
▁휴대폰	-4631
▁유치원을	-4632
▁팩	-4633
거면	-4634
씨의	-4635
화장	-4636
▁말할	-4637
▁안에	-4638
▁영구	-4639
▁카드	-4640
았는데	-4641
▁봤습니다	-4642
▁던	-4643
▁빚	-4644
▁탓	-4645
계로	-4646
라며	-4647
반에	-4648
없다	-4649
였던	-4650
재판	-4651
▁개편	-4652
▁구체	-4653
▁그랬	-4654
▁두렵	-4655
▁리그	-4656
▁만나	-4657
▁지식	-4658
▁해소	-4659
▁훌륭	-4660
▁성적을	-4661
▁여성도	-4662
▁태권도	-4663
동계올림픽	-4664
▁국민입니다	-4665
80	-4666
▁색	-4667
많이	-4668
유린	-4669
이랑	-4670
▁꾸준	-4671
▁대단	-4672
▁배울	-4673
▁선생	-4674
▁성과	-4675
▁애를	-4676
▁약한	-4677
▁자행	-4678
▁회원	-4679
냅니다	-4680
▁강제해	-4681
▁건강한	-4682
▁경찰청	-4683
▁누구도	-4684
▁느끼는	-4685
▁민원을	-4686
▁바라며	-4687
▁어려워	-4688
▁입장을	-4689
▁확실한	-4690
▁시스템을	-4691
드리겠습니다	-4692
▁떳	-4693
멤버	-4694
상담	-4695
조치	-4696
학원	-4697
훈련	-4698
▁KB	-4699
▁거래	-4700
▁눈에	-4701
▁배치	-4702
▁싶지	-4703
▁애니	-4704
▁오지	-4705
▁조성	-4706
▁축소	-4707
리스트	-4708
부터는	-4709
분들의	-4710
으라고	-4711
▁많다고	-4712
▁신태용	-4713
▁없지만	-4714
박탈	-4715
부와	-4716
▁계시	-4717
▁기울	-4718
▁수백	-4719
▁신분	-4720
▁아실	-4721
▁주요	-4722
▁챙겨	-4723
▁파벌	-4724
▁현역	-4725
사람은	-4726
서비스	-4727
픕니다	-4728
▁대다수	-4729
▁더욱더	-4730
▁방송국	-4731
▁시대가	-4732
▁침해하는	-4733
▁커뮤니티	-4734
▁않겠습니까	-4735
▁있음	-4736
▁진출	-4737
때까지	-4738
▁언론은	-4739
▁일어날	-4740
▁자리를	-4741
▁대다수의	-4742
▁어른들이	-4743
▁D	-4744
▁혁	-4745
▁남겨	-4746
▁드는	-4747
▁들은	-4748
▁모집	-4749
▁부활	-4750
▁소수	-4751
▁수술	-4752
▁실수	-4753
▁편의	-4754
에게만	-4755
▁보여주	-4756
▁확실히	-4757
▁살인사건	-4758
ᅳᅳ	-4759
분야	-4760
사와	-4761
입장	-4762
▁감당	-4763
▁대전	-4764
▁실태	-4765
▁최초	-4766
선수의	-4767
▁가정이	-4768
▁군대에	-4769
▁없애고	-4770
뿐입니다	-4771
▁안전하게	-4772
▁올림픽이	-4773
해야한다고	-4774
▁겁	-4775
량을	-4776
병원	-4777
비리	-4778
비용	-4779
▁기여	-4780
▁느꼈	-4781
▁대변	-4782
▁될수	-4783
▁아름	-4784
▁인원	-4785
▁중앙	-4786
단일팀	-4787
▁개인이	-4788
▁나이에	-4789
▁발언을	-4790
▁살아갈	-4791
▁한국을	-4792
▁대표하는	-4793
▁부모들이	-4794
▁않는다는	-4795
▁대통령님의	-4796
▁방탄소년단이	-4797
기의	-4798
라우	-4799
함에	-4800
ews	-4801
▁병설	-4802
▁비록	-4803
▁유출	-4804
▁전기	-4805
▁주관	-4806
▁출제	-4807
여중생	-4808
▁자사고	-4809
▁컴퓨터	-4810
▁성평등을	-4811
▁홈페이지	-4812
고있	-4813
이드	-4814
지마	-4815
체능	-4816
▁감형	-4817
▁상상	-4818
▁신설	-4819
▁죄가	-4820
▁죽을	-4821
▁평소	-4822
이나마	-4823
▁책임이	-4824
하겠다는	-4825
▁대통령의	-4826
▁쉴	-4827
앞에	-4828
죄를	-4829
페미	-4830
▁떳떳	-4831
▁몇년	-4832
▁악의	-4833
▁이수	-4834
▁중인	-4835
▁즉각	-4836
▁부담을	-4837
▁알리고	-4838
▁알아서	-4839
▁하도록	-4840
▁대부분이	-4841
▁멈	-4842
답게	-4843
▁나영	-4844
▁바램	-4845
▁법무	-4846
▁증명	-4847
▁항의	-4848
선수는	-4849
▁감독을	-4850
▁경찰에	-4851
▁마세요	-4852
▁배우는	-4853
▁생기는	-4854
▁만들어야	-4855
▁않았으면	-4856
▁청소년의	-4857
▁안타깝습니다	-4858
▁낼	-4859
▁멍	-4860
▁헛	-4861
내에	-4862
바로	-4863
없어	-4864
여자	-4865
이도	-4866
제발	-4867
▁가득	-4868
▁바쁘	-4869
▁유저	-4870
▁인상	-4871
▁허나	-4872
교사가	-4873
▁경찰은	-4874
▁미디어	-4875
▁사과를	-4876
▁하였고	-4877
▁훈련을	-4878
▁가르치는	-4879
▁한국축구	-4880
▁개인적으로	-4881
▁명절	-4882
▁바른	-4883
▁있죠	-4884
▁효율	-4885
법으로	-4886
시스템	-4887
▁규정을	-4888
▁얘기를	-4889
▁자녀가	-4890
▁젊은이	-4891
▁혜택이	-4892
▁화장을	-4893
▁못했습니다	-4894
로만	-4895
세대	-4896
은혜	-4897
해준	-4898
▁내세	-4899
▁동계	-4900
▁시선	-4901
▁시정	-4902
▁연금	-4903
▁이외	-4904
▁하던	-4905
이기도	-4906
칩니다	-4907
하다면	-4908
해지는	-4909
▁더더욱	-4910
▁비리가	-4911
▁사례가	-4912
▁아시아	-4913
▁안좋은	-4914
▁애들이	-4915
▁이명박	-4916
▁합법화	-4917
대한민국	-4918
하겠다고	-4919
▁윗	-4920
년의	-4921
되기	-4922
▁달고	-4923
▁예정	-4924
▁우승	-4925
▁절차	-4926
▁조심	-4927
▁직무	-4928
국민이	-4929
▁결혼을	-4930
▁모르겠	-4931
▁무고한	-4932
▁상대방	-4933
▁정규직	-4934
▁행위는	-4935
▁2014	-4936
▁하루빨리	-4937
ad	-4938
an	-4939
분은	-4940
▁극단	-4941
▁다루	-4942
▁마녀	-4943
▁모아	-4944
▁보복	-4945
▁불쾌	-4946
▁조항	-4947
▁참석	-4948
▁폭로	-4949
▁학기	-4950
필요한	-4951
▁남성과	-4952
▁동일한	-4953
▁저소득	-4954
▁페이스	-4955
▁활성화	-4956
▁무섭습니다	-4957
se	-4958
▁칭	-4959
는가	-4960
운전	-4961
율이	-4962
준비	-4963
치면	-4964
훈처	-4965
▁기획	-4966
▁길을	-4967
▁보냈	-4968
▁생각도	-4969
▁성적이	-4970
▁실력이	-4971
▁않는다	-4972
▁조금만	-4973
▁믿습니다	-4974
▁성폭행을	-4975
▁인권유린	-4976
▁선생님들의	-4977
개선	-4978
과도	-4979
시기	-4980
조리	-4981
▁거리	-4982
▁돌보	-4983
▁세종	-4984
▁유리	-4985
▁잡고	-4986
▁전통	-4987
▁통일	-4988
▁포항	-4989
▁후배	-4990
들끼리	-4991
큽니다	-4992
▁대상이	-4993
▁최대한	-4994
▁한달에	-4995
▁해주십시요	-4996
신이	-4997
실에	-4998
하러	-4999
함과	-5000
▁가난	-5001
▁강사	-5002
▁기득	-5003
▁뽑는	-5004
▁식의	-5005
▁이득	-5006
▁입는	-5007
▁잠시	-5008
▁조정	-5009
▁축협	-5010
▁비용이	-5011
▁주어야	-5012
▁합시다	-5013
▁현실에	-5014
▁대통령님이	-5015
▁프로그램을	-5016
▁L	-5017
거든	-5018
도에	-5019
량한	-5020
무리	-5021
민정	-5022
재를	-5023
추고	-5024
▁날이	-5025
▁시각	-5026
▁안희	-5027
▁유린	-5028
▁임대	-5029
▁전자	-5030
▁점을	-5031
월부터	-5032
▁이전에	-5033
▁적절한	-5034
▁정책은	-5035
자입니다	-5036
▁무엇인지	-5037
▁선생님들은	-5038
▁여성가족부는	-5039
▁하고있습니다	-5040
▁겉	-5041
냐는	-5042
둥이	-5043
명규	-5044
▁교체	-5045
▁사안	-5046
▁옳지	-5047
▁재정	-5048
▁정리	-5049
▁취득	-5050
다는데	-5051
▁비용을	-5052
▁이해할	-5053
▁함부로	-5054
▁2015	-5055
▁환경에서	-5056
고시	-5057
리카	-5058
부담	-5059
았던	-5060
와의	-5061
종일	-5062
중이	-5063
▁공격	-5064
▁기가	-5065
▁나쁘	-5066
▁미친	-5067
▁선배	-5068
▁성실	-5069
▁유사	-5070
▁입을	-5071
▁죽어	-5072
인데도	-5073
▁가운데	-5074
▁부분을	-5075
▁불편한	-5076
▁한국은	-5077
▁제안합니다	-5078
▁문재인대통령님	-5079
심의	-5080
추어	-5081
▁살해	-5082
▁용서	-5083
있다고	-5084
▁국가보	-5085
▁못하면	-5086
▁보도를	-5087
▁없으며	-5088
▁예체능	-5089
▁자격증	-5090
▁합당한	-5091
▁공공기관	-5092
▁교육과정	-5093
▁만들어진	-5094
▁든	-5095
기지	-5096
서야	-5097
울러	-5098
위의	-5099
인도	-5100
제의	-5101
조를	-5102
학과	-5103
▁가끔	-5104
▁때는	-5105
▁무능	-5106
▁진상	-5107
▁출입	-5108
년부터	-5109
스럽고	-5110
▁과정을	-5111
▁언론을	-5112
▁근무하는	-5113
▁처벌해야	-5114
님은	-5115
여행	-5116
인에	-5117
점은	-5118
정말	-5119
▁각각	-5120
▁긍정	-5121
▁먹는	-5122
▁불리	-5123
▁통신	-5124
▁한쪽	-5125
내에서	-5126
들보다	-5127
았으면	-5128
이라며	-5129
▁받으며	-5130
▁부분은	-5131
▁불공평	-5132
▁유은혜	-5133
▁주시면	-5134
▁처벌해	-5135
▁남자들이	-5136
▁사립학교	-5137
▁저지르는	-5138
23	-5139
EC	-5140
▁F	-5141
란다	-5142
수저	-5143
였고	-5144
죄로	-5145
주면	-5146
▁감소	-5147
▁검열	-5148
▁지출	-5149
▁첨부	-5150
▁학급	-5151
되었고	-5152
문제가	-5153
방송을	-5154
하자는	-5155
▁국가에	-5156
▁두번째	-5157
▁무책임	-5158
▁북한의	-5159
▁업무를	-5160
▁여론을	-5161
▁자유가	-5162
▁포르노	-5163
▁한가지	-5164
하고있는	-5165
▁사건으로	-5166
▁상태에서	-5167
16	-5168
▁년	-5169
▁쥐	-5170
고도	-5171
모두	-5172
산을	-5173
시켰	-5174
▁내놓	-5175
▁달려	-5176
▁연장	-5177
▁연합	-5178
▁작가	-5179
▁장기	-5180
▁하실	-5181
것처럼	-5182
▁없으니	-5183
▁잘못이	-5184
▁하나로	-5185
▁말합니다	-5186
▁조금이나마	-5187
▁떼	-5188
당시	-5189
방에	-5190
의원	-5191
지급	-5192
100	-5193
▁나갈	-5194
▁느낄	-5195
▁며칠	-5196
▁모를	-5197
▁블랙	-5198
▁살려	-5199
▁영아	-5200
▁자원	-5201
▁존엄	-5202
걸까요	-5203
다니는	-5204
시간은	-5205
있지만	-5206
제도가	-5207
▁머리를	-5208
▁방법은	-5209
▁보다는	-5210
▁어디에	-5211
▁힘없는	-5212
▁JTBC	-5213
▁청소년보호법	-5214
국이	-5215
발언	-5216
살이	-5217
선발	-5218
십쇼	-5219
치한	-5220
▁구글	-5221
▁내일	-5222
▁접속	-5223
▁즉시	-5224
▁피땀	-5225
했는지	-5226
▁강하게	-5227
▁동의를	-5228
▁여성우	-5229
▁충분한	-5230
▁가정에서	-5231
▁중소기업	-5232
▁평등하게	-5233
▁하는것이	-5234
▁나왔습니다	-5235
▁말도안되는	-5236
▁뺏	-5237
반을	-5238
소수	-5239
▁그거	-5240
▁노무	-5241
▁도망	-5242
▁명칭	-5243
▁방통	-5244
▁부패	-5245
▁소중	-5246
▁연결	-5247
▁광고를	-5248
▁끝나고	-5249
▁생각에	-5250
▁아울러	-5251
▁안에서	-5252
▁억지로	-5253
▁잘하는	-5254
▁전명규	-5255
▁학생과	-5256
▁2002	-5257
▁늘어나고	-5258
▁유아교육	-5259
▁지켜주세요	-5260
de	-5261
▁T	-5262
▁십	-5263
예요	-5264
와는	-5265
후에	-5266
▁고등	-5267
▁공포	-5268
▁기분	-5269
▁노예	-5270
▁500	-5271
▁교육비	-5272
▁규제를	-5273
▁대놓고	-5274
▁되도록	-5275
▁방송사	-5276
▁보내야	-5277
▁소수의	-5278
▁안타까	-5279
▁일본의	-5280
▁정확히	-5281
▁큽니다	-5282
▁무엇보다	-5283
▁올림픽에	-5284
▁있었으면	-5285
나면	-5286
반대	-5287
습을	-5288
잘못	-5289
해줄	-5290
해질	-5291
회사	-5292
▁공기	-5293
▁뒤에	-5294
▁수익	-5295
▁옳은	-5296
▁점수	-5297
▁지내	-5298
▁타고	-5299
▁탈락	-5300
▁호칭	-5301
문제를	-5302
버리고	-5303
신다면	-5304
운동을	-5305
▁예산을	-5306
▁이하의	-5307
▁정신병	-5308
해주시면	-5309
▁그들에게	-5310
▁문제라고	-5311
▁친구들이	-5312
▁페이스북	-5313
해주십시요	-5314
▁고등학교를	-5315
속히	-5316
항공	-5317
▁기념	-5318
▁납부	-5319
▁놀이	-5320
▁사설	-5321
▁삶의	-5322
▁센터	-5323
▁소개	-5324
▁악마	-5325
▁않기	-5326
▁억압	-5327
▁지킬	-5328
▁치고	-5329
▁퇴직	-5330
▁한참	-5331
▁할때	-5332
대에서	-5333
었다는	-5334
▁권력을	-5335
▁여가부	-5336
▁최고의	-5337
▁현재는	-5338
중입니다	-5339
▁1000	-5340
▁악용하는	-5341
▁부산여중생	-5342
▁육아휴직을	-5343
▁평창동계올림픽	-5344
▁썼	-5345
돈을	-5346
무니	-5347
버스	-5348
식에	-5349
있어	-5350
자유	-5351
▁가벼	-5352
▁가중	-5353
▁난무	-5354
▁악질	-5355
▁에어	-5356
▁주입	-5357
▁가족이	-5358
▁교과서	-5359
▁능력이	-5360
▁보육료	-5361
▁사고를	-5362
▁세금이	-5363
▁씁니다	-5364
▁없어야	-5365
▁있었고	-5366
▁말입니까	-5367
▁방향으로	-5368
▁않는다고	-5369
▁앞으로도	-5370
▁철저하게	-5371
▁청소년들은	-5372
PO	-5373
님을	-5374
다나	-5375
죄가	-5376
짓을	-5377
하길	-5378
▁아픔	-5379
▁앉아	-5380
▁영역	-5381
▁윤리	-5382
▁인맥	-5383
들에겐	-5384
럴림픽	-5385
선수를	-5386
이라서	-5387
▁고소를	-5388
▁방송에	-5389
▁사용할	-5390
▁소식을	-5391
▁올리게	-5392
▁명목으로	-5393
▁발생하고	-5394
▁아십니까	-5395
▁일방적으로	-5396
만은	-5397
사진	-5398
았고	-5399
었을	-5400
인한	-5401
즈음	-5402
▁31	-5403
▁가혹	-5404
▁감히	-5405
▁동원	-5406
▁듣는	-5407
▁맡겨	-5408
▁몇십	-5409
▁모바	-5410
▁부작	-5411
▁수면	-5412
▁위의	-5413
▁입은	-5414
▁종편	-5415
▁주기	-5416
▁힘써	-5417
마저도	-5418
제도는	-5419
▁메달을	-5420
▁부모는	-5421
▁아무렇	-5422
▁당당하게	-5423
▁널	-5424
▁빅	-5425
감사	-5426
드려	-5427
령을	-5428
사냥	-5429
심에	-5430
트랙	-5431
▁가볍	-5432
▁데려	-5433
▁만화	-5434
▁모순	-5435
▁몸이	-5436
▁복잡	-5437
▁사행	-5438
▁임시	-5439
▁주실	-5440
▁흔히	-5441
대표팀	-5442
문제로	-5443
▁결과는	-5444
▁나가서	-5445
▁더러운	-5446
▁사이버	-5447
▁않아서	-5448
▁없어요	-5449
▁좋다고	-5450
▁존재하는	-5451
▁빙상연맹의	-5452
▁지금이라도	-5453
▁처벌해주세요	-5454
▁b	-5455
▁값	-5456
▁캠	-5457
계획	-5458
남성	-5459
자치	-5460
지방	-5461
▁공약	-5462
▁대형	-5463
▁법원	-5464
▁수고	-5465
▁양산	-5466
▁이성	-5467
▁자부	-5468
▁조재	-5469
▁한남	-5470
▁허가	-5471
▁후원	-5472
뭡니까	-5473
▁그렇고	-5474
▁두려워	-5475
▁평등을	-5476
▁행복을	-5477
만이라도	-5478
▁맞습니다	-5479
▁운영하고	-5480
▁할수있는	-5481
▁방탄소년단은	-5482
보며	-5483
자금	-5484
짜리	-5485
토록	-5486
iew	-5487
▁규모	-5488
▁부추	-5489
▁상품	-5490
▁어마	-5491
▁영양	-5492
으려고	-5493
점에서	-5494
줬으면	-5495
▁거짓말	-5496
▁경찰의	-5497
▁또다른	-5498
▁비인기	-5499
▁운영을	-5500
▁위험한	-5501
▁있는게	-5502
되었으면	-5503
▁공정하고	-5504
▁근본적인	-5505
▁남자들은	-5506
▁방식으로	-5507
▁좁	-5508
거같	-5509
돌봄	-5510
실이	-5511
요청	-5512
치료	-5513
▁건설	-5514
▁논의	-5515
▁말에	-5516
▁외모	-5517
▁우롱	-5518
▁잠을	-5519
천만원	-5520
▁300	-5521
▁가치를	-5522
▁꾸준히	-5523
▁들어간	-5524
▁반대로	-5525
▁생각할	-5526
▁수시로	-5527
▁심석희	-5528
▁앞두고	-5529
▁의견이	-5530
선수들이	-5531
▁남성들은	-5532
▁살아가고	-5533
▁심각하게	-5534
▁집행유예	-5535
▁중요하지만	-5536
릴수	-5537
세력	-5538
어로	-5539
지의	-5540
행정	-5541
▁배운	-5542
▁상당	-5543
▁수강	-5544
▁주로	-5545
▁출생	-5546
▁팩트	-5547
계에서	-5548
교사를	-5549
여러분	-5550
영상을	-5551
하기를	-5552
▁가정을	-5553
▁받아서	-5554
▁싶어서	-5555
▁자격을	-5556
▁저같은	-5557
▁하시고	-5558
▁부모들은	-5559
▁스포츠를	-5560
▁프로야구	-5561
▁부탁합니다	-5562
▁생각하십니까	-5563
▁깜	-5564
감과	-5565
소송	-5566
왔고	-5567
이게	-5568
일수	-5569
제공	-5570
종합	-5571
카페	-5572
▁걸어	-5573
▁기만	-5574
▁등하	-5575
▁미술	-5576
▁배제	-5577
▁상징	-5578
▁쉬운	-5579
▁점이	-5580
▁중독	-5581
▁초과	-5582
▁최악	-5583
▁통보	-5584
▁할지	-5585
▁획득	-5586
▁휴가	-5587
다면서	-5588
라우마	-5589
사건을	-5590
위해서	-5591
하고도	-5592
▁분노를	-5593
▁터무니	-5594
민주주의	-5595
▁생각하며	-5596
▁바꿔주세요	-5597
가락	-5598
거부	-5599
날이	-5600
으시	-5601
▁공중	-5602
▁근처	-5603
▁기숙	-5604
▁논리	-5605
▁말한	-5606
▁목격	-5607
▁반응	-5608
▁영업	-5609
▁입에	-5610
▁청구	-5611
안에서	-5612
이기에	-5613
▁교사들	-5614
▁기사에	-5615
▁때마다	-5616
▁선량한	-5617
▁아닐까	-5618
▁정치인	-5619
▁처벌은	-5620
▁특성화	-5621
▁마녀사냥	-5622
▁양육비를	-5623
▁어떨까요	-5624
▁태극기를	-5625
▁대통령께서	-5626
▁마찬가지로	-5627
op	-5628
거래	-5629
교를	-5630
는건	-5631
보기	-5632
아래	-5633
이션	-5634
회견	-5635
▁공산	-5636
▁나경	-5637
▁되길	-5638
▁막을	-5639
▁보낸	-5640
▁속상	-5641
▁전수	-5642
▁노무현	-5643
▁달라고	-5644
▁등록금	-5645
▁신청을	-5646
▁직업을	-5647
▁훌륭한	-5648
▁여자들은	-5649
▁해주시기	-5650
▁사람으로서	-5651
▁상태입니다	-5652
▁실질적으로	-5653
▁갚	-5654
만명	-5655
보단	-5656
표를	-5657
▁45	-5658
▁가기	-5659
▁낳아	-5660
▁버티	-5661
▁비방	-5662
▁않나	-5663
▁알수	-5664
▁익명	-5665
거든요	-5666
케이팅	-5667
해줘야	-5668
▁같아서	-5669
▁과도한	-5670
▁버리고	-5671
▁않지만	-5672
▁정부에	-5673
▁평등한	-5674
▁하는건	-5675
갔습니다	-5676
▁공부하는	-5677
▁안된다는	-5678
▁여자아이	-5679
▁자극적인	-5680
▁가해자들은	-5681
▁국민으로써	-5682
▁중고등학교	-5683
▁균	-5684
▁났	-5685
경제	-5686
목을	-5687
배우	-5688
약한	-5689
움에	-5690
지금	-5691
▁ᅲᅲ	-5692
▁국기	-5693
▁기재	-5694
▁끝난	-5695
▁나름	-5696
▁눈을	-5697
▁멤버	-5698
▁밀어	-5699
▁부과	-5700
▁비밀	-5701
▁사전	-5702
▁쉽지	-5703
▁실천	-5704
▁이승	-5705
▁적응	-5706
▁전학	-5707
▁택배	-5708
▁확정	-5709
▁수밖에	-5710
▁열리는	-5711
▁이들을	-5712
▁타인의	-5713
▁하루에	-5714
▁헌법에	-5715
원합니다	-5716
▁남성혐오	-5717
▁다릅니다	-5718
▁청소년을	-5719
고는	-5720
단은	-5721
시피	-5722
악을	-5723
▁개설	-5724
▁맞고	-5725
▁복귀	-5726
▁성을	-5727
▁자존	-5728
들만의	-5729
평가를	-5730
할수도	-5731
▁될까요	-5732
▁들어갈	-5733
▁인식을	-5734
▁컨텐츠	-5735
▁모르지만	-5736
▁바뀌어야	-5737
▁방송에서	-5738
▁살고있는	-5739
▁출산장려	-5740
▁학생들과	-5741
▁피해자들은	-5742
▁해야한다고	-5743
90	-5744
강사	-5745
개를	-5746
겁게	-5747
급여	-5748
주민	-5749
▁내지	-5750
▁대비	-5751
▁마구	-5752
▁발급	-5753
▁부처	-5754
▁분열	-5755
▁약자	-5756
▁유발	-5757
▁좌절	-5758
▁주인	-5759
▁태어	-5760
▁파렴	-5761
▁피고	-5762
았지만	-5763
하자면	-5764
▁능력을	-5765
▁자리에	-5766
되었다고	-5767
▁계십니다	-5768
▁근무하고	-5769
▁미세먼지	-5770
▁사람으로	-5771
▁아프리카	-5772
▁고등학교에	-5773
▁어린이집이	-5774
▁학부모입니다	-5775
▁마찬가지입니다	-5776
70	-5777
가야	-5778
길래	-5779
동산	-5780
차량	-5781
향이	-5782
회장	-5783
▁갈등	-5784
▁남혐	-5785
▁뭔가	-5786
▁받기	-5787
▁베트	-5788
▁부르	-5789
▁승리	-5790
▁학폭	-5791
당하는	-5792
▁엄연히	-5793
▁인권과	-5794
▁찾아가	-5795
▁군면제를	-5796
▁문제점을	-5797
▁빙산연맹	-5798
▁저소득층	-5799
▁트라우마	-5800
하셨습니다	-5801
ᅮᅮ	-5802
▁돕	-5803
▁펜	-5804
개발	-5805
라이	-5806
양육	-5807
휴가	-5808
▁모독	-5809
▁소외	-5810
▁속에	-5811
▁장소	-5812
▁회장	-5813
되어서	-5814
없다고	-5815
지에서	-5816
▁개선이	-5817
▁건전한	-5818
▁문제도	-5819
▁뭡니까	-5820
▁정책에	-5821
▁한국인	-5822
▁행동이	-5823
tions	-5824
▁국가장학	-5825
▁대해서도	-5826
▁발생하는	-5827
▁불이익을	-5828
▁선수에게	-5829
▁준비하는	-5830
▁지원하는	-5831
도의	-5832
따라	-5833
이하	-5834
자율	-5835
▁내야	-5836
▁따뜻	-5837
▁매체	-5838
▁바닥	-5839
▁아르	-5840
▁예로	-5841
▁재능	-5842
▁저렴	-5843
▁전교	-5844
▁제품	-5845
▁지경	-5846
▁특목	-5847
만큼은	-5848
했으나	-5849
▁계기로	-5850
▁그만두	-5851
▁또다시	-5852
▁모바일	-5853
▁사회는	-5854
▁수준의	-5855
▁엄중한	-5856
▁공부하고	-5857
▁단일팀을	-5858
▁사이트에	-5859
▁상식적으로	-5860
▁심각합니다	-5861
bc	-5862
▁낫	-5863
검찰	-5864
곳은	-5865
권에	-5866
도와	-5867
되서	-5868
선거	-5869
스런	-5870
연금	-5871
영어	-5872
판결	-5873
피드	-5874
▁넣어	-5875
▁동물	-5876
▁등은	-5877
▁멀리	-5878
▁신입	-5879
▁쓰지	-5880
▁음식	-5881
▁투입	-5882
월주의	-5883
지않아	-5884
하기가	-5885
▁것인데	-5886
▁국가적	-5887
▁마련해	-5888
▁말씀을	-5889
▁아이템	-5890
▁인식이	-5891
▁일반인	-5892
▁주변에	-5893
▁출산을	-5894
아닌가요	-5895
▁부모에게	-5896
▁자유학기	-5897
▁조사하여	-5898
관은	-5899
는다	-5900
라라	-5901
이용	-5902
▁그날	-5903
▁나눠	-5904
▁다행	-5905
▁뜻을	-5906
▁몇번	-5907
▁문을	-5908
▁방영	-5909
▁소유	-5910
▁안고	-5911
▁우습	-5912
▁재발	-5913
▁하죠	-5914
버리는	-5915
수업을	-5916
장애인	-5917
▁많아서	-5918
▁문체부	-5919
▁병역면	-5920
▁수신료	-5921
▁신체적	-5922
▁이끌어	-5923
▁전국의	-5924
▁제외한	-5925
▁조치가	-5926
▁하나가	-5927
▁무분별한	-5928
▁불필요한	-5929
▁정의로운	-5930
▁아니더라도	-5931
▁우리나라에	-5932
▁정부에서는	-5933
▁건지	-5934
▁그림	-5935
▁바꿀	-5936
▁발의	-5937
▁선임	-5938
▁안돼	-5939
▁연애	-5940
▁이중	-5941
▁인증	-5942
▁전용	-5943
▁편견	-5944
가면서	-5945
군다나	-5946
아이는	-5947
▁가르치	-5948
▁같네요	-5949
▁영화를	-5950
▁와이프	-5951
▁있기에	-5952
▁있는거	-5953
▁징계를	-5954
▁판결이	-5955
▁하다가	-5956
▁한번도	-5957
만으로도	-5958
▁뉴스에서	-5959
▁시켜주세요	-5960
▁여성가족부가	-5961
tp	-5962
▁혜	-5963
받게	-5964
범이	-5965
스쿨	-5966
일도	-5967
카오	-5968
eti	-5969
▁나의	-5970
▁느낀	-5971
▁등급	-5972
▁마다	-5973
▁예능	-5974
▁원치	-5975
▁횡포	-5976
아이의	-5977
▁되나요	-5978
▁만들지	-5979
▁말아야	-5980
▁시기에	-5981
▁아이도	-5982
▁양심적	-5983
▁여자도	-5984
▁지원금	-5985
▁해서는	-5986
▁안심하고	-5987
▁올림픽에서	-5988
▁피해자에게	-5989
▁놔	-5990
▁삽	-5991
▁헬	-5992
고생	-5993
근로	-5994
았다	-5995
전이	-5996
주가	-5997
하우	-5998
회생	-5999
▁간통	-6000
▁거절	-6001
▁기능	-6002
▁딸이	-6003
▁망가	-6004
▁무지	-6005
▁성립	-6006
▁어째	-6007
▁외부	-6008
▁유통	-6009
▁이르	-6010
▁작업	-6011
교육의	-6012
시부터	-6013
▁518	-6014
▁다음과	-6015
▁마땅한	-6016
▁바꿔야	-6017
▁우리도	-6018
▁일들을	-6019
▁잘못한	-6020
▁점수를	-6021
▁처벌할	-6022
▁카메라	-6023
▁하라는	-6024
▁해결할	-6025
으로서의	-6026
▁당신들이	-6027
▁봉사활동	-6028
▁시스템이	-6029
▁유치원은	-6030
▁해주시고	-6031
▁이루어지고	-6032
▁하겠습니다	-6033
24	-6034
▁냈	-6035
▁탐	-6036
례를	-6037
으려	-6038
음이	-6039
화로	-6040
회가	-6041
▁끊임	-6042
▁등원	-6043
▁살게	-6044
▁연차	-6045
▁중등	-6046
▁파괴	-6047
▁해줄	-6048
시험을	-6049
혜택을	-6050
▁감사를	-6051
▁근무를	-6052
▁들어서	-6053
▁부분에	-6054
▁이해를	-6055
▁정신과	-6056
▁기자회견	-6057
▁소년법을	-6058
▁엄마들이	-6059
▁있는데요	-6060
▁학교생활	-6061
▁자연스럽게	-6062
권은	-6063
나무	-6064
늦게	-6065
당에	-6066
성도	-6067
연구	-6068
쟁이	-6069
적도	-6070
트가	-6071
티즌	-6072
▁27	-6073
▁건축	-6074
▁대충	-6075
▁도를	-6076
▁바보	-6077
▁발휘	-6078
▁변질	-6079
▁보셨	-6080
▁보완	-6081
▁영원	-6082
▁조기	-6083
▁책을	-6084
▁축제	-6085
▁출석	-6086
▁표준	-6087
분들을	-6088
하려면	-6089
▁데이트	-6090
▁몰라도	-6091
▁바람직	-6092
▁있는것	-6093
▁정부를	-6094
▁회사를	-6095
함으로써	-6096
▁국민신문	-6097
▁그러면서	-6098
▁성범죄를	-6099
▁어려움을	-6100
▁있어서는	-6101
▁자라나는	-6102
etitions	-6103
▁됬	-6104
▁밟	-6105
공자	-6106
년째	-6107
등에	-6108
심한	-6109
▁끌어	-6110
▁무리	-6111
▁뽑아	-6112
▁생존	-6113
▁선행	-6114
▁유치	-6115
▁인물	-6116
▁입증	-6117
▁증언	-6118
▁하라	-6119
▁학력	-6120
▁했을	-6121
는다고	-6122
마시고	-6123
▁감독의	-6124
▁미혼모	-6125
▁발생한	-6126
▁성관계	-6127
▁피해는	-6128
▁환경이	-6129
아이들이	-6130
▁받아들이	-6131
▁어려움이	-6132
▁있었는데	-6133
▁막아주세요	-6134
▁하셨습니다	-6135
▁찢	-6136
사용	-6137
아파	-6138
여도	-6139
유총	-6140
인것	-6141
해지	-6142
행동	-6143
▁36	-6144
▁넘쳐	-6145
▁인데	-6146
▁임원	-6147
▁진보	-6148
되면서	-6149
학년이	-6150
▁가까이	-6151
▁개선을	-6152
▁병원에	-6153
▁이후에	-6154
▁일반고	-6155
▁잠재적	-6156
▁줄이고	-6157
▁한국이	-6158
차원에서	-6159
▁보호하는	-6160
▁생각해서	-6161
▁아직까지	-6162
▁어른들의	-6163
27	-6164
▁넷	-6165
▁맛	-6166
매를	-6167
배를	-6168
영업	-6169
졌고	-6170
▁28	-6171
▁걸린	-6172
▁금전	-6173
▁대안	-6174
▁돈도	-6175
▁몸을	-6176
▁밝히	-6177
▁뻔뻔	-6178
▁수영	-6179
▁시끄	-6180
▁은폐	-6181
▁일로	-6182
▁일명	-6183
▁입원	-6184
▁자퇴	-6185
▁재벌	-6186
▁정황	-6187
▁편안	-6188
상에서	-6189
조차도	-6190
학교는	-6191
▁것들이	-6192
▁동등한	-6193
▁떨어진	-6194
▁범죄의	-6195
▁분들의	-6196
▁비정규	-6197
▁시간은	-6198
▁자살을	-6199
▁정신을	-6200
▁직장인	-6201
▁벌어지고	-6202
▁사용하고	-6203
▁여성단체	-6204
▁교육부에서	-6205
▁갓	-6206
관광	-6207
구에	-6208
또는	-6209
어마	-6210
▁거쳐	-6211
▁글로	-6212
▁무한	-6213
▁사장	-6214
▁서슴	-6215
▁악성	-6216
▁야근	-6217
▁여겨	-6218
▁외치	-6219
▁음원	-6220
▁짜증	-6221
▁치밀	-6222
기까지	-6223
▁무차별	-6224
▁이정도	-6225
▁좋지만	-6226
▁충격을	-6227
▁더군다나	-6228
▁서비스를	-6229
▁심지어는	-6230
▁일방적인	-6231
▁아빠입니다	-6232
▁자랑스러운	-6233
oo	-6234
▁케	-6235
도시	-6236
순간	-6237
순위	-6238
업무	-6239
왔던	-6240
▁감싸	-6241
▁그중	-6242
▁대대	-6243
▁막기	-6244
▁시킬	-6245
▁야동	-6246
▁여건	-6247
▁옷을	-6248
▁인건	-6249
▁져야	-6250
▁확산	-6251
바이트	-6252
에서만	-6253
▁나오면	-6254
▁넘어가	-6255
▁마무리	-6256
▁범죄는	-6257
▁북한이	-6258
▁않았고	-6259
▁은메달	-6260
▁자세히	-6261
▁적폐를	-6262
▁죽이는	-6263
▁지키고	-6264
▁첫번째	-6265
▁학교와	-6266
▁모두에게	-6267
▁시점에서	-6268
▁아픕니다	-6269
▁중학교에	-6270
▁정신적으로	-6271
▁씻	-6272
건강	-6273
나다	-6274
는것	-6275
일지	-6276
▁26	-6277
▁감수	-6278
▁딸을	-6279
▁바탕	-6280
▁심의	-6281
▁위와	-6282
▁응시	-6283
▁이리	-6284
▁작품	-6285
▁취재	-6286
▁탁상	-6287
▁특성	-6288
▁해석	-6289
▁회복	-6290
실에서	-6291
야말로	-6292
▁나가는	-6293
▁답답한	-6294
▁무료로	-6295
▁시켜야	-6296
▁싶어도	-6297
▁연락을	-6298
▁오늘도	-6299
적입니다	-6300
▁선생님의	-6301
▁성추행을	-6302
▁처음으로	-6303
▁답답합니다	-6304
▁이루어져야	-6305
en	-6306
▁냉	-6307
▁앱	-6308
돌아	-6309
민족	-6310
비에	-6311
시길	-6312
연예	-6313
영화	-6314
잡고	-6315
주택	-6316
테고	-6317
화된	-6318
▁같다	-6319
▁때도	-6320
▁명문	-6321
▁미루	-6322
▁사무	-6323
까지만	-6324
낍니다	-6325
트트랙	-6326
학습을	-6327
▁계시는	-6328
▁김정은	-6329
▁넘어서	-6330
▁어쩌면	-6331
▁여자를	-6332
▁우울증	-6333
▁자기들	-6334
▁전국에	-6335
▁조사가	-6336
랐습니다	-6337
▁알면서도	-6338
▁일이라고	-6339
▁청와대에	-6340
▁하루종일	-6341
▁국가보훈처	-6342
▁세계적으로	-6343
▁방탄소년단의	-6344
거지	-6345
게시	-6346
교수	-6347
교통	-6348
역을	-6349
있을	-6350
조에	-6351
출을	-6352
팀이	-6353
▁강의	-6354
▁겪고	-6355
▁길이	-6356
▁꿈과	-6357
▁나도	-6358
▁맞벌	-6359
▁유료	-6360
▁읽고	-6361
▁추억	-6362
▁폐원	-6363
사건이	-6364
▁갑질을	-6365
▁누구는	-6366
▁단어를	-6367
▁아기가	-6368
▁아이디	-6369
▁여성과	-6370
▁월급을	-6371
▁이것도	-6372
▁인해서	-6373
▁대통령을	-6374
▁조사하고	-6375
▁필요하다	-6376
▁확실하게	-6377
▁회사에서	-6378
▁의문입니다	-6379
▁중요합니다	-6380
▁v	-6381
▁꽤	-6382
▁엑	-6383
력과	-6384
비율	-6385
씨를	-6386
▁다수	-6387
▁더럽	-6388
▁야기	-6389
▁의식	-6390
▁지구	-6391
▁지향	-6392
▁학과	-6393
교실을	-6394
분으로	-6395
▁바란다	-6396
▁보시면	-6397
▁올라온	-6398
▁자식을	-6399
▁지키는	-6400
▁카카오	-6401
▁해주고	-6402
▁무서워서	-6403
▁학원에서	-6404
거같습니다	-6405
▁남북단일팀	-6406
▁당했습니다	-6407
▁아르바이트	-6408
▁초등학교에	-6409
▁생각했습니다	-6410
판에	-6411
▁경남	-6412
▁그녀	-6413
▁맡기	-6414
▁예외	-6415
▁은행	-6416
▁이웃	-6417
▁지는	-6418
▁출판	-6419
▁취미	-6420
▁트위	-6421
▁한정	-6422
▁현직	-6423
기간을	-6424
사람들	-6425
으니까	-6426
0000	-6427
▁금액을	-6428
▁문제의	-6429
▁문화가	-6430
▁보상을	-6431
▁소방관	-6432
▁저지를	-6433
▁준비를	-6434
▁처벌도	-6435
▁태극기	-6436
▁한유총	-6437
▁할수있	-6438
아닙니다	-6439
해야한다	-6440
▁떨어지는	-6441
▁문제점이	-6442
▁불법으로	-6443
▁여성들을	-6444
▁유치원이	-6445
▁행복하게	-6446
al	-6447
▁딴	-6448
비도	-6449
서트	-6450
쓰는	-6451
자나	-6452
▁곳은	-6453
▁규칙	-6454
▁그들	-6455
▁내리	-6456
▁너희	-6457
▁독재	-6458
▁못하	-6459
▁바뀐	-6460
▁수요	-6461
▁아쉬	-6462
것이라	-6463
경찰서	-6464
다는건	-6465
았다고	-6466
점으로	-6467
처벌을	-6468
▁기득권	-6469
▁노력이	-6470
▁되는지	-6471
▁드리고	-6472
▁마땅히	-6473
▁부동산	-6474
▁아침에	-6475
▁예산이	-6476
▁유튜버	-6477
▁정해진	-6478
▁평가를	-6479
▁학원에	-6480
▁행위가	-6481
▁형량을	-6482
▁금메달을	-6483
▁물론이고	-6484
▁사건사고	-6485
▁인정하고	-6486
▁학부모님	-6487
▁한반도기	-6488
▁될것입니다	-6489
▁무엇입니까	-6490
▁w	-6491
▁꼼	-6492
▁턱	-6493
금의	-6494
내서	-6495
로도	-6496
마자	-6497
사무	-6498
성적	-6499
슬람	-6500
어져	-6501
저희	-6502
주에	-6503
중독	-6504
ode	-6505
▁고스	-6506
▁널리	-6507
▁무릎	-6508
▁승진	-6509
▁앞장	-6510
▁정정	-6511
▁중립	-6512
▁창작	-6513
교육은	-6514
들이나	-6515
아니고	-6516
자라는	-6517
졌다고	-6518
2018	-6519
arti	-6520
▁KBO	-6521
▁국민과	-6522
▁남자를	-6523
▁단순한	-6524
▁비율이	-6525
▁엄연한	-6526
▁종일반	-6527
▁하지도	-6528
▁일자리를	-6529
hn	-6530
각지	-6531
동의	-6532
류가	-6533
부족	-6534
시작	-6535
장도	-6536
점에	-6537
▁경영	-6538
▁공직	-6539
▁낮아	-6540
▁내에	-6541
▁드리	-6542
▁들면	-6543
▁빈번	-6544
▁상실	-6545
▁쓸데	-6546
▁휴직	-6547
월드컵	-6548
자로서	-6549
▁결정을	-6550
▁네티즌	-6551
▁담배를	-6552
▁받으면	-6553
▁베트남	-6554
▁보이고	-6555
▁스피드	-6556
▁여성부	-6557
▁유명한	-6558
▁의미를	-6559
▁이용할	-6560
▁하여야	-6561
▁학교도	-6562
▁효과가	-6563
▁2020	-6564
▁생각하시	-6565
▁해주시면	-6566
▁요청드립니다	-6567
▁청소년들에게	-6568
▁띄	-6569
교과	-6570
구로	-6571
▁강릉	-6572
▁공사	-6573
▁기소	-6574
▁내보	-6575
▁밝혔	-6576
▁부서	-6577
▁소재	-6578
▁수급	-6579
▁시즌	-6580
▁유투	-6581
▁이른	-6582
▁인종	-6583
▁짐승	-6584
다니요	-6585
들까지	-6586
▁기분이	-6587
▁기사화	-6588
▁때부터	-6589
▁불공정	-6590
▁안하는	-6591
▁제도는	-6592
하였으나	-6593
▁쇼트트랙	-6594
▁정확하게	-6595
▁조두순이	-6596
▁해당하는	-6597
▁교육부장관	-6598
▁이루어지지	-6599
▁댓	-6600
▁옥	-6601
규모	-6602
범을	-6603
▁29	-6604
▁갔다	-6605
▁그는	-6606
▁나몰	-6607
▁때려	-6608
▁맞춤	-6609
▁모의	-6610
▁어울	-6611
▁의문	-6612
▁이들	-6613
▁임명	-6614
▁자제	-6615
▁죽고	-6616
▁지시	-6617
▁클럽	-6618
▁통화	-6619
▁향상	-6620
▁협력	-6621
▁흘러	-6622
만들어	-6623
적이지	-6624
해야만	-6625
▁강원도	-6626
▁미래에	-6627
▁법적인	-6628
▁시간도	-6629
▁어째서	-6630
▁해줘야	-6631
▁2013	-6632
▁교육부는	-6633
▁그렇기에	-6634
▁느낍니다	-6635
▁선생님은	-6636
▁어마어마	-6637
▁여자들이	-6638
▁학생에게	-6639
▁청소년이라는	-6640
26	-6641
가의	-6642
란히	-6643
름을	-6644
사이	-6645
진흥	-6646
할당	-6647
해온	-6648
▁35	-6649
▁그외	-6650
▁내린	-6651
▁논술	-6652
▁누릴	-6653
▁답이	-6654
▁당할	-6655
▁법과	-6656
▁오보	-6657
▁웹툰	-6658
▁의구	-6659
▁자는	-6660
▁잠깐	-6661
▁전반	-6662
▁주면	-6663
그래도	-6664
위에서	-6665
했다면	-6666
▁가벼운	-6667
▁막아야	-6668
▁명예를	-6669
▁시위를	-6670
▁심하게	-6671
▁있음을	-6672
▁장현수	-6673
▁지원해	-6674
▁친환경	-6675
▁평생을	-6676
▁회사에	-6677
사람들은	-6678
▁남성들의	-6679
▁방송통신	-6680
▁부모님이	-6681
▁생활기록	-6682
▁교육청에서	-6683
▁입장에서는	-6684
▁ᅳ	-6685
▁몫	-6686
겠지	-6687
계는	-6688
번에	-6689
임이	-6690
정지	-6691
채널	-6692
특별	-6693
▁뒤로	-6694
▁막상	-6695
▁보편	-6696
▁열어	-6697
▁오고	-6698
▁전남	-6699
▁지옥	-6700
▁찾을	-6701
년이상	-6702
못하는	-6703
범죄를	-6704
▁수시를	-6705
▁위주로	-6706
▁자국민	-6707
▁치료를	-6708
하지말고	-6709
▁발생하지	-6710
▁생각하여	-6711
▁예를들어	-6712
▁진정으로	-6713
▁경제적으로	-6714
▁H	-6715
▁깔	-6716
▁닫	-6717
▁콜	-6718
구는	-6719
국에	-6720
급식	-6721
내어	-6722
버리	-6723
벌을	-6724
▁가려	-6725
▁강서	-6726
▁걸로	-6727
▁검증	-6728
▁경비	-6729
▁남을	-6730
▁누리	-6731
▁맨날	-6732
▁문자	-6733
▁용기	-6734
▁죽은	-6735
▁카톡	-6736
▁걸까요	-6737
▁교육현	-6738
▁모자라	-6739
▁본인은	-6740
▁불이익	-6741
▁성소수	-6742
▁수차례	-6743
▁우려가	-6744
▁의무는	-6745
▁의하여	-6746
▁이용한	-6747
▁폐지해	-6748
▁문화체육	-6749
▁생각으로	-6750
▁세계적인	-6751
▁언론에서	-6752
▁이야기가	-6753
▁파렴치한	-6754
▁자유민주주의	-6755
at	-6756
▁굴	-6757
권의	-6758
부부	-6759
사도	-6760
직이	-6761
해가	-6762
해진	-6763
▁개막	-6764
▁거듭	-6765
▁누굴	-6766
▁막고	-6767
▁만연	-6768
▁모여	-6769
▁엘리	-6770
▁운운	-6771
▁입법	-6772
▁적게	-6773
▁조현	-6774
▁주도	-6775
▁즐길	-6776
▁창출	-6777
▁회의	-6778
전부터	-6779
read	-6780
▁가정에	-6781
▁갈등을	-6782
▁수준이	-6783
▁이런거	-6784
▁자체를	-6785
▁출퇴근	-6786
▁키우기	-6787
봤습니다	-6788
▁2030	-6789
▁가르치고	-6790
▁공평하게	-6791
▁대통령은	-6792
▁여성에게	-6793
▁가해자들이	-6794
▁나라입니까	-6795
▁내용입니다	-6796
▁올려봅니다	-6797
▁학부모들이	-6798
ml	-6799
▁G	-6800
금액	-6801
니깐	-6802
되야	-6803
류를	-6804
셔츠	-6805
수급	-6806
총리	-6807
▁ᄏᄏ	-6808
▁간호	-6809
▁교내	-6810
▁당해	-6811
▁믿을	-6812
▁악영	-6813
▁유독	-6814
▁육체	-6815
▁제보	-6816
▁창피	-6817
▁초래	-6818
▁침묵	-6819
것인지	-6820
못하고	-6821
아버지	-6822
으로도	-6823
이유로	-6824
▁kbs	-6825
▁것들을	-6826
▁목적이	-6827
▁보세요	-6828
▁생기고	-6829
▁우습게	-6830
▁원하지	-6831
▁유해물	-6832
▁음란물	-6833
▁이유도	-6834
▁입학을	-6835
▁있을까	-6836
▁저질러	-6837
▁저희도	-6838
▁조용히	-6839
▁것이라는	-6840
▁나몰라라	-6841
▁범죄자가	-6842
▁있는데도	-6843
▁정책으로	-6844
▁조장하는	-6845
▁학부모가	-6846
▁중고등학생	-6847
▁싹	-6848
가게	-6849
주를	-6850
▁군사	-6851
▁눈이	-6852
▁늦은	-6853
▁대폭	-6854
▁되게	-6855
▁바뀔	-6856
▁연관	-6857
▁울산	-6858
▁정식	-6859
▁정지	-6860
▁착용	-6861
▁한편	-6862
▁홀로	-6863
만원씩	-6864
성폭행	-6865
카메라	-6866
▁간호사	-6867
▁그렇기	-6868
▁급여를	-6869
▁떨어져	-6870
▁막대한	-6871
▁빠르게	-6872
▁사소한	-6873
▁아들이	-6874
▁않으며	-6875
▁여자의	-6876
▁자리가	-6877
▁청원은	-6878
▁폭력이	-6879
아닙니까	-6880
▁대한항공	-6881
▁생각한다	-6882
▁성관계를	-6883
▁인터넷에	-6884
▁조사해서	-6885
▁지원금을	-6886
▁행위입니다	-6887
남자	-6888
대도	-6889
대책	-6890
이의	-6891
청에	-6892
▁고의	-6893
▁꿈이	-6894
▁나면	-6895
▁분리	-6896
▁상승	-6897
▁손에	-6898
▁손혜	-6899
▁올렸	-6900
▁용납	-6901
▁조카	-6902
▁추방	-6903
▁국민세	-6904
▁낙태죄	-6905
▁도서관	-6906
▁바꾸어	-6907
▁성적인	-6908
▁싶네요	-6909
▁요즈음	-6910
▁자료를	-6911
▁제재를	-6912
▁주셔서	-6913
▁폐지가	-6914
안됩니다	-6915
학생들이	-6916
▁누군가의	-6917
▁어이없는	-6918
▁억울함을	-6919
▁하는것은	-6920
▁벤	-6921
▁푸	-6922
년제	-6923
될수	-6924
명에	-6925
모든	-6926
였다	-6927
sid	-6928
▁BJ	-6929
▁고정	-6930
▁공휴	-6931
▁권고	-6932
▁기반	-6933
▁기피	-6934
▁돈벌	-6935
▁등장	-6936
▁무려	-6937
▁법조	-6938
▁법치	-6939
▁사료	-6940
▁세력	-6941
▁알지	-6942
▁인력	-6943
▁질을	-6944
▁질이	-6945
▁흔들	-6946
교사의	-6947
메이션	-6948
봅시다	-6949
어지고	-6950
▁교복이	-6951
▁노력한	-6952
▁대학원	-6953
▁되기를	-6954
▁살인을	-6955
▁서류를	-6956
▁어른이	-6957
▁영원히	-6958
▁예전에	-6959
▁조사해	-6960
▁주장을	-6961
▁그로인해	-6962
▁되었는데	-6963
▁있었지만	-6964
▁정치적인	-6965
▁패럴림픽	-6966
▁마땅합니다	-6967
he	-6968
ou	-6969
법의	-6970
보지	-6971
상화	-6972
숙한	-6973
지길	-6974
터링	-6975
판을	-6976
프트	-6977
한게	-6978
▁구단	-6979
▁구제	-6980
▁귀를	-6981
▁기부	-6982
▁남여	-6983
▁도로	-6984
▁무작	-6985
▁밥을	-6986
▁시킨	-6987
▁연계	-6988
▁완벽	-6989
▁이념	-6990
▁인문	-6991
▁전락	-6992
▁주택	-6993
▁최종	-6994
▁특검	-6995
▁패널	-6996
▁한창	-6997
▁후회	-6998
▁흉악	-6999
▁힘드	-7000
다라는	-7001
직으로	-7002
▁나가야	-7003
▁내용의	-7004
▁뛰어난	-7005
▁목소리	-7006
▁있네요	-7007
▁2000	-7008
▁부정적인	-7009
▁불합리한	-7010
▁포기하고	-7011
▁교사입니다	-7012
▁늘려주세요	-7013
▁페미니즘을	-7014
▁숫	-7015
가해	-7016
공무	-7017
량이	-7018
양을	-7019
일비	-7020
줘서	-7021
풀이	-7022
▁거론	-7023
▁날짜	-7024
▁높여	-7025
▁다녔	-7026
▁보충	-7027
▁사학	-7028
▁여혐	-7029
▁위탁	-7030
▁점은	-7031
▁해임	-7032
나가는	-7033
▁교복은	-7034
▁눈물이	-7035
▁도우미	-7036
▁많다는	-7037
▁명백히	-7038
▁방송이	-7039
▁엄마는	-7040
▁인생이	-7041
▁임신을	-7042
▁자식이	-7043
▁저학년	-7044
▁조금씩	-7045
▁체육계	-7046
▁친구가	-7047
▁해체를	-7048
▁교육기관	-7049
▁대체복무	-7050
▁본인들의	-7051
▁선생님을	-7052
▁싫습니다	-7053
▁현재까지	-7054
▁생각입니다	-7055
감에	-7056
격이	-7057
되길	-7058
싶어	-7059
장소	-7060
환을	-7061
POP	-7062
▁군입	-7063
▁김기	-7064
▁꿈꾸	-7065
▁답을	-7066
▁대리	-7067
▁많으	-7068
▁본다	-7069
▁시켰	-7070
▁압수	-7071
▁외교	-7072
▁입국	-7073
▁편향	-7074
▁편히	-7075
▁해고	-7076
▁회피	-7077
▁횡령	-7078
▁효과	-7079
측에서	-7080
했을때	-7081
▁가정은	-7082
▁노래를	-7083
▁때까지	-7084
▁수사가	-7085
▁열악한	-7086
▁인성이	-7087
▁일어났	-7088
▁전부터	-7089
▁학교로	-7090
▁해결해	-7091
▁혼자서	-7092
▁2012	-7093
▁노력하는	-7094
▁범죄자를	-7095
▁선생님께	-7096
▁유치원에서	-7097
▁햇	-7098
년차	-7099
롯데	-7100
성의	-7101
저기	-7102
▁갈아	-7103
▁내몰	-7104
▁다는	-7105
▁돈은	-7106
▁듣지	-7107
▁사상	-7108
▁사찰	-7109
▁언젠	-7110
▁이벤	-7111
▁적발	-7112
▁좋고	-7113
▁탄핵	-7114
▁해준	-7115
사실을	-7116
시대에	-7117
일부터	-7118
하우스	-7119
▁가볍게	-7120
▁경기에	-7121
▁규제가	-7122
▁기존의	-7123
▁뉴스가	-7124
▁불합리	-7125
▁상태로	-7126
▁어떨까	-7127
▁여러번	-7128
▁옳다고	-7129
▁이슬람	-7130
▁증거를	-7131
▁지나친	-7132
▁참고로	-7133
▁해결책	-7134
▁행동은	-7135
▁맞벌이를	-7136
▁부끄러운	-7137
▁비하하는	-7138
▁사회적인	-7139
▁실질적인	-7140
▁이루어진	-7141
▁제외하고	-7142
▁현실적인	-7143
▁휴게시간	-7144
▁국민여러분	-7145
▁벽	-7146
▁왠	-7147
▁쫓	-7148
랑스	-7149
름이	-7150
지은	-7151
크로	-7152
할지	-7153
aid	-7154
oid	-7155
▁교회	-7156
▁끌려	-7157
▁몸에	-7158
▁보인	-7159
▁수수	-7160
▁점검	-7161
▁즐거	-7162
▁차이	-7163
▁출발	-7164
▁프리	-7165
▁형식	-7166
▁휴교	-7167
드리는	-7168
시켜서	-7169
용으로	-7170
있으면	-7171
자들도	-7172
자체가	-7173
화장실	-7174
html	-7175
▁가슴에	-7176
▁경기가	-7177
▁눈물을	-7178
▁느끼게	-7179
▁무서워	-7180
▁미래는	-7181
▁법안이	-7182
▁부모를	-7183
▁실력을	-7184
▁잔인한	-7185
▁저희의	-7186
▁줍니다	-7187
▁책임은	-7188
▁판단을	-7189
▁표현을	-7190
하십시오	-7191
할수있게	-7192
▁사건들이	-7193
▁야간자율	-7194
▁적극적인	-7195
▁청원하는	-7196
▁특수교육	-7197
▁허위사실	-7198
할수있도록	-7199
▁국가대표팀	-7200
▁모르겠네요	-7201
▁칠	-7202
내기	-7203
데요	-7204
로그	-7205
무지	-7206
시청	-7207
알고	-7208
종의	-7209
화에	-7210
▁공인	-7211
▁긴급	-7212
▁김상	-7213
▁김성	-7214
▁때가	-7215
▁범법	-7216
▁상을	-7217
▁써야	-7218
▁아깝	-7219
▁조리	-7220
▁조회	-7221
▁챙기	-7222
▁하려	-7223
일비재	-7224
정부의	-7225
▁가지는	-7226
▁기간을	-7227
▁말라고	-7228
▁비율을	-7229
▁사이에	-7230
▁선수와	-7231
▁소득이	-7232
▁수없이	-7233
▁일삼는	-7234
▁작년에	-7235
▁정시를	-7236
▁제한을	-7237
▁콘텐츠	-7238
▁해놓고	-7239
▁행태를	-7240
▁아니라면	-7241
▁처음부터	-7242
▁폐지해야	-7243
▁피해자와	-7244
▁느꼈습니다	-7245
▁도와주십시오	-7246
▁뜯	-7247
개혁	-7248
거고	-7249
관의	-7250
듯한	-7251
료가	-7252
망을	-7253
술을	-7254
억원	-7255
없게	-7256
오게	-7257
재산	-7258
집을	-7259
확인	-7260
nhn	-7261
▁독서	-7262
▁또래	-7263
▁명의	-7264
▁식당	-7265
▁신중	-7266
▁원아	-7267
▁종종	-7268
▁채무	-7269
▁향해	-7270
▁협의	-7271
방에서	-7272
안하고	-7273
▁깨끗한	-7274
▁부정부	-7275
▁사실에	-7276
▁수능이	-7277
▁안희정	-7278
▁집으로	-7279
▁취지는	-7280
▁하여금	-7281
▁행동에	-7282
것이라고	-7283
▁개개인의	-7284
▁비일비재	-7285
▁성매매를	-7286
▁친구들은	-7287
▁학부모의	-7288
▁현실에서	-7289
때문입니다	-7290
▁기본적으로	-7291
▁알았습니다	-7292
▁억울합니다	-7293
▁이루어지는	-7294
▁넥	-7295
▁흙	-7296
간을	-7297
류의	-7298
르신	-7299
방식	-7300
우선	-7301
의미	-7302
인척	-7303
입학	-7304
치기	-7305
화와	-7306
▁걸고	-7307
▁들지	-7308
▁반박	-7309
▁방조	-7310
▁불만	-7311
▁세무	-7312
▁에이	-7313
▁주소	-7314
국에서	-7315
어지는	-7316
었다면	-7317
▁게임은	-7318
▁공부에	-7319
▁공중파	-7320
▁내에서	-7321
▁다녀야	-7322
▁말하면	-7323
▁뿐더러	-7324
▁사각지	-7325
▁성과를	-7326
▁심판을	-7327
▁자동차	-7328
▁죄없는	-7329
▁즐기는	-7330
▁필요할	-7331
하지않고	-7332
▁떨어지고	-7333
▁범죄자의	-7334
▁보여주는	-7335
▁보호하고	-7336
▁인성교육	-7337
▁우리나라도	-7338
21	-7339
▁곡	-7340
▁봄	-7341
▁탑	-7342
경을	-7343
경쟁	-7344
계층	-7345
공부	-7346
구조	-7347
시코	-7348
으론	-7349
졌다	-7350
지며	-7351
침을	-7352
tps	-7353
▁격려	-7354
▁경고	-7355
▁깊이	-7356
▁내어	-7357
▁노조	-7358
▁도둑	-7359
▁막막	-7360
▁수원	-7361
▁언니	-7362
▁이라	-7363
▁이재	-7364
▁제제	-7365
▁지연	-7366
▁지인	-7367
▁하교	-7368
▁하원	-7369
▁학연	-7370
▁헌신	-7371
▁혐의	-7372
선수들	-7373
이유는	-7374
▁가지게	-7375
▁관리를	-7376
▁국가와	-7377
▁남자만	-7378
▁눈치를	-7379
▁만들기	-7380
▁말로만	-7381
▁무시한	-7382
▁세계에	-7383
▁욕하고	-7384
▁정권이	-7385
▁추가로	-7386
▁트위터	-7387
▁평화를	-7388
▁하지말	-7389
▁해결이	-7390
artic	-7391
▁갔습니다	-7392
▁고스란히	-7393
▁교육부의	-7394
▁대표적인	-7395
▁돌아오는	-7396
▁세상에서	-7397
▁시민들이	-7398
▁여성인권	-7399
▁연합뉴스	-7400
▁하고있는	-7401
▁시급합니다	-7402
▁어린이집의	-7403
▁습	-7404
국인	-7405
도박	-7406
생은	-7407
을지	-7408
자식	-7409
저귀	-7410
정치	-7411
젠더	-7412
집단	-7413
하의	-7414
행사	-7415
▁걸려	-7416
▁멀쩡	-7417
▁싶다	-7418
▁없기	-7419
▁이만	-7420
▁일간	-7421
▁절반	-7422
▁집을	-7423
▁징수	-7424
▁향후	-7425
과정을	-7426
나라가	-7427
린다고	-7428
범으로	-7429
킵니다	-7430
▁공기청	-7431
▁그렇다	-7432
▁기간이	-7433
▁남자와	-7434
▁남편이	-7435
▁납득이	-7436
▁대책이	-7437
▁덕분에	-7438
▁되어있	-7439
▁방안이	-7440
▁분위기	-7441
▁살면서	-7442
▁생기지	-7443
▁시험이	-7444
▁실수로	-7445
▁아니지	-7446
▁이상이	-7447
▁준다고	-7448
▁중에서	-7449
▁즐겁게	-7450
▁지켜야	-7451
▁지키지	-7452
▁하고자	-7453
▁것인가요	-7454
▁남깁니다	-7455
▁억울하고	-7456
▁자격증을	-7457
버렸습니다	-7458
▁두렵습니다	-7459
▁슈	-7460
▁잣	-7461
곳도	-7462
말은	-7463
세의	-7464
안전	-7465
판이	-7466
▁공론	-7467
▁교감	-7468
▁놀라	-7469
▁롯데	-7470
▁맞이	-7471
▁물리	-7472
▁번역	-7473
▁상습	-7474
▁스케	-7475
▁싫은	-7476
▁썩어	-7477
▁어렸	-7478
▁없음	-7479
▁염색	-7480
▁인도	-7481
▁입소	-7482
▁적합	-7483
▁정직	-7484
▁조절	-7485
▁출처	-7486
▁치우	-7487
▁화합	-7488
하셔서	-7489
하지는	-7490
할수가	-7491
▁199	-7492
▁게임이	-7493
▁과거에	-7494
▁과목을	-7495
▁기사는	-7496
▁떠나서	-7497
▁많지만	-7498
▁어렵고	-7499
▁엄중히	-7500
▁예비군	-7501
▁조차도	-7502
▁지나면	-7503
▁차별이	-7504
▁현장에	-7505
주시기를	-7506
▁KPOP	-7507
▁국민들도	-7508
▁동일하게	-7509
▁사람들과	-7510
▁아름다운	-7511
▁우리사회	-7512
▁유치원의	-7513
▁청와대는	-7514
▁청원글을	-7515
▁뿐만아니라	-7516
▁상대적으로	-7517
▁선생님들도	-7518
▁폐지되어야	-7519
▁학생부종합	-7520
28	-7521
OC	-7522
▁겸	-7523
▁씌	-7524
권과	-7525
로드	-7526
양이	-7527
인당	-7528
증명	-7529
학급	-7530
혀서	-7531
▁갖게	-7532
▁관할	-7533
▁급급	-7534
▁대선	-7535
▁데뷔	-7536
▁뒤집	-7537
▁매장	-7538
▁명령	-7539
▁민감	-7540
▁법제	-7541
▁스토	-7542
▁아쉽	-7543
▁안일	-7544
▁어떡	-7545
▁오면	-7546
▁차례	-7547
스러워	-7548
앞에서	-7549
▁강서구	-7550
▁결국은	-7551
▁교도소	-7552
▁교직원	-7553
▁권리는	-7554
▁내년에	-7555
▁달라는	-7556
▁당당히	-7557
▁로스쿨	-7558
▁변화가	-7559
▁사무실	-7560
▁사용을	-7561
▁아니며	-7562
▁아빠가	-7563
▁애들은	-7564
▁저처럼	-7565
▁정치에	-7566
▁치마를	-7567
▁특히나	-7568
▁했는지	-7569
하더군요	-7570
▁news	-7571
▁받으면서	-7572
▁보건복지	-7573
▁보여주고	-7574
▁여기저기	-7575
▁이상으로	-7576
▁추구하는	-7577
▁많았습니다	-7578
▁존재합니다	-7579
▁피해자들을	-7580
▁루	-7581
▁빽	-7582
느니	-7583
대고	-7584
등은	-7585
마크	-7586
발을	-7587
버렸	-7588
분도	-7589
사랑	-7590
우면	-7591
의무	-7592
허가	-7593
형이	-7594
▁tv	-7595
▁교칙	-7596
▁깊은	-7597
▁떠오	-7598
▁많다	-7599
▁바쁜	-7600
▁부실	-7601
▁사서	-7602
▁서지	-7603
▁아가	-7604
▁외에	-7605
▁위장	-7606
▁재량	-7607
▁좋게	-7608
▁좋겠	-7609
▁출동	-7610
▁하자	-7611
년까지	-7612
뿐만이	-7613
아이들	-7614
인지요	-7615
지면서	-7616
함에도	-7617
▁건강을	-7618
▁공권력	-7619
▁나라로	-7620
▁나이를	-7621
▁대학의	-7622
▁무거운	-7623
▁바르게	-7624
▁병역특	-7625
▁서울에	-7626
▁없었던	-7627
▁유일한	-7628
▁제안을	-7629
▁중요시	-7630
▁콘서트	-7631
▁특혜를	-7632
▁프랑스	-7633
▁한번씩	-7634
▁많아지고	-7635
▁명시되어	-7636
▁바탕으로	-7637
▁보여주기	-7638
▁성범죄에	-7639
▁셧다운제	-7640
▁아시나요	-7641
▁가능합니다	-7642
article	-7643
▁가정어린이집	-7644
▁문재인대통령	-7645
33	-7646
▁a	-7647
▁o	-7648
곳을	-7649
기능	-7650
란드	-7651
방지	-7652
방해	-7653
사관	-7654
서관	-7655
설을	-7656
수능	-7657
인거	-7658
함은	-7659
해져	-7660
호를	-7661
▁난리	-7662
▁농구	-7663
▁당일	-7664
▁밀려	-7665
▁번째	-7666
▁비단	-7667
▁소녀	-7668
▁얻을	-7669
▁옆에	-7670
▁인근	-7671
▁저하	-7672
▁정착	-7673
▁체포	-7674
▁피임	-7675
▁현금	-7676
▁휴식	-7677
가산점	-7678
기사를	-7679
닙니다	-7680
이라니	-7681
정부가	-7682
정부는	-7683
한국당	-7684
▁EBS	-7685
▁금수저	-7686
▁발생할	-7687
▁분들을	-7688
▁불만이	-7689
▁사람과	-7690
▁상담을	-7691
▁원장이	-7692
▁인원이	-7693
▁죽이고	-7694
▁청원글	-7695
▁하기도	-7696
▁힘든데	-7697
▁교육청에	-7698
▁그런데도	-7699
▁생리대를	-7700
▁이용해서	-7701
▁특수학교	-7702
▁형평성에	-7703
▁보육교사의	-7704
▁블랙리스트	-7705
▁인터넷방송	-7706
29	-7707
▁ᄋ	-7708
▁뼈	-7709
▁춤	-7710
결혼	-7711
뉴얼	-7712
때문	-7713
민이	-7714
서울	-7715
심과	-7716
오지	-7717
환이	-7718
110	-7719
▁ht	-7720
▁구축	-7721
▁먹을	-7722
▁뭔지	-7723
▁승부	-7724
▁싸움	-7725
▁써서	-7726
▁쓰러	-7727
▁오르	-7728
▁위법	-7729
▁전두	-7730
▁질문	-7731
▁후손	-7732
년으로	-7733
맙시다	-7734
▁기자들	-7735
▁때리고	-7736
▁부끄러	-7737
▁비중을	-7738
▁사법부	-7739
▁사이비	-7740
▁생리를	-7741
▁손가락	-7742
▁아마도	-7743
▁없는지	-7744
▁여자들	-7745
▁외에도	-7746
▁정도가	-7747
▁친일파	-7748
▁하루가	-7749
▁경기에서	-7750
▁공기청정	-7751
▁기다리고	-7752
▁내용으로	-7753
▁노출되어	-7754
▁문화예술	-7755
▁사용하지	-7756
▁성범죄자	-7757
▁안그래도	-7758
하겠습니까	-7759
▁여성들에게	-7760
▁청와대에서	-7761
▁뉘	-7762
▁묶	-7763
가도	-7764
동에	-7765
버려	-7766
싶다	-7767
아주	-7768
워크	-7769
종을	-7770
투를	-7771
▁돌봐	-7772
▁떠들	-7773
▁사정	-7774
▁상영	-7775
▁순수	-7776
▁숨어	-7777
▁응급	-7778
▁자막	-7779
▁전원	-7780
▁참담	-7781
▁참을	-7782
▁측면	-7783
▁태도	-7784
교사는	-7785
돈으로	-7786
했으며	-7787
▁가이드	-7788
▁같다고	-7789
▁관광객	-7790
▁끝나면	-7791
▁다음날	-7792
▁도무지	-7793
▁되지않	-7794
▁사태를	-7795
▁상황은	-7796
▁시간과	-7797
▁욕설을	-7798
▁우수한	-7799
▁육아를	-7800
▁자영업	-7801
▁지역의	-7802
스케이팅	-7803
▁보육시설	-7804
▁올림픽은	-7805
▁이들에게	-7806
▁하였으나	-7807
▁중요하다고	-7808
HD	-7809
it	-7810
▁털	-7811
교시	-7812
례가	-7813
모르	-7814
물며	-7815
부지	-7816
석을	-7817
예산	-7818
청원	-7819
최저	-7820
▁곳도	-7821
▁귀가	-7822
▁기계	-7823
▁나고	-7824
▁둘러	-7825
▁들었	-7826
▁말해	-7827
▁변제	-7828
▁생계	-7829
▁썩은	-7830
▁어플	-7831
▁열정	-7832
▁요새	-7833
▁죄책	-7834
▁찾는	-7835
▁체크	-7836
▁추운	-7837
▁태아	-7838
▁학부	-7839
▁해명	-7840
▁혜화	-7841
기간이	-7842
마세요	-7843
위주의	-7844
하겠다	-7845
▁남자의	-7846
▁용기를	-7847
▁유리한	-7848
▁이사를	-7849
▁있는가	-7850
▁자유와	-7851
▁특별한	-7852
▁협박을	-7853
해야하고	-7854
▁누구보다	-7855
▁사교육비	-7856
▁수시전형	-7857
▁예전부터	-7858
▁음주운전	-7859
▁지속적인	-7860
▁하지말고	-7861
▁애니메이션	-7862
readnhn	-7863
▁감사드립니다	-7864
▁국가보훈처는	-7865
st	-7866
권리	-7867
됐다	-7868
립을	-7869
물로	-7870
비하	-7871
사태	-7872
수학	-7873
와도	-7874
우며	-7875
이어	-7876
전거	-7877
판매	-7878
하냐	-7879
ECD	-7880
mid	-7881
▁김영	-7882
▁다운	-7883
▁버린	-7884
▁설문	-7885
▁없던	-7886
▁이영	-7887
▁입대	-7888
▁포상	-7889
▁표기	-7890
▁헤아	-7891
▁회계	-7892
기관의	-7893
사람을	-7894
였는데	-7895
자들과	-7896
키우는	-7897
▁가산점	-7898
▁가족을	-7899
▁것인가	-7900
▁당신이	-7901
▁떨어뜨	-7902
▁명확한	-7903
▁바라고	-7904
▁사건과	-7905
▁사행성	-7906
▁생기면	-7907
▁안현수	-7908
▁앉아서	-7909
▁않다는	-7910
▁알지만	-7911
▁없애야	-7912
▁여성에	-7913
▁있을수	-7914
▁정권의	-7915
▁정당화	-7916
▁정의가	-7917
▁직원이	-7918
하는것도	-7919
▁가해자로	-7920
▁강제해체	-7921
▁노력하고	-7922
▁말씀드리	-7923
▁본인들이	-7924
▁부정부패	-7925
▁자원봉사	-7926
▁전국적으로	-7927
et	-7928
▁맹	-7929
금도	-7930
론을	-7931
모델	-7932
무시	-7933
승준	-7934
주차	-7935
한것	-7936
▁갈수	-7937
▁골프	-7938
▁김연	-7939
▁끌고	-7940
▁다소	-7941
▁단절	-7942
▁당선	-7943
▁복직	-7944
▁여군	-7945
▁자발	-7946
▁클릭	-7947
▁탄압	-7948
▁평양	-7949
▁핵심	-7950
▁형을	-7951
님께서	-7952
해야지	-7953
▁길거리	-7954
▁낙태를	-7955
▁비난을	-7956
▁사라진	-7957
▁상당한	-7958
▁선택을	-7959
▁성교육	-7960
▁시민의	-7961
▁않았을	-7962
▁연락이	-7963
▁욕설과	-7964
▁이상을	-7965
▁지난해	-7966
▁책임질	-7967
▁한번만	-7968
▁공무원이	-7969
▁이해하고	-7970
▁적습니다	-7971
뿐만아니라	-7972
▁청년입니다	-7973
48	-7974
SD	-7975
맞는	-7976
부처	-7977
성한	-7978
용품	-7979
조직	-7980
지사	-7981
집에	-7982
통이	-7983
▁각자	-7984
▁거죠	-7985
▁과외	-7986
▁도착	-7987
▁독점	-7988
▁부조	-7989
▁올림	-7990
▁저항	-7991
▁채택	-7992
▁체계	-7993
▁허다	-7994
▁흥미	-7995
그런데	-7996
범죄가	-7997
정책을	-7998
하니까	-7999
해주지	-8000
▁공부할	-8001
▁공평한	-8002
▁규정이	-8003
▁근로자	-8004
▁기다리	-8005
▁버리는	-8006
▁사실은	-8007
▁안되면	-8008
▁알리는	-8009
▁여기는	-8010
▁접하고	-8011
▁조사와	-8012
▁취급을	-8013
▁특목고	-8014
▁핑계로	-8015
년이라는	-8016
시다시피	-8017
학생들은	-8018
▁개인회생	-8019
▁끊임없이	-8020
▁남성들을	-8021
▁사이트는	-8022
▁어떻게든	-8023
▁없었으면	-8024
▁해외에서	-8025
▁주장합니다	-8026
▁깎	-8027
▁족	-8028
기자	-8029
모독	-8030
시즌	-8031
음악	-8032
인사	-8033
지말	-8034
테니	-8035
▁공통	-8036
▁극악	-8037
▁나간	-8038
▁나무	-8039
▁마저	-8040
▁망신	-8041
▁묵살	-8042
▁물러	-8043
▁실습	-8044
▁열람	-8045
▁의존	-8046
▁자가	-8047
▁테러	-8048
▁화면	-8049
생들이	-8050
성으로	-8051
어머니	-8052
▁가족의	-8053
▁감독은	-8054
▁경기장	-8055
▁고민을	-8056
▁그러다	-8057
▁도와주	-8058
▁들어야	-8059
▁못해서	-8060
▁아들을	-8061
▁아래와	-8062
▁없나요	-8063
▁여론이	-8064
▁여성들	-8065
▁직무유	-8066
▁OECD	-8067
▁가능하게	-8068
▁다니면서	-8069
▁들어가면	-8070
▁들어가서	-8071
▁무책임한	-8072
▁분위기를	-8073
▁여성혐오	-8074
▁이용하고	-8075
▁조두순은	-8076
▁중입니다	-8077
▁한사람의	-8078
▁미세먼지가	-8079
▁자유한국당	-8080
▁피해자들의	-8081
▁엠	-8082
강간	-8083
건을	-8084
고발	-8085
꺼면	-8086
다음	-8087
담당	-8088
력은	-8089
률을	-8090
모로	-8091
물론	-8092
스가	-8093
이틀	-8094
입고	-8095
진을	-8096
트에	-8097
화문	-8098
pop	-8099
▁PC	-8100
▁경북	-8101
▁국영	-8102
▁그가	-8103
▁늘리	-8104
▁대법	-8105
▁만일	-8106
▁시장	-8107
▁인신	-8108
▁전과	-8109
▁전업	-8110
▁차를	-8111
▁청춘	-8112
▁퇴사	-8113
▁특례	-8114
mode	-8115
▁간단한	-8116
▁게임에	-8117
▁공부만	-8118
▁남편은	-8119
▁뭐라고	-8120
▁사회로	-8121
▁애국가	-8122
▁어르신	-8123
▁에어컨	-8124
▁영화관	-8125
▁원인이	-8126
▁의해서	-8127
▁이상은	-8128
▁일본은	-8129
▁일부러	-8130
▁재판을	-8131
▁중계를	-8132
▁토요일	-8133
▁피땀흘	-8134
▁해결을	-8135
▁경제적인	-8136
▁곳입니다	-8137
▁관련해서	-8138
▁수단으로	-8139
▁여러분의	-8140
▁일반적인	-8141
▁준비하고	-8142
▁진행되고	-8143
▁하고싶은	-8144
▁강제적으로	-8145
▁그렇습니다	-8146
▁사람으로써	-8147
▁생겼습니다	-8148
▁청소년들을	-8149
▁뉴	-8150
개가	-8151
길이	-8152
듣고	-8153
때가	-8154
세에	-8155
소연	-8156
시급	-8157
현재	-8158
sec	-8159
▁공지	-8160
▁구타	-8161
▁다스	-8162
▁마이	-8163
▁목포	-8164
▁선언	-8165
▁선출	-8166
▁설득	-8167
▁심히	-8168
▁연속	-8169
▁오른	-8170
▁옮겨	-8171
▁이란	-8172
▁진심	-8173
▁충족	-8174
▁표를	-8175
▁하키	-8176
▁한자	-8177
거에요	-8178
그대로	-8179
로서의	-8180
시간도	-8181
있다는	-8182
학년에	-8183
힙니다	-8184
▁가치가	-8185
▁관심과	-8186
▁기능을	-8187
▁기회에	-8188
▁되면서	-8189
▁모두의	-8190
▁보시고	-8191
▁사전에	-8192
▁신경써	-8193
▁없었고	-8194
▁원하고	-8195
▁있을지	-8196
▁중대한	-8197
▁행위에	-8198
과정에서	-8199
▁대학에서	-8200
▁못한다는	-8201
▁여성들도	-8202
▁인권위는	-8203
▁중심으로	-8204
있었습니다	-8205
▁국민신문고	-8206
▁발생합니다	-8207
▁월드컵에서	-8208
▁한부모가정	-8209
▁할것입니다	-8210
▁여성우월주의	-8211
FA	-8212
각을	-8213
래도	-8214
바지	-8215
볼수	-8216
세기	-8217
육아	-8218
정희	-8219
취업	-8220
▁계층	-8221
▁고사	-8222
▁관여	-8223
▁교직	-8224
▁구청	-8225
▁국무	-8226
▁그와	-8227
▁금치	-8228
▁깨닫	-8229
▁모니	-8230
▁무용	-8231
▁민사	-8232
▁변명	-8233
▁스키	-8234
▁엑소	-8235
▁연말	-8236
▁연수	-8237
▁원인	-8238
▁은퇴	-8239
▁이의	-8240
▁있겠	-8241
▁자본	-8242
▁주거	-8243
▁줄이	-8244
▁착취	-8245
▁커서	-8246
▁폐기	-8247
▁표시	-8248
▁혁신	-8249
로서는	-8250
무도한	-8251
사건은	-8252
시나요	-8253
▁것이지	-8254
▁계기가	-8255
▁과정은	-8256
▁기사로	-8257
▁기저귀	-8258
▁끝나는	-8259
▁대학이	-8260
▁법무부	-8261
▁소송을	-8262
▁언론과	-8263
▁오늘날	-8264
▁유투브	-8265
▁전학을	-8266
▁정도는	-8267
▁지원도	-8268
▁하물며	-8269
▁혼란을	-8270
▁휴가를	-8271
듯합니다	-8272
일입니다	-8273
▁교육환경	-8274
▁대부분은	-8275
▁못한다면	-8276
▁의무교육	-8277
▁인터넷을	-8278
▁인터뷰를	-8279
▁지나치게	-8280
▁청소년들	-8281
▁병설유치원	-8282
▁사건입니다	-8283
▁정치적으로	-8284
▁되어있습니다	-8285
34	-8286
▁맺	-8287
▁폰	-8288
대신	-8289
도덕	-8290
롭고	-8291
못해	-8292
새끼	-8293
석에	-8294
심사	-8295
조합	-8296
중의	-8297
체험	-8298
치에	-8299
클럽	-8300
통을	-8301
▁감동	-8302
▁관행	-8303
▁당황	-8304
▁되야	-8305
▁마냥	-8306
▁만한	-8307
▁몇일	-8308
▁무언	-8309
▁보살	-8310
▁보일	-8311
▁불륜	-8312
▁빼고	-8313
▁소급	-8314
▁수단	-8315
▁실험	-8316
▁쓰여	-8317
▁악순	-8318
▁유죄	-8319
▁의지	-8320
▁재직	-8321
▁적절	-8322
▁전북	-8323
▁점차	-8324
▁주체	-8325
▁중지	-8326
▁취직	-8327
▁치루	-8328
것이며	-8329
경기를	-8330
왔는데	-8331
자마자	-8332
주셔서	-8333
주시는	-8334
▁거리가	-8335
▁것이죠	-8336
▁경쟁을	-8337
▁남북한	-8338
▁방식을	-8339
▁비정상	-8340
▁어디로	-8341
▁일본이	-8342
▁재산을	-8343
▁제주도	-8344
▁최민정	-8345
▁축구는	-8346
하기위해	-8347
▁고통받고	-8348
▁사이트가	-8349
▁얼마든지	-8350
▁투명하게	-8351
▁https	-8352
▁가능하다고	-8353
▁교장선생님	-8354
▁돌봄교실을	-8355
▁불편합니다	-8356
▁조사해주세요	-8357
가기	-8358
가에	-8359
개정	-8360
검토	-8361
것만	-8362
과학	-8363
군데	-8364
나지	-8365
디션	-8366
발전	-8367
시지	-8368
탄압	-8369
▁감안	-8370
▁검정	-8371
▁곳을	-8372
▁마주	-8373
▁매스	-8374
▁베이	-8375
▁볼때	-8376
▁비웃	-8377
▁소지	-8378
▁알리	-8379
▁열린	-8380
▁영국	-8381
▁오죽	-8382
▁오해	-8383
▁완화	-8384
▁정한	-8385
▁제거	-8386
▁충남	-8387
▁태풍	-8388
▁통계	-8389
▁팀을	-8390
▁파견	-8391
▁한가	-8392
보면서	-8393
성범죄	-8394
지는데	-8395
했어요	-8396
▁625	-8397
▁가격을	-8398
▁가난한	-8399
▁검사를	-8400
▁남녀가	-8401
▁남자들	-8402
▁다같이	-8403
▁댓글이	-8404
▁말이나	-8405
▁모습은	-8406
▁바꾸고	-8407
▁분들께	-8408
▁불리한	-8409
▁사랑을	-8410
▁사태가	-8411
▁유승준	-8412
▁의하면	-8413
▁이후로	-8414
▁인권도	-8415
▁자전거	-8416
▁정의를	-8417
▁해결방	-8418
▁효과를	-8419
▁긍정적인	-8420
▁나오는데	-8421
▁비정규직	-8422
▁성적으로	-8423
▁세계에서	-8424
▁수신료를	-8425
▁엄청나게	-8426
▁조두순의	-8427
▁처벌하고	-8428
▁바램입니다	-8429
▁보여집니다	-8430
▁시작했습니다	-8431
▁여성가족부의	-8432
TN	-8433
sp	-8434
▁섬	-8435
갔다	-8436
락을	-8437
모습	-8438
선택	-8439
않고	-8440
▁가산	-8441
▁금융	-8442
▁남한	-8443
▁낳은	-8444
▁많지	-8445
▁본래	-8446
▁양보	-8447
▁여태	-8448
▁지났	-8449
▁크림	-8450
▁현제	-8451
나라의	-8452
님들이	-8453
멕시코	-8454
문제는	-8455
었는지	-8456
자라고	-8457
▁곳으로	-8458
▁공연을	-8459
▁그런거	-8460
▁등에서	-8461
▁분노가	-8462
▁시작한	-8463
▁않기를	-8464
▁언제나	-8465
▁입장이	-8466
▁있었다	-8467
▁잡아야	-8468
▁지키기	-8469
▁최악의	-8470
▁특성상	-8471
▁한명의	-8472
되었다는	-8473
선수들의	-8474
적으로는	-8475
해봅니다	-8476
▁동영상을	-8477
▁범죄행위	-8478
▁보호법을	-8479
▁생깁니다	-8480
▁언제부터	-8481
▁이번에는	-8482
▁자격박탈	-8483
▁하겠다고	-8484
▁나라입니다	-8485
▁몰래카메라	-8486
▁사이트에서	-8487
▁부탁드리겠습니다	-8488
ᄒᄒ	-8489
▁V	-8490
▁줬	-8491
▁짊	-8492
개로	-8493
관념	-8494
구의	-8495
두리	-8496
법상	-8497
센트	-8498
위반	-8499
이건	-8500
집행	-8501
처를	-8502
처분	-8503
천지	-8504
출신	-8505
투표	-8506
▁PD	-8507
▁갑작	-8508
▁관해	-8509
▁묵인	-8510
▁박지	-8511
▁발탁	-8512
▁삶이	-8513
▁얻어	-8514
▁오랫	-8515
▁육성	-8516
▁집어	-8517
▁칭찬	-8518
▁포장	-8519
▁호텔	-8520
▁확충	-8521
기에는	-8522
도하고	-8523
되기를	-8524
문제에	-8525
없다는	-8526
으라는	-8527
쪽으로	-8528
하기만	-8529
학교를	-8530
▁것보다	-8531
▁경우에	-8532
▁구성원	-8533
▁국민적	-8534
▁기억이	-8535
▁들어온	-8536
▁똑바로	-8537
▁병역을	-8538
▁생활이	-8539
▁선택할	-8540
▁수있는	-8541
▁정신이	-8542
▁지금이	-8543
▁진로를	-8544
▁처벌과	-8545
▁취업을	-8546
▁하소연	-8547
▁하여도	-8548
▁형량이	-8549
▁형평성	-8550
하신다면	-8551
modeL	-8552
▁경우에도	-8553
▁높습니다	-8554
▁문대통령	-8555
▁악영향을	-8556
▁올바르게	-8557
▁대통령님은	-8558
readnhnmodeL	-8559
TS	-8560
ch	-8561
▁득	-8562
강제	-8563
것과	-8564
금에	-8565
나이	-8566
방위	-8567
보조	-8568
생의	-8569
석이	-8570
소로	-8571
적은	-8572
▁간의	-8573
▁간접	-8574
▁끝내	-8575
▁날로	-8576
▁남발	-8577
▁낳을	-8578
▁놓은	-8579
▁뉘우	-8580
▁돈만	-8581
▁똑같	-8582
▁만원	-8583
▁매주	-8584
▁몇백	-8585
▁사죄	-8586
▁용인	-8587
▁우린	-8588
▁유니	-8589
▁자고	-8590
▁중심	-8591
▁지어	-8592
▁차마	-8593
▁확신	-8594
거리를	-8595
국민의	-8596
시키지	-8597
없어서	-8598
전까지	-8599
학교에	-8600
▁IOC	-8601
▁과거의	-8602
▁교사와	-8603
▁늘리고	-8604
▁만약에	-8605
▁말라는	-8606
▁맡기고	-8607
▁머리가	-8608
▁바꾸는	-8609
▁밖에서	-8610
▁부모와	-8611
▁불안한	-8612
▁블로그	-8613
▁사기를	-8614
▁사업을	-8615
▁신경쓰	-8616
▁입어야	-8617
▁자기의	-8618
▁저지르	-8619
▁조속히	-8620
▁났습니다	-8621
▁누구에게	-8622
▁아버지가	-8623
▁어디까지	-8624
▁조장하고	-8625
▁줄어들고	-8626
▁하십니다	-8627
▁확인하고	-8628
▁국가대표로	-8629
▁말이됩니까	-8630
▁여성이라는	-8631
▁정도입니다	-8632
▁국공립유치원	-8633
▁여성가족부를	-8634
readnhnmodeLSD	-8635
님께	-8636
돌림	-8637
든가	-8638
들게	-8639
보게	-8640
빙상	-8641
재단	-8642
져도	-8643
진다	-8644
천원	-8645
쳐도	-8646
터를	-8647
혐의	-8648
화는	-8649
▁계실	-8650
▁길게	-8651
▁남용	-8652
▁높이	-8653
▁미달	-8654
▁법도	-8655
▁사리	-8656
▁서버	-8657
▁여당	-8658
▁잃고	-8659
▁잡는	-8660
▁전담	-8661
▁조국	-8662
▁주부	-8663
▁지은	-8664
▁질병	-8665
▁치부	-8666
▁택시	-8667
▁파는	-8668
▁판정	-8669
▁혈세	-8670
내용을	-8671
학생이	-8672
▁괴롭힘	-8673
▁내용에	-8674
▁당신의	-8675
▁되었다	-8676
▁목표로	-8677
▁못받고	-8678
▁복지를	-8679
▁북한은	-8680
▁서지현	-8681
▁수익을	-8682
▁신뢰를	-8683
▁애들을	-8684
▁의심이	-8685
▁이미지	-8686
▁이혼을	-8687
▁직장맘	-8688
▁투표를	-8689
▁학생도	-8690
▁해외에	-8691
적으로도	-8692
▁공정하지	-8693
▁대학입시	-8694
▁시행하고	-8695
▁심각성을	-8696
▁악용하여	-8697
▁좋겠네요	-8698
▁대통령님과	-8699
▁주었습니다	-8700
▁학부모들의	-8701
▁싱	-8702
니스	-8703
닝썬	-8704
다녀	-8705
력에	-8706
방과	-8707
살을	-8708
서로	-8709
아내	-8710
었죠	-8711
적폐	-8712
진이	-8713
▁괴로	-8714
▁기독	-8715
▁기성	-8716
▁남지	-8717
▁농어	-8718
▁대로	-8719
▁만만	-8720
▁몰려	-8721
▁무척	-8722
▁버려	-8723
▁법인	-8724
▁싶을	-8725
▁오빠	-8726
▁이때	-8727
▁정원	-8728
▁주위	-8729
▁즐겨	-8730
▁집회	-8731
▁채워	-8732
▁최순	-8733
▁치열	-8734
▁탈북	-8735
▁한테	-8736
▁향한	-8737
대해서	-8738
되거나	-8739
라는게	-8740
이상의	-8741
준다고	-8742
중에도	-8743
행하고	-8744
▁관련한	-8745
▁민주화	-8746
▁방송은	-8747
▁보호해	-8748
▁싶은데	-8749
▁어려움	-8750
▁여론몰	-8751
▁위상을	-8752
▁유가족	-8753
▁이득을	-8754
▁정시로	-8755
▁줄이는	-8756
▁중간에	-8757
▁지내고	-8758
▁지역에	-8759
▁출소를	-8760
▁했으나	-8761
▁현명한	-8762
▁현상이	-8763
하였지만	-8764
▁아시안컵	-8765
▁오랫동안	-8766
▁있으므로	-8767
▁하나하나	-8768
▁학교마다	-8769
▁해결하기	-8770
▁가해자에게	-8771
▁인터넷에서	-8772
▁직접적으로	-8773
▁프로그램이	-8774
▁학부모에게	-8775
나운	-8776
선의	-8777
토토	-8778
통합	-8779
편이	-8780
품이	-8781
해결	-8782
▁pc	-8783
▁견디	-8784
▁꿈도	-8785
▁내내	-8786
▁다해	-8787
▁몰고	-8788
▁본질	-8789
▁부인	-8790
▁심화	-8791
▁오픈	-8792
▁주의	-8793
▁진지	-8794
▁추측	-8795
▁치는	-8796
▁판을	-8797
▁활발	-8798
그래서	-8799
만해도	-8800
선에서	-8801
성폭력	-8802
셨나요	-8803
이므로	-8804
추정의	-8805
할당제	-8806
▁150	-8807
▁경험이	-8808
▁관심도	-8809
▁김연아	-8810
▁꿈나무	-8811
▁따뜻한	-8812
▁멕시코	-8813
▁박정희	-8814
▁북한과	-8815
▁북한에	-8816
▁사형을	-8817
▁순수한	-8818
▁안하면	-8819
▁이런것	-8820
▁인가요	-8821
▁있듯이	-8822
▁하던데	-8823
▁한국사	-8824
▁회사는	-8825
▁힘으로	-8826
▁교사에게	-8827
▁보조교사	-8828
▁선수들과	-8829
▁안갑니다	-8830
▁어렵다고	-8831
▁어른들은	-8832
▁포함하여	-8833
▁필요하고	-8834
▁가짜뉴스를	-8835
▁담임선생님	-8836
▁스마트폰을	-8837
▁아니잖아요	-8838
▁아시다시피	-8839
▁f	-8840
▁갇	-8841
각한	-8842
나갈	-8843
방이	-8844
비와	-8845
사유	-8846
셨음	-8847
오니	-8848
요원	-8849
있지	-8850
커녕	-8851
표현	-8852
회담	-8853
▁거두	-8854
▁김포	-8855
▁다닌	-8856
▁다섯	-8857
▁땅에	-8858
▁몰라	-8859
▁불신	-8860
▁성에	-8861
▁숙명	-8862
▁신규	-8863
▁안가	-8864
▁울고	-8865
▁인공	-8866
▁자질	-8867
▁주먹	-8868
▁중시	-8869
▁진료	-8870
▁집값	-8871
▁크고	-8872
다니고	-8873
보세요	-8874
있으며	-8875
자리에	-8876
행하는	-8877
▁감독과	-8878
▁늘어날	-8879
▁대회를	-8880
▁마스크	-8881
▁말했다	-8882
▁변화를	-8883
▁보호할	-8884
▁아시는	-8885
▁이곳에	-8886
▁인재를	-8887
▁있기를	-8888
▁전두환	-8889
▁제도의	-8890
▁키울수	-8891
▁턱없이	-8892
▁플레이	-8893
▁하나인	-8894
▁하려면	-8895
위원회에	-8896
을겁니다	-8897
▁교육부가	-8898
▁극단적인	-8899
▁무기계약	-8900
▁보호해야	-8901
▁사라져야	-8902
▁소년법은	-8903
▁않았는데	-8904
▁문대통령님	-8905
▁양성평등을	-8906
▁학부모들은	-8907
▁화가납니다	-8908
▁맥	-8909
루킹	-8910
미래	-8911
법인	-8912
변을	-8913
봤자	-8914
세여	-8915
싸움	-8916
주실	-8917
▁간부	-8918
▁겪는	-8919
▁나빠	-8920
▁몇달	-8921
▁부합	-8922
▁뽑은	-8923
▁살수	-8924
▁소식	-8925
▁수천	-8926
▁식사	-8927
▁신용	-8928
▁심어	-8929
▁안겨	-8930
▁이나	-8931
▁채우	-8932
▁케어	-8933
▁편성	-8934
▁항목	-8935
다라고	-8936
으므로	-8937
제도의	-8938
집에서	-8939
하기는	-8940
형으로	-8941
▁거라고	-8942
▁광화문	-8943
▁기레기	-8944
▁농어촌	-8945
▁늘리는	-8946
▁대국민	-8947
▁대학은	-8948
▁물어야	-8949
▁바뀌는	-8950
▁부부가	-8951
▁생기부	-8952
▁수업이	-8953
▁아프고	-8954
▁어긋난	-8955
▁연예계	-8956
▁위에서	-8957
▁의견은	-8958
▁입시를	-8959
▁자유로	-8960
▁조재범	-8961
▁축구의	-8962
▁친구들	-8963
▁케이블	-8964
▁해야지	-8965
▁혜택은	-8966
▁회사가	-8967
기관에서	-8968
렀습니다	-8969
사회에서	-8970
▁되었다고	-8971
▁만듭니다	-8972
▁목소리가	-8973
▁받아들여	-8974
▁부모님의	-8975
▁부모들의	-8976
▁사라지고	-8977
▁사람들에	-8978
▁사이에서	-8979
▁사회생활	-8980
▁올라오는	-8981
▁우리에게	-8982
▁절대평가	-8983
▁좋겠어요	-8984
▁지금처럼	-8985
▁초등돌봄	-8986
▁피해자인	-8987
해주시기를	-8988
▁아니겠습니까	-8989
no	-8990
극히	-8991
냄새	-8992
돈이	-8993
여고	-8994
올라	-8995
인줄	-8996
일뿐	-8997
취를	-8998
학적	-8999
▁고집	-9000
▁과감	-9001
▁김경	-9002
▁남기	-9003
▁도전	-9004
▁물려	-9005
▁미용	-9006
▁배워	-9007
▁상호	-9008
▁순위	-9009
▁쉬고	-9010
▁아산	-9011
▁역대	-9012
▁적지	-9013
▁전역	-9014
▁즐기	-9015
▁직권	-9016
▁펜스	-9017
▁편집	-9018
▁폐교	-9019
▁현상	-9020
▁호봉	-9021
경우가	-9022
권리를	-9023
만원의	-9024
문화를	-9025
이네요	-9026
일까지	-9027
자녀를	-9028
전에서	-9029
정도는	-9030
정도의	-9031
진다면	-9032
했더니	-9033
▁근거로	-9034
▁기사의	-9035
▁김상곤	-9036
▁납득할	-9037
▁대법원	-9038
▁돈벌이	-9039
▁들어와	-9040
▁링크를	-9041
▁명확히	-9042
▁모두를	-9043
▁물건을	-9044
▁뽑아야	-9045
▁사건도	-9046
▁살인미	-9047
▁상처가	-9048
▁생각과	-9049
▁수업에	-9050
▁시대를	-9051
▁실수를	-9052
▁엘리트	-9053
▁이처럼	-9054
▁인기가	-9055
▁장관이	-9056
▁접하게	-9057
▁종교의	-9058
▁죄값을	-9059
▁크다고	-9060
▁하려는	-9061
▁학자금	-9062
▁혜화역	-9063
사이트를	-9064
으니까요	-9065
하는것을	-9066
▁고통받는	-9067
▁구체적인	-9068
▁군대에서	-9069
▁돌아가는	-9070
▁살아가야	-9071
▁시간동안	-9072
▁시달리고	-9073
▁아무렇지	-9074
▁운영되는	-9075
▁자리에서	-9076
▁힘들다고	-9077
▁문화체육관광	-9078
▁여자아이스하키	-9079
▁됨	-9080
▁뮤	-9081
▁잦	-9082
가로	-9083
그렇	-9084
매체	-9085
의견	-9086
질수	-9087
테러	-9088
티비	-9089
포함	-9090
▁강압	-9091
▁결승	-9092
▁기쁨	-9093
▁꽃뱀	-9094
▁두서	-9095
▁무단	-9096
▁벗어	-9097
▁비행	-9098
▁이겨	-9099
▁일할	-9100
▁있나	-9101
▁자랄	-9102
▁잔혹	-9103
▁정기	-9104
▁죄인	-9105
▁진단	-9106
▁취지	-9107
▁한류	-9108
▁할것	-9109
▁호주	-9110
감으로	-9111
만원에	-9112
웁니다	-9113
음으로	-9114
하시면	-9115
학년도	-9116
▁맘대로	-9117
▁바지를	-9118
▁보는데	-9119
▁보여준	-9120
▁시대의	-9121
▁어려서	-9122
▁엄격한	-9123
▁엄마의	-9124
▁저희를	-9125
▁절차를	-9126
▁제도적	-9127
▁졸업을	-9128
▁주입식	-9129
▁했더니	-9130
사입니다	-9131
▁군복무를	-9132
▁사랑하고	-9133
▁양육수당	-9134
▁인정하는	-9135
▁일으키는	-9136
▁지지하는	-9137
▁직접적인	-9138
▁책임지고	-9139
midsec	-9140
▁청소년에게	-9141
▁학교생활을	-9142
▁한반도기를	-9143
▁한사람으로서	-9144
▁덧	-9145
▁똥	-9146
감은	-9147
강을	-9148
구역	-9149
남용	-9150
단절	-9151
매일	-9152
바닥	-9153
세는	-9154
일으	-9155
전자	-9156
줘도	-9157
한당	-9158
▁갖추	-9159
▁고맙	-9160
▁관찰	-9161
▁괜히	-9162
▁귀화	-9163
▁꼬박	-9164
▁단독	-9165
▁듯한	-9166
▁뛰는	-9167
▁마감	-9168
▁보유	-9169
▁상무	-9170
▁상의	-9171
▁신속	-9172
▁연극	-9173
▁입주	-9174
▁정답	-9175
▁정체	-9176
▁조합	-9177
▁종료	-9178
▁지문	-9179
▁한숨	-9180
▁활약	-9181
되도록	-9182
드려요	-9183
드리며	-9184
라면서	-9185
사람의	-9186
있어서	-9187
▁공기업	-9188
▁관계가	-9189
▁관련이	-9190
▁교사도	-9191
▁기다려	-9192
▁기자가	-9193
▁기회는	-9194
▁남편의	-9195
▁답변이	-9196
▁마음은	-9197
▁말들이	-9198
▁무섭고	-9199
▁무작정	-9200
▁미치는	-9201
▁불리는	-9202
▁서로를	-9203
▁수준을	-9204
▁어려울	-9205
▁올라와	-9206
▁인권에	-9207
▁적폐가	-9208
▁정치를	-9209
▁희생을	-9210
한다는게	-9211
▁남녀차별	-9212
▁승부조작	-9213
▁언어폭력	-9214
▁유튜브를	-9215
▁지나가는	-9216
▁처벌하는	-9217
▁희망합니다	-9218
▁대부분입니다	-9219
▁만들었습니다	-9220
▁W	-9221
▁앓	-9222
거는	-9223
건이	-9224
고자	-9225
공간	-9226
라니	-9227
롭지	-9228
상위	-9229
연기	-9230
연합	-9231
원과	-9232
조의	-9233
하듯	-9234
ain	-9235
▁더한	-9236
▁밑에	-9237
▁반발	-9238
▁버는	-9239
▁서술	-9240
▁억지	-9241
▁잊혀	-9242
▁자국	-9243
▁전직	-9244
▁정현	-9245
▁조중	-9246
▁주최	-9247
▁찍어	-9248
▁피눈	-9249
드라마	-9250
라니요	-9251
렸다고	-9252
이면서	-9253
▁게시글	-9254
▁국가유	-9255
▁기업이	-9256
▁면제를	-9257
▁못받는	-9258
▁벌금을	-9259
▁시설을	-9260
▁시험에	-9261
▁에이즈	-9262
▁이름이	-9263
▁있다가	-9264
▁지극히	-9265
▁통보를	-9266
▁한국어	-9267
▁할수도	-9268
▁문제들이	-9269
▁범죄자로	-9270
▁병역거부	-9271
▁생각하기	-9272
▁선수들도	-9273
▁성폭력을	-9274
▁아니한다	-9275
▁위치정보	-9276
▁있으면서	-9277
▁자기들이	-9278
▁정당하게	-9279
▁정신적인	-9280
▁제공하는	-9281
▁부모님들이	-9282
▁부족합니다	-9283
▁생각하는데	-9284
▁않겠습니다	-9285
▁크림하우스	-9286
▁여학생입니다	-9287
▁곤	-9288
▁짝	-9289
감도	-9290
규정	-9291
르기	-9292
보상	-9293
석은	-9294
이던	-9295
일까	-9296
자만	-9297
재가	-9298
출이	-9299
팀을	-9300
화의	-9301
▁가요	-9302
▁같고	-9303
▁것만	-9304
▁고충	-9305
▁관공	-9306
▁국적	-9307
▁극복	-9308
▁꾸미	-9309
▁동반	-9310
▁로또	-9311
▁무식	-9312
▁뭐라	-9313
▁소망	-9314
▁숙박	-9315
▁싸우	-9316
▁올릴	-9317
▁위함	-9318
▁절망	-9319
▁혹여	-9320
력으로	-9321
분들께	-9322
세까지	-9323
줍시다	-9324
지말고	-9325
하기로	-9326
해놓고	-9327
2017	-9328
▁YTN	-9329
▁갈등이	-9330
▁개정이	-9331
▁교육방	-9332
▁권한을	-9333
▁남성들	-9334
▁내보내	-9335
▁동아리	-9336
▁되는거	-9337
▁되지만	-9338
▁마당에	-9339
▁만행을	-9340
▁문의를	-9341
▁받았고	-9342
▁버닝썬	-9343
▁부르는	-9344
▁불만을	-9345
▁영상이	-9346
▁이러면	-9347
▁일으킨	-9348
▁즐기고	-9349
▁친인척	-9350
▁형편이	-9351
다는것은	-9352
올립니다	-9353
▁건강하게	-9354
▁받는다고	-9355
▁병원에서	-9356
▁보냅니다	-9357
▁사회복지	-9358
▁생각되어	-9359
▁악의적인	-9360
▁이해할수	-9361
▁인정하지	-9362
▁처벌하여	-9363
▁청소년은	-9364
▁학원으로	-9365
▁걱정입니다	-9366
▁건의합니다	-9367
▁수업시간에	-9368
▁정상적으로	-9369
▁축구협회의	-9370
47	-9371
om	-9372
▁숭	-9373
▁앵	-9374
▁횟	-9375
기획	-9376
년은	-9377
수색	-9378
실은	-9379
어질	-9380
은행	-9381
중계	-9382
키는	-9383
▁33	-9384
▁격리	-9385
▁권익	-9386
▁그를	-9387
▁더는	-9388
▁만행	-9389
▁배웠	-9390
▁사명	-9391
▁서서	-9392
▁성향	-9393
▁에게	-9394
▁이윤	-9395
▁해라	-9396
▁해설	-9397
▁혼인	-9398
간다고	-9399
같은데	-9400
되었던	-9401
아파트	-9402
에대해	-9403
이렇게	-9404
지원을	-9405
진다고	-9406
청에서	-9407
하느라	-9408
화하고	-9409
▁가격이	-9410
▁경험을	-9411
▁기관이	-9412
▁나와야	-9413
▁노력과	-9414
▁당연시	-9415
▁더구나	-9416
▁만들면	-9417
▁방식이	-9418
▁방학때	-9419
▁방학이	-9420
▁사람만	-9421
▁선수도	-9422
▁안되서	-9423
▁알려진	-9424
▁여고생	-9425
▁영어가	-9426
▁오지환	-9427
▁와중에	-9428
▁원칙을	-9429
▁이벤트	-9430
▁일본군	-9431
▁일삼고	-9432
▁폭력과	-9433
▁폭력에	-9434
▁한계가	-9435
▁할수가	-9436
분들에게	-9437
▁게시판에	-9438
▁관계없이	-9439
▁근로기준	-9440
▁때문이다	-9441
▁병역면제	-9442
▁부모님께	-9443
▁어렵다는	-9444
▁이나라의	-9445
▁중학교를	-9446
할것입니다	-9447
▁국가장학금	-9448
▁나라에서는	-9449
▁남성가족부	-9450
▁무분별하게	-9451
▁대한민국이라는	-9452
45	-9453
공연	-9454
길을	-9455
낳고	-9456
내야	-9457
돌이	-9458
드를	-9459
먼트	-9460
반이	-9461
스레	-9462
억을	-9463
자비	-9464
전담	-9465
종교	-9466
주일	-9467
준영	-9468
차에	-9469
청은	-9470
쳐야	-9471
▁경질	-9472
▁교묘	-9473
▁넘겨	-9474
▁놀고	-9475
▁되며	-9476
▁둘이	-9477
▁몇명	-9478
▁미만	-9479
▁발굴	-9480
▁본론	-9481
▁성격	-9482
▁스펙	-9483
▁시원	-9484
▁신생	-9485
▁애매	-9486
▁염려	-9487
▁예매	-9488
▁이모	-9489
▁일과	-9490
▁입맛	-9491
▁쳐다	-9492
▁추세	-9493
▁할당	-9494
▁회수	-9495
기간에	-9496
기관에	-9497
베스트	-9498
일수도	-9499
있어요	-9500
자격증	-9501
해하고	-9502
▁UHD	-9503
▁각자의	-9504
▁개선해	-9505
▁경찰을	-9506
▁고민이	-9507
▁관리가	-9508
▁교무실	-9509
▁뒤에서	-9510
▁드루킹	-9511
▁많아요	-9512
▁말씀드	-9513
▁바뀌고	-9514
▁벌점을	-9515
▁부모들	-9516
▁쌍둥이	-9517
▁아픔을	-9518
▁오늘은	-9519
▁요구를	-9520
▁의혹이	-9521
▁직업이	-9522
▁팬들이	-9523
▁하다고	-9524
되었는데	-9525
▁공무원의	-9526
▁국제대회	-9527
▁등록금을	-9528
▁부모로써	-9529
▁불편함을	-9530
▁성범죄가	-9531
▁엄마로써	-9532
▁였습니다	-9533
▁처우개선	-9534
▁청와대가	-9535
▁폐지하여	-9536
▁해달라고	-9537
av	-9538
▁눌	-9539
공원	-9540
기본	-9541
꺼라	-9542
달에	-9543
들면	-9544
스터	-9545
원장	-9546
이러	-9547
프라	-9548
할것	-9549
혼자	-9550
히지	-9551
▁거라	-9552
▁구별	-9553
▁끝날	-9554
▁나뉘	-9555
▁나를	-9556
▁단정	-9557
▁독도	-9558
▁되서	-9559
▁말과	-9560
▁묵묵	-9561
▁분류	-9562
▁불행	-9563
▁소문	-9564
▁시합	-9565
▁신혼	-9566
▁실격	-9567
▁알림	-9568
▁원망	-9569
▁잃어	-9570
▁접할	-9571
▁집이	-9572
▁팬덤	-9573
▁편한	-9574
▁피곤	-9575
▁홍대	-9576
민주당	-9577
받아서	-9578
행위가	-9579
▁가상화	-9580
▁과정이	-9581
▁기관에	-9582
▁기독교	-9583
▁기존에	-9584
▁당신들	-9585
▁뭔가요	-9586
▁보고싶	-9587
▁보아도	-9588
▁뿐만이	-9589
▁시청료	-9590
▁심판이	-9591
▁않는데	-9592
▁않았다	-9593
▁역사적	-9594
▁왜곡된	-9595
▁외치는	-9596
▁위해선	-9597
▁인문계	-9598
▁인원을	-9599
▁자녀의	-9600
▁자유는	-9601
▁장학금	-9602
▁전업주	-9603
▁처벌로	-9604
▁축구가	-9605
▁포기한	-9606
▁하나는	-9607
▁학교측	-9608
▁학대를	-9609
▁해주지	-9610
▁혐의로	-9611
사건으로	-9612
선수들은	-9613
적이라고	-9614
ation	-9615
▁공산주의	-9616
▁교사들을	-9617
▁그러니까	-9618
▁근무시간	-9619
▁기자들이	-9620
▁마십시오	-9621
▁보더라도	-9622
▁분위기가	-9623
▁불가능한	-9624
▁사교육이	-9625
▁생각하니	-9626
▁선생님과	-9627
▁시민들의	-9628
▁신상공개	-9629
▁앞으로의	-9630
▁어긋나는	-9631
▁전세계에	-9632
▁정부지원	-9633
▁중요하고	-9634
▁직장에서	-9635
▁진행하고	-9636
▁하겠다는	-9637
▁하였지만	-9638
▁합리적인	-9639
▁들어주세요	-9640
▁말씀드리고	-9641
▁범죄자들이	-9642
▁하겠습니까	-9643
▁말씀드립니다	-9644
▁학생부종합전형	-9645
▁petitions	-9646
▁섭	-9647
게도	-9648
공단	-9649
관에	-9650
니즘	-9651
대출	-9652
부장	-9653
세상	-9654
았을	-9655
유포	-9656
임용	-9657
침에	-9658
터테	-9659
특히	-9660
하겠	-9661
▁감금	-9662
▁개별	-9663
▁개학	-9664
▁낮추	-9665
▁낮춰	-9666
▁내면	-9667
▁들려	-9668
▁메인	-9669
▁모델	-9670
▁모병	-9671
▁백화	-9672
▁불구	-9673
▁비례	-9674
▁신념	-9675
▁유기	-9676
▁이곳	-9677
▁저가	-9678
▁처분	-9679
▁청문	-9680
▁평일	-9681
▁피가	-9682
▁항공	-9683
▁호흡	-9684
기관이	-9685
다하고	-9686
못하게	-9687
신고를	-9688
줍니까	-9689
학년때	-9690
▁가는데	-9691
▁기숙사	-9692
▁기준에	-9693
▁나가고	-9694
▁남성도	-9695
▁단속을	-9696
▁대단한	-9697
▁대화를	-9698
▁마음의	-9699
▁봤는데	-9700
▁수능은	-9701
▁수시는	-9702
▁아직은	-9703
▁않네요	-9704
▁없어도	-9705
▁올라가	-9706
▁운동이	-9707
▁원인은	-9708
▁이슈화	-9709
▁있거나	-9710
▁있는건	-9711
▁자한당	-9712
▁점수가	-9713
▁정하는	-9714
▁죽음을	-9715
▁준다는	-9716
▁하는가	-9717
▁한명이	-9718
▁혹시나	-9719
됐습니다	-9720
하겠지만	-9721
학교에서	-9722
▁거주하는	-9723
▁고민하고	-9724
▁교육으로	-9725
▁국가인권	-9726
▁다닙니다	-9727
▁떳떳하게	-9728
▁무고죄로	-9729
▁빠른년생	-9730
▁어리다고	-9731
▁영어교육	-9732
▁의구심이	-9733
▁지방자치	-9734
▁출산율이	-9735
▁하시는데	-9736
학생입니다	-9737
▁느껴집니다	-9738
▁부분입니다	-9739
midsecsid	-9740
▁y	-9741
▁닿	-9742
▁뭉	-9743
나도	-9744
님과	-9745
드립	-9746
령이	-9747
로를	-9748
무가	-9749
발찌	-9750
번이	-9751
살고	-9752
위와	-9753
있던	-9754
학의	-9755
한건	-9756
항에	-9757
200	-9758
▁경각	-9759
▁고유	-9760
▁공모	-9761
▁공문	-9762
▁동기	-9763
▁매트	-9764
▁부러	-9765
▁상업	-9766
▁실용	-9767
▁쓰면	-9768
▁아끼	-9769
▁이민	-9770
▁인가	-9771
▁일일	-9772
▁입사	-9773
▁전해	-9774
▁충실	-9775
▁커피	-9776
▁핑계	-9777
▁환영	-9778
▁휴전	-9779
년만에	-9780
되나요	-9781
만명이	-9782
사회적	-9783
성추행	-9784
졌다는	-9785
학교의	-9786
학부모	-9787
▁같다는	-9788
▁공론화	-9789
▁규정에	-9790
▁그런지	-9791
▁김지은	-9792
▁내리는	-9793
▁목적은	-9794
▁밝히고	-9795
▁비디오	-9796
▁비리와	-9797
▁사고로	-9798
▁성실히	-9799
▁소통을	-9800
▁앞장서	-9801
▁영어는	-9802
▁이런일	-9803
▁작성한	-9804
▁정책과	-9805
▁제한이	-9806
▁조금은	-9807
▁차이를	-9808
▁찾아서	-9809
▁축구팬	-9810
▁하니까	-9811
▁학업에	-9812
▁학원이	-9813
▁합의를	-9814
▁해마다	-9815
▁혈세를	-9816
▁희망이	-9817
름입니다	-9818
쳤습니다	-9819
▁5000	-9820
▁교통사고	-9821
▁근로자의	-9822
▁당신들은	-9823
▁당연하게	-9824
▁못한다고	-9825
▁엄마들은	-9826
▁이제와서	-9827
▁존재하고	-9828
▁주장하고	-9829
▁지역아동	-9830
▁진행하는	-9831
▁최저시급	-9832
▁할수있게	-9833
▁해야하고	-9834
▁행동으로	-9835
받았습니다	-9836
▁가해자들의	-9837
▁노선영선수	-9838
▁대통령님을	-9839
▁범죄입니다	-9840
▁한번이라도	-9841
▁생각해주세요	-9842
▁j	-9843
▁큐	-9844
개념	-9845
남은	-9846
데도	-9847
슬림	-9848
실로	-9849
어리	-9850
언을	-9851
업에	-9852
이거	-9853
▁LG	-9854
▁간섭	-9855
▁강도	-9856
▁고문	-9857
▁교권	-9858
▁글은	-9859
▁금방	-9860
▁단기	-9861
▁될까	-9862
▁멍청	-9863
▁수립	-9864
▁쉬쉬	-9865
▁앞둔	-9866
▁언행	-9867
▁유착	-9868
▁인적	-9869
▁자의	-9870
▁전세	-9871
▁젠더	-9872
▁조폭	-9873
▁처해	-9874
▁틀린	-9875
▁학점	-9876
기전에	-9877
되었다	-9878
받으며	-9879
뿐더러	-9880
인지는	-9881
조치를	-9882
해주면	-9883
▁결과에	-9884
▁경우를	-9885
▁공부가	-9886
▁과정에	-9887
▁금액이	-9888
▁나경원	-9889
▁난민을	-9890
▁뒤늦게	-9891
▁범죄로	-9892
▁법률을	-9893
▁사람에	-9894
▁생각한	-9895
▁성인과	-9896
▁손으로	-9897
▁엄벌에	-9898
▁위주의	-9899
▁있지요	-9900
▁작금의	-9901
▁정해져	-9902
▁초등생	-9903
▁투명한	-9904
▁학교장	-9905
▁헌법을	-9906
▁확률이	-9907
만원으로	-9908
이라는게	-9909
인들에게	-9910
있습니까	-9911
하십니까	-9912
하십니다	-9913
하지않는	-9914
▁2022	-9915
▁교육공무	-9916
▁대다수가	-9917
▁보호하기	-9918
▁생활하는	-9919
▁선수선발	-9920
▁수능최저	-9921
▁아이돌봄	-9922
▁안전하고	-9923
▁언론사의	-9924
▁월드컵을	-9925
▁이로인해	-9926
▁있더군요	-9927
▁증가하고	-9928
▁카카오톡	-9929
▁하였는데	-9930
▁하지않고	-9931
▁한마디로	-9932
▁강제해체를	-9933
▁교육과정을	-9934
▁모르겠으나	-9935
lo	-9936
▁뱃	-9937
▁앨	-9938
▁쪼	-9939
▁펴	-9940
고로	-9941
기술	-9942
대와	-9943
데로	-9944
발생	-9945
산에	-9946
예방	-9947
전의	-9948
점검	-9949
표가	-9950
▁UN	-9951
▁걸쳐	-9952
▁구멍	-9953
▁긴글	-9954
▁깨달	-9955
▁눈감	-9956
▁단일	-9957
▁뜻이	-9958
▁마루	-9959
▁마시	-9960
▁맞아	-9961
▁미칠	-9962
▁보안	-9963
▁수를	-9964
▁술에	-9965
▁아웃	-9966
▁아저	-9967
▁야당	-9968
▁영웅	-9969
▁올랐	-9970
▁웃고	-9971
▁작용	-9972
▁전파	-9973
▁좌파	-9974
▁죽이	-9975
▁지니	-9976
▁찾고	-9977
▁추석	-9978
▁충북	-9979
▁피파	-9980
▁한순	-9981
국으로	-9982
시키기	-9983
이고요	-9984
인권을	-9985
졌는데	-9986
증으로	-9987
하므로	-9988
함으로	-9989
해주실	-9990
ᄏᄏᄏᄏ	-9991
▁개정을	-9992
▁관하여	-9993
▁군대는	-9994
▁권리와	-9995
▁나오게	-9996
▁누구의	-9997
▁마치고	-9998
▁말하지	-9999
▁무자비	-10000
▁바뀌지	-10001
▁배워야	-10002
▁부모도	-10003
▁삽니다	-10004
▁세계의	-10005
▁소속사	-10006
▁시끄럽	-10007
▁싫어서	-10008
▁야구를	-10009
▁우연히	-10010
▁운영이	-10011
▁응원을	-10012
▁의사를	-10013
▁이런게	-10014
▁일이라	-10015
▁자세한	-10016
▁친구를	-10017
▁캐나다	-10018
▁평소에	-10019
▁하고싶	-10020
▁행사를	-10021
▁회사의	-10022
겟습니다	-10023
▁것일까요	-10024
▁그들만의	-10025
▁기간동안	-10026
▁도와주는	-10027
▁동등하게	-10028
▁됐습니다	-10029
▁모니터링	-10030
▁부적절한	-10031
▁분들에게	-10032
▁사회복무	-10033
▁성평등이	-10034
▁스포츠는	-10035
▁않았다고	-10036
▁어리다는	-10037
▁연예인이	-10038
▁위해서도	-10039
▁일상생활	-10040
▁청년들이	-10041
▁편파적인	-10042
▁포기하는	-10043
▁하는것도	-10044
좋겠습니다	-10045
▁국민청원에	-10046
▁부당하다고	-10047
▁생각하시는	-10048
▁절대적으로	-10049
▁죄송합니다	-10050
▁워킹맘입니다	-10051
XX	-10052
▁벅	-10053
▁층	-10054
구장	-10055
규제	-10056
기울	-10057
내지	-10058
되니	-10059
마련	-10060
만도	-10061
말씀	-10062
말에	-10063
먹은	-10064
못한	-10065
성시	-10066
소방	-10067
여대	-10068
잖아	-10069
전쟁	-10070
정가	-10071
종환	-10072
중요	-10073
진행	-10074
질의	-10075
트리	-10076
하되	-10077
할거	-10078
현실	-10079
▁YG	-10080
▁간식	-10081
▁기각	-10082
▁기원	-10083
▁끝이	-10084
▁매진	-10085
▁모양	-10086
▁부딪	-10087
▁성욕	-10088
▁심정	-10089
▁안해	-10090
▁영광	-10091
▁예약	-10092
▁우수	-10093
▁페지	-10094
▁학창	-10095
▁협조	-10096
▁화를	-10097
기준을	-10098
년도에	-10099
는것이	-10100
더라면	-10101
되는게	-10102
받을수	-10103
부장관	-10104
사들의	-10105
사회가	-10106
사회의	-10107
생각을	-10108
소리를	-10109
신청을	-10110
었으며	-10111
였다고	-10112
자들에	-10113
제공을	-10114
중에는	-10115
퍼센트	-10116
학생의	-10117
▁가져야	-10118
▁경악을	-10119
▁경향이	-10120
▁국민에	-10121
▁뉴스로	-10122
▁동생이	-10123
▁되는게	-10124
▁되어도	-10125
▁맡기는	-10126
▁몰라서	-10127
▁무죄를	-10128
▁보지도	-10129
▁부분도	-10130
▁불쌍한	-10131
▁생계를	-10132
▁아닌것	-10133
▁알려주	-10134
▁원장은	-10135
▁위험에	-10136
▁인구가	-10137
▁자기네	-10138
▁재수사	-10139
▁집니다	-10140
▁짓밟는	-10141
▁최순실	-10142
▁최우선	-10143
▁친구는	-10144
▁태도를	-10145
▁평화의	-10146
▁폐지는	-10147
▁행정부	-10148
하였으면	-10149
▁객관적인	-10150
▁거주하고	-10151
▁누가봐도	-10152
▁말그대로	-10153
▁모자이크	-10154
▁부모님들	-10155
▁성교육을	-10156
▁않으면서	-10157
▁유치원도	-10158
▁이루어질	-10159
▁있읍니다	-10160
▁장학금을	-10161
▁책임져야	-10162
▁처음에는	-10163
▁가해자들을	-10164
▁국가대표가	-10165
▁스트레스가	-10166
▁시민입니다	-10167
▁있습니다만	-10168
88	-10169
▁져	-10170
▁쾌	-10171
갈수	-10172
국은	-10173
까진	-10174
단계	-10175
렸다	-10176
면허	-10177
모집	-10178
번을	-10179
뿐인	-10180
쉽게	-10181
시죠	-10182
않는	-10183
억울	-10184
요즘	-10185
잡아	-10186
재기	-10187
저런	-10188
징병	-10189
채용	-10190
▁개방	-10191
▁견제	-10192
▁고령	-10193
▁고인	-10194
▁낮잠	-10195
▁노후	-10196
▁늘고	-10197
▁배신	-10198
▁보러	-10199
▁부상	-10200
▁분은	-10201
▁사연	-10202
▁설마	-10203
▁소아	-10204
▁소홀	-10205
▁수렴	-10206
▁수여	-10207
▁실무	-10208
▁실효	-10209
▁싶고	-10210
▁약물	-10211
▁어깨	-10212
▁어머	-10213
▁응답	-10214
▁잃게	-10215
▁입게	-10216
▁지배	-10217
▁착각	-10218
▁찾기	-10219
▁초기	-10220
▁친정	-10221
▁타당	-10222
▁학년	-10223
▁황당	-10224
▁흘려	-10225
능력이	-10226
들어서	-10227
리면서	-10228
박지우	-10229
생들은	-10230
소프트	-10231
아이돌	-10232
이유가	-10233
전으로	-10234
폐지를	-10235
하여도	-10236
▁가족과	-10237
▁거기다	-10238
▁걸리는	-10239
▁관계를	-10240
▁권한이	-10241
▁기준은	-10242
▁나온다	-10243
▁남자도	-10244
▁노출이	-10245
▁담당자	-10246
▁당해도	-10247
▁들어오	-10248
▁모습에	-10249
▁목적을	-10250
▁무능한	-10251
▁뭐하는	-10252
▁미국의	-10253
▁보내지	-10254
▁보육을	-10255
▁불가피	-10256
▁비리로	-10257
▁사정이	-10258
▁선택한	-10259
▁신경을	-10260
▁싶지만	-10261
▁인성을	-10262
▁있을것	-10263
▁주차장	-10264
▁지원은	-10265
▁직장에	-10266
▁진학을	-10267
▁처리를	-10268
▁치밀어	-10269
▁해야만	-10270
사이트에	-10271
해집니다	-10272
▁개인방송	-10273
▁내년부터	-10274
▁대학교를	-10275
▁되어가고	-10276
▁불법적인	-10277
▁비하하고	-10278
▁생각하게	-10279
▁수준으로	-10280
▁수치심을	-10281
▁압수수색	-10282
▁할아버지	-10283
엄마입니다	-10284
▁당연하다고	-10285
▁보호받아야	-10286
▁빙상연맹은	-10287
▁아직까지도	-10288
▁이상입니다	-10289
▁일간베스트	-10290
▁제도입니다	-10291
▁방탄소년단을	-10292
am	-10293
▁묘	-10294
▁춘	-10295
교복	-10296
노예	-10297
돼야	-10298
랫폼	-10299
린다	-10300
명과	-10301
박스	-10302
방법	-10303
번의	-10304
사립	-10305
선미	-10306
어준	-10307
인간	-10308
추구	-10309
편히	-10310
▁IT	-10311
▁갖춘	-10312
▁끝에	-10313
▁나지	-10314
▁되니	-10315
▁둘다	-10316
▁따지	-10317
▁문학	-10318
▁바지	-10319
▁발로	-10320
▁분석	-10321
▁스승	-10322
▁슬픈	-10323
▁안쓰	-10324
▁우월	-10325
▁워너	-10326
▁일개	-10327
▁재기	-10328
▁줄일	-10329
▁추락	-10330
▁추후	-10331
▁캐릭	-10332
▁투기	-10333
▁팀이	-10334
▁한해	-10335
▁해킹	-10336
▁허리	-10337
개월이	-10338
검사를	-10339
되는지	-10340
없어요	-10341
이지요	-10342
정책이	-10343
한테는	-10344
회에서	-10345
▁개혁을	-10346
▁경력이	-10347
▁그당시	-10348
▁글로벌	-10349
▁기대를	-10350
▁기울여	-10351
▁답변은	-10352
▁링크는	-10353
▁모든게	-10354
▁모조리	-10355
▁무슬림	-10356
▁발전에	-10357
▁벗어난	-10358
▁생활에	-10359
▁수도권	-10360
▁않아야	-10361
▁알아보	-10362
▁여기고	-10363
▁요청을	-10364
▁우선시	-10365
▁이런걸	-10366
▁인격을	-10367
▁정보가	-10368
▁지방에	-10369
▁처우를	-10370
▁판정을	-10371
▁펜스룰	-10372
▁하고도	-10373
▁해결될	-10374
보입니다	-10375
▁2010	-10376
▁가상화폐	-10377
▁강요하는	-10378
▁것이지요	-10379
▁교실에서	-10380
▁국회에서	-10381
▁그만두고	-10382
▁두아이를	-10383
▁때문이죠	-10384
▁요구하고	-10385
▁일으키고	-10386
▁일주일에	-10387
▁주었으면	-10388
지않습니까	-10389
▁근본적으로	-10390
▁사료됩니다	-10391
▁어린이집도	-10392
▁학교폭력을	-10393
▁마련해주세요	-10394
▁부끄럽습니다	-10395
▁지역아동센터	-10396
31	-10397
46	-10398
내로	-10399
동이	-10400
말도	-10401
박한	-10402
반의	-10403
사례	-10404
삼아	-10405
상과	-10406
심판	-10407
언이	-10408
점수	-10409
참여	-10410
탄을	-10411
티를	-10412
회는	-10413
▁경상	-10414
▁기도	-10415
▁농락	-10416
▁니가	-10417
▁당첨	-10418
▁두는	-10419
▁뒤쳐	-10420
▁듣기	-10421
▁뜯어	-10422
▁맘에	-10423
▁먹여	-10424
▁번호	-10425
▁벌고	-10426
▁변별	-10427
▁비참	-10428
▁세뇌	-10429
▁소설	-10430
▁시골	-10431
▁악화	-10432
▁재범	-10433
▁저번	-10434
▁지워	-10435
▁천안	-10436
▁취해	-10437
▁치뤄	-10438
▁해요	-10439
다보면	-10440
사들은	-10441
었어요	-10442
플레이	-10443
View	-10444
▁가족은	-10445
▁간다고	-10446
▁거기서	-10447
▁교실에	-10448
▁기본권	-10449
▁나영이	-10450
▁당신은	-10451
▁등급을	-10452
▁때에는	-10453
▁모든걸	-10454
▁받는다	-10455
▁보다가	-10456
▁세금은	-10457
▁시점에	-10458
▁않으니	-10459
▁얘기가	-10460
▁얼굴이	-10461
▁위치에	-10462
▁유니폼	-10463
▁일이고	-10464
▁준비한	-10465
▁책임도	-10466
▁책임지	-10467
▁최저임	-10468
▁커지고	-10469
▁하시면	-10470
▁하자는	-10471
▁황당한	-10472
위원회는	-10473
잖습니까	-10474
20180	-10475
▁kpop	-10476
▁겨울방학	-10477
▁그리하여	-10478
▁단일팀은	-10479
▁당했다고	-10480
▁맞벌이가	-10481
▁메갈리아	-10482
▁생각해요	-10483
▁서울에서	-10484
▁시작해서	-10485
▁여러분들	-10486
▁외국에서	-10487
▁자유로운	-10488
▁형사처벌	-10489
▁힘들어서	-10490
▁되겠습니까	-10491
▁수준입니다	-10492
▁어린이들이	-10493
▁어린이집과	-10494
▁지원해주는	-10495
▁사립유치원의	-10496
▁깍	-10497
▁섞	-10498
▁짖	-10499
국어	-10500
급이	-10501
대중	-10502
러니	-10503
리스	-10504
시로	-10505
옷을	-10506
움과	-10507
의의	-10508
줄수	-10509
취소	-10510
침이	-10511
택을	-10512
할까	-10513
▁가깝	-10514
▁관중	-10515
▁구독	-10516
▁귀한	-10517
▁그간	-10518
▁때에	-10519
▁법규	-10520
▁보아	-10521
▁본보	-10522
▁비상	-10523
▁비서	-10524
▁빨갱	-10525
▁사범	-10526
▁안하	-10527
▁애가	-10528
▁어지	-10529
▁연일	-10530
▁예쁜	-10531
▁의거	-10532
▁이틀	-10533
▁인하	-10534
▁잃은	-10535
▁잡을	-10536
▁전략	-10537
▁좁은	-10538
▁지목	-10539
▁지쳐	-10540
▁철거	-10541
▁취약	-10542
▁파헤	-10543
▁펼쳐	-10544
▁하에	-10545
관계가	-10546
나이에	-10547
는지도	-10548
대학은	-10549
들과의	-10550
떨어진	-10551
었으나	-10552
으시고	-10553
하지요	-10554
해하는	-10555
▁게임의	-10556
▁경기는	-10557
▁귀기울	-10558
▁그들도	-10559
▁더욱이	-10560
▁돌보는	-10561
▁디자인	-10562
▁뜨거운	-10563
▁마구잡	-10564
▁맙시다	-10565
▁맞는지	-10566
▁못한다	-10567
▁무고로	-10568
▁문제와	-10569
▁밖으로	-10570
▁받도록	-10571
▁방탄이	-10572
▁베스트	-10573
▁비판을	-10574
▁스트레	-10575
▁싶으면	-10576
▁아니죠	-10577
▁여유가	-10578
▁의견에	-10579
▁있었을	-10580
▁자들이	-10581
▁잘하고	-10582
▁재검토	-10583
▁전체가	-10584
▁종교적	-10585
▁지나가	-10586
▁직원들	-10587
▁진짜로	-10588
▁쪽으로	-10589
▁추악한	-10590
▁폭력은	-10591
▁플랫폼	-10592
▁한시간	-10593
아이들은	-10594
야하는지	-10595
이라니요	-10596
입장에서	-10597
▁2009	-10598
▁경찰서에	-10599
▁교과서를	-10600
▁군가산점	-10601
▁대중교통	-10602
▁받았다고	-10603
▁실력으로	-10604
▁없을까요	-10605
▁유일하게	-10606
▁응원하는	-10607
▁이번에도	-10608
▁있는것이	-10609
▁종합전형	-10610
▁지금보다	-10611
▁지원하고	-10612
▁태어나서	-10613
▁학창시절	-10614
▁국민청원을	-10615
▁내려주세요	-10616
▁사회생활을	-10617
▁홈페이지에	-10618
37	-10619
il	-10620
▁액	-10621
▁짤	-10622
▁쭉	-10623
날을	-10624
력도	-10625
렸고	-10626
리랑	-10627
망정	-10628
씨에	-10629
애들	-10630
외에	-10631
재로	-10632
점기	-10633
지연	-10634
체크	-10635
학점	-10636
ing	-10637
▁52	-10638
▁겪어	-10639
▁귀찮	-10640
▁단계	-10641
▁되찾	-10642
▁떠올	-10643
▁똑똑	-10644
▁메세	-10645
▁방어	-10646
▁보존	-10647
▁부를	-10648
▁수록	-10649
▁슈퍼	-10650
▁열악	-10651
▁전술	-10652
▁추정	-10653
▁특권	-10654
▁풀려	-10655
거리가	-10656
나가고	-10657
냐고요	-10658
는지요	-10659
님들은	-10660
다는걸	-10661
문화가	-10662
없네요	-10663
없는데	-10664
인들을	-10665
자료를	-10666
적이며	-10667
하였다	-10668
하지말	-10669
▁가르칠	-10670
▁것들은	-10671
▁결론은	-10672
▁계획을	-10673
▁고려해	-10674
▁기말고	-10675
▁끼치는	-10676
▁느끼지	-10677
▁도종환	-10678
▁만큼은	-10679
▁받는데	-10680
▁벌어진	-10681
▁부작용	-10682
▁뿌리뽑	-10683
▁사기꾼	-10684
▁사례를	-10685
▁새롭게	-10686
▁수준에	-10687
▁신생아	-10688
▁아동을	-10689
▁역사의	-10690
▁옆에서	-10691
▁욕하는	-10692
▁우리를	-10693
▁위치한	-10694
▁의지가	-10695
▁이래서	-10696
▁이러니	-10697
▁일본에	-10698
▁있고요	-10699
▁장면을	-10700
▁정준영	-10701
▁제도로	-10702
▁지금껏	-10703
▁지지를	-10704
▁지지율	-10705
▁폭행과	-10706
▁한남충	-10707
지않도록	-10708
하였는데	-10709
▁거짓말을	-10710
▁건강보험	-10711
▁남자들을	-10712
▁낳으라고	-10713
▁너무너무	-10714
▁답답하고	-10715
▁매일매일	-10716
▁뭐합니까	-10717
▁반복되는	-10718
▁사이트의	-10719
▁생각보다	-10720
▁성폭행범	-10721
▁얼마전에	-10722
▁없어지는	-10723
▁올라오고	-10724
▁요청하는	-10725
▁이미지를	-10726
▁전문적인	-10727
▁지급하는	-10728
어야합니다	-10729
위원회에서	-10730
▁극악무도한	-10731
▁무죄추정의	-10732
▁바람입니다	-10733
▁비인기종목	-10734
▁있을겁니다	-10735
▁강화해주세요	-10736
▁야간자율학습	-10737
▁낭	-10738
▁뚜	-10739
▁셈	-10740
▁융	-10741
나오	-10742
나온	-10743
랭킹	-10744
마라	-10745
머리	-10746
먼저	-10747
면에	-10748
모가	-10749
수영	-10750
시도	-10751
이루	-10752
자살	-10753
졸업	-10754
팅을	-10755
▁99	-10756
▁건립	-10757
▁걸리	-10758
▁결제	-10759
▁남는	-10760
▁놓여	-10761
▁마인	-10762
▁맞은	-10763
▁무사	-10764
▁미흡	-10765
▁밝은	-10766
▁식민	-10767
▁신랑	-10768
▁없지	-10769
▁이딴	-10770
▁이룰	-10771
▁캠페	-10772
곳으로	-10773
나라도	-10774
마드는	-10775
사무소	-10776
사항을	-10777
신다고	-10778
인지도	-10779
▁고통과	-10780
▁그러고	-10781
▁논리로	-10782
▁느낌이	-10783
▁단어가	-10784
▁물어보	-10785
▁보낼수	-10786
▁보도가	-10787
▁본인들	-10788
▁분명한	-10789
▁사라질	-10790
▁세우고	-10791
▁시작된	-10792
▁얼굴에	-10793
▁인권의	-10794
▁일요일	-10795
▁있으신	-10796
▁좋아서	-10797
▁준하는	-10798
▁출전을	-10799
▁프로젝	-10800
▁하루를	-10801
▁학부형	-10802
▁현재도	-10803
▁확인을	-10804
들로부터	-10805
시간동안	-10806
하다보니	-10807
▁가족들이	-10808
▁경력단절	-10809
▁관련링크	-10810
▁국민연금	-10811
▁그야말로	-10812
▁나라다운	-10813
▁누군가는	-10814
▁독립운동	-10815
▁마음놓고	-10816
▁바라보고	-10817
▁부모님은	-10818
▁부분에서	-10819
▁불공정한	-10820
▁불법촬영	-10821
▁비판하는	-10822
▁심합니다	-10823
▁아이들만	-10824
▁운영되고	-10825
▁저희에게	-10826
▁책임지는	-10827
▁판매하는	-10828
▁학부모와	-10829
▁해결되지	-10830
▁부산여중생폭행	-10831
▁늙	-10832
▁뜬	-10833
▁틈	-10834
▁핀	-10835
겨서	-10836
군의	-10837
군이	-10838
님도	-10839
따른	-10840
마루	-10841
망신	-10842
면을	-10843
모를	-10844
벤지	-10845
보로	-10846
실습	-10847
심은	-10848
와야	-10849
인양	-10850
인원	-10851
준화	-10852
지니	-10853
치로	-10854
태를	-10855
▁가도	-10856
▁과제	-10857
▁글에	-10858
▁낙인	-10859
▁날을	-10860
▁뇌물	-10861
▁맘이	-10862
▁미사	-10863
▁반납	-10864
▁배가	-10865
▁부회	-10866
▁붙여	-10867
▁실내	-10868
▁심심	-10869
▁앞뒤	-10870
▁요소	-10871
▁자긍	-10872
▁잡혀	-10873
▁장사	-10874
▁죽는	-10875
▁체벌	-10876
감독을	-10877
들처럼	-10878
분들과	-10879
쁩니다	-10880
사람도	-10881
심에서	-10882
있는지	-10883
피해자	-10884
하여서	-10885
학교로	-10886
▁112	-10887
▁감옥에	-10888
▁검색어	-10889
▁군대가	-10890
▁극심한	-10891
▁다니며	-10892
▁들어보	-10893
▁받아도	-10894
▁보조금	-10895
▁아나운	-10896
▁아니냐	-10897
▁아동의	-10898
▁영향이	-10899
▁왔는데	-10900
▁육아에	-10901
▁인생의	-10902
▁장애를	-10903
▁정신차	-10904
▁태어날	-10905
▁판매를	-10906
▁폭행한	-10907
▁프로듀	-10908
▁하나만	-10909
▁현장의	-10910
▁혜택도	-10911
▁후진국	-10912
겼습니다	-10913
▁국내에서	-10914
▁기자들은	-10915
▁딸아이를	-10916
▁맞습니까	-10917
▁병역특례	-10918
▁스포츠에	-10919
▁쓸데없는	-10920
▁안타깝고	-10921
▁앞으로는	-10922
▁이외에도	-10923
▁이유없이	-10924
▁전수조사	-10925
▁정말이지	-10926
▁청와대의	-10927
▁축구선수	-10928
▁고발합니다	-10929
▁기대합니다	-10930
▁말았습니다	-10931
▁미투운동이	-10932
▁빙상연맹이	-10933
▁하더라구요	-10934
▁고등학교에서	-10935
▁스피드스케이팅	-10936
▁i	-10937
▁ᅲ	-10938
▁폄	-10939
걸고	-10940
걸음	-10941
공사	-10942
구도	-10943
기기	-10944
내려	-10945
달이	-10946
배상	-10947
부도	-10948
북한	-10949
살아	-10950
서류	-10951
서와	-10952
서의	-10953
세워	-10954
속을	-10955
스는	-10956
시안	-10957
우를	-10958
이름	-10959
장한	-10960
제안	-10961
좋아	-10962
주도	-10963
차단	-10964
힘든	-10965
▁32	-10966
▁SK	-10967
▁겪은	-10968
▁관대	-10969
▁길러	-10970
▁길로	-10971
▁너도	-10972
▁넣고	-10973
▁놀러	-10974
▁동조	-10975
▁딱히	-10976
▁무마	-10977
▁물을	-10978
▁배포	-10979
▁봐주	-10980
▁분단	-10981
▁빌미	-10982
▁사후	-10983
▁않다	-10984
▁알았	-10985
▁약을	-10986
▁없죠	-10987
▁유행	-10988
▁저만	-10989
▁전념	-10990
▁차트	-10991
▁축하	-10992
▁토토	-10993
▁피부	-10994
▁하든	-10995
▁할인	-10996
다니며	-10997
되지만	-10998
버리면	-10999
사들이	-11000
수있고	-11001
애들이	-11002
였으면	-11003
있다면	-11004
제도에	-11005
하겠죠	-11006
ᅳᅳᅳᅳ	-11007
▁경찰과	-11008
▁교수가	-11009
▁나이는	-11010
▁난이도	-11011
▁단체가	-11012
▁되었던	-11013
▁두가지	-11014
▁맞추어	-11015
▁먹이고	-11016
▁몰상식	-11017
▁반대를	-11018
▁법제화	-11019
▁베이비	-11020
▁보시는	-11021
▁사실과	-11022
▁성기를	-11023
▁손해를	-11024
▁시민이	-11025
▁아는데	-11026
▁아이즈	-11027
▁엄마들	-11028
▁업무가	-11029
▁없는것	-11030
▁음식을	-11031
▁의도가	-11032
▁이런건	-11033
▁점에서	-11034
▁조건이	-11035
▁준다면	-11036
▁지위를	-11037
▁청원의	-11038
▁팀워크	-11039
▁피의자	-11040
▁하나를	-11041
▁하지요	-11042
▁했다면	-11043
▁활동이	-11044
해달라고	-11045
▁2011	-11046
▁고려하여	-11047
▁고정관념	-11048
▁도서정가	-11049
▁사교육에	-11050
▁아마추어	-11051
▁영향력을	-11052
▁이상하게	-11053
▁자부심을	-11054
▁점입니다	-11055
▁지역에서	-11056
▁진지하게	-11057
▁집단폭행	-11058
▁대통령님도	-11059
▁말했습니다	-11060
▁수행평가를	-11061
▁어린이집으로	-11062
▁고등학생입니다	-11063
ig	-11064
▁칸	-11065
가운	-11066
공휴	-11067
교회	-11068
구성	-11069
내내	-11070
누리	-11071
닉네	-11072
마을	-11073
보장	-11074
산이	-11075
수와	-11076
신의	-11077
아는	-11078
요구	-11079
이한	-11080
인정	-11081
절을	-11082
쪽에	-11083
차는	-11084
혁명	-11085
효과	-11086
▁가담	-11087
▁계정	-11088
▁깜짝	-11089
▁넘은	-11090
▁녹음	-11091
▁더러	-11092
▁마을	-11093
▁마트	-11094
▁매월	-11095
▁멈추	-11096
▁멋진	-11097
▁무게	-11098
▁미명	-11099
▁부득	-11100
▁빠진	-11101
▁선도	-11102
▁시범	-11103
▁알릴	-11104
▁얻은	-11105
▁용어	-11106
▁유흥	-11107
▁이글	-11108
▁재밌	-11109
▁적도	-11110
▁전시	-11111
▁전액	-11112
▁제압	-11113
▁지게	-11114
▁팔아	-11115
▁피를	-11116
범죄에	-11117
으려는	-11118
질적인	-11119
▁400	-11120
▁검사가	-11121
▁경쟁력	-11122
▁괜찮은	-11123
▁그러는	-11124
▁남성만	-11125
▁눈으로	-11126
▁다니던	-11127
▁다를게	-11128
▁다하고	-11129
▁들어갔	-11130
▁따돌림	-11131
▁리벤지	-11132
▁맞지만	-11133
▁무너뜨	-11134
▁방법도	-11135
▁뿌리를	-11136
▁사회악	-11137
▁소리가	-11138
▁시험은	-11139
▁신상을	-11140
▁안되어	-11141
▁약속을	-11142
▁엄격히	-11143
▁여부를	-11144
▁월급이	-11145
▁유소년	-11146
▁음악을	-11147
▁이르게	-11148
▁임금을	-11149
▁전국민	-11150
▁정시의	-11151
▁정현백	-11152
▁졸업한	-11153
▁주말에	-11154
▁주장이	-11155
▁즐거운	-11156
▁챙기는	-11157
▁폭언을	-11158
받습니다	-11159
실겁니다	-11160
우리나라	-11161
지않으면	-11162
하였으며	-11163
▁공부해서	-11164
▁교사들도	-11165
▁내부고발	-11166
▁넘습니다	-11167
▁늘어나는	-11168
▁바라보는	-11169
▁벌어지는	-11170
▁부모로서	-11171
▁스포츠가	-11172
▁시행되고	-11173
▁심해지고	-11174
▁이런저런	-11175
▁이루어지	-11176
▁이용하지	-11177
▁자녀들이	-11178
▁전자발찌	-11179
▁존재하지	-11180
▁하십니까	-11181
▁미투운동을	-11182
▁민주주의를	-11183
▁부탁입니다	-11184
▁살려주세요	-11185
▁올렸습니다	-11186
▁필요하다는	-11187
▁우리나라에서는	-11188
es	-11189
▁곰	-11190
▁굶	-11191
교섭	-11192
그리	-11193
뒤에	-11194
려도	-11195
로가	-11196
먹을	-11197
법과	-11198
불가	-11199
씨와	-11200
아프	-11201
예정	-11202
이팅	-11203
진출	-11204
통해	-11205
패스	-11206
페이	-11207
학대	-11208
했기	-11209
▁38	-11210
▁가구	-11211
▁간청	-11212
▁과장	-11213
▁내서	-11214
▁등과	-11215
▁만에	-11216
▁미약	-11217
▁배상	-11218
▁배출	-11219
▁버리	-11220
▁보실	-11221
▁색깔	-11222
▁선진	-11223
▁성숙	-11224
▁속이	-11225
▁손이	-11226
▁쓰레	-11227
▁안락	-11228
▁안양	-11229
▁예의	-11230
▁자소	-11231
▁장래	-11232
▁주무	-11233
▁지휘	-11234
▁찌푸	-11235
▁찢어	-11236
▁초범	-11237
▁측정	-11238
▁치유	-11239
▁카시	-11240
▁틀어	-11241
▁패딩	-11242
▁한일	-11243
것들이	-11244
교육과	-11245
랍시고	-11246
면으로	-11247
미디어	-11248
사회에	-11249
시설을	-11250
하듯이	-11251
했다가	-11252
▁걸그룹	-11253
▁경쟁이	-11254
▁공간이	-11255
▁교사로	-11256
▁교육도	-11257
▁끊이지	-11258
▁낳아서	-11259
▁높이고	-11260
▁느낌을	-11261
▁다니지	-11262
▁되풀이	-11263
▁드리는	-11264
▁모르게	-11265
▁벌금형	-11266
▁법률이	-11267
▁비리는	-11268
▁서로의	-11269
▁스트리	-11270
▁아내가	-11271
▁아파서	-11272
▁없어질	-11273
▁역사에	-11274
▁운영진	-11275
▁의사가	-11276
▁이승훈	-11277
▁재조사	-11278
▁정권을	-11279
▁조재현	-11280
▁주변의	-11281
▁주시는	-11282
▁지식을	-11283
▁카테고	-11284
▁컨디션	-11285
▁판단이	-11286
▁해외로	-11287
▁형태로	-11288
▁확인할	-11289
스트레스	-11290
하였다고	-11291
▁main	-11292
▁가족들은	-11293
▁국민으로	-11294
▁되어서는	-11295
▁모든것을	-11296
▁사생활을	-11297
▁소득분위	-11298
▁안된다면	-11299
▁어렵다면	-11300
▁엄격하게	-11301
▁워마드는	-11302
▁인권보호	-11303
▁일자리가	-11304
▁임용고시	-11305
▁자유학년	-11306
▁졸업하고	-11307
▁좋겠다는	-11308
▁좋아하고	-11309
▁중요하지	-11310
▁지방선거	-11311
▁청원게시	-11312
▁해결해야	-11313
▁고등학생이	-11314
▁기원합니다	-11315
▁놀랐습니다	-11316
▁범죄자들을	-11317
▁보였습니다	-11318
▁셧다운제를	-11319
▁아시겠지만	-11320
▁어처구니가	-11321
▁정책입니다	-11322
▁초등학교를	-11323
▁평창올림픽을	-11324
oc	-11325
▁댄	-11326
대기	-11327
둬야	-11328
들여	-11329
살의	-11330
아픈	-11331
얼마	-11332
없을	-11333
연의	-11334
원칙	-11335
일반	-11336
일의	-11337
전은	-11338
준다	-11339
타고	-11340
항을	-11341
했죠	-11342
▁00	-11343
▁56	-11344
▁강원	-11345
▁개돼	-11346
▁건전	-11347
▁극우	-11348
▁근대	-11349
▁달아	-11350
▁대략	-11351
▁몇개	-11352
▁모텔	-11353
▁박사	-11354
▁방금	-11355
▁별거	-11356
▁보신	-11357
▁사춘	-11358
▁산후	-11359
▁알기	-11360
▁웃음	-11361
▁원서	-11362
▁이탈	-11363
▁정몽	-11364
▁지필	-11365
▁총리	-11366
▁파탄	-11367
▁형벌	-11368
▁휘둘	-11369
교육에	-11370
부터가	-11371
아가고	-11372
았다는	-11373
주는게	-11374
중에서	-11375
하구요	-11376
하시기	-11377
하시길	-11378
news	-11379
▁가진다	-11380
▁감정을	-11381
▁개막식	-11382
▁거리를	-11383
▁군입대	-11384
▁기업의	-11385
▁김기덕	-11386
▁나서야	-11387
▁댓가를	-11388
▁댓글에	-11389
▁따르는	-11390
▁만들었	-11391
▁민족의	-11392
▁바꿔서	-11393
▁비상식	-11394
▁사용한	-11395
▁생명이	-11396
▁설명을	-11397
▁약자가	-11398
▁약자를	-11399
▁역사가	-11400
▁인정해	-11401
▁있을때	-11402
▁저렴한	-11403
▁정교사	-11404
▁종목에	-11405
▁중에는	-11406
▁헬조선	-11407
센터에서	-11408
위원회의	-11409
이라면서	-11410
하기에는	-11411
▁강요하고	-11412
▁거짓으로	-11413
▁경각심을	-11414
▁공교육을	-11415
▁남성들도	-11416
▁노력해서	-11417
▁답답해서	-11418
▁대학교에	-11419
▁반성하고	-11420
▁받는다는	-11421
▁방지하기	-11422
▁볼때마다	-11423
▁뻔뻔하게	-11424
▁실시하고	-11425
▁아이들에	-11426
▁아이러니	-11427
▁여기까지	-11428
▁연예인들	-11429
▁지원금이	-11430
▁마땅하다고	-11431
▁판단됩니다	-11432
▁페미니즘은	-11433
▁더불어민주당	-11434
95	-11435
▁낯	-11436
▁랜	-11437
▁멸	-11438
▁젖	-11439
▁험	-11440
간다	-11441
결정	-11442
계속	-11443
국을	-11444
논란	-11445
동네	-11446
불법	-11447
붕괴	-11448
셔도	-11449
시장	-11450
없음	-11451
으러	-11452
이요	-11453
질환	-11454
차로	-11455
철기	-11456
키우	-11457
평화	-11458
확대	-11459
▁가로	-11460
▁강구	-11461
▁과밀	-11462
▁그릇	-11463
▁극히	-11464
▁노벨	-11465
▁녹색	-11466
▁덧붙	-11467
▁듯이	-11468
▁디지	-11469
▁미뤄	-11470
▁바래	-11471
▁별풍	-11472
▁빈부	-11473
▁산부	-11474
▁상해	-11475
▁세우	-11476
▁실형	-11477
▁야외	-11478
▁얻는	-11479
▁연루	-11480
▁예멘	-11481
▁유엔	-11482
▁은닉	-11483
▁인민	-11484
▁입양	-11485
▁적고	-11486
▁전무	-11487
▁접촉	-11488
▁제약	-11489
▁준수	-11490
▁집은	-11491
▁착한	-11492
▁처참	-11493
▁퍼져	-11494
▁하락	-11495
▁허탈	-11496
광역시	-11497
년간의	-11498
님들의	-11499
대학을	-11500
도우미	-11501
됐다고	-11502
방과후	-11503
보이는	-11504
부분을	-11505
였다면	-11506
인증을	-11507
전문가	-11508
정보를	-11509
코리아	-11510
터테인	-11511
할머니	-11512
▁공부는	-11513
▁그러지	-11514
▁근거가	-11515
▁남에게	-11516
▁내신을	-11517
▁노동자	-11518
▁둘째는	-11519
▁말들을	-11520
▁말해서	-11521
▁보고만	-11522
▁사라지	-11523
▁사상을	-11524
▁사실로	-11525
▁서슴치	-11526
▁선수단	-11527
▁신고가	-11528
▁아무나	-11529
▁않는지	-11530
▁없애는	-11531
▁영어로	-11532
▁오래된	-11533
▁외국의	-11534
▁일제강	-11535
▁입으면	-11536
▁있겠죠	-11537
▁전체를	-11538
▁정정보	-11539
▁좋겠다	-11540
▁주인공	-11541
▁처분을	-11542
▁타이틀	-11543
▁토대로	-11544
▁하기에	-11545
사람들의	-11546
사람에게	-11547
하면서도	-11548
▁3000	-11549
▁거부하고	-11550
▁공무원들	-11551
▁공정성을	-11552
▁국무총리	-11553
▁노력으로	-11554
▁두려움에	-11555
▁분야에서	-11556
▁불이익이	-11557
▁싫어하는	-11558
▁안되나요	-11559
▁않더라도	-11560
▁여론조작	-11561
▁여자라는	-11562
▁있겠지요	-11563
▁지금부터	-11564
▁출산휴가	-11565
▁친구들도	-11566
▁포함되어	-11567
▁하는건지	-11568
▁하루라도	-11569
▁한순간에	-11570
▁해야한다	-11571
▁활동하는	-11572
▁남녀평등을	-11573
▁인정합니다	-11574
▁가해자들에게	-11575
▁중학생입니다	-11576
▁끈	-11577
▁낱	-11578
▁멜	-11579
▁쫒	-11580
▁켜	-11581
경에	-11582
그냥	-11583
기소	-11584
기피	-11585
난민	-11586
도안	-11587
드릴	-11588
발표	-11589
빠진	-11590
율을	-11591
잇는	-11592
적용	-11593
정상	-11594
조정	-11595
치며	-11596
치의	-11597
학이	-11598
▁간주	-11599
▁것들	-11600
▁고양	-11601
▁공급	-11602
▁당당	-11603
▁덜어	-11604
▁되려	-11605
▁드릴	-11606
▁들게	-11607
▁떨고	-11608
▁미개	-11609
▁믿어	-11610
▁반칙	-11611
▁보태	-11612
▁상주	-11613
▁속히	-11614
▁슬프	-11615
▁실기	-11616
▁악랄	-11617
▁얻고	-11618
▁없에	-11619
▁왔다	-11620
▁우익	-11621
▁유예	-11622
▁이고	-11623
▁이주	-11624
▁전전	-11625
▁직종	-11626
▁찬양	-11627
▁칼을	-11628
▁퍼트	-11629
▁해가	-11630
년에는	-11631
단체의	-11632
로인해	-11633
사건에	-11634
수당을	-11635
시간씩	-11636
시에는	-11637
없으면	-11638
연하게	-11639
화하는	-11640
▁논란을	-11641
▁다수가	-11642
▁당해야	-11643
▁되었을	-11644
▁드네요	-11645
▁마음도	-11646
▁많으면	-11647
▁말고도	-11648
▁매크로	-11649
▁못하여	-11650
▁바뀌어	-11651
▁볼모로	-11652
▁북한을	-11653
▁불법을	-11654
▁빼앗아	-11655
▁상대적	-11656
▁시설이	-11657
▁싫다고	-11658
▁어느날	-11659
▁업무에	-11660
▁외벌이	-11661
▁유해한	-11662
▁이름은	-11663
▁이번엔	-11664
▁이용을	-11665
▁전에는	-11666
▁타당한	-11667
▁학대가	-11668
▁현장을	-11669
▁협회의	-11670
▁환경에	-11671
▁가해자들	-11672
▁가해자와	-11673
▁감옥에서	-11674
▁높아지고	-11675
▁명분으로	-11676
▁문제점은	-11677
▁보십시오	-11678
▁사용하여	-11679
▁살인미수	-11680
▁선생님도	-11681
▁실시하는	-11682
▁없어지고	-11683
▁예전에는	-11684
▁올림픽의	-11685
▁특별법을	-11686
▁함으로써	-11687
▁때문이라고	-11688
▁마음입니다	-11689
▁부모님들은	-11690
▁부모입니다	-11691
▁아실겁니다	-11692
▁여성분들이	-11693
▁했었습니다	-11694
▁어린이집이나	-11695
▁있을것입니다	-11696
▁청소년이라고	-11697
VE	-11698
ec	-11699
ed	-11700
▁넉	-11701
▁춥	-11702
가입	-11703
공화	-11704
남아	-11705
녀가	-11706
동생	-11707
땜에	-11708
르며	-11709
리즈	-11710
명도	-11711
상품	-11712
안은	-11713
없애	-11714
으셨	-11715
자이	-11716
저도	-11717
직에	-11718
치도	-11719
▁41	-11720
▁MB	-11721
▁간첩	-11722
▁강행	-11723
▁걸림	-11724
▁검출	-11725
▁과태	-11726
▁나갔	-11727
▁날라	-11728
▁멈춰	-11729
▁면담	-11730
▁명심	-11731
▁모색	-11732
▁묻는	-11733
▁민망	-11734
▁반환	-11735
▁빨간	-11736
▁수호	-11737
▁스튜	-11738
▁아까	-11739
▁아팠	-11740
▁않길	-11741
▁없앤	-11742
▁요약	-11743
▁원활	-11744
▁위헌	-11745
▁일선	-11746
▁장교	-11747
▁조그	-11748
▁종결	-11749
▁죽인	-11750
▁찍은	-11751
▁차등	-11752
▁책정	-11753
▁청렴	-11754
▁초청	-11755
▁텐데	-11756
▁포탈	-11757
▁프레	-11758
▁피겨	-11759
▁하도	-11760
▁호기	-11761
▁휴일	-11762
뉴스를	-11763
번호를	-11764
변호사	-11765
으려면	-11766
출하고	-11767
티스트	-11768
평가는	-11769
하던지	-11770
하시어	-11771
하자고	-11772
▁BTS	-11773
▁게임물	-11774
▁다르지	-11775
▁디지털	-11776
▁마음껏	-11777
▁많게는	-11778
▁발표한	-11779
▁밝혔다	-11780
▁사리사	-11781
▁사유가	-11782
▁서민들	-11783
▁서울대	-11784
▁선수에	-11785
▁세번째	-11786
▁수시의	-11787
▁시선을	-11788
▁시켜서	-11789
▁심판의	-11790
▁아내는	-11791
▁잘못은	-11792
▁장애가	-11793
▁정치가	-11794
▁정하고	-11795
▁조치도	-11796
▁종교를	-11797
▁주는게	-11798
▁죽음에	-11799
▁지진이	-11800
▁차량에	-11801
▁처음에	-11802
▁항의를	-11803
▁고용노동	-11804
▁공개하고	-11805
▁기관에서	-11806
▁기다리는	-11807
▁남아있는	-11808
▁더이상의	-11809
▁변호사를	-11810
▁성범죄는	-11811
▁시행하는	-11812
▁우리국민	-11813
▁이기적인	-11814
▁인지하고	-11815
▁일하시는	-11816
▁주민등록	-11817
▁직원들이	-11818
▁차지하고	-11819
▁폭력으로	-11820
▁하겠지만	-11821
▁화가나서	-11822
해왔습니다	-11823
▁공무원들이	-11824
▁교사들에게	-11825
▁국민이라면	-11826
▁따름입니다	-11827
▁몰랐습니다	-11828
▁선생님께서	-11829
▁성범죄자로	-11830
▁실시간으로	-11831
▁의도적으로	-11832
▁지상파방송	-11833
▁학교에서도	-11834
시켜주십시오	-11835
▁김보름박지우	-11836
▁국공립어린이집	-11837
▁낚	-11838
▁둥	-11839
▁휩	-11840
가진	-11841
갑질	-11842
강화	-11843
건의	-11844
게끔	-11845
그럼	-11846
근데	-11847
노조	-11848
당을	-11849
미한	-11850
밀히	-11851
바라	-11852
바이	-11853
보여	-11854
봐요	-11855
부서	-11856
시의	-11857
야만	-11858
억이	-11859
연에	-11860
오라	-11861
오를	-11862
우처	-11863
이머	-11864
이행	-11865
인건	-11866
줄이	-11867
중심	-11868
타임	-11869
idx	-11870
▁걸러	-11871
▁고액	-11872
▁공짜	-11873
▁교재	-11874
▁군에	-11875
▁나랏	-11876
▁납치	-11877
▁내릴	-11878
▁노골	-11879
▁노릇	-11880
▁녹취	-11881
▁단호	-11882
▁대두	-11883
▁돈과	-11884
▁발을	-11885
▁배달	-11886
▁붙어	-11887
▁삶에	-11888
▁시댁	-11889
▁씨는	-11890
▁암묵	-11891
▁엉덩	-11892
▁엉뚱	-11893
▁운행	-11894
▁죄의	-11895
▁주목	-11896
▁중대	-11897
▁진다	-11898
▁짧게	-11899
▁청각	-11900
▁크나	-11901
▁탄생	-11902
▁파업	-11903
▁폭염	-11904
▁허세	-11905
▁허술	-11906
▁휘두	-11907
감독이	-11908
거라는	-11909
대상이	-11910
시키면	-11911
워마드	-11912
으세요	-11913
정책에	-11914
지않을	-11915
1102	-11916
▁갑질이	-11917
▁강화를	-11918
▁근거를	-11919
▁기본적	-11920
▁끝으로	-11921
▁나가면	-11922
▁나누어	-11923
▁내용과	-11924
▁대안이	-11925
▁대하는	-11926
▁뒤집어	-11927
▁맞춰서	-11928
▁밝혀진	-11929
▁별도로	-11930
▁본질을	-11931
▁사진이	-11932
▁수당을	-11933
▁시설에	-11934
▁신성한	-11935
▁싶다는	-11936
▁싶어요	-11937
▁유공자	-11938
▁의견도	-11939
▁이번기	-11940
▁이수역	-11941
▁인신공	-11942
▁재산이	-11943
▁저한테	-11944
▁전라도	-11945
▁정부도	-11946
▁제재가	-11947
▁질문을	-11948
▁참여를	-11949
▁키워야	-11950
▁판사가	-11951
▁판사는	-11952
▁하던지	-11953
▁행사에	-11954
▁확대를	-11955
빙상연맹	-11956
시간으로	-11957
위원회가	-11958
위해서는	-11959
이라고는	-11960
▁기사들을	-11961
▁남성에게	-11962
▁누군가가	-11963
▁무상으로	-11964
▁문제들을	-11965
▁성평등에	-11966
▁알아보고	-11967
▁옹호하는	-11968
▁지켜보고	-11969
▁최근에는	-11970
▁평가하는	-11971
▁폭행하고	-11972
▁피땀흘려	-11973
▁해당되는	-11974
▁화장실에	-11975
▁고등학교는	-11976
▁청소년법을	-11977
▁하나입니다	-11978
▁님	-11979
▁뚫	-11980
▁셀	-11981
▁웬	-11982
경력	-11983
구단	-11984
꾸로	-11985
내의	-11986
능한	-11987
니지	-11988
만들	-11989
변경	-11990
소통	-11991
심도	-11992
아를	-11993
역사	-11994
오염	-11995
위도	-11996
음에	-11997
점도	-11998
제품	-11999
직업	-12000
채로	-12001
초등	-12002
측은	-12003
키즈	-12004
특정	-12005
▁02	-12006
▁CJ	-12007
▁각하	-12008
▁갖는	-12009
▁갖춰	-12010
▁광복	-12011
▁그후	-12012
▁낳는	-12013
▁대접	-12014
▁도배	-12015
▁되질	-12016
▁막말	-12017
▁맡고	-12018
▁미치	-12019
▁빚을	-12020
▁세부	-12021
▁소용	-12022
▁신축	-12023
▁실추	-12024
▁안들	-12025
▁안맞	-12026
▁위조	-12027
▁유용	-12028
▁이가	-12029
▁일시	-12030
▁재혼	-12031
▁적혀	-12032
▁죽여	-12033
▁진입	-12034
▁추행	-12035
▁치명	-12036
▁패배	-12037
▁편입	-12038
▁펼칠	-12039
▁하향	-12040
간다면	-12041
것인데	-12042
광고를	-12043
단체가	-12044
만하고	-12045
병으로	-12046
보도를	-12047
부분은	-12048
사건의	-12049
속으로	-12050
어서는	-12051
왔다고	-12052
응하는	-12053
이거나	-12054
점수를	-12055
피해를	-12056
하더니	-12057
학생을	-12058
▁가슴을	-12059
▁갔는데	-12060
▁국제적	-12061
▁나라와	-12062
▁놀이터	-12063
▁뉴스는	-12064
▁다닐수	-12065
▁다시금	-12066
▁다행히	-12067
▁들여다	-12068
▁떨어질	-12069
▁뛰어놀	-12070
▁모욕을	-12071
▁민방위	-12072
▁반하는	-12073
▁발표를	-12074
▁비롯해	-12075
▁선택이	-12076
▁안가는	-12077
▁없는게	-12078
▁온전히	-12079
▁옵니다	-12080
▁외치고	-12081
▁유사한	-12082
▁이라도	-12083
▁제제를	-12084
▁조건을	-12085
▁차이는	-12086
▁청소를	-12087
▁투자를	-12088
▁폐지에	-12089
▁하고요	-12090
▁한번의	-12091
▁한번쯤	-12092
▁허가를	-12093
▁확인해	-12094
▁후에도	-12095
생입니다	-12096
했음에도	-12097
▁가산점을	-12098
▁교육청의	-12099
▁근무환경	-12100
▁기사들이	-12101
▁대통령과	-12102
▁마루마루	-12103
▁면접교섭	-12104
▁모의고사	-12105
▁반대하고	-12106
▁법입니다	-12107
▁보호법은	-12108
▁사법부의	-12109
▁살기좋은	-12110
▁엄마로서	-12111
▁유튜브에	-12112
▁이어지고	-12113
▁이제라도	-12114
▁입학하는	-12115
▁저질러도	-12116
▁제공하고	-12117
▁주어지는	-12118
▁특성화고	-12119
▁행복추구	-12120
▁사람이라면	-12121
▁스트레스로	-12122
▁일어납니다	-12123
▁자랑스럽게	-12124
▁적어봅니다	-12125
▁적폐입니다	-12126
▁정치인들이	-12127
35	-12128
36	-12129
ac	-12130
▁겹	-12131
▁몹	-12132
▁헐	-12133
게요	-12134
겨운	-12135
겨울	-12136
농구	-12137
두는	-12138
마냥	-12139
방탄	-12140
법도	-12141
스티	-12142
일때	-12143
일본	-12144
참에	-12145
체류	-12146
퇴를	-12147
협박	-12148
▁FI	-12149
▁갖은	-12150
▁개그	-12151
▁건너	-12152
▁경악	-12153
▁공범	-12154
▁구현	-12155
▁권장	-12156
▁그지	-12157
▁기뻐	-12158
▁깊게	-12159
▁넓은	-12160
▁달린	-12161
▁담아	-12162
▁도가	-12163
▁도중	-12164
▁돌이	-12165
▁되돌	-12166
▁따져	-12167
▁땀과	-12168
▁리얼	-12169
▁마라	-12170
▁많았	-12171
▁메이	-12172
▁명이	-12173
▁무대	-12174
▁빌려	-12175
▁뽑고	-12176
▁선물	-12177
▁설령	-12178
▁설정	-12179
▁수있	-12180
▁암기	-12181
▁예고	-12182
▁예민	-12183
▁월세	-12184
▁의뢰	-12185
▁정유	-12186
▁종이	-12187
▁좌우	-12188
▁피시	-12189
▁필기	-12190
▁흘린	-12191
건으로	-12192
관으로	-12193
규정을	-12194
대학원	-12195
뜩이나	-12196
사항이	-12197
제한을	-12198
지역에	-12199
하게끔	-12200
하는걸	-12201
학생은	-12202
▁간다면	-12203
▁계약을	-12204
▁공간을	-12205
▁공개를	-12206
▁공정성	-12207
▁광고가	-12208
▁교실을	-12209
▁그보다	-12210
▁글들이	-12211
▁기록을	-12212
▁뉴스나	-12213
▁대해선	-12214
▁둘째를	-12215
▁라디오	-12216
▁멀쩡한	-12217
▁몇년전	-12218
▁모아서	-12219
▁민감한	-12220
▁발전이	-12221
▁본적이	-12222
▁봐주는	-12223
▁부정한	-12224
▁비중이	-12225
▁선택의	-12226
▁세월이	-12227
▁소득분	-12228
▁수년간	-12229
▁수시가	-12230
▁신천지	-12231
▁아들은	-12232
▁아이스	-12233
▁안해도	-12234
▁알수가	-12235
▁없기에	-12236
▁여자만	-12237
▁올라오	-12238
▁완벽한	-12239
▁이같은	-12240
▁일종의	-12241
▁입학한	-12242
▁자질이	-12243
▁절실히	-12244
▁정서적	-12245
▁정정당	-12246
▁제목을	-12247
▁조선족	-12248
▁주위에	-12249
▁지급을	-12250
▁티켓을	-12251
▁행태는	-12252
▁혐의를	-12253
만원정도	-12254
버립니다	-12255
일겁니다	-12256
해서라도	-12257
▁공간에서	-12258
▁관계자는	-12259
▁규정하고	-12260
▁남자들의	-12261
▁남자라는	-12262
▁댓글들을	-12263
▁들어가고	-12264
▁몰상식한	-12265
▁불편하고	-12266
▁사형제도	-12267
▁생각해도	-12268
▁성희롱을	-12269
▁세무조사	-12270
▁소년법이	-12271
▁시작으로	-12272
▁아무래도	-12273
▁악성댓글	-12274
▁외국인이	-12275
▁일이지만	-12276
▁자신에게	-12277
▁지향하는	-12278
▁청소년도	-12279
▁특수교사	-12280
▁하는데요	-12281
▁해봅니다	-12282
▁힘들어요	-12283
▁공소시효를	-12284
▁공식적으로	-12285
▁부탁드려요	-12286
▁어쩔수없이	-12287
▁여성입니다	-12288
▁인터넷으로	-12289
▁페미니즘이	-12290
▁행동입니다	-12291
▁학생들에게는	-12292
▁대한민국에서는	-12293
84	-12294
ic	-12295
▁꽉	-12296
▁꿀	-12297
▁맏	-12298
▁뺨	-12299
교도	-12300
구매	-12301
넘게	-12302
높은	-12303
란을	-12304
알바	-12305
어떤	-12306
자니	-12307
중근	-12308
중앙	-12309
지구	-12310
체의	-12311
측의	-12312
터리	-12313
파크	-12314
포털	-12315
학력	-12316
▁65	-12317
▁75	-12318
▁개탄	-12319
▁결여	-12320
▁계좌	-12321
▁고지	-12322
▁구미	-12323
▁기미	-12324
▁김민	-12325
▁끝났	-12326
▁난이	-12327
▁날조	-12328
▁넘기	-12329
▁누드	-12330
▁눌러	-12331
▁다뤄	-12332
▁단죄	-12333
▁도데	-12334
▁동시	-12335
▁될것	-12336
▁둘을	-12337
▁로그	-12338
▁마친	-12339
▁모으	-12340
▁목사	-12341
▁못보	-12342
▁무방	-12343
▁미쳐	-12344
▁박진	-12345
▁배구	-12346
▁변태	-12347
▁복원	-12348
▁부천	-12349
▁소요	-12350
▁안할	-12351
▁어두	-12352
▁연간	-12353
▁우대	-12354
▁원천	-12355
▁입지	-12356
▁조상	-12357
▁증설	-12358
▁지체	-12359
▁측은	-12360
▁치러	-12361
▁토익	-12362
▁퍼뜨	-12363
▁한들	-12364
▁합성	-12365
▁해방	-12366
▁현황	-12367
거리는	-12368
과정에	-12369
등에서	-12370
문제도	-12371
문화재	-12372
부분이	-12373
사회를	-12374
생각이	-12375
아가며	-12376
영상이	-12377
왔지만	-12378
자리를	-12379
처리를	-12380
학생들	-12381
▁800	-12382
▁mbc	-12383
▁가혹한	-12384
▁간통죄	-12385
▁결혼도	-12386
▁교복의	-12387
▁국정원	-12388
▁그것에	-12389
▁남녀노	-12390
▁노래방	-12391
▁높이기	-12392
▁늘어난	-12393
▁대안을	-12394
▁대회에	-12395
▁말이다	-12396
▁망치고	-12397
▁묵묵히	-12398
▁박지성	-12399
▁방학을	-12400
▁별다른	-12401
▁병원을	-12402
▁보기에	-12403
▁부부는	-12404
▁비리에	-12405
▁상태가	-12406
▁선수로	-12407
▁소비자	-12408
▁속이고	-12409
▁스타킹	-12410
▁쓰이는	-12411
▁안전과	-12412
▁여행을	-12413
▁원인을	-12414
▁원장들	-12415
▁위하는	-12416
▁의원이	-12417
▁이바지	-12418
▁인재가	-12419
▁있구요	-12420
▁장관은	-12421
▁정치권	-12422
▁지금과	-12423
▁지나지	-12424
▁직원을	-12425
▁진선미	-12426
▁출근을	-12427
지못하는	-12428
▁공교육의	-12429
▁괴롭히고	-12430
▁기본권을	-12431
▁대대적인	-12432
▁못하면서	-12433
▁문화재청	-12434
▁본인들은	-12435
▁부추기는	-12436
▁분노하고	-12437
▁사라지게	-12438
▁숙명여고	-12439
▁심정으로	-12440
▁없더군요	-12441
▁영어수업	-12442
▁유치원과	-12443
▁유치원생	-12444
▁응원하고	-12445
▁인재들이	-12446
▁일본에서	-12447
▁있었다면	-12448
▁저희같은	-12449
▁필요없는	-12450
▁학생인권	-12451
▁해달라는	-12452
▁가장입니다	-12453
▁국가대표를	-12454
▁국가적으로	-12455
▁동의합니다	-12456
▁들어갑니다	-12457
▁많으십니다	-12458
▁무엇일까요	-12459
▁무조건적인	-12460
▁병역의무를	-12461
▁초등학교는	-12462
▁축구협회는	-12463
▁학교폭력이	-12464
▁허다합니다	-12465
▁초등학교에서	-12466
96	-12467
AB	-12468
▁끄	-12469
갈등	-12470
관람	-12471
군은	-12472
남녀	-12473
대요	-12474
동포	-12475
률은	-12476
미터	-12477
받기	-12478
수첩	-12479
스에	-12480
안되	-12481
으라	-12482
의혹	-12483
이제	-12484
인력	-12485
제이	-12486
증에	-12487
지나	-12488
티브	-12489
▁가사	-12490
▁공권	-12491
▁다리	-12492
▁달성	-12493
▁덮어	-12494
▁두산	-12495
▁뛰고	-12496
▁명단	-12497
▁몸과	-12498
▁박용	-12499
▁밤에	-12500
▁벌점	-12501
▁벤투	-12502
▁뻔한	-12503
▁산하	-12504
▁설사	-12505
▁손실	-12506
▁시일	-12507
▁실상	-12508
▁약간	-12509
▁오류	-12510
▁옳고	-12511
▁울며	-12512
▁유전	-12513
▁인류	-12514
▁일괄	-12515
▁입금	-12516
▁자란	-12517
▁자를	-12518
▁잠도	-12519
▁장수	-12520
▁재단	-12521
▁제사	-12522
▁타투	-12523
▁패륜	-12524
▁표절	-12525
▁하겠	-12526
▁한때	-12527
▁환수	-12528
▁후반	-12529
▁힘겹	-12530
경우도	-12531
되어도	-12532
등급을	-12533
만하면	-12534
씁니다	-12535
여부를	-12536
였지만	-12537
일어나	-12538
주의를	-12539
처분을	-12540
했으니	-12541
행동을	-12542
▁sbs	-12543
▁가리고	-12544
▁가리지	-12545
▁고통이	-12546
▁기자의	-12547
▁남성에	-12548
▁돌보미	-12549
▁딸아이	-12550
▁때리는	-12551
▁무리한	-12552
▁미래인	-12553
▁바라지	-12554
▁반성의	-12555
▁방송의	-12556
▁방향을	-12557
▁보호가	-12558
▁불편을	-12559
▁브랜드	-12560
▁빈부격	-12561
▁사항을	-12562
▁살아온	-12563
▁생활비	-12564
▁세상은	-12565
▁소식이	-12566
▁소용이	-12567
▁신분을	-12568
▁아리랑	-12569
▁않았던	-12570
▁알고있	-12571
▁알려져	-12572
▁언론인	-12573
▁여성만	-12574
▁왕따를	-12575
▁웃으며	-12576
▁의미로	-12577
▁의혹을	-12578
▁인건비	-12579
▁인정을	-12580
▁장면이	-12581
▁재능을	-12582
▁정도를	-12583
▁증거도	-12584
▁진상규	-12585
▁찾아볼	-12586
▁축구에	-12587
▁캐릭터	-12588
▁케이팝	-12589
▁폭행이	-12590
▁활동에	-12591
▁흉악범	-12592
교육으로	-12593
냈습니다	-12594
되어있는	-12595
학생들의	-12596
idxno	-12597
▁가뜩이나	-12598
▁간단하게	-12599
▁강력처벌	-12600
▁거부하는	-12601
▁누구든지	-12602
▁아버지는	-12603
▁어렸을때	-12604
▁여자친구	-12605
▁오죽하면	-12606
▁올라가는	-12607
▁요즘들어	-12608
▁인간들이	-12609
▁있었다는	-12610
▁전국민이	-12611
▁줄어드는	-12612
▁친구들을	-12613
▁침해하고	-12614
▁타인에게	-12615
▁태극마크	-12616
▁프로축구	-12617
▁해결책을	-12618
고등학교에	-12619
반대합니다	-12620
시켰습니다	-12621
▁20180	-12622
▁가능하도록	-12623
▁객관적으로	-12624
▁걱정됩니다	-12625
▁반대입니다	-12626
▁불안합니다	-12627
▁생각한다면	-12628
되어야합니다	-12629
▁정부차원에서	-12630
41	-12631
55	-12632
99	-12633
▁d	-12634
▁앗	-12635
▁찔	-12636
▁콩	-12637
갈이	-12638
건가	-12639
과에	-12640
군을	-12641
끝에	-12642
료는	-12643
바람	-12644
보미	-12645
분열	-12646
생기	-12647
소는	-12648
아치	-12649
역할	-12650
저리	-12651
제기	-12652
제작	-12653
지망	-12654
지켜	-12655
진짜	-12656
팀의	-12657
▁경호	-12658
▁군필	-12659
▁낱낱	-12660
▁닉네	-12661
▁더빙	-12662
▁동호	-12663
▁마디	-12664
▁망쳐	-12665
▁멜론	-12666
▁면죄	-12667
▁못된	-12668
▁무궁	-12669
▁무참	-12670
▁문과	-12671
▁바가	-12672
▁바에	-12673
▁반인	-12674
▁발상	-12675
▁밥도	-12676
▁밥먹	-12677
▁봤을	-12678
▁비속	-12679
▁수감	-12680
▁엉망	-12681
▁에너	-12682
▁예선	-12683
▁유족	-12684
▁이땅	-12685
▁인체	-12686
▁잊지	-12687
▁전주	-12688
▁제명	-12689
▁추월	-12690
▁친절	-12691
▁페이	-12692
▁폐간	-12693
▁한을	-12694
▁허무	-12695
▁화재	-12696
근무를	-12697
는지는	-12698
도서관	-12699
되는거	-12700
문하고	-12701
시간의	-12702
씨에게	-12703
이상이	-12704
졌지만	-12705
하고요	-12706
훈련을	-12707
▁the	-12708
▁가지지	-12709
▁감정이	-12710
▁거대한	-12711
▁결정이	-12712
▁곳곳에	-12713
▁국가로	-12714
▁권력이	-12715
▁글들을	-12716
▁내려야	-12717
▁누리고	-12718
▁누리는	-12719
▁돌아갈	-12720
▁맘카페	-12721
▁모여서	-12722
▁무리가	-12723
▁백철기	-12724
▁버스를	-12725
▁복직을	-12726
▁본다면	-12727
▁봉사를	-12728
▁사회와	-12729
▁성민이	-12730
▁성욕을	-12731
▁세금도	-12732
▁수단이	-12733
▁스토킹	-12734
▁실상은	-12735
▁실질적	-12736
▁싸우고	-12737
▁언급한	-12738
▁없어지	-12739
▁육체적	-12740
▁의원은	-12741
▁인프라	-12742
▁장관님	-12743
▁크나큰	-12744
▁태어났	-12745
▁평등이	-12746
▁한글을	-12747
▁헤아려	-12748
많습니다	-12749
말입니다	-12750
시겠지만	-12751
▁경찰들이	-12752
▁국가기관	-12753
▁금지하는	-12754
▁남성보다	-12755
▁남자들도	-12756
▁노동조합	-12757
▁말하자면	-12758
▁보호받을	-12759
▁상황으로	-12760
▁시작하는	-12761
▁실제로는	-12762
▁안될까요	-12763
▁안합니다	-12764
▁않았다는	-12765
▁않았지만	-12766
▁이야기는	-12767
▁추진하는	-12768
▁피해자로	-12769
▁학부모들	-12770
▁핸드폰을	-12771
▁교육공무원	-12772
▁교육공무직	-12773
▁국가유공자	-12774
▁단일팀으로	-12775
▁분명합니다	-12776
▁연예인들이	-12777
▁유치원교사	-12778
▁적폐청산을	-12779
▁젊은이들이	-12780
▁처벌받아야	-12781
▁해야하는데	-12782
▁생각하시나요	-12783
87	-12784
OO	-12785
▁멘	-12786
▁엎	-12787
▁쯤	-12788
고한	-12789
그라	-12790
그릇	-12791
금과	-12792
기다	-12793
대문	-12794
동아	-12795
모의	-12796
물고	-12797
살에	-12798
수신	-12799
시마	-12800
시티	-12801
시행	-12802
아기	-12803
얼굴	-12804
역이	-12805
연수	-12806
유를	-12807
지노	-12808
체로	-12809
취급	-12810
층의	-12811
파탄	-12812
하긴	-12813
하든	-12814
협의	-12815
▁OO	-12816
▁가계	-12817
▁검거	-12818
▁검은	-12819
▁고마	-12820
▁근래	-12821
▁기를	-12822
▁낳지	-12823
▁내기	-12824
▁넉넉	-12825
▁노숙	-12826
▁높고	-12827
▁단합	-12828
▁담긴	-12829
▁도용	-12830
▁땀을	-12831
▁뚜렷	-12832
▁라며	-12833
▁말라	-12834
▁무효	-12835
▁뭐니	-12836
▁보관	-12837
▁분도	-12838
▁뽑을	-12839
▁사면	-12840
▁상세	-12841
▁선호	-12842
▁성남	-12843
▁소음	-12844
▁수비	-12845
▁시립	-12846
▁아플	-12847
▁않음	-12848
▁예쁘	-12849
▁오게	-12850
▁유학	-12851
▁이길	-12852
▁일벌	-12853
▁자괴	-12854
▁자칫	-12855
▁재난	-12856
▁재심	-12857
▁지낼	-12858
▁질타	-12859
▁집도	-12860
▁창원	-12861
▁청탁	-12862
▁추적	-12863
▁커져	-12864
▁코스	-12865
▁피와	-12866
▁한푼	-12867
▁할거	-12868
▁합창	-12869
▁헌데	-12870
▁형법	-12871
경우는	-12872
관에서	-12873
께서도	-12874
나오는	-12875
되기도	-12876
리는데	-12877
리라고	-12878
면에서	-12879
명하고	-12880
봤는데	-12881
생들의	-12882
센터에	-12883
스트를	-12884
아니면	-12885
제도로	-12886
주의로	-12887
진다는	-12888
치료를	-12889
한테도	-12890
했다며	-12891
행사를	-12892
▁가면서	-12893
▁개최국	-12894
▁검찰은	-12895
▁급여가	-12896
▁기사와	-12897
▁내리고	-12898
▁단체로	-12899
▁되기도	-12900
▁등교를	-12901
▁등하원	-12902
▁따라야	-12903
▁무혐의	-12904
▁문자를	-12905
▁문화의	-12906
▁버티고	-12907
▁보고도	-12908
▁복잡한	-12909
▁부패한	-12910
▁불법이	-12911
▁비용은	-12912
▁사는게	-12913
▁사는데	-12914
▁살아남	-12915
▁수술을	-12916
▁심사를	-12917
▁심의를	-12918
▁아무튼	-12919
▁안중근	-12920
▁어렵다	-12921
▁여지가	-12922
▁연수를	-12923
▁외국에	-12924
▁원장의	-12925
▁월급은	-12926
▁이것에	-12927
▁이참에	-12928
▁자리잡	-12929
▁저또한	-12930
▁저보다	-12931
▁전반에	-12932
▁정책도	-12933
▁죄질이	-12934
▁주면서	-12935
▁준비가	-12936
▁줄이기	-12937
▁중범죄	-12938
▁체육복	-12939
▁측에서	-12940
▁특별법	-12941
▁필요도	-12942
▁해주면	-12943
▁현정부	-12944
▁홍보를	-12945
▁휴직을	-12946
▁흙수저	-12947
상황에서	-12948
서비스를	-12949
페미니즘	-12950
▁FIFA	-12951
▁감독으로	-12952
▁강화하여	-12953
▁게임산업	-12954
▁교육청은	-12955
▁국가적인	-12956
▁넘어가는	-12957
▁대통령도	-12958
▁대회에서	-12959
▁들어와서	-12960
▁마음에서	-12961
▁명목하에	-12962
▁벌써부터	-12963
▁북한과의	-12964
▁사람인데	-12965
▁스튜디오	-12966
▁아닌지요	-12967
▁알아보니	-12968
▁어디에도	-12969
▁이해하기	-12970
▁인격모독	-12971
▁일하면서	-12972
▁있다는게	-12973
▁있었다고	-12974
▁종사하는	-12975
▁지불하고	-12976
▁지켜보는	-12977
▁피해보는	-12978
▁하다보니	-12979
▁해결하는	-12980
▁해외여행	-12981
▁공소시효가	-12982
▁대표적으로	-12983
▁무기계약직	-12984
▁무엇보다도	-12985
▁병역혜택을	-12986
▁연예인들의	-12987
▁유해물질이	-12988
▁이렇습니다	-12989
▁합법적으로	-12990
▁호소합니다	-12991
▁국민세금으로	-12992
▁청소년보호법을	-12993
67	-12994
ub	-12995
▁빡	-12996
▁쇠	-12997
▁쏘	-12998
▁욱	-12999
▁캡	-13000
▁팟	-13001
▁훔	-13002
관과	-13003
나간	-13004
냐며	-13005
당이	-13006
러링	-13007
리즘	-13008
림을	-13009
명만	-13010
못할	-13011
법률	-13012
성애	-13013
수술	-13014
스토	-13015
시반	-13016
어떻	-13017
여론	-13018
욕설	-13019
유산	-13020
인트	-13021
제와	-13022
죄의	-13023
주길	-13024
측에	-13025
하진	-13026
함께	-13027
후보	-13028
▁67	-13029
▁가방	-13030
▁간혹	-13031
▁개봉	-13032
▁고급	-13033
▁과도	-13034
▁교류	-13035
▁국익	-13036
▁그딴	-13037
▁금일	-13038
▁김재	-13039
▁남과	-13040
▁냄새	-13041
▁다툼	-13042
▁단설	-13043
▁돕는	-13044
▁듣게	-13045
▁땀흘	-13046
▁만날	-13047
▁매국	-13048
▁바꾼	-13049
▁박수	-13050
▁사직	-13051
▁성의	-13052
▁슬로	-13053
▁쓸모	-13054
▁없앨	-13055
▁역활	-13056
▁유산	-13057
▁이세	-13058
▁이십	-13059
▁일각	-13060
▁자궁	-13061
▁잡지	-13062
▁장병	-13063
▁죄에	-13064
▁지능	-13065
▁지울	-13066
▁키운	-13067
▁파마	-13068
▁합산	-13069
▁항소	-13070
▁훈육	-13071
가는데	-13072
검찰청	-13073
것보다	-13074
결과를	-13075
과목을	-13076
년전에	-13077
발전을	-13078
보시고	-13079
성평등	-13080
센터를	-13081
수밖에	-13082
수준이	-13083
시면서	-13084
으시는	-13085
인지를	-13086
쪽에서	-13087
▁010	-13088
▁간절한	-13089
▁개인적	-13090
▁거짓된	-13091
▁걱정을	-13092
▁검찰에	-13093
▁고생한	-13094
▁국적을	-13095
▁군생활	-13096
▁기량을	-13097
▁김어준	-13098
▁나날이	-13099
▁남북이	-13100
▁다니다	-13101
▁대출을	-13102
▁도데체	-13103
▁동생은	-13104
▁등하교	-13105
▁리니지	-13106
▁만으로	-13107
▁먼저다	-13108
▁몰카를	-13109
▁무개념	-13110
▁무의미	-13111
▁바람에	-13112
▁불안에	-13113
▁불합격	-13114
▁성별에	-13115
▁수입이	-13116
▁신입생	-13117
▁아님을	-13118
▁아이에	-13119
▁암표상	-13120
▁엄벌을	-13121
▁없다며	-13122
▁외국어	-13123
▁이지만	-13124
▁인생은	-13125
▁일으켜	-13126
▁자라고	-13127
▁장치를	-13128
▁전까지	-13129
▁정원을	-13130
▁정의로	-13131
▁조작을	-13132
▁조중동	-13133
▁종목은	-13134
▁퇴사를	-13135
▁필요로	-13136
▁학원은	-13137
▁행정실	-13138
되어서는	-13139
되지않는	-13140
수있다고	-13141
시킵니다	-13142
하십시요	-13143
▁가르쳐야	-13144
▁기초생활	-13145
▁들었는데	-13146
▁맞지않는	-13147
▁모습으로	-13148
▁방송으로	-13149
▁사라지는	-13150
▁선수들에	-13151
▁성폭행한	-13152
▁아니라서	-13153
▁아티스트	-13154
▁언론사가	-13155
▁인종차별	-13156
▁있으리라	-13157
▁적용되는	-13158
▁좋겠지만	-13159
▁참여하는	-13160
▁처벌하지	-13161
▁충격적인	-13162
▁피해자에	-13163
▁하루에도	-13164
지않을까요	-13165
▁교육정책을	-13166
▁그러다보니	-13167
▁무엇인가요	-13168
▁보겠습니다	-13169
▁보육교사가	-13170
▁비리유치원	-13171
▁생각하지만	-13172
▁생각해보면	-13173
▁스포츠토토	-13174
▁어마어마한	-13175
▁이해합니다	-13176
▁저지르고도	-13177
▁청소년들도	-13178
▁청원입니다	-13179
▁보호해주세요	-13180
▁일어났습니다	-13181
cm	-13182
ts	-13183
▁넌	-13184
▁쿠	-13185
▁킴	-13186
공동	-13187
글이	-13188
넘어	-13189
담배	-13190
등한	-13191
명령	-13192
목적	-13193
무사	-13194
물은	-13195
바꿔	-13196
본을	-13197
부대	-13198
생리	-13199
선에	-13200
시위	-13201
유지	-13202
의사	-13203
인듯	-13204
입은	-13205
전환	-13206
진한	-13207
집은	-13208
차고	-13209
폐를	-13210
해체	-13211
회피	-13212
ore	-13213
▁37	-13214
▁개헌	-13215
▁국한	-13216
▁꺼려	-13217
▁내뱉	-13218
▁놀아	-13219
▁다친	-13220
▁더운	-13221
▁들먹	-13222
▁들의	-13223
▁디스	-13224
▁때린	-13225
▁라이	-13226
▁루머	-13227
▁믿는	-13228
▁바깥	-13229
▁반값	-13230
▁밝힌	-13231
▁보훈	-13232
▁살피	-13233
▁선양	-13234
▁소모	-13235
▁숨겨	-13236
▁슬픔	-13237
▁시사	-13238
▁신변	-13239
▁안받	-13240
▁안한	-13241
▁엄한	-13242
▁유혹	-13243
▁이다	-13244
▁이론	-13245
▁작곡	-13246
▁저조	-13247
▁전후	-13248
▁준다	-13249
▁중복	-13250
▁채로	-13251
▁처사	-13252
▁출장	-13253
▁취임	-13254
▁한데	-13255
▁할까	-13256
▁화해	-13257
고시를	-13258
급으로	-13259
기준이	-13260
년마다	-13261
는것은	-13262
다시피	-13263
대보험	-13264
되지도	-13265
될까요	-13266
발전에	-13267
베이터	-13268
봤지만	-13269
씩이나	-13270
지우지	-13271
책으로	-13272
할것을	-13273
할때는	-13274
할려고	-13275
▁120	-13276
▁가능할	-13277
▁가려고	-13278
▁공감을	-13279
▁과언이	-13280
▁구시대	-13281
▁그러기	-13282
▁그러던	-13283
▁나라도	-13284
▁나오기	-13285
▁내버려	-13286
▁당시에	-13287
▁당하지	-13288
▁대표가	-13289
▁무식한	-13290
▁물의를	-13291
▁미러링	-13292
▁방해가	-13293
▁백화점	-13294
▁법에서	-13295
▁법원은	-13296
▁벗어날	-13297
▁복무를	-13298
▁볼수가	-13299
▁부르고	-13300
▁상에서	-13301
▁상위권	-13302
▁생명과	-13303
▁생명의	-13304
▁소규모	-13305
▁소통이	-13306
▁시대는	-13307
▁싫으면	-13308
▁싸이트	-13309
▁아니기	-13310
▁약자인	-13311
▁양심이	-13312
▁위기에	-13313
▁위장전	-13314
▁일이다	-13315
▁일일이	-13316
▁자라는	-13317
▁적으로	-13318
▁전화가	-13319
▁정상화	-13320
▁조금더	-13321
▁지방의	-13322
▁최초로	-13323
▁취지와	-13324
▁하셔서	-13325
▁한민족	-13326
▁합리적	-13327
▁행위로	-13328
▁혐의가	-13329
▁후에는	-13330
나라에서	-13331
되고있는	-13332
아이들을	-13333
해주셔서	-13334
현장에서	-13335
▁2008	-13336
▁가해자에	-13337
▁국민들과	-13338
▁근로시간	-13339
▁담당하는	-13340
▁당사자가	-13341
▁더이상은	-13342
▁되었지만	-13343
▁들어오는	-13344
▁명확하게	-13345
▁못하는데	-13346
▁무시하지	-13347
▁방관하고	-13348
▁방치하고	-13349
▁부모님과	-13350
▁부족하고	-13351
▁불평등한	-13352
▁비롯하여	-13353
▁사유재산	-13354
▁상황인데	-13355
▁생활하고	-13356
▁수능시험	-13357
▁시험으로	-13358
▁신고하고	-13359
▁실시하여	-13360
▁억울해서	-13361
▁없겠지만	-13362
▁움직이는	-13363
▁장애인이	-13364
▁조건으로	-13365
▁조선시대	-13366
▁주관적인	-13367
▁직무유기	-13368
▁해주어야	-13369
▁했음에도	-13370
▁환경오염	-13371
터테인먼트	-13372
▁공무원들은	-13373
▁국위선양을	-13374
▁보여주세요	-13375
▁아동청소년	-13376
▁오래전부터	-13377
▁응원합니다	-13378
▁이었습니다	-13379
▁찬성합니다	-13380
▁하는건가요	-13381
▁휴게시간을	-13382
▁도와주십시요	-13383
▁생각이듭니다	-13384
▁위치정보제공을	-13385
ut	-13386
xx	-13387
▁ᄀ	-13388
▁빵	-13389
▁잉	-13390
▁흑	-13391
가수	-13392
거를	-13393
견을	-13394
경영	-13395
공감	-13396
공론	-13397
낙연	-13398
남도	-13399
당할	-13400
따위	-13401
력한	-13402
름에	-13403
리어	-13404
목이	-13405
물에	-13406
물질	-13407
미달	-13408
바른	-13409
분한	-13410
색을	-13411
선언	-13412
소의	-13413
아들	-13414
언어	-13415
올려	-13416
운드	-13417
이미	-13418
인터	-13419
일날	-13420
접종	-13421
지대	-13422
찰을	-13423
측이	-13424
층이	-13425
패를	-13426
히트	-13427
112	-13428
300	-13429
▁NC	-13430
▁ᄒᄒ	-13431
▁가출	-13432
▁간에	-13433
▁그놈	-13434
▁근친	-13435
▁김치	-13436
▁끊어	-13437
▁눈과	-13438
▁때의	-13439
▁물거	-13440
▁민국	-13441
▁백년	-13442
▁버텨	-13443
▁법령	-13444
▁보급	-13445
▁분쟁	-13446
▁불량	-13447
▁비극	-13448
▁삼아	-13449
▁선별	-13450
▁수긍	-13451
▁쌍방	-13452
▁씁쓸	-13453
▁안산	-13454
▁엘지	-13455
▁용의	-13456
▁위생	-13457
▁일치	-13458
▁잘라	-13459
▁정년	-13460
▁조별	-13461
▁종류	-13462
▁좋다	-13463
▁주길	-13464
▁지우	-13465
▁참조	-13466
▁처단	-13467
▁척결	-13468
▁콘돔	-13469
▁플레	-13470
▁학사	-13471
▁형제	-13472
가능한	-13473
가지를	-13474
개월을	-13475
겠다며	-13476
그렇게	-13477
년정도	-13478
답시고	-13479
문재인	-13480
시에서	-13481
있으니	-13482
준다는	-13483
지부지	-13484
키우기	-13485
한다며	-13486
view	-13487
▁가는게	-13488
▁감동을	-13489
▁감사가	-13490
▁검토해	-13491
▁결국엔	-13492
▁국내에	-13493
▁국영수	-13494
▁권리도	-13495
▁그다음	-13496
▁기자는	-13497
▁낳으면	-13498
▁넘어선	-13499
▁뉴스와	-13500
▁다음은	-13501
▁답변만	-13502
▁대답을	-13503
▁도구로	-13504
▁돌리고	-13505
▁등등의	-13506
▁때로는	-13507
▁마인드	-13508
▁만만치	-13509
▁만연한	-13510
▁먹어야	-13511
▁먼저인	-13512
▁명칭을	-13513
▁몇가지	-13514
▁민원이	-13515
▁바닥에	-13516
▁반성을	-13517
▁받는게	-13518
▁범위를	-13519
▁법원의	-13520
▁비양육	-13521
▁사적인	-13522
▁사회인	-13523
▁습니다	-13524
▁싸우는	-13525
▁악행을	-13526
▁않아요	-13527
▁알고도	-13528
▁언어를	-13529
▁언젠가	-13530
▁없거나	-13531
▁에서는	-13532
▁올려서	-13533
▁올해는	-13534
▁운영에	-13535
▁원칙에	-13536
▁위협을	-13537
▁이런데	-13538
▁이익이	-13539
▁적당히	-13540
▁적용이	-13541
▁주장은	-13542
▁처벌에	-13543
▁취지에	-13544
▁키우며	-13545
▁팬들을	-13546
▁하나씩	-13547
▁함에도	-13548
▁혈세로	-13549
▁확인이	-13550
기간동안	-13551
다니면서	-13552
되었는지	-13553
않습니다	-13554
지못하고	-13555
▁가능성을	-13556
▁가야하는	-13557
▁가족관계	-13558
▁게임중독	-13559
▁고통속에	-13560
▁국민이고	-13561
▁깨끗하고	-13562
▁남북관계	-13563
▁네이버는	-13564
▁무너지는	-13565
▁부당하게	-13566
▁싶어하는	-13567
▁안정적인	-13568
▁알려주는	-13569
▁여름방학	-13570
▁역차별을	-13571
▁유지하고	-13572
▁있어서도	-13573
▁자기들의	-13574
▁좋겠다고	-13575
▁티비조선	-13576
▁학부모를	-13577
해야하나요	-13578
▁공개적으로	-13579
▁국가대표의	-13580
▁국회의원이	-13581
▁미성년자가	-13582
▁버렸습니다	-13583
▁보냈습니다	-13584
▁빙상연맹을	-13585
▁살아갑니다	-13586
▁싶었습니다	-13587
▁자발적으로	-13588
▁접했습니다	-13589
▁무차별적으로	-13590
▁받고있습니다	-13591
▁생각해보세요	-13592
▁어린이집유치원	-13593
articleView	-13594
▁꺾	-13595
▁닥	-13596
▁떄	-13597
▁샤	-13598
▁얽	-13599
▁컸	-13600
값이	-13601
거다	-13602
난다	-13603
너스	-13604
노래	-13605
대응	-13606
들인	-13607
러리	-13608
려니	-13609
막이	-13610
많고	-13611
문학	-13612
방향	-13613
배로	-13614
살된	-13615
세반	-13616
시와	-13617
안의	-13618
애를	-13619
여명	-13620
영역	-13621
왜곡	-13622
윤리	-13623
이신	-13624
있죠	-13625
자라	-13626
자원	-13627
장면	-13628
졌던	-13629
조가	-13630
출연	-13631
치마	-13632
플레	-13633
하드	-13634
▁가을	-13635
▁거지	-13636
▁공원	-13637
▁구형	-13638
▁금연	-13639
▁급격	-13640
▁뒷받	-13641
▁따르	-13642
▁명명	-13643
▁문이	-13644
▁물고	-13645
▁반을	-13646
▁배경	-13647
▁배를	-13648
▁봐줄	-13649
▁부장	-13650
▁새끼	-13651
▁선처	-13652
▁싫고	-13653
▁심해	-13654
▁쌓아	-13655
▁오염	-13656
▁위기	-13657
▁유감	-13658
▁장이	-13659
▁재고	-13660
▁적법	-13661
▁전라	-13662
▁줄고	-13663
▁증축	-13664
▁출국	-13665
▁친척	-13666
▁친한	-13667
▁파출	-13668
▁편을	-13669
▁합당	-13670
▁현혹	-13671
껍니다	-13672
내용은	-13673
능력을	-13674
만큼의	-13675
번이나	-13676
분까지	-13677
사에게	-13678
싶어서	-13679
엄마가	-13680
임으로	-13681
지못한	-13682
천에서	-13683
학년은	-13684
▁가득한	-13685
▁가해를	-13686
▁경조사	-13687
▁관계로	-13688
▁교육적	-13689
▁권력에	-13690
▁급하게	-13691
▁기록이	-13692
▁기회의	-13693
▁남기고	-13694
▁내놓고	-13695
▁넘어갈	-13696
▁노동을	-13697
▁누명을	-13698
▁다르고	-13699
▁다음에	-13700
▁댓글로	-13701
▁미지급	-13702
▁박용진	-13703
▁박탈을	-13704
▁반인륜	-13705
▁받았던	-13706
▁방식은	-13707
▁보니까	-13708
▁봅시다	-13709
▁사기업	-13710
▁사용이	-13711
▁생겨서	-13712
▁시상식	-13713
▁시청률	-13714
▁시행을	-13715
▁시험의	-13716
▁신고할	-13717
▁아이만	-13718
▁아저씨	-13719
▁압박을	-13720
▁올리면	-13721
▁운동에	-13722
▁이낙연	-13723
▁이슈로	-13724
▁인스타	-13725
▁일년에	-13726
▁일본과	-13727
▁일본어	-13728
▁잃어버	-13729
▁있게끔	-13730
▁자들은	-13731
▁자신은	-13732
▁전화로	-13733
▁접하는	-13734
▁정원이	-13735
▁정유라	-13736
▁제발좀	-13737
▁죄의식	-13738
▁주어진	-13739
▁참여할	-13740
▁추구할	-13741
▁치르게	-13742
▁하구요	-13743
▁한국남	-13744
▁현저히	-13745
병원에서	-13746
분야에서	-13747
▁관리하는	-13748
▁금지하고	-13749
▁나왔는데	-13750
▁목소리에	-13751
▁바람직한	-13752
▁범죄자들	-13753
▁법원에서	-13754
▁법치국가	-13755
▁보여줘야	-13756
▁불안해서	-13757
▁사교육의	-13758
▁사람이고	-13759
▁서민들은	-13760
▁성차별을	-13761
▁스스로가	-13762
▁스포츠의	-13763
▁시청료를	-13764
▁신중하게	-13765
▁악질적인	-13766
▁안되는데	-13767
▁어찌보면	-13768
▁우리들의	-13769
▁은메달을	-13770
▁이후에도	-13771
▁있었는지	-13772
▁정치인들	-13773
▁판단하여	-13774
▁평등하다	-13775
▁필요성을	-13776
▁화가나고	-13777
▁구체적으로	-13778
▁남성들에게	-13779
▁문재인정부	-13780
▁비정상적인	-13781
▁아이돌보미	-13782
▁이번기회에	-13783
▁지금까지도	-13784
▁지금까지의	-13785
▁해야하나요	-13786
되어있습니다	-13787
▁드리겠습니다	-13788
▁사립유치원에	-13789
▁이르렀습니다	-13790
▁잘못되었다고	-13791
▁대한축구협회의	-13792
PL	-13793
▁g	-13794
▁곁	-13795
▁봅	-13796
▁섹	-13797
▁휠	-13798
권한	-13799
꼬박	-13800
다란	-13801
대비	-13802
대전	-13803
리핑	-13804
문의	-13805
부여	-13806
뿐이	-13807
셨고	-13808
속한	-13809
습니	-13810
예를	-13811
외로	-13812
움의	-13813
이번	-13814
작성	-13815
장인	-13816
저것	-13817
접수	-13818
좋게	-13819
죄에	-13820
주인	-13821
지능	-13822
집이	-13823
하구	-13824
행복	-13825
혜를	-13826
호봉	-13827
asp	-13828
▁가량	-13829
▁고속	-13830
▁과금	-13831
▁구역	-13832
▁국고	-13833
▁균형	-13834
▁그쪽	-13835
▁금품	-13836
▁긴장	-13837
▁끼칠	-13838
▁넥슨	-13839
▁넷째	-13840
▁담겨	-13841
▁되죠	-13842
▁뜨고	-13843
▁랜덤	-13844
▁막론	-13845
▁만난	-13846
▁말살	-13847
▁매수	-13848
▁매출	-13849
▁못받	-13850
▁발령	-13851
▁복용	-13852
▁분을	-13853
▁산정	-13854
▁숙제	-13855
▁쌓여	-13856
▁온통	-13857
▁우편	-13858
▁원에	-13859
▁원을	-13860
▁일용	-13861
▁장담	-13862
▁절도	-13863
▁제게	-13864
▁중산	-13865
▁중의	-13866
▁지닌	-13867
▁태권	-13868
▁파울	-13869
▁파트	-13870
▁표출	-13871
▁현지	-13872
▁확립	-13873
가족이	-13874
게임을	-13875
나라를	-13876
등록금	-13877
릅니까	-13878
여행을	-13879
요일에	-13880
원들이	-13881
정신을	-13882
판결을	-13883
학년인	-13884
▁가장한	-13885
▁감독님	-13886
▁결과로	-13887
▁공부도	-13888
▁관대한	-13889
▁관련해	-13890
▁금요일	-13891
▁기관의	-13892
▁다니게	-13893
▁달라진	-13894
▁대가를	-13895
▁독도를	-13896
▁동메달	-13897
▁맞춤형	-13898
▁목표를	-13899
▁무너져	-13900
▁밀어붙	-13901
▁반면에	-13902
▁보상이	-13903
▁보장할	-13904
▁봐주고	-13905
▁부조리	-13906
▁비공개	-13907
▁비해서	-13908
▁사망한	-13909
▁사유로	-13910
▁사정을	-13911
▁상식이	-13912
▁서류가	-13913
▁세상의	-13914
▁소문이	-13915
▁수시와	-13916
▁수입을	-13917
▁시청자	-13918
▁싶다고	-13919
▁양질의	-13920
▁언제든	-13921
▁외에는	-13922
▁의식을	-13923
▁이른바	-13924
▁정책의	-13925
▁제도에	-13926
▁제품을	-13927
▁종목의	-13928
▁지역은	-13929
▁지켜주	-13930
▁직장이	-13931
▁챙기고	-13932
▁카드를	-13933
▁태도가	-13934
▁판사의	-13935
▁편의점	-13936
▁한번더	-13937
▁현실과	-13938
▁형벌을	-13939
▁형태의	-13940
경기에서	-13941
셨습니까	-13942
한다는데	-13943
▁가중처벌	-13944
▁게임으로	-13945
▁교사라는	-13946
▁기다려야	-13947
▁나름대로	-13948
▁나온다고	-13949
▁동성애를	-13950
▁되었다는	-13951
▁바로잡아	-13952
▁보장하는	-13953
▁사교육은	-13954
▁산부인과	-13955
▁선정적인	-13956
▁성범죄의	-13957
▁손혜원의	-13958
▁스케이팅	-13959
▁아침부터	-13960
▁언론들이	-13961
▁언젠가는	-13962
▁여러차례	-13963
▁연예인의	-13964
▁이루어져	-13965
▁정부기관	-13966
▁좌지우지	-13967
▁주장하며	-13968
▁중간고사	-13969
▁중에서도	-13970
▁통학차량	-13971
▁하는지요	-13972
▁학생수가	-13973
▁개인정보를	-13974
▁빙상연맹에	-13975
▁세상입니다	-13976
▁어릴때부터	-13977
▁여성할당제	-13978
▁우선적으로	-13979
▁인터뷰에서	-13980
▁지경입니다	-13981
▁키우고있는	-13982
▁프로그램에	-13983
하지않습니다	-13984
▁아이들입니다	-13985
▁학생들에게도	-13986
▁알게되었습니다	-13987
▁의심스럽습니다	-13988
57	-13989
bo	-13990
가다	-13991
갑을	-13992
개인	-13993
거야	-13994
근처	-13995
기념	-13996
드림	-13997
명당	-13998
물의	-13999
비의	-14000
사기	-14001
시경	-14002
양심	-14003
왔다	-14004
임에	-14005
전화	-14006
조원	-14007
줌마	-14008
천만	-14009
합격	-14010
히면	-14011
▁95	-14012
▁KT	-14013
▁ᅮᅮ	-14014
▁거액	-14015
▁걸릴	-14016
▁골목	-14017
▁글도	-14018
▁노리	-14019
▁다반	-14020
▁동작	-14021
▁모호	-14022
▁미화	-14023
▁반해	-14024
▁밤새	-14025
▁배부	-14026
▁범위	-14027
▁병무	-14028
▁뿐이	-14029
▁생물	-14030
▁스포	-14031
▁쓸수	-14032
▁얼룩	-14033
▁업종	-14034
▁여럿	-14035
▁연휴	-14036
▁용산	-14037
▁울타	-14038
▁유형	-14039
▁음반	-14040
▁일조	-14041
▁일회	-14042
▁잇는	-14043
▁장례	-14044
▁재롱	-14045
▁재외	-14046
▁적정	-14047
▁절감	-14048
▁주범	-14049
▁직결	-14050
▁짜고	-14051
▁체류	-14052
▁초반	-14053
▁친족	-14054
▁큐알	-14055
▁탑승	-14056
▁폐막	-14057
▁풀고	-14058
▁하러	-14059
▁하차	-14060
▁호도	-14061
▁활성	-14062
▁회식	-14063
▁획기	-14064
갈등을	-14065
더라고	-14066
렸는데	-14067
보내고	-14068
애들은	-14069
월까지	-14070
이라뇨	-14071
조사가	-14072
지네요	-14073
하는가	-14074
▁강의를	-14075
▁건의를	-14076
▁검사는	-14077
▁과목이	-14078
▁관공서	-14079
▁국격을	-14080
▁그때는	-14081
▁그릇된	-14082
▁기가막	-14083
▁기사도	-14084
▁까지는	-14085
▁끼치고	-14086
▁다니면	-14087
▁다하는	-14088
▁대상을	-14089
▁대회가	-14090
▁댓글은	-14091
▁되네요	-14092
▁되는것	-14093
▁때문이	-14094
▁뛰어나	-14095
▁매뉴얼	-14096
▁멋대로	-14097
▁보내기	-14098
▁보장이	-14099
▁부산에	-14100
▁불안해	-14101
▁빅히트	-14102
▁사과와	-14103
▁사례도	-14104
▁상상도	-14105
▁서로가	-14106
▁서울의	-14107
▁성과급	-14108
▁수위를	-14109
▁순위를	-14110
▁시급한	-14111
▁신고한	-14112
▁실망을	-14113
▁심리적	-14114
▁아쉬운	-14115
▁악순환	-14116
▁안일한	-14117
▁어른들	-14118
▁여건이	-14119
▁역으로	-14120
▁영화가	-14121
▁오르고	-14122
▁월요일	-14123
▁의문을	-14124
▁의지를	-14125
▁이윤택	-14126
▁잘하면	-14127
▁잡아서	-14128
▁적용을	-14129
▁정몽규	-14130
▁조현우	-14131
▁존엄과	-14132
▁죽어라	-14133
▁징병제	-14134
▁촬영을	-14135
▁코리아	-14136
▁판결은	-14137
▁페이지	-14138
▁폭언과	-14139
▁학교나	-14140
▁학업을	-14141
▁해보고	-14142
▁화가나	-14143
다는것을	-14144
럽습니다	-14145
선수들을	-14146
시스템을	-14147
을때까지	-14148
폐지하고	-14149
학년부터	-14150
▁감독에게	-14151
▁강력범죄	-14152
▁그마저도	-14153
▁기본으로	-14154
▁꼬박꼬박	-14155
▁단일팀이	-14156
▁댓글들이	-14157
▁되고있는	-14158
▁때입니다	-14159
▁무엇인가	-14160
▁받았는데	-14161
▁방치하는	-14162
▁보도하고	-14163
▁부족하여	-14164
▁사건들을	-14165
▁사람답게	-14166
▁사용하면	-14167
▁생각하실	-14168
▁선택해서	-14169
▁아이템을	-14170
▁어머니는	-14171
▁엄마들의	-14172
▁여성분들	-14173
▁영향력이	-14174
▁올해부터	-14175
▁옹호하고	-14176
▁이것저것	-14177
▁이미지가	-14178
▁인식하고	-14179
▁저렴하게	-14180
▁전반적인	-14181
▁전적으로	-14182
▁죽음으로	-14183
▁중앙일보	-14184
▁지원되는	-14185
▁지켜지지	-14186
▁직권남용	-14187
▁찾아가서	-14188
▁출전하는	-14189
▁키우는데	-14190
▁특별활동	-14191
▁폭력적인	-14192
▁하다못해	-14193
▁합니다만	-14194
▁행위라고	-14195
만원이라는	-14196
▁게임물관리	-14197
▁국가에서는	-14198
▁김보름선수	-14199
▁남자입니다	-14200
▁대학교에서	-14201
▁범죄자들은	-14202
▁부모들에게	-14203
▁부탁드리고	-14204
▁아동학대를	-14205
▁영어유치원	-14206
▁인간으로서	-14207
▁일제강점기	-14208
▁자유학기제	-14209
▁한국축구의	-14210
▁확신합니다	-14211
▁우리나라에는	-14212
▁우리아이들이	-14213
▁초중고등학교	-14214
▁아시안게임에서	-14215
▁안녕하세요저는	-14216
▁여성가족부에서	-14217
해주시기바랍니다	-14218
petitions	-14219
BJ	-14220
ph	-14221
▁몽	-14222
▁팽	-14223
객이	-14224
겁고	-14225
괴롭	-14226
군에	-14227
나니	-14228
날짜	-14229
농단	-14230
리도	-14231
명씩	-14232
무슨	-14233
무죄	-14234
미만	-14235
민의	-14236
박물	-14237
백을	-14238
보건	-14239
보수	-14240
선이	-14241
수용	-14242
십사	-14243
아라	-14244
어디	-14245
업소	-14246
차트	-14247
착오	-14248
치만	-14249
팀에	-14250
판사	-14251
형사	-14252
tbc	-14253
▁78	-14254
▁가리	-14255
▁구경	-14256
▁깜깜	-14257
▁네가	-14258
▁노는	-14259
▁대립	-14260
▁던져	-14261
▁도쿄	-14262
▁딸의	-14263
▁매도	-14264
▁매입	-14265
▁먹은	-14266
▁먹지	-14267
▁목을	-14268
▁미디	-14269
▁박상	-14270
▁법개	-14271
▁복장	-14272
▁부풀	-14273
▁분의	-14274
▁빛을	-14275
▁뽑기	-14276
▁수두	-14277
▁수련	-14278
▁수령	-14279
▁스폰	-14280
▁실적	-14281
▁써도	-14282
▁얻기	-14283
▁여초	-14284
▁역량	-14285
▁욕심	-14286
▁유익	-14287
▁일원	-14288
▁자칭	-14289
▁적인	-14290
▁정녕	-14291
▁좌석	-14292
▁주사	-14293
▁죽게	-14294
▁줄수	-14295
▁징집	-14296
▁편리	-14297
▁한시	-14298
▁힘쓰	-14299
가정의	-14300
덜란드	-14301
선수권	-14302
소리가	-14303
시대의	-14304
없으니	-14305
으시면	-14306
있나요	-14307
자격을	-14308
하셔야	-14309
하였을	-14310
한것이	-14311
할수는	-14312
했듯이	-14313
▁180	-14314
▁간단히	-14315
▁경제가	-14316
▁고의로	-14317
▁공휴일	-14318
▁그토록	-14319
▁기본이	-14320
▁꿈꾸는	-14321
▁내용도	-14322
▁늘려야	-14323
▁다를바	-14324
▁돌봄을	-14325
▁말한다	-14326
▁맡겨야	-14327
▁미연에	-14328
▁바쁘신	-14329
▁배우지	-14330
▁보아야	-14331
▁분야의	-14332
▁성별을	-14333
▁손쉽게	-14334
▁스승의	-14335
▁시달리	-14336
▁아래에	-14337
▁연기를	-14338
▁위자료	-14339
▁인간들	-14340
▁인간은	-14341
▁인기를	-14342
▁인상을	-14343
▁일방적	-14344
▁조부모	-14345
▁조항을	-14346
▁주머니	-14347
▁지켜보	-14348
▁집단의	-14349
▁집단이	-14350
▁차별과	-14351
▁참여한	-14352
▁채우기	-14353
▁책임감	-14354
▁책임져	-14355
▁최소화	-14356
▁취지로	-14357
▁팬들은	-14358
▁평화와	-14359
▁폭행에	-14360
▁하자고	-14361
▁한번에	-14362
▁힘겹게	-14363
것같아요	-14364
에서부터	-14365
이라는데	-14366
줬습니다	-14367
해달라는	-14368
▁가족들의	-14369
▁강제추행	-14370
▁계십니까	-14371
▁고려하지	-14372
▁교육제도	-14373
▁국민제안	-14374
▁군면제가	-14375
▁근로자가	-14376
▁네이버에	-14377
▁무상급식	-14378
▁범죄자는	-14379
▁병역혜택	-14380
▁봐주세요	-14381
▁사람들만	-14382
▁사용해야	-14383
▁생겨나고	-14384
▁수업시간	-14385
▁안되네요	-14386
▁애국가를	-14387
▁엄중하게	-14388
▁여러분이	-14389
▁여론몰이	-14390
▁여자들도	-14391
▁이와같은	-14392
▁있을거라	-14393
▁제목으로	-14394
▁조롱하는	-14395
▁탁상공론	-14396
▁폐지시켜	-14397
▁프로듀스	-14398
▁피의자가	-14399
▁하기위해	-14400
▁하나라도	-14401
▁하는것을	-14402
▁학교들이	-14403
▁학부모는	-14404
▁한국으로	-14405
▁화장실을	-14406
▁활동하고	-14407
▁휴대폰을	-14408
감사합니다	-14409
들었습니다	-14410
프로그램을	-14411
▁공립유치원	-14412
▁범죄자들의	-14413
▁손흥민선수	-14414
▁유튜브에서	-14415
▁일반적으로	-14416
▁주기적으로	-14417
▁한국에서는	-14418
▁해야한다는	-14419
▁화장실에서	-14420
▁묻고싶습니다	-14421
▁불가능합니다	-14422
▁살고있습니다	-14423
▁어린아이들이	-14424
39	-14425
56	-14426
ol	-14427
▁꼽	-14428
▁뛸	-14429
▁맑	-14430
▁썰	-14431
▁죗	-14432
▁툭	-14433
▁튀	-14434
▁핫	-14435
가격	-14436
가져	-14437
강에	-14438
급한	-14439
기야	-14440
길로	-14441
날에	-14442
내역	-14443
내요	-14444
놀이	-14445
놓는	-14446
다닐	-14447
란에	-14448
렸던	-14449
료로	-14450
마이	-14451
바뀌	-14452
설치	-14453
성향	-14454
스의	-14455
실업	-14456
쓰기	-14457
애가	-14458
약자	-14459
오늘	-14460
임은	-14461
작은	-14462
주년	-14463
지향	-14464
짜피	-14465
프레	-14466
하네	-14467
흡연	-14468
▁55	-14469
▁고치	-14470
▁고향	-14471
▁관료	-14472
▁권유	-14473
▁금번	-14474
▁까다	-14475
▁꺼내	-14476
▁남긴	-14477
▁년간	-14478
▁돈에	-14479
▁떠넘	-14480
▁묵과	-14481
▁문득	-14482
▁미숙	-14483
▁밀양	-14484
▁발행	-14485
▁방사	-14486
▁버릴	-14487
▁병행	-14488
▁부각	-14489
▁분산	-14490
▁불참	-14491
▁불투	-14492
▁뻔히	-14493
▁상급	-14494
▁상기	-14495
▁서양	-14496
▁서열	-14497
▁선전	-14498
▁쉽고	-14499
▁스크	-14500
▁승인	-14501
▁악법	-14502
▁없나	-14503
▁여고	-14504
▁여과	-14505
▁역겹	-14506
▁오타	-14507
▁온몸	-14508
▁완성	-14509
▁운이	-14510
▁이과	-14511
▁임기	-14512
▁있긴	-14513
▁자산	-14514
▁자진	-14515
▁적시	-14516
▁전염	-14517
▁접종	-14518
▁체감	-14519
▁초빙	-14520
▁치를	-14521
▁투신	-14522
▁폐업	-14523
▁하위	-14524
▁한체	-14525
▁해본	-14526
▁환자	-14527
기로는	-14528
님들도	-14529
라던지	-14530
라인을	-14531
만원은	-14532
모르는	-14533
보이고	-14534
쌉니다	-14535
여명의	-14536
열심히	-14537
을때는	-14538
장에게	-14539
▁too	-14540
▁거꾸로	-14541
▁고쳐야	-14542
▁관리자	-14543
▁구성된	-14544
▁그래요	-14545
▁근처에	-14546
▁남녀의	-14547
▁달하는	-14548
▁대책도	-14549
▁돈주고	-14550
▁동의가	-14551
▁되돌아	-14552
▁만큼의	-14553
▁말로는	-14554
▁망치는	-14555
▁먹고살	-14556
▁무용지	-14557
▁무지한	-14558
▁무한도	-14559
▁미만의	-14560
▁바뀌면	-14561
▁방학중	-14562
▁보도된	-14563
▁부득이	-14564
▁비하면	-14565
▁사복을	-14566
▁사안이	-14567
▁사항이	-14568
▁생각되	-14569
▁선수촌	-14570
▁소지가	-14571
▁실력과	-14572
▁악플러	-14573
▁엄마를	-14574
▁이어질	-14575
▁일정한	-14576
▁자살한	-14577
▁장관을	-14578
▁전쟁이	-14579
▁증거로	-14580
▁지나도	-14581
▁지원할	-14582
▁차원의	-14583
▁책임과	-14584
▁태도로	-14585
▁판단할	-14586
▁확률형	-14587
▁힘없고	-14588
것입니까	-14589
되었지만	-14590
으로인해	-14591
으면서도	-14592
하시는데	-14593
▁결정하는	-14594
▁공무원은	-14595
▁괴롭히는	-14596
▁국제적인	-14597
▁다르다고	-14598
▁되지않는	-14599
▁마련하여	-14600
▁막론하고	-14601
▁멀다하고	-14602
▁모욕적인	-14603
▁물어보고	-14604
▁법치주의	-14605
▁부모들도	-14606
▁상식적인	-14607
▁상응하는	-14608
▁성소수자	-14609
▁수학여행	-14610
▁알고있는	-14611
▁없습니까	-14612
▁입시제도	-14613
▁자랑스런	-14614
▁정책들이	-14615
▁주변에서	-14616
▁중요한건	-14617
▁직원들의	-14618
▁차별하는	-14619
▁청년들의	-14620
▁추진하고	-14621
▁키우면서	-14622
▁태극기가	-14623
▁평등하지	-14624
▁학생들만	-14625
▁합법적인	-14626
▁흐지부지	-14627
이기때문에	-14628
하기때문에	-14629
▁결과적으로	-14630
▁남성입니다	-14631
▁되는건가요	-14632
▁셧다운제는	-14633
▁아무렇지도	-14634
▁어떻습니까	-14635
▁없는건가요	-14636
▁영어교육을	-14637
▁이렇게까지	-14638
▁잃었습니다	-14639
▁정부에서도	-14640
▁차별입니다	-14641
▁필수적으로	-14642
▁인간으로서의	-14643
▁만들어주십시오	-14644
76	-14645
기구	-14646
길에	-14647
께요	-14648
등과	-14649
등교	-14650
등도	-14651
련의	-14652
르타	-14653
말의	-14654
바리	-14655
배가	-14656
봐서	-14657
북도	-14658
생과	-14659
소속	-14660
수행	-14661
식구	-14662
어려	-14663
웠던	-14664
위안	-14665
율은	-14666
저지	-14667
지오	-14668
청구	-14669
트롤	-14670
팀은	-14671
페인	-14672
형태	-14673
호의	-14674
회계	-14675
효율	-14676
▁of	-14677
▁각성	-14678
▁감추	-14679
▁개월	-14680
▁걷어	-14681
▁너네	-14682
▁담은	-14683
▁대수	-14684
▁동거	-14685
▁따를	-14686
▁라도	-14687
▁만듭	-14688
▁명성	-14689
▁못했	-14690
▁묻지	-14691
▁발암	-14692
▁배팅	-14693
▁보람	-14694
▁복수	-14695
▁봐서	-14696
▁불려	-14697
▁붕괴	-14698
▁비비	-14699
▁사병	-14700
▁사주	-14701
▁살짝	-14702
▁소라	-14703
▁슬퍼	-14704
▁싸이	-14705
▁쌍둥	-14706
▁양의	-14707
▁열고	-14708
▁영혼	-14709
▁요양	-14710
▁운용	-14711
▁의아	-14712
▁이간	-14713
▁이관	-14714
▁이날	-14715
▁이내	-14716
▁이송	-14717
▁인용	-14718
▁자치	-14719
▁장악	-14720
▁저러	-14721
▁차고	-14722
▁철학	-14723
▁쳐도	-14724
▁취한	-14725
▁키즈	-14726
▁탈을	-14727
▁틀림	-14728
▁품고	-14729
▁피우	-14730
▁학비	-14731
▁한거	-14732
▁한게	-14733
▁한지	-14734
▁함은	-14735
▁합쳐	-14736
▁해를	-14737
▁해온	-14738
▁후유	-14739
간다는	-14740
감독은	-14741
것들을	-14742
교사로	-14743
나라에	-14744
들에서	-14745
량으로	-14746
모습을	-14747
상황을	-14748
스럽다	-14749
잘못을	-14750
장려금	-14751
친구가	-14752
하였던	-14753
▁가능성	-14754
▁가져다	-14755
▁강간을	-14756
▁고민해	-14757
▁공부한	-14758
▁구속영	-14759
▁그곳에	-14760
▁기간에	-14761
▁나아갈	-14762
▁들자면	-14763
▁디스패	-14764
▁먹으면	-14765
▁모두들	-14766
▁발전할	-14767
▁방탄은	-14768
▁보내면	-14769
▁복지가	-14770
▁비용도	-14771
▁사과도	-14772
▁사항은	-14773
▁생각만	-14774
▁생기게	-14775
▁생리는	-14776
▁성숙한	-14777
▁수업은	-14778
▁숙제를	-14779
▁스케줄	-14780
▁시민을	-14781
▁안전에	-14782
▁알면서	-14783
▁야구팬	-14784
▁양아치	-14785
▁엄마와	-14786
▁업로드	-14787
▁없겠죠	-14788
▁엉뚱한	-14789
▁여자와	-14790
▁연맹의	-14791
▁올리기	-14792
▁의미는	-14793
▁의심을	-14794
▁이러다	-14795
▁이보다	-14796
▁인지도	-14797
▁일벌백	-14798
▁자기는	-14799
▁적당한	-14800
▁전에도	-14801
▁전형을	-14802
▁절차가	-14803
▁지역을	-14804
▁직장내	-14805
▁집단을	-14806
▁체력이	-14807
▁체육회	-14808
▁추첨을	-14809
▁타지역	-14810
▁테니스	-14811
▁토론을	-14812
▁팬들의	-14813
▁학생다	-14814
▁한심한	-14815
▁행태에	-14816
말입니까	-14817
명입니다	-14818
사람들도	-14819
사람들을	-14820
자리에서	-14821
하시나요	-14822
▁1500	-14823
▁강화하고	-14824
▁검정고시	-14825
▁고질적인	-14826
▁공식적인	-14827
▁관리하고	-14828
▁교과서에	-14829
▁교육부에	-14830
▁교육부와	-14831
▁권력으로	-14832
▁기만하는	-14833
▁말하지만	-14834
▁바라지도	-14835
▁병역의무	-14836
▁부작용이	-14837
▁부족해서	-14838
▁사과하고	-14839
▁사랑으로	-14840
▁사용되는	-14841
▁상관없는	-14842
▁상대평가	-14843
▁설문조사	-14844
▁아니기에	-14845
▁아주머니	-14846
▁알권리를	-14847
▁어린이를	-14848
▁와이셔츠	-14849
▁위배되는	-14850
▁유해물질	-14851
▁의심되는	-14852
▁자살하는	-14853
▁장애인을	-14854
▁전화해서	-14855
▁제한하는	-14856
▁지지하고	-14857
▁진행되는	-14858
▁폭행으로	-14859
▁필요하지	-14860
▁하십시오	-14861
▁하였으면	-14862
▁행복하고	-14863
수있습니다	-14864
▁만들었으면	-14865
▁보건복지부	-14866
▁봉사활동을	-14867
▁선수입니다	-14868
▁수험생들은	-14869
▁수험생들이	-14870
▁신체적으로	-14871
▁아동학대가	-14872
▁여러분들이	-14873
▁청소년이란	-14874
▁힘들어하는	-14875
▁되지않습니다	-14876
▁명예훼손으로	-14877
▁사립유치원을	-14878
▁아이들에게도	-14879
▁올라왔습니다	-14880
▁필요없습니다	-14881
▁한사람으로써	-14882
ag	-14883
▁l	-14884
▁깡	-14885
▁룰	-14886
▁빗	-14887
▁팝	-14888
▁흠	-14889
가르	-14890
간이	-14891
감정	-14892
개최	-14893
겠냐	-14894
계신	-14895
고용	-14896
넣고	-14897
는대	-14898
뜨고	-14899
로로	-14900
무고	-14901
무기	-14902
방안	-14903
버는	-14904
부턴	-14905
셨던	-14906
아웃	-14907
어지	-14908
예원	-14909
잔치	-14910
접한	-14911
제목	-14912
지상	-14913
축제	-14914
키고	-14915
통과	-14916
파는	-14917
평창	-14918
포기	-14919
하단	-14920
현장	-14921
환자	-14922
회식	-14923
500	-14924
nav	-14925
▁39	-14926
▁bj	-14927
▁간과	-14928
▁감기	-14929
▁같지	-14930
▁게재	-14931
▁계열	-14932
▁고졸	-14933
▁공고	-14934
▁교대	-14935
▁교양	-14936
▁국보	-14937
▁국토	-14938
▁규명	-14939
▁규탄	-14940
▁낮게	-14941
▁누나	-14942
▁달래	-14943
▁댄스	-14944
▁맞을	-14945
▁모셔	-14946
▁무산	-14947
▁무전	-14948
▁문구	-14949
▁물품	-14950
▁반에	-14951
▁서면	-14952
▁소액	-14953
▁쇼핑	-14954
▁스카	-14955
▁양쪽	-14956
▁양해	-14957
▁어딜	-14958
▁여부	-14959
▁영토	-14960
▁오프	-14961
▁외고	-14962
▁외신	-14963
▁웃긴	-14964
▁위축	-14965
▁음성	-14966
▁이며	-14967
▁읽는	-14968
▁자금	-14969
▁조민	-14970
▁주제	-14971
▁짝이	-14972
▁찍고	-14973
▁채점	-14974
▁천재	-14975
▁치면	-14976
▁치안	-14977
▁특징	-14978
▁팔을	-14979
▁포괄	-14980
▁형이	-14981
▁힘내	-14982
개월간	-14983
개월된	-14984
거리로	-14985
공부를	-14986
년이란	-14987
답니까	-14988
대학에	-14989
방법을	-14990
부분에	-14991
수사를	-14992
스러울	-14993
시는데	-14994
아시안	-14995
오라고	-14996
있어야	-14997
처벌이	-14998
카르타	-14999
판으로	-15000
학교가	-15001
할만한	-15002
해주길	-15003
행위는	-15004
▁KBL	-15005
▁you	-15006
▁가정과	-15007
▁각각의	-15008
▁감형을	-15009
▁개성을	-15010
▁검색해	-15011
▁경력을	-15012
▁경찰도	-15013
▁관해서	-15014
▁그런건	-15015
▁나가지	-15016
▁높이는	-15017
▁느끼며	-15018
▁다둥이	-15019
▁다루는	-15020
▁대규모	-15021
▁도덕적	-15022
▁도움도	-15023
▁독도가	-15024
▁될수도	-15025
▁들어주	-15026
▁따르지	-15027
▁만나서	-15028
▁많이들	-15029
▁미안한	-15030
▁믿을수	-15031
▁바우처	-15032
▁밤늦게	-15033
▁밥그릇	-15034
▁보는게	-15035
▁보려고	-15036
▁본연의	-15037
▁분야에	-15038
▁비교적	-15039
▁선거에	-15040
▁소라넷	-15041
▁손혜원	-15042
▁수두룩	-15043
▁숨기고	-15044
▁시작해	-15045
▁시키지	-15046
▁신뢰가	-15047
▁신문사	-15048
▁아니니	-15049
▁안전이	-15050
▁앞뒤가	-15051
▁어두운	-15052
▁어리고	-15053
▁어지럽	-15054
▁없어진	-15055
▁없이는	-15056
▁여경이	-15057
▁연금을	-15058
▁영구제	-15059
▁이래도	-15060
▁이렇듯	-15061
▁이루기	-15062
▁이르는	-15063
▁일부를	-15064
▁입맛에	-15065
▁입장은	-15066
▁자신과	-15067
▁작품을	-15068
▁저뿐만	-15069
▁정도에	-15070
▁조사도	-15071
▁존재가	-15072
▁좋을것	-15073
▁죽어나	-15074
▁중고등	-15075
▁직업에	-15076
▁짓밟고	-15077
▁찾아야	-15078
▁채널을	-15079
▁처우가	-15080
▁처음엔	-15081
▁취지를	-15082
▁특별히	-15083
▁패널티	-15084
▁평가가	-15085
▁풀어주	-15086
▁피눈물	-15087
▁행태가	-15088
▁현상을	-15089
▁혹여나	-15090
▁흘리며	-15091
국입니다	-15092
시키려는	-15093
▁2007	-15094
▁거짓말로	-15095
▁경찰관이	-15096
▁교육개혁	-15097
▁기회조차	-15098
▁네덜란드	-15099
▁당신들의	-15100
▁돌아가신	-15101
▁못할망정	-15102
▁무고죄를	-15103
▁무상교육	-15104
▁보호법이	-15105
▁부모님을	-15106
▁불안하고	-15107
▁상대방이	-15108
▁서슴없이	-15109
▁성공적인	-15110
▁안타까워	-15111
▁알고싶다	-15112
▁어리석은	-15113
▁예전처럼	-15114
▁우롱하는	-15115
▁잇습니다	-15116
▁자율학습	-15117
▁저에게는	-15118
▁정식으로	-15119
▁지급하지	-15120
▁편안하게	-15121
▁평창에서	-15122
▁한다는건	-15123
▁할지라도	-15124
▁행동들을	-15125
▁활용하여	-15126
▁희망하는	-15127
학년입니다	-15128
▁누구에게나	-15129
▁떨어집니다	-15130
▁미투운동의	-15131
▁사건사고가	-15132
▁알려주세요	-15133
▁여성분들은	-15134
▁유치원이나	-15135
▁제도적으로	-15136
▁풀어주세요	-15137
▁하나만으로	-15138
▁허위사실을	-15139
▁힘이듭니다	-15140
▁것이었습니다	-15141
▁발생했습니다	-15142
▁보육교사들의	-15143
▁사람들입니다	-15144
▁선생님들께서	-15145
▁아르바이트를	-15146
▁해결해주세요	-15147
articleViewhtml	-15148
86	-15149
FC	-15150
▁R	-15151
▁꿇	-15152
▁닦	-15153
▁쉼	-15154
▁짚	-15155
▁찰	-15156
▁폴	-15157
▁푼	-15158
걱정	-15159
결을	-15160
경험	-15161
규칙	-15162
대왕	-15163
대화	-15164
동원	-15165
따기	-15166
먹기	-15167
메갈	-15168
불성	-15169
색이	-15170
수석	-15171
신도	-15172
언니	-15173
여부	-15174
연령	-15175
유저	-15176
의한	-15177
임대	-15178
전공	-15179
전과	-15180
증거	-15181
쪼록	-15182
캠퍼	-15183
퀴어	-15184
포를	-15185
한들	-15186
해선	-15187
호가	-15188
ᄏᄏᄏ	-15189
▁가스	-15190
▁갈취	-15191
▁경복	-15192
▁궁극	-15193
▁그려	-15194
▁넘고	-15195
▁노름	-15196
▁놔두	-15197
▁눈가	-15198
▁더큰	-15199
▁두어	-15200
▁리더	-15201
▁마포	-15202
▁물질	-15203
▁미비	-15204
▁버튼	-15205
▁별도	-15206
▁부재	-15207
▁부착	-15208
▁사냥	-15209
▁사복	-15210
▁산모	-15211
▁생략	-15212
▁신도	-15213
▁신장	-15214
▁쓰기	-15215
▁여의	-15216
▁영수	-15217
▁오버	-15218
▁완료	-15219
▁용이	-15220
▁우스	-15221
▁이강	-15222
▁이시	-15223
▁인강	-15224
▁일인	-15225
▁잊고	-15226
▁잘난	-15227
▁주신	-15228
▁증인	-15229
▁지들	-15230
▁지위	-15231
▁책상	-15232
▁크기	-15233
▁크로	-15234
▁타락	-15235
▁투약	-15236
▁팀의	-15237
▁한탄	-15238
▁홍익	-15239
▁화려	-15240
꺼라고	-15241
등급이	-15242
만명의	-15243
모두가	-15244
불성설	-15245
사업을	-15246
소송을	-15247
아지고	-15248
원들은	-15249
위원장	-15250
이란게	-15251
이야기	-15252
자격이	-15253
자로써	-15254
정하게	-15255
지원이	-15256
처리가	-15257
품으로	-15258
하기엔	-15259
하리라	-15260
▁간다는	-15261
▁갖추고	-15262
▁개정해	-15263
▁개혁이	-15264
▁걸리면	-15265
▁검찰이	-15266
▁고통에	-15267
▁고통은	-15268
▁교사에	-15269
▁군인이	-15270
▁그걸로	-15271
▁급식을	-15272
▁기관을	-15273
▁노래가	-15274
▁당사자	-15275
▁당했다	-15276
▁대단히	-15277
▁돌리는	-15278
▁마약을	-15279
▁막무가	-15280
▁막을수	-15281
▁몸으로	-15282
▁방통위	-15283
▁배려가	-15284
▁법앞에	-15285
▁보복이	-15286
▁보살펴	-15287
▁보육의	-15288
▁보육이	-15289
▁보훈처	-15290
▁본인도	-15291
▁부회장	-15292
▁불특정	-15293
▁비싸게	-15294
▁생활의	-15295
▁서울과	-15296
▁수업의	-15297
▁시키면	-15298
▁실태를	-15299
▁아까운	-15300
▁아빠는	-15301
▁아빠의	-15302
▁아세요	-15303
▁아줌마	-15304
▁약속천	-15305
▁어렸을	-15306
▁없는거	-15307
▁열정을	-15308
▁영향력	-15309
▁오해를	-15310
▁웹하드	-15311
▁이또한	-15312
▁인간을	-15313
▁인권만	-15314
▁임신한	-15315
▁잘사는	-15316
▁재판이	-15317
▁정황이	-15318
▁좋겠고	-15319
▁주제로	-15320
▁중산층	-15321
▁지식이	-15322
▁지원에	-15323
▁직원은	-15324
▁진로에	-15325
▁징역형	-15326
▁참아야	-15327
▁찾아보	-15328
▁취지가	-15329
▁포함된	-15330
▁표현이	-15331
▁하더니	-15332
▁하셔야	-15333
▁학원비	-15334
▁한명도	-15335
▁한번은	-15336
▁행사가	-15337
▁횡포를	-15338
능력시험	-15339
들에게만	-15340
리에이터	-15341
분들께서	-15342
하지않은	-15343
▁강화해야	-15344
▁공동입장	-15345
▁교육감은	-15346
▁그동안의	-15347
▁남녀노소	-15348
▁달라지는	-15349
▁대통령께	-15350
▁대표해서	-15351
▁발생하면	-15352
▁뻔합니다	-15353
▁살아있는	-15354
▁생리대가	-15355
▁선행학습	-15356
▁성폭력에	-15357
▁스스로의	-15358
▁시청하는	-15359
▁아이돌이	-15360
▁어린이가	-15361
▁어머니가	-15362
▁언제든지	-15363
▁외면하지	-15364
▁월드컵이	-15365
▁음란물을	-15366
▁이나라는	-15367
▁이뤄지고	-15368
▁자동으로	-15369
▁저지르면	-15370
▁저출산이	-15371
▁전형적인	-15372
▁지방에서	-15373
▁집단으로	-15374
▁징병제를	-15375
▁피해자만	-15376
▁하면서도	-15377
▁학교라는	-15378
▁한다는게	-15379
▁헌법재판	-15380
▁현금으로	-15381
▁형식적인	-15382
▁훼손하는	-15383
▁고의적으로	-15384
▁내렸습니다	-15385
▁불과합니다	-15386
▁아깝습니다	-15387
▁여겨집니다	-15388
▁예상됩니다	-15389
▁조직적으로	-15390
▁축구협회가	-15391
▁터무니없는	-15392
▁페미니즘에	-15393
▁페미니즘의	-15394
▁하는겁니다	-15395
▁하루하루를	-15396
▁학부모님들	-15397
▁미성년자라는	-15398
52	-15399
km	-15400
▁뭣	-15401
▁벼	-15402
▁뺑	-15403
▁샀	-15404
▁센	-15405
거니	-15406
계열	-15407
교가	-15408
깊은	-15409
내가	-15410
누가	-15411
단지	-15412
달을	-15413
대사	-15414
도도	-15415
동물	-15416
될지	-15417
둘이	-15418
딸이	-15419
명예	-15420
무상	-15421
민을	-15422
범은	-15423
사정	-15424
실명	-15425
야지	-15426
으실	-15427
의에	-15428
인상	-15429
자보	-15430
졌을	-15431
조금	-15432
조는	-15433
진학	-15434
쪽은	-15435
책이	-15436
추진	-15437
코치	-15438
티켓	-15439
편성	-15440
혹은	-15441
힘들	-15442
php	-15443
▁가다	-15444
▁겪게	-15445
▁고개	-15446
▁국군	-15447
▁그곳	-15448
▁기하	-15449
▁꼴찌	-15450
▁나을	-15451
▁너는	-15452
▁다치	-15453
▁되도	-15454
▁멀어	-15455
▁면허	-15456
▁믿지	-15457
▁바랄	-15458
▁바를	-15459
▁보단	-15460
▁복권	-15461
▁복도	-15462
▁본선	-15463
▁분양	-15464
▁사귀	-15465
▁삶은	-15466
▁성기	-15467
▁세탁	-15468
▁속해	-15469
▁스위	-15470
▁씨가	-15471
▁씻고	-15472
▁안주	-15473
▁어긴	-15474
▁업주	-15475
▁영재	-15476
▁온상	-15477
▁옮기	-15478
▁이화	-15479
▁일만	-15480
▁일탈	-15481
▁자매	-15482
▁자정	-15483
▁전날	-15484
▁점에	-15485
▁주식	-15486
▁찍는	-15487
▁충당	-15488
▁타는	-15489
▁편에	-15490
▁피할	-15491
▁학벌	-15492
갈수록	-15493
감독의	-15494
교과서	-15495
기사가	-15496
까지의	-15497
년에서	-15498
단에서	-15499
라이크	-15500
사고가	-15501
사이에	-15502
상황에	-15503
에서나	-15504
위주로	-15505
이트를	-15506
자체를	-15507
정도가	-15508
주차장	-15509
지못해	-15510
키우고	-15511
키즈존	-15512
환경을	-15513
▁119	-15514
▁140	-15515
▁가족들	-15516
▁강화해	-15517
▁걸맞는	-15518
▁금전적	-15519
▁금지를	-15520
▁기술을	-15521
▁나와도	-15522
▁낮추고	-15523
▁내라고	-15524
▁노력해	-15525
▁다녀온	-15526
▁대표로	-15527
▁더럽고	-15528
▁돌아온	-15529
▁드러난	-15530
▁만들수	-15531
▁매스컴	-15532
▁명의로	-15533
▁모른척	-15534
▁못한채	-15535
▁법원에	-15536
▁변경을	-15537
▁보고서	-15538
▁보인다	-15539
▁사고는	-15540
▁상관이	-15541
▁설치를	-15542
▁성장을	-15543
▁순위가	-15544
▁시기가	-15545
▁시기를	-15546
▁싸움이	-15547
▁아시죠	-15548
▁안나오	-15549
▁안들어	-15550
▁않은채	-15551
▁알바를	-15552
▁앞세워	-15553
▁야자를	-15554
▁운동장	-15555
▁월급도	-15556
▁일련의	-15557
▁일해서	-15558
▁자기자	-15559
▁자녀는	-15560
▁자리는	-15561
▁잣대로	-15562
▁장관의	-15563
▁저들은	-15564
▁전남편	-15565
▁정신에	-15566
▁종목을	-15567
▁좋아요	-15568
▁좋은데	-15569
▁지니고	-15570
▁질서를	-15571
▁채우고	-15572
▁최선의	-15573
▁취하지	-15574
▁카지노	-15575
▁편의를	-15576
▁하루도	-15577
▁한국과	-15578
▁한국당	-15579
▁흥미를	-15580
교육과정	-15581
엇습니다	-15582
원입니다	-15583
한다는건	-15584
할수없는	-15585
▁걱정없이	-15586
▁걱정하는	-15587
▁귀기울여	-15588
▁그곳에서	-15589
▁기만하고	-15590
▁길입니다	-15591
▁나경원의	-15592
▁나라라고	-15593
▁도입하여	-15594
▁되었네요	-15595
▁물어보니	-15596
▁보이는데	-15597
▁보조금을	-15598
▁비하발언	-15599
▁손해배상	-15600
▁시민들을	-15601
▁아니에요	-15602
▁아이디어	-15603
▁안되지만	-15604
▁안됩니까	-15605
▁어불성설	-15606
▁여자라고	-15607
▁여학생의	-15608
▁운운하며	-15609
▁유지하는	-15610
▁인권탄압	-15611
▁자기들은	-15612
▁잔인하고	-15613
▁잘못으로	-15614
▁장소에서	-15615
▁저로서는	-15616
▁점심시간	-15617
▁정보공개	-15618
▁정부에게	-15619
▁정신건강	-15620
▁지급되는	-15621
▁진상조사	-15622
▁참가하는	-15623
▁평등하고	-15624
▁폭행하는	-15625
▁피해자도	-15626
▁함께하는	-15627
▁행동하는	-15628
사람들에게	-15629
셔야합니다	-15630
▁같았습니다	-15631
▁국가대표는	-15632
▁그런식으로	-15633
▁기자회견을	-15634
▁넘었습니다	-15635
▁마련입니다	-15636
▁막막합니다	-15637
▁미래입니다	-15638
▁밝혀주세요	-15639
▁살았습니다	-15640
▁시작합니다	-15641
▁알고있는데	-15642
▁우려됩니다	-15643
▁있기때문에	-15644
▁전체적으로	-15645
▁축구협회를	-15646
▁트라우마를	-15647
▁할수있도록	-15648
▁힘들어하고	-15649
되고있습니다	-15650
▁국가대표라는	-15651
▁보고싶습니다	-15652
▁아이들에게는	-15653
▁자유학기제를	-15654
▁평창올림픽에	-15655
주시기바랍니다	-15656
44	-15657
▁갱	-15658
▁덩	-15659
▁런	-15660
▁튼	-15661
각이	-15662
교재	-15663
국적	-15664
명보	-15665
비해	-15666
선생	-15667
스코	-15668
실히	-15669
안돼	-15670
요를	-15671
유의	-15672
음란	-15673
인구	-15674
일과	-15675
적일	-15676
종료	-15677
청년	-15678
키지	-15679
태근	-15680
트로	-15681
▁05	-15682
▁48	-15683
▁가라	-15684
▁개가	-15685
▁건데	-15686
▁꼬리	-15687
▁꼼꼼	-15688
▁높게	-15689
▁눈높	-15690
▁대피	-15691
▁도제	-15692
▁두개	-15693
▁두지	-15694
▁따면	-15695
▁라인	-15696
▁매니	-15697
▁몰지	-15698
▁문법	-15699
▁물가	-15700
▁미필	-15701
▁밝힐	-15702
▁부대	-15703
▁부유	-15704
▁비아	-15705
▁사적	-15706
▁살면	-15707
▁삼권	-15708
▁새싹	-15709
▁속옷	-15710
▁스쿨	-15711
▁앵커	-15712
▁여중	-15713
▁영장	-15714
▁왕복	-15715
▁워낙	-15716
▁위임	-15717
▁의경	-15718
▁일한	-15719
▁잦은	-15720
▁저기	-15721
▁전입	-15722
▁죄다	-15723
▁주간	-15724
▁지침	-15725
▁짐작	-15726
▁찍힌	-15727
▁차리	-15728
▁처한	-15729
▁최하	-15730
▁충청	-15731
▁파급	-15732
▁팔고	-15733
▁팬들	-15734
▁하되	-15735
▁한개	-15736
▁한겨	-15737
▁호의	-15738
▁후쿠	-15739
▁희롱	-15740
게하고	-15741
관계자	-15742
나오고	-15743
년이나	-15744
던가요	-15745
라구요	-15746
보지도	-15747
비용을	-15748
비율을	-15749
사건과	-15750
사진을	-15751
살짜리	-15752
순으로	-15753
시키며	-15754
시하고	-15755
아빠가	-15756
없지만	-15757
이니까	-15758
전형을	-15759
정책은	-15760
준다면	-15761
찹니다	-15762
협회의	-15763
▁가르친	-15764
▁갔다가	-15765
▁건강에	-15766
▁계정을	-15767
▁구매한	-15768
▁군인들	-15769
▁급여는	-15770
▁기사나	-15771
▁기자를	-15772
▁기준도	-15773
▁김대중	-15774
▁김민정	-15775
▁나타나	-15776
▁노출된	-15777
▁데려다	-15778
▁독일을	-15779
▁따지면	-15780
▁많으니	-15781
▁면에서	-15782
▁모른다	-15783
▁미개한	-15784
▁보도한	-15785
▁보편적	-15786
▁부모나	-15787
▁부적합	-15788
▁부정적	-15789
▁비양심	-15790
▁빌미로	-15791
▁사과는	-15792
▁사례는	-15793
▁사실적	-15794
▁성적에	-15795
▁세워야	-15796
▁수능에	-15797
▁수사와	-15798
▁시간만	-15799
▁시행해	-15800
▁실형을	-15801
▁아기는	-15802
▁아니요	-15803
▁안돼는	-15804
▁알기에	-15805
▁애기를	-15806
▁어릴때	-15807
▁어릴적	-15808
▁업무는	-15809
▁없었을	-15810
▁연차를	-15811
▁영양사	-15812
▁영역에	-15813
▁욕구를	-15814
▁원해서	-15815
▁위험이	-15816
▁유능한	-15817
▁의정부	-15818
▁이루고	-15819
▁이어져	-15820
▁인생에	-15821
▁일본을	-15822
▁일인지	-15823
▁자퇴를	-15824
▁잔혹한	-15825
▁재대로	-15826
▁적폐는	-15827
▁정시가	-15828
▁정시는	-15829
▁제자리	-15830
▁중국의	-15831
▁지내는	-15832
▁지도자	-15833
▁직업군	-15834
▁찾아와	-15835
▁초중등	-15836
▁추억을	-15837
▁취업이	-15838
▁퇴근을	-15839
▁펼치고	-15840
▁프리미	-15841
▁하였다	-15842
▁혐오를	-15843
거같아요	-15844
기준으로	-15845
리그에서	-15846
선생님이	-15847
이라는걸	-15848
지않다고	-15849
하였다는	-15850
할때마다	-15851
해주어야	-15852
▁2500	-15853
▁가능하다	-15854
▁경쟁력을	-15855
▁교육하는	-15856
▁금전적인	-15857
▁남성인권	-15858
▁다가오는	-15859
▁당했다는	-15860
▁되어버린	-15861
▁되었는지	-15862
▁드라마를	-15863
▁말씀하신	-15864
▁방학기간	-15865
▁불공평한	-15866
▁비난하는	-15867
▁비쌉니다	-15868
▁비용으로	-15869
▁사회주의	-15870
▁살펴보면	-15871
▁생활체육	-15872
▁서민들이	-15873
▁선택권을	-15874
▁어느나라	-15875
▁어린시절	-15876
▁없다는게	-15877
▁여가부는	-15878
▁연예인은	-15879
▁예산으로	-15880
▁외국으로	-15881
▁우롱하고	-15882
▁이해하지	-15883
▁입장에선	-15884
▁자카르타	-15885
▁정신질환	-15886
▁중학생이	-15887
▁청와대와	-15888
▁체험학습	-15889
▁통학버스	-15890
▁하시면서	-15891
▁한국장학	-15892
▁후쿠시마	-15893
사이트에서	-15894
어린이집을	-15895
일뿐입니다	-15896
정도입니다	-15897
했었습니다	-15898
▁국가입니다	-15899
▁궁금하네요	-15900
▁기간제교사	-15901
▁길거리에서	-15902
▁데이트폭력	-15903
▁마구잡이로	-15904
▁보여주기식	-15905
▁보육교사는	-15906
▁사실이라면	-15907
▁상황에서도	-15908
▁속상합니다	-15909
▁어린아이를	-15910
▁영어수업을	-15911
▁줄여주세요	-15912
▁초등학생이	-15913
▁해왔습니다	-15914
▁해주시기를	-15915
▁교육청에서는	-15916
▁대학생입니다	-15917
▁무조건적으로	-15918
▁알아주셨으면	-15919
▁초등돌봄교실	-15920
▁h	-15921
▁쏠	-15922
▁줘	-15923
▁쳤	-15924
강의	-15925
건축	-15926
검색	-15927
군사	-15928
급의	-15929
나와	-15930
독한	-15931
러스	-15932
믿고	-15933
배의	-15934
번은	-15935
부산	-15936
생긴	-15937
세금	-15938
식은	-15939
실험	-15940
아노	-15941
어느	-15942
어라	-15943
유튜	-15944
이사	-15945
일간	-15946
일자	-15947
있음	-15948
점과	-15949
처가	-15950
청소	-15951
체전	-15952
헌법	-15953
▁43	-15954
▁57	-15955
▁갇혀	-15956
▁갖다	-15957
▁공적	-15958
▁공화	-15959
▁관객	-15960
▁교습	-15961
▁끊고	-15962
▁날은	-15963
▁남경	-15964
▁논쟁	-15965
▁대치	-15966
▁될지	-15967
▁등도	-15968
▁때리	-15969
▁맡긴	-15970
▁모임	-15971
▁무더	-15972
▁묻혀	-15973
▁반려	-15974
▁방패	-15975
▁배불	-15976
▁백종	-15977
▁부자	-15978
▁분유	-15979
▁불미	-15980
▁빼돌	-15981
▁서명	-15982
▁선사	-15983
▁성취	-15984
▁소름	-15985
▁속한	-15986
▁수의	-15987
▁왔고	-15988
▁요리	-15989
▁육군	-15990
▁이대	-15991
▁입건	-15992
▁잘알	-15993
▁잘한	-15994
▁잠이	-15995
▁정경	-15996
▁제지	-15997
▁주며	-15998
▁짓고	-15999
▁차가	-16000
▁차에	-16001
▁참된	-16002
▁창녀	-16003
▁취하	-16004
▁투쟁	-16005
▁판독	-16006
▁푸는	-16007
▁확장	-16008
▁회생	-16009
▁흔한	-16010
같지도	-16011
거리고	-16012
거리며	-16013
거리에	-16014
것같아	-16015
겠는가	-16016
기관을	-16017
다해도	-16018
라는걸	-16019
린다는	-16020
보다가	-16021
싶네요	-16022
애하는	-16023
으리라	-16024
인지라	-16025
저출산	-16026
지못할	-16027
하게도	-16028
1200	-16029
▁250	-16030
▁가하는	-16031
▁갑질로	-16032
▁갑질에	-16033
▁계약직	-16034
▁교복에	-16035
▁국기를	-16036
▁국민도	-16037
▁그런게	-16038
▁기르는	-16039
▁김영란	-16040
▁누구든	-16041
▁눈감아	-16042
▁대자보	-16043
▁도박을	-16044
▁드러났	-16045
▁들으며	-16046
▁들으면	-16047
▁마이를	-16048
▁말씀이	-16049
▁메뉴얼	-16050
▁면접을	-16051
▁명문대	-16052
▁못했던	-16053
▁무능력	-16054
▁무릎을	-16055
▁문제라	-16056
▁물리적	-16057
▁밑에서	-16058
▁박수를	-16059
▁발언이	-16060
▁밝혀야	-16061
▁밝히지	-16062
▁별개로	-16063
▁보내게	-16064
▁보장해	-16065
▁부적절	-16066
▁부탁을	-16067
▁부터는	-16068
▁빨갱이	-16069
▁뿐인데	-16070
▁사비로	-16071
▁사안에	-16072
▁사진과	-16073
▁살인죄	-16074
▁새벽에	-16075
▁생방송	-16076
▁성장할	-16077
▁수사관	-16078
▁수수료	-16079
▁실력도	-16080
▁실명제	-16081
▁쓰면서	-16082
▁아내를	-16083
▁아닌거	-16084
▁안태근	-16085
▁약간의	-16086
▁어렵지	-16087
▁어짜피	-16088
▁역사는	-16089
▁연구를	-16090
▁연습을	-16091
▁원서를	-16092
▁원하면	-16093
▁위대한	-16094
▁위원회	-16095
▁인력을	-16096
▁인물이	-16097
▁인사를	-16098
▁인정한	-16099
▁일까요	-16100
▁일부는	-16101
▁일으킬	-16102
▁입주민	-16103
▁제작진	-16104
▁지경에	-16105
▁촛불을	-16106
▁출입을	-16107
▁테스트	-16108
▁특성을	-16109
▁펼치는	-16110
▁필수로	-16111
▁하겠죠	-16112
▁하나에	-16113
▁하지는	-16114
▁학종은	-16115
▁행동과	-16116
▁행복할	-16117
겁습니다	-16118
과목으로	-16119
마음으로	-16120
지않을까	-16121
▁7080	-16122
▁jtbc	-16123
▁것이라면	-16124
▁교사로서	-16125
▁근거없는	-16126
▁기반으로	-16127
▁기자들의	-16128
▁다양하게	-16129
▁당사자는	-16130
▁대학수학	-16131
▁동성애는	-16132
▁무상보육	-16133
▁받았으면	-16134
▁보도하는	-16135
▁보았을때	-16136
▁부끄러워	-16137
▁불법체류	-16138
▁상대방을	-16139
▁생리대는	-16140
▁설치되어	-16141
▁소중하고	-16142
▁시스템은	-16143
▁시작하여	-16144
▁시행되는	-16145
▁신혼부부	-16146
▁써봅니다	-16147
▁않겠지만	-16148
▁여가부가	-16149
▁여성만을	-16150
▁여성징병	-16151
▁여자들을	-16152
▁온국민이	-16153
▁외면하고	-16154
▁용기내어	-16155
▁이곳에서	-16156
▁이야기도	-16157
▁이어지는	-16158
▁일자리도	-16159
▁자신만의	-16160
▁잔인하게	-16161
▁잘못하면	-16162
▁주실것을	-16163
▁지급하고	-16164
▁책임지지	-16165
▁친구들의	-16166
▁파악하고	-16167
▁하기에는	-16168
▁하셨는데	-16169
▁하지않는	-16170
▁학생들에	-16171
▁한부모가	-16172
▁혐오발언	-16173
▁형식으로	-16174
▁혹시라도	-16175
▁힘드네요	-16176
▁힘들다는	-16177
해야하는데	-16178
▁개선되어야	-16179
▁대대적으로	-16180
▁생활기록부	-16181
▁선생님들을	-16182
▁시기입니다	-16183
▁있었음에도	-16184
▁최저임금을	-16185
▁피해자라고	-16186
▁하루하루가	-16187
▁학교폭력은	-16188
▁미투운동으로	-16189
▁받아야합니다	-16190
▁지방자치단체	-16191
▁말씀드리겠습니다	-16192
32	-16193
AN	-16194
▁낡	-16195
▁냅	-16196
▁돋	-16197
▁떡	-16198
▁훗	-16199
가산	-16200
검정	-16201
계와	-16202
기전	-16203
례로	-16204
리의	-16205
밀한	-16206
반은	-16207
병을	-16208
분께	-16209
사장	-16210
상승	-16211
션을	-16212
식도	-16213
어른	-16214
영을	-16215
자랑	-16216
정과	-16217
지검	-16218
지수	-16219
지인	-16220
차만	-16221
출근	-16222
케팅	-16223
후의	-16224
희망	-16225
히게	-16226
▁ᄋᄋ	-16227
▁겁이	-16228
▁결석	-16229
▁경계	-16230
▁곤란	-16231
▁공존	-16232
▁구해	-16233
▁권위	-16234
▁께서	-16235
▁나열	-16236
▁날씨	-16237
▁내게	-16238
▁내로	-16239
▁농협	-16240
▁니들	-16241
▁되나	-16242
▁두달	-16243
▁딸은	-16244
▁마침	-16245
▁명분	-16246
▁못살	-16247
▁문서	-16248
▁문재	-16249
▁바다	-16250
▁반이	-16251
▁불을	-16252
▁비중	-16253
▁비호	-16254
▁살림	-16255
▁살지	-16256
▁생일	-16257
▁성매	-16258
▁세습	-16259
▁셔츠	-16260
▁소환	-16261
▁순직	-16262
▁숨을	-16263
▁습득	-16264
▁실종	-16265
▁싸워	-16266
▁씨씨	-16267
▁아우	-16268
▁아웅	-16269
▁아육	-16270
▁악덕	-16271
▁안티	-16272
▁앗아	-16273
▁애써	-16274
▁애초	-16275
▁어쨌	-16276
▁엄두	-16277
▁여대	-16278
▁와닿	-16279
▁요금	-16280
▁월드	-16281
▁유망	-16282
▁이메	-16283
▁이순	-16284
▁일년	-16285
▁입상	-16286
▁있단	-16287
▁자아	-16288
▁전투	-16289
▁쥐어	-16290
▁쪼개	-16291
▁쫓겨	-16292
▁채팅	-16293
▁측의	-16294
▁치르	-16295
▁컨설	-16296
▁터진	-16297
▁판에	-16298
▁한대	-16299
▁해산	-16300
▁허울	-16301
▁호랑	-16302
▁휴업	-16303
개선을	-16304
개월로	-16305
교육감	-16306
국민은	-16307
다거나	-16308
됐다는	-16309
렸지만	-16310
마음에	-16311
방송에	-16312
방식을	-16313
섭니다	-16314
수있다	-16315
스타트	-16316
싶어도	-16317
았으나	-16318
어떻게	-16319
업무를	-16320
운영을	-16321
원하는	-16322
읍시다	-16323
인원이	-16324
일들이	-16325
주의에	-16326
준비를	-16327
지기를	-16328
텐데요	-16329
학원을	-16330
행위에	-16331
화하여	-16332
▁가정도	-16333
▁건강과	-16334
▁검사의	-16335
▁것임을	-16336
▁공약을	-16337
▁과목의	-16338
▁교수의	-16339
▁교육당	-16340
▁권력은	-16341
▁급기야	-16342
▁기획사	-16343
▁노력은	-16344
▁높아질	-16345
▁눈물로	-16346
▁단체의	-16347
▁대우가	-16348
▁두려움	-16349
▁들어도	-16350
▁막말을	-16351
▁말까지	-16352
▁몇개월	-16353
▁몇시간	-16354
▁무관심	-16355
▁무언가	-16356
▁문화적	-16357
▁묻지마	-16358
▁물갈이	-16359
▁미국은	-16360
▁바람이	-16361
▁방사능	-16362
▁별도의	-16363
▁부도덕	-16364
▁부사관	-16365
▁불기소	-16366
▁비난과	-16367
▁빠지게	-16368
▁뿐이다	-16369
▁사라져	-16370
▁서울로	-16371
▁세계가	-16372
▁세대가	-16373
▁소리에	-16374
▁소식에	-16375
▁손해보	-16376
▁시선이	-16377
▁안정된	-16378
▁않거나	-16379
▁않은데	-16380
▁애들도	-16381
▁양예원	-16382
▁어떨지	-16383
▁오르는	-16384
▁요즘에	-16385
▁의식이	-16386
▁의지와	-16387
▁이렇다	-16388
▁이전의	-16389
▁임신은	-16390
▁있다며	-16391
▁자들을	-16392
▁자식들	-16393
▁자체도	-16394
▁정도면	-16395
▁조사한	-16396
▁죄인이	-16397
▁죄책감	-16398
▁준비할	-16399
▁중국어	-16400
▁지나서	-16401
▁직업은	-16402
▁진상을	-16403
▁처벌의	-16404
▁체육관	-16405
▁커다란	-16406
▁콜센터	-16407
▁폐지와	-16408
▁학생에	-16409
▁학습을	-16410
▁학원도	-16411
▁헌법과	-16412
▁협회가	-16413
▁화장품	-16414
▁희망과	-16415
국가대표	-16416
려주세요	-16417
위원회를	-16418
이다보니	-16419
지마시고	-16420
지않나요	-16421
할수밖에	-16422
해준다고	-16423
했는데도	-16424
▁가족에게	-16425
▁걸림돌이	-16426
▁게시물을	-16427
▁공정성이	-16428
▁괜찮다고	-16429
▁그것으로	-16430
▁그래야만	-16431
▁나머지는	-16432
▁댓글조작	-16433
▁들어가야	-16434
▁몰아가는	-16435
▁묻습니다	-16436
▁박탈하고	-16437
▁보호받지	-16438
▁본론으로	-16439
▁부산에서	-16440
▁불러일으	-16441
▁생기부에	-16442
▁성장하는	-16443
▁세종대왕	-16444
▁시킵니다	-16445
▁신고하면	-16446
▁심사위원	-16447
▁아기들이	-16448
▁아버지를	-16449
▁안한다고	-16450
▁알려주고	-16451
▁연예인을	-16452
▁일어나면	-16453
▁있는지도	-16454
▁있다는걸	-16455
▁있더라도	-16456
▁자식들이	-16457
▁자연스레	-16458
▁적폐세력	-16459
▁정책들을	-16460
▁정체성을	-16461
▁중간광고	-16462
▁중국에서	-16463
▁중요하다	-16464
▁청소년과	-16465
▁출산율을	-16466
▁판단하고	-16467
▁할수없는	-16468
▁해결책이	-16469
▁했을까요	-16470
▁훈련하고	-16471
아시안게임	-16472
아야합니다	-16473
요청합니다	-16474
하지마세요	-16475
▁가야합니다	-16476
▁갑작스럽게	-16477
▁대학입시는	-16478
▁반복적으로	-16479
▁부탁드리며	-16480
▁사용합니다	-16481
▁생각듭니다	-16482
▁선생님들과	-16483
▁시급하다고	-16484
▁심정입니다	-16485
▁어린나이에	-16486
▁언론에서는	-16487
▁이유입니다	-16488
▁있다는것을	-16489
▁잡아주세요	-16490
▁장기적으로	-16491
▁저출산으로	-16492
▁절실합니다	-16493
▁존재입니다	-16494
▁집중적으로	-16495
▁초등학교의	-16496
▁크리에이터	-16497
▁평가인증을	-16498
▁프로그램의	-16499
▁하는겁니까	-16500
▁하지마시고	-16501
▁한사람으로	-16502
▁만들어주시길	-16503
▁생활기록부에	-16504
▁피해자들에게	-16505
▁학교생활기록	-16506
▁대한축구협회는	-16507
89	-16508
▁X	-16509
▁걍	-16510
▁왼	-16511
▁컵	-16512
가량	-16513
고의	-16514
관한	-16515
내며	-16516
단속	-16517
당장	-16518
들아	-16519
때만	-16520
때에	-16521
란이	-16522
력의	-16523
문은	-16524
병역	-16525
병이	-16526
복귀	-16527
사인	-16528
성장	-16529
시쯤	-16530
아무	-16531
위인	-16532
유럽	-16533
응원	-16534
이혼	-16535
정산	-16536
지자	-16537
집회	-16538
차이	-16539
초중	-16540
텔레	-16541
통에	-16542
120	-16543
▁an	-16544
▁가관	-16545
▁가시	-16546
▁강북	-16547
▁개의	-16548
▁결사	-16549
▁고칠	-16550
▁공을	-16551
▁공장	-16552
▁과잉	-16553
▁과한	-16554
▁글쓴	-16555
▁금할	-16556
▁기아	-16557
▁까요	-16558
▁날에	-16559
▁남이	-16560
▁넣는	-16561
▁농담	-16562
▁뉴질	-16563
▁대만	-16564
▁데에	-16565
▁도청	-16566
▁돌리	-16567
▁등재	-16568
▁땅을	-16569
▁뭐든	-16570
▁믿음	-16571
▁박물	-16572
▁변해	-16573
▁보시	-16574
▁보증	-16575
▁복학	-16576
▁부려	-16577
▁북미	-16578
▁불평	-16579
▁브라	-16580
▁비자	-16581
▁살았	-16582
▁손님	-16583
▁악습	-16584
▁애는	-16585
▁애착	-16586
▁양이	-16587
▁오토	-16588
▁욕먹	-16589
▁의대	-16590
▁이면	-16591
▁이지	-16592
▁잘살	-16593
▁장현	-16594
▁저장	-16595
▁제조	-16596
▁조희	-16597
▁종전	-16598
▁진작	-16599
▁짐을	-16600
▁쫓아	-16601
▁체제	-16602
▁출시	-16603
▁취할	-16604
▁퀴어	-16605
▁털어	-16606
▁특기	-16607
▁편이	-16608
▁폄하	-16609
▁포커	-16610
▁피드	-16611
▁피로	-16612
▁하느	-16613
▁하복	-16614
감사를	-16615
갔으면	-16616
겟지만	-16617
경기에	-16618
과정이	-16619
권으로	-16620
나가야	-16621
니스트	-16622
대학의	-16623
렸다는	-16624
시는지	-16625
쓰레기	-16626
아침에	-16627
억원의	-16628
여자가	-16629
일자리	-16630
제한이	-16631
주어야	-16632
하시죠	-16633
화되어	-16634
▁강간범	-16635
▁것이기	-16636
▁것이나	-16637
▁계획이	-16638
▁공사를	-16639
▁공포에	-16640
▁국회에	-16641
▁근거는	-16642
▁기업에	-16643
▁김경두	-16644
▁꼴페미	-16645
▁남자로	-16646
▁내세워	-16647
▁더많은	-16648
▁데이터	-16649
▁도입을	-16650
▁뒷받침	-16651
▁등등을	-16652
▁떠들어	-16653
▁말하기	-16654
▁맘놓고	-16655
▁머리카	-16656
▁무고를	-16657
▁받았을	-16658
▁배정을	-16659
▁배정이	-16660
▁보기가	-16661
▁보복을	-16662
▁비도덕	-16663
▁비리의	-16664
▁빙산의	-16665
▁사업이	-16666
▁상대를	-16667
▁세우는	-16668
▁손석희	-16669
▁수업도	-16670
▁술먹고	-16671
▁신고도	-16672
▁신분에	-16673
▁실생활	-16674
▁어쩌고	-16675
▁얼굴도	-16676
▁없지요	-16677
▁오보를	-16678
▁오셔서	-16679
▁유시민	-16680
▁의원의	-16681
▁이외에	-16682
▁인권위	-16683
▁일부가	-16684
▁자체는	-16685
▁저들이	-16686
▁전교조	-16687
▁제발요	-16688
▁죽어야	-16689
▁지시를	-16690
▁지장을	-16691
▁직원의	-16692
▁집중할	-16693
▁축제를	-16694
▁취하고	-16695
▁터지고	-16696
▁폐쇄를	-16697
▁피해에	-16698
▁한두번	-16699
▁한하여	-16700
▁할려고	-16701
▁행하는	-16702
▁화이팅	-16703
▁휴식을	-16704
만으로는	-16705
해주시는	-16706
navig	-16707
▁가능하고	-16708
▁게임에서	-16709
▁계속되는	-16710
▁고려해서	-16711
▁곳곳에서	-16712
▁그러다가	-16713
▁기업에서	-16714
▁나타나는	-16715
▁난무하고	-16716
▁낮습니다	-16717
▁노키즈존	-16718
▁누군가를	-16719
▁동성애자	-16720
▁동영상이	-16721
▁만들어낸	-16722
▁몇년동안	-16723
▁무너지고	-16724
▁물어보면	-16725
▁미국에서	-16726
▁미명하에	-16727
▁받아야할	-16728
▁받았다는	-16729
▁받으려고	-16730
▁방송하는	-16731
▁부추기고	-16732
▁불문하고	-16733
▁사용되고	-16734
▁성폭력이	-16735
▁수사하고	-16736
▁시선으로	-16737
▁썼습니다	-16738
▁않겠다고	-16739
▁여자하키	-16740
▁웃으면서	-16741
▁월드컵에	-16742
▁위장전입	-16743
▁위협하는	-16744
▁유리하게	-16745
▁이럴거면	-16746
▁인신공격	-16747
▁저희들은	-16748
▁적용하여	-16749
▁전업주부	-16750
▁정치인이	-16751
▁조롱하고	-16752
▁차별금지	-16753
▁참여하고	-16754
▁측면에서	-16755
▁판단하는	-16756
▁평등해야	-16757
▁필요성이	-16758
▁하였으며	-16759
▁현행법상	-16760
필요합니다	-16761
▁공기청정기	-16762
▁교육과정에	-16763
▁당연합니다	-16764
▁민주주의의	-16765
▁부족하다고	-16766
▁비상식적인	-16767
▁생각합니까	-16768
▁선생님들께	-16769
▁선생님에게	-16770
▁스트라이크	-16771
▁아쉽습니다	-16772
▁정기적으로	-16773
▁주부입니다	-16774
▁추세입니다	-16775
▁터무니없이	-16776
▁히딩크감독	-16777
▁못하겠습니다	-16778
▁아니었습니다	-16779
▁대통령님께서는	-16780
▁야간자율학습을	-16781
navigation	-16782
85	-16783
RE	-16784
▁똘	-16785
▁롤	-16786
▁룸	-16787
▁뷰	-16788
고등	-16789
공제	-16790
공직	-16791
교원	-16792
구청	-16793
국제	-16794
기회	-16795
다리	-16796
단과	-16797
되도	-16798
드로	-16799
률도	-16800
명중	-16801
모욕	-16802
물어	-16803
버릴	-16804
본부	-16805
사들	-16806
아직	-16807
액이	-16808
업계	-16809
업종	-16810
위험	-16811
유출	-16812
절로	-16813
점의	-16814
정리	-16815
특수	-16816
편향	-16817
합리	-16818
호는	-16819
▁견뎌	-16820
▁결탁	-16821
▁고장	-16822
▁기쁘	-16823
▁김신	-16824
▁꿈은	-16825
▁낚시	-16826
▁너가	-16827
▁다면	-16828
▁답은	-16829
▁돌볼	-16830
▁따기	-16831
▁모방	-16832
▁못나	-16833
▁무수	-16834
▁문란	-16835
▁밤낮	-16836
▁배당	-16837
▁배척	-16838
▁부채	-16839
▁분별	-16840
▁비영	-16841
▁빅뱅	-16842
▁생성	-16843
▁설계	-16844
▁세운	-16845
▁소상	-16846
▁소집	-16847
▁수습	-16848
▁수장	-16849
▁쉬게	-16850
▁시상	-16851
▁아랫	-16852
▁안낳	-16853
▁앞당	-16854
▁앱을	-16855
▁야자	-16856
▁업적	-16857
▁여야	-16858
▁연출	-16859
▁외의	-16860
▁원룸	-16861
▁원할	-16862
▁위화	-16863
▁유급	-16864
▁유효	-16865
▁잠실	-16866
▁죄는	-16867
▁죽기	-16868
▁줄을	-16869
▁지각	-16870
▁지칭	-16871
▁지킨	-16872
▁직후	-16873
▁질의	-16874
▁초상	-16875
▁출범	-16876
▁충원	-16877
▁탈세	-16878
▁터져	-16879
▁팀웍	-16880
▁파워	-16881
▁판명	-16882
▁협동	-16883
▁황금	-16884
▁흡수	-16885
경찰청	-16886
국회의	-16887
대회를	-16888
만원도	-16889
문에서	-16890
방법이	-16891
범죄는	-16892
비용이	-16893
상황이	-16894
성있는	-16895
세부터	-16896
셨는데	-16897
소리로	-16898
증명서	-16899
지거나	-16900
차산업	-16901
치면서	-16902
하나로	-16903
활동에	-16904
휴가를	-16905
▁가리는	-16906
▁가수가	-16907
▁가질수	-16908
▁갑질은	-16909
▁같지만	-16910
▁거리에	-16911
▁검찰의	-16912
▁격차가	-16913
▁고충을	-16914
▁과거를	-16915
▁괴로워	-16916
▁괴롭히	-16917
▁국민혈	-16918
▁기사들	-16919
▁기업은	-16920
▁기여를	-16921
▁깨닫게	-16922
▁나라냐	-16923
▁나서는	-16924
▁낙인찍	-16925
▁남편과	-16926
▁능력도	-16927
▁다른데	-16928
▁단체를	-16929
▁당하여	-16930
▁대신에	-16931
▁대입을	-16932
▁대학별	-16933
▁대화가	-16934
▁도와줄	-16935
▁도중에	-16936
▁돌봄이	-16937
▁듣지도	-16938
▁들어올	-16939
▁들었고	-16940
▁마이크	-16941
▁만화를	-16942
▁멍청한	-16943
▁목적에	-16944
▁못하며	-16945
▁무참히	-16946
▁문화와	-16947
▁민간인	-16948
▁받기도	-16949
▁받았다	-16950
▁방지를	-16951
▁변하지	-16952
▁보도에	-16953
▁보상도	-16954
▁보이며	-16955
▁보장을	-16956
▁복지에	-16957
▁비인간	-16958
▁사장님	-16959
▁살인이	-16960
▁선의의	-16961
▁송두리	-16962
▁수능과	-16963
▁수위가	-16964
▁수학을	-16965
▁쉬어야	-16966
▁승무원	-16967
▁실패한	-16968
▁싶다면	-16969
▁안해주	-16970
▁알지도	-16971
▁언제쯤	-16972
▁언행을	-16973
▁엉터리	-16974
▁엔트리	-16975
▁연봉을	-16976
▁왔다고	-16977
▁요소가	-16978
▁우승을	-16979
▁운전을	-16980
▁워너원	-16981
▁의무에	-16982
▁이간질	-16983
▁이승우	-16984
▁이의를	-16985
▁인력이	-16986
▁인정이	-16987
▁입시에	-16988
▁잘모르	-16989
▁잘못도	-16990
▁재능이	-16991
▁적용해	-16992
▁정치와	-16993
▁제정을	-16994
▁존재할	-16995
▁주셔야	-16996
▁중국인	-16997
▁지들이	-16998
▁지정된	-16999
▁진실이	-17000
▁진행을	-17001
▁차단을	-17002
▁처리가	-17003
▁청년이	-17004
▁치열한	-17005
▁통일을	-17006
▁특수한	-17007
▁판결에	-17008
▁피시방	-17009
▁필요는	-17010
▁행정적	-17011
못합니다	-17012
뿐아니라	-17013
살입니다	-17014
아니라고	-17015
중학교에	-17016
지마세요	-17017
하겠지요	-17018
하기전에	-17019
하는거죠	-17020
하는데도	-17021
▁1020	-17022
▁개정하여	-17023
▁국민세금	-17024
▁그분들이	-17025
▁기득권을	-17026
▁기자들을	-17027
▁내용들이	-17028
▁늦게까지	-17029
▁될겁니다	-17030
▁두서없이	-17031
▁만드는데	-17032
▁모르겠다	-17033
▁무고죄가	-17034
▁박탈감을	-17035
▁반대한다	-17036
▁보십니까	-17037
▁보충수업	-17038
▁보호받는	-17039
▁비난하고	-17040
▁생기부를	-17041
▁서민들의	-17042
▁서비스가	-17043
▁성폭행이	-17044
▁수능으로	-17045
▁약합니다	-17046
▁언론들은	-17047
▁얼굴공개	-17048
▁여자들의	-17049
▁여자라서	-17050
▁여학생이	-17051
▁유도하는	-17052
▁의무화를	-17053
▁이러면서	-17054
▁이런식의	-17055
▁입습니다	-17056
▁자신들은	-17057
▁졌습니다	-17058
▁존중하는	-17059
▁종목에서	-17060
▁지역주민	-17061
▁지켜주지	-17062
▁지켜줘야	-17063
▁직장생활	-17064
▁책임감을	-17065
▁컨텐츠를	-17066
▁투표권을	-17067
▁특수학급	-17068
▁피해보상	-17069
▁학생다운	-17070
▁해결하지	-17071
될것입니다	-17072
만원입니다	-17073
한다는것은	-17074
▁넘쳐납니다	-17075
▁보장되어야	-17076
▁보호해주는	-17077
▁사람에게는	-17078
▁생각했는데	-17079
▁성추행으로	-17080
▁소망합니다	-17081
▁시스템으로	-17082
▁어디까지나	-17083
▁우리아이가	-17084
▁인권이라는	-17085
▁있으니까요	-17086
▁자율적으로	-17087
▁충분합니다	-17088
▁개선해주세요	-17089
▁기초생활수급	-17090
▁바라겠습니다	-17091
▁인권침해하는	-17092
▁전세계적으로	-17093
▁하는것입니다	-17094
▁말씀하셨습니다	-17095
BE	-17096
ON	-17097
is	-17098
ve	-17099
▁꺽	-17100
▁꽁	-17101
▁덥	-17102
▁땄	-17103
▁였	-17104
▁쟁	-17105
계좌	-17106
내면	-17107
노인	-17108
두천	-17109
드러	-17110
락이	-17111
리안	-17112
맞게	-17113
모임	-17114
문과	-17115
민원	-17116
배려	-17117
보가	-17118
불량	-17119
블럭	-17120
사범	-17121
속의	-17122
실한	-17123
아닐	-17124
양의	-17125
언정	-17126
여름	-17127
오던	-17128
요금	-17129
절대	-17130
절벽	-17131
치않	-17132
편을	-17133
편의	-17134
평균	-17135
폐합	-17136
하곤	-17137
하교	-17138
항의	-17139
화도	-17140
net	-17141
▁감면	-17142
▁강경	-17143
▁갖지	-17144
▁거는	-17145
▁고시	-17146
▁공항	-17147
▁관념	-17148
▁구석	-17149
▁군림	-17150
▁글의	-17151
▁급증	-17152
▁길에	-17153
▁깨우	-17154
▁높일	-17155
▁늦지	-17156
▁당했	-17157
▁대인	-17158
▁돌파	-17159
▁명을	-17160
▁몇분	-17161
▁몇자	-17162
▁무력	-17163
▁미미	-17164
▁발송	-17165
▁번거	-17166
▁벌레	-17167
▁본격	-17168
▁뺑뺑	-17169
▁석방	-17170
▁소멸	-17171
▁시에	-17172
▁실어	-17173
▁안지	-17174
▁압도	-17175
▁양진	-17176
▁얻지	-17177
▁여쭤	-17178
▁원동	-17179
▁원어	-17180
▁이분	-17181
▁일지	-17182
▁자습	-17183
▁장동	-17184
▁전인	-17185
▁제대	-17186
▁조종	-17187
▁차출	-17188
▁참아	-17189
▁탐구	-17190
▁터질	-17191
▁훌쩍	-17192
가에서	-17193
건지요	-17194
것이죠	-17195
결과가	-17196
교사와	-17197
구에서	-17198
구장창	-17199
국민을	-17200
나와서	-17201
내용이	-17202
는지를	-17203
들이고	-17204
들인데	-17205
립니까	-17206
만들고	-17207
명이나	-17208
문으로	-17209
민주화	-17210
비중을	-17211
사건도	-17212
세이상	-17213
셧으면	-17214
손으로	-17215
수저는	-17216
싶어요	-17217
인터넷	-17218
자리가	-17219
직원이	-17220
차이가	-17221
책임을	-17222
킵시다	-17223
하다며	-17224
학년을	-17225
행위로	-17226
▁600	-17227
▁가족부	-17228
▁강제징	-17229
▁개념을	-17230
▁건강이	-17231
▁검색을	-17232
▁검토를	-17233
▁공문을	-17234
▁과태료	-17235
▁구매를	-17236
▁국익을	-17237
▁군대도	-17238
▁권력의	-17239
▁권력형	-17240
▁기회도	-17241
▁김학의	-17242
▁나가게	-17243
▁나누고	-17244
▁냅니다	-17245
▁높다고	-17246
▁높으신	-17247
▁뉴스의	-17248
▁능력에	-17249
▁다리를	-17250
▁달라질	-17251
▁도둑질	-17252
▁돌아와	-17253
▁되겠죠	-17254
▁들여서	-17255
▁리스트	-17256
▁말할수	-17257
▁망신을	-17258
▁매체를	-17259
▁명시된	-17260
▁몇몇의	-17261
▁몇이나	-17262
▁무관한	-17263
▁무기력	-17264
▁벌금에	-17265
▁법대로	-17266
▁보내서	-17267
▁불러서	-17268
▁브리핑	-17269
▁비추어	-17270
▁뿐이지	-17271
▁사랑의	-17272
▁사태에	-17273
▁살다가	-17274
▁상처와	-17275
▁설명이	-17276
▁성노예	-17277
▁세력이	-17278
▁숨어서	-17279
▁스크린	-17280
▁신체의	-17281
▁실명을	-17282
▁아들의	-17283
▁안가고	-17284
▁안되죠	-17285
▁안좋아	-17286
▁애매한	-17287
▁양심의	-17288
▁양육을	-17289
▁오라고	-17290
▁위치를	-17291
▁의무로	-17292
▁의무와	-17293
▁이거는	-17294
▁이름만	-17295
▁이성애	-17296
▁인정할	-17297
▁있던데	-17298
▁자료가	-17299
▁자질을	-17300
▁재판에	-17301
▁적게는	-17302
▁적합한	-17303
▁절차에	-17304
▁조금의	-17305
▁조작된	-17306
▁주기를	-17307
▁지금에	-17308
▁차량을	-17309
▁참담한	-17310
▁처벌받	-17311
▁청춘을	-17312
▁친구와	-17313
▁특정한	-17314
▁편향된	-17315
▁하여서	-17316
▁해명을	-17317
▁했어요	-17318
▁했으니	-17319
▁허위로	-17320
▁헌법이	-17321
▁힘있는	-17322
기도하고	-17323
바입니다	-17324
상태에서	-17325
선생님은	-17326
장소에서	-17327
하기까지	-17328
하는데요	-17329
▁2005	-17330
▁가족들과	-17331
▁고민하는	-17332
▁공개하지	-17333
▁과도하게	-17334
▁국민여러	-17335
▁기초수급	-17336
▁나오는게	-17337
▁나타나고	-17338
▁넘어가서	-17339
▁대표팀에	-17340
▁동성결혼	-17341
▁동아일보	-17342
▁두발자유	-17343
▁마련하고	-17344
▁반복되지	-17345
▁받아들일	-17346
▁보기에는	-17347
▁부끄럽지	-17348
▁분들께서	-17349
▁불편함이	-17350
▁불평등을	-17351
▁비판하고	-17352
▁빈번하게	-17353
▁사용하게	-17354
▁사회봉사	-17355
▁선택하는	-17356
▁성실하게	-17357
▁성인보다	-17358
▁수십년간	-17359
▁순간에도	-17360
▁순수하게	-17361
▁스포츠로	-17362
▁시간까지	-17363
▁시작하고	-17364
▁아버지의	-17365
▁안전사고	-17366
▁앞장서서	-17367
▁어른들도	-17368
▁어머니의	-17369
▁없으면서	-17370
▁이마저도	-17371
▁일반인이	-17372
▁일어나서	-17373
▁잃어버린	-17374
▁있는것은	-17375
▁있었으나	-17376
▁자신들을	-17377
▁자유라는	-17378
▁조작하고	-17379
▁주어져야	-17380
▁직원들은	-17381
▁최근들어	-17382
▁측에서는	-17383
▁평범하게	-17384
▁필요한데	-17385
▁하나같이	-17386
▁학교에선	-17387
▁해결하고	-17388
▁해주셔야	-17389
▁현장실습	-17390
당했습니다	-17391
보았습니다	-17392
선수들에게	-17393
여성가족부	-17394
▁노골적으로	-17395
▁보내주세요	-17396
▁사각지대에	-17397
▁사교육으로	-17398
▁사리사욕을	-17399
▁살아가는데	-17400
▁성차별적인	-17401
▁아시는지요	-17402
▁악의적으로	-17403
▁여러분들의	-17404
▁여학생들은	-17405
▁외국인들이	-17406
▁위해서라면	-17407
▁있겠습니다	-17408
▁정책이라고	-17409
▁지자체에서	-17410
▁친구들에게	-17411
▁프로그램은	-17412
▁필요하다면	-17413
▁하지마세요	-17414
▁학교에서의	-17415
▁학생으로서	-17416
▁학생이라는	-17417
▁말씀드리자면	-17418
▁보고있습니다	-17419
▁아시안게임에	-17420
▁어디있습니까	-17421
▁조사해주시기	-17422
▁되어버렸습니다	-17423
▁보육교사입니다	-17424
▁청소년보호법은	-17425
79	-17426
EB	-17427
OT	-17428
um	-17429
▁깃	-17430
▁덴	-17431
▁란	-17432
▁붉	-17433
▁앤	-17434
▁엮	-17435
▁젤	-17436
▁짙	-17437
▁칩	-17438
▁탕	-17439
거에	-17440
국대	-17441
권익	-17442
기나	-17443
기며	-17444
대우	-17445
독재	-17446
드가	-17447
드민	-17448
마블	-17449
막을	-17450
면제	-17451
백백	-17452
본다	-17453
상해	-17454
생들	-17455
생명	-17456
세월	-17457
셨을	-17458
수입	-17459
식과	-17460
애니	-17461
양성	-17462
얘기	-17463
여년	-17464
월생	-17465
이긴	-17466
인인	-17467
입시	-17468
절차	-17469
정원	-17470
조례	-17471
조로	-17472
진의	-17473
징계	-17474
차게	-17475
태가	-17476
토론	-17477
홍보	-17478
▁88	-17479
▁SM	-17480
▁감염	-17481
▁감축	-17482
▁개나	-17483
▁개판	-17484
▁거대	-17485
▁고귀	-17486
▁공과	-17487
▁관습	-17488
▁군의	-17489
▁그다	-17490
▁급진	-17491
▁남들	-17492
▁내의	-17493
▁녹화	-17494
▁당직	-17495
▁대량	-17496
▁도대	-17497
▁돼지	-17498
▁든다	-17499
▁떨며	-17500
▁라면	-17501
▁로봇	-17502
▁많기	-17503
▁망정	-17504
▁매춘	-17505
▁못지	-17506
▁미워	-17507
▁바란	-17508
▁바빠	-17509
▁바이	-17510
▁밤을	-17511
▁방침	-17512
▁벌이	-17513
▁벌인	-17514
▁부른	-17515
▁불우	-17516
▁비가	-17517
▁비꼬	-17518
▁빈곤	-17519
▁생을	-17520
▁선을	-17521
▁소견	-17522
▁소장	-17523
▁수집	-17524
▁순식	-17525
▁실직	-17526
▁심야	-17527
▁아껴	-17528
▁알겠	-17529
▁앨범	-17530
▁양도	-17531
▁업소	-17532
▁엔씨	-17533
▁여지	-17534
▁여타	-17535
▁연상	-17536
▁영입	-17537
▁예측	-17538
▁외화	-17539
▁유입	-17540
▁유트	-17541
▁이쁜	-17542
▁일산	-17543
▁자숙	-17544
▁장점	-17545
▁저해	-17546
▁적을	-17547
▁전가	-17548
▁접한	-17549
▁정비	-17550
▁죄값	-17551
▁주게	-17552
▁지양	-17553
▁추모	-17554
▁추워	-17555
▁춘천	-17556
▁친고	-17557
▁평택	-17558
▁하길	-17559
▁행한	-17560
▁환원	-17561
개월의	-17562
고사를	-17563
관리를	-17564
국가가	-17565
동에서	-17566
되므로	-17567
드민턴	-17568
때문이	-17569
라이딩	-17570
명에게	-17571
보시면	-17572
사무실	-17573
셨다고	-17574
심지어	-17575
역할을	-17576
였다는	-17577
있는게	-17578
주에서	-17579
주의적	-17580
축구를	-17581
하냐고	-17582
할때도	-17583
해가며	-17584
해야죠	-17585
활동이	-17586
효과가	-17587
후에도	-17588
2019	-17589
▁MBN	-17590
▁개돼지	-17591
▁객관적	-17592
▁걸어서	-17593
▁결론이	-17594
▁고위직	-17595
▁과목은	-17596
▁국위를	-17597
▁권리만	-17598
▁규모가	-17599
▁그럴수	-17600
▁그전에	-17601
▁그정도	-17602
▁낱낱이	-17603
▁넣어서	-17604
▁늘려서	-17605
▁니들이	-17606
▁당신을	-17607
▁당하면	-17608
▁돌보고	-17609
▁뜻으로	-17610
▁리얼돌	-17611
▁막아버	-17612
▁맘편히	-17613
▁망하게	-17614
▁맡길수	-17615
▁며칠전	-17616
▁미루고	-17617
▁박상기	-17618
▁발목을	-17619
▁배려를	-17620
▁범인을	-17621
▁범죄도	-17622
▁범행을	-17623
▁법원이	-17624
▁분노와	-17625
▁불구속	-17626
▁사장이	-17627
▁사퇴를	-17628
▁상황도	-17629
▁선동열	-17630
▁선에서	-17631
▁성공을	-17632
▁세자녀	-17633
▁수사해	-17634
▁수있게	-17635
▁시간제	-17636
▁시위가	-17637
▁시험도	-17638
▁시험지	-17639
▁식사를	-17640
▁신뢰할	-17641
▁실적을	-17642
▁심정을	-17643
▁쏟아져	-17644
▁아이둘	-17645
▁않을수	-17646
▁없음을	-17647
▁예산은	-17648
▁예술가	-17649
▁올리지	-17650
▁용도로	-17651
▁용어를	-17652
▁우리들	-17653
▁의도를	-17654
▁이라면	-17655
▁일인데	-17656
▁임직원	-17657
▁적폐의	-17658
▁줄어든	-17659
▁중심이	-17660
▁중에도	-17661
▁진료를	-17662
▁진실된	-17663
▁질문에	-17664
▁책상에	-17665
▁최근의	-17666
▁충격이	-17667
▁취소를	-17668
▁터지는	-17669
▁테두리	-17670
▁판결도	-17671
▁평준화	-17672
▁폐원을	-17673
▁피아노	-17674
▁핀란드	-17675
▁학대로	-17676
▁한명을	-17677
▁할말이	-17678
▁해치는	-17679
▁해택을	-17680
▁향상을	-17681
▁허세를	-17682
▁확인한	-17683
개월동안	-17684
만원에서	-17685
세금으로	-17686
수입니다	-17687
안된다고	-17688
정부에서	-17689
측에서는	-17690
피해자가	-17691
할때까지	-17692
해야하며	-17693
▁강제적인	-17694
▁개인사업	-17695
▁개천에서	-17696
▁경쟁하는	-17697
▁관계자들	-17698
▁교묘하게	-17699
▁군입대를	-17700
▁규제하는	-17701
▁그때부터	-17702
▁금지시켜	-17703
▁네이버의	-17704
▁뉴질랜드	-17705
▁되어가는	-17706
▁되어있는	-17707
▁들어보면	-17708
▁뜻입니다	-17709
▁모든것이	-17710
▁못하다고	-17711
▁문제지만	-17712
▁발생되는	-17713
▁방과후를	-17714
▁법이라고	-17715
▁병역기피	-17716
▁보내면서	-17717
▁보셨나요	-17718
▁볼수있는	-17719
▁부담없이	-17720
▁생각되는	-17721
▁성매매가	-17722
▁성평등은	-17723
▁속상하고	-17724
▁수강신청	-17725
▁스트리밍	-17726
▁시민들은	-17727
▁시스템에	-17728
▁실력있는	-17729
▁아나운서	-17730
▁안타까울	-17731
▁않겠다는	-17732
▁알았는데	-17733
▁양육비는	-17734
▁어떤가요	-17735
▁억압하는	-17736
▁언론사는	-17737
▁언론사를	-17738
▁여러분은	-17739
▁올바르지	-17740
▁와이프는	-17741
▁인간으로	-17742
▁인터넷이	-17743
▁입장으로	-17744
▁있는건지	-17745
▁있는지요	-17746
▁있을텐데	-17747
▁자녀에게	-17748
▁작성하고	-17749
▁전화번호	-17750
▁중요하게	-17751
▁중학교는	-17752
▁증거자료	-17753
▁찬성하는	-17754
▁침해받지	-17755
▁카메라를	-17756
▁팩트체크	-17757
▁포함해서	-17758
▁하게되면	-17759
▁하는데도	-17760
▁해야할지	-17761
방탄소년단	-17762
좀해주세요	-17763
하지마시고	-17764
▁가정입니다	-17765
▁경찰서에서	-17766
▁근로기준법	-17767
▁독립운동가	-17768
▁병역면제를	-17769
▁사형제도를	-17770
▁성공적으로	-17771
▁소년법폐지	-17772
▁아동학대에	-17773
▁않았습니까	-17774
▁어느정도의	-17775
▁여성에게만	-17776
▁예정입니다	-17777
▁올라옵니다	-17778
▁유치원으로	-17779
▁인스타그램	-17780
▁있는겁니다	-17781
▁자체적으로	-17782
▁정서적으로	-17783
▁추가적으로	-17784
▁해야된다고	-17785
▁핸드폰으로	-17786
▁현재까지도	-17787
▁국민으로부터	-17788
▁대다수입니다	-17789
▁러시아월드컵	-17790
▁못하였습니다	-17791
▁스마트폰으로	-17792
▁학생들입니다	-17793
▁article	-17794
▁문화체육관광부	-17795
▁페미니스트들이	-17796
43	-17797
65	-17798
ay	-17799
ir	-17800
ke	-17801
th	-17802
un	-17803
▁삐	-17804
▁으	-17805
▁촌	-17806
▁펑	-17807
가짐	-17808
구려	-17809
기엔	-17810
느끼	-17811
달고	-17812
답지	-17813
당의	-17814
돈은	-17815
들지	-17816
딸을	-17817
래퍼	-17818
로커	-17819
많아	-17820
매가	-17821
물과	-17822
미투	-17823
바꾸	-17824
박을	-17825
보듯	-17826
사과	-17827
생산	-17828
서버	-17829
센타	-17830
셔요	-17831
신은	-17832
액을	-17833
였을	-17834
월말	-17835
이냐	-17836
이리	-17837
인다	-17838
임원	-17839
주어	-17840
중단	-17841
지난	-17842
진단	-17843
차원	-17844
챔피	-17845
천히	-17846
추가	-17847
취한	-17848
층에	-17849
태극	-17850
터가	-17851
항서	-17852
형의	-17853
ent	-17854
▁ex	-17855
▁간소	-17856
▁간신	-17857
▁감성	-17858
▁값진	-17859
▁거친	-17860
▁걸친	-17861
▁겪을	-17862
▁경마	-17863
▁교무	-17864
▁귀국	-17865
▁그전	-17866
▁난감	-17867
▁남짓	-17868
▁넓혀	-17869
▁논문	-17870
▁담을	-17871
▁대고	-17872
▁더해	-17873
▁도달	-17874
▁독단	-17875
▁동복	-17876
▁동북	-17877
▁되겠	-17878
▁둔갑	-17879
▁땅의	-17880
▁만남	-17881
▁맞다	-17882
▁맡은	-17883
▁메시	-17884
▁목록	-17885
▁무색	-17886
▁무얼	-17887
▁뮤직	-17888
▁번복	-17889
▁병력	-17890
▁보듬	-17891
▁분할	-17892
▁빙자	-17893
▁살리	-17894
▁상향	-17895
▁성우	-17896
▁수월	-17897
▁수혜	-17898
▁스티	-17899
▁싱가	-17900
▁싱글	-17901
▁악몽	-17902
▁억제	-17903
▁연가	-17904
▁예뻐	-17905
▁오심	-17906
▁욕구	-17907
▁유공	-17908
▁융합	-17909
▁이끄	-17910
▁임의	-17911
▁작게	-17912
▁재활	-17913
▁저랑	-17914
▁접어	-17915
▁정중	-17916
▁제고	-17917
▁주작	-17918
▁쥐고	-17919
▁집착	-17920
▁철폐	-17921
▁총장	-17922
▁치욕	-17923
▁캡쳐	-17924
▁큰일	-17925
▁퇴보	-17926
▁팀킴	-17927
▁폐쇠	-17928
▁피폐	-17929
▁하냐	-17930
▁하청	-17931
▁한줄	-17932
▁했죠	-17933
▁헤어	-17934
▁현시	-17935
▁활개	-17936
▁활보	-17937
▁획일	-17938
▁훗날	-17939
▁힘도	-17940
것이지	-17941
기라도	-17942
다가도	-17943
동으로	-17944
들어가	-17945
로써는	-17946
모르고	-17947
시설에	-17948
시설이	-17949
싶은데	-17950
야하고	-17951
억원을	-17952
얼마나	-17953
었나요	-17954
여성이	-17955
오면서	-17956
원들의	-17957
이상을	-17958
이에요	-17959
인하여	-17960
주셔야	-17961
지하철	-17962
필요가	-17963
하던데	-17964
학기술	-17965
학기에	-17966
해봐야	-17967
환경이	-17968
▁가격에	-17969
▁가야할	-17970
▁가져올	-17971
▁감독관	-17972
▁감시를	-17973
▁갑질과	-17974
▁검찰청	-17975
▁겪어야	-17976
▁경복궁	-17977
▁공공의	-17978
▁교실이	-17979
▁궁금한	-17980
▁그들과	-17981
▁금액은	-17982
▁나이도	-17983
▁낫다고	-17984
▁낳아라	-17985
▁내놓은	-17986
▁내면서	-17987
▁담배피	-17988
▁당당한	-17989
▁당해서	-17990
▁대답은	-17991
▁대응을	-17992
▁돈없는	-17993
▁돌아올	-17994
▁동남아	-17995
▁동두천	-17996
▁드러나	-17997
▁떠들고	-17998
▁떳떳한	-17999
▁로그인	-18000
▁많으신	-18001
▁많은지	-18002
▁망가뜨	-18003
▁매국노	-18004
▁명예회	-18005
▁몇년간	-18006
▁몰아가	-18007
▁무기로	-18008
▁무죄로	-18009
▁문자가	-18010
▁문자로	-18011
▁물러나	-18012
▁미투를	-18013
▁배우면	-18014
▁법률에	-18015
▁변하고	-18016
▁보다도	-18017
▁보여줄	-18018
▁보이콧	-18019
▁부리고	-18020
▁비교과	-18021
▁비아냥	-18022
▁비효율	-18023
▁사실도	-18024
▁사실인	-18025
▁사업자	-18026
▁사용해	-18027
▁사형제	-18028
▁사회전	-18029
▁살리는	-18030
▁소통의	-18031
▁시작이	-18032
▁신도시	-18033
▁신문을	-18034
▁실업팀	-18035
▁아니란	-18036
▁아프게	-18037
▁아프면	-18038
▁안되게	-18039
▁안보고	-18040
▁안전장	-18041
▁양심을	-18042
▁얘기는	-18043
▁언론도	-18044
▁업적을	-18045
▁여기가	-18046
▁여론의	-18047
▁여직원	-18048
▁역량을	-18049
▁역시나	-18050
▁예약을	-18051
▁우리말	-18052
▁우리와	-18053
▁원칙이	-18054
▁의견과	-18055
▁의도는	-18056
▁이러는	-18057
▁이사장	-18058
▁일부의	-18059
▁일이며	-18060
▁일정이	-18061
▁입히고	-18062
▁자소서	-18063
▁자식은	-18064
▁장소가	-18065
▁장치가	-18066
▁재수를	-18067
▁저들의	-18068
▁조사에	-18069
▁죗값을	-18070
▁죽여도	-18071
▁즐거워	-18072
▁진술을	-18073
▁진행이	-18074
▁진행해	-18075
▁짜증이	-18076
▁출판사	-18077
▁치르고	-18078
▁택시를	-18079
▁통일이	-18080
▁통화를	-18081
▁패드립	-18082
▁폭력의	-18083
▁피해로	-18084
▁학교내	-18085
▁한겨레	-18086
▁한국식	-18087
▁행정을	-18088
▁헌법의	-18089
▁혈안이	-18090
▁홍명보	-18091
▁힘들다	-18092
나봅니다	-18093
도아니고	-18094
되었으나	-18095
들때문에	-18096
봐주세요	-18097
선수에게	-18098
이라던지	-18099
정책으로	-18100
주었으면	-18101
지방법원	-18102
할수있고	-18103
혔습니다	-18104
▁가정으로	-18105
▁감정노동	-18106
▁검찰에서	-18107
▁교도소에	-18108
▁교육청과	-18109
▁국민건강	-18110
▁그분들은	-18111
▁그에따른	-18112
▁난무하는	-18113
▁남녀간의	-18114
▁남자아이	-18115
▁눈가리고	-18116
▁다르다는	-18117
▁당사자인	-18118
▁대표팀을	-18119
▁동떨어진	-18120
▁됬습니다	-18121
▁두번다시	-18122
▁드러나는	-18123
▁들어가지	-18124
▁듯합니다	-18125
▁만이라도	-18126
▁명명백백	-18127
▁모른다는	-18128
▁모욕하는	-18129
▁미안하고	-18130
▁박탈하는	-18131
▁받고있는	-18132
▁방해하고	-18133
▁방해하는	-18134
▁백년지대	-18135
▁베이비시	-18136
▁변호사가	-18137
▁보여지는	-18138
▁보육료를	-18139
▁보호받고	-18140
▁봐야하는	-18141
▁부끄럽고	-18142
▁부모들을	-18143
▁사회적약	-18144
▁생겼으면	-18145
▁슬픕니다	-18146
▁시험에서	-18147
▁시험지를	-18148
▁실명제를	-18149
▁아님에도	-18150
▁안타깝게	-18151
▁알려주지	-18152
▁양산하는	-18153
▁없었다고	-18154
▁여성부가	-18155
▁여성시대	-18156
▁요구하며	-18157
▁원치않는	-18158
▁의료보험	-18159
▁이나라를	-18160
▁이나라에	-18161
▁이런일을	-18162
▁이십년간	-18163
▁이익만을	-18164
▁인권이란	-18165
▁일벌백계	-18166
▁일입니까	-18167
▁자격으로	-18168
▁자행하고	-18169
▁작년부터	-18170
▁재미있게	-18171
▁저지르지	-18172
▁저희학교	-18173
▁전국에서	-18174
▁제도라고	-18175
▁죽어가는	-18176
▁지원해주	-18177
▁지켜주는	-18178
▁진심어린	-18179
▁차지하는	-18180
▁청각장애	-18181
▁청원하고	-18182
▁출근해서	-18183
▁탁상행정	-18184
▁피해학생	-18185
▁필요한지	-18186
▁학교에는	-18187
▁학교운영	-18188
▁한국사회	-18189
▁한국인이	-18190
▁협박하고	-18191
다고합니다	-18192
▁공교육에서	-18193
▁교육제도를	-18194
▁국제적으로	-18195
▁국회의원들	-18196
▁국회의원은	-18197
▁남자화장실	-18198
▁녹색어머니	-18199
▁돌려주세요	-18200
▁모습입니다	-18201
▁바래봅니다	-18202
▁밝혔습니다	-18203
▁사교육비가	-18204
▁아동학대로	-18205
▁아팠습니다	-18206
▁연예인들은	-18207
▁이야기하는	-18208
▁있을거라고	-18209
▁제외하고는	-18210
▁죽을때까지	-18211
▁한반도기에	-18212
▁해야하는지	-18213
▁효율적으로	-18214
▁사립유치원이	-18215
▁직장인입니다	-18216
▁폐지해야합니다	-18217
ul	-18218
▁굽	-18219
▁싼	-18220
▁째	-18221
▁힐	-18222
건설	-18223
건은	-18224
겨우	-18225
계산	-18226
김이	-18227
넘는	-18228
논리	-18229
다닌	-18230
독립	-18231
동은	-18232
된게	-18233
라뇨	-18234
럽게	-18235
레톤	-18236
마한	-18237
몰카	-18238
문서	-18239
물림	-18240
미가	-18241
발이	-18242
병에	-18243
수익	-18244
심리	-18245
연대	-18246
외국	-18247
월급	-18248
율도	-18249
인체	-18250
정시	-18251
조장	-18252
존중	-18253
중국	-18254
직장	-18255
침의	-18256
통제	-18257
학군	-18258
합의	-18259
MBC	-18260
UBE	-18261
▁01	-18262
▁44	-18263
▁in	-18264
▁각기	-18265
▁감내	-18266
▁결재	-18267
▁공용	-18268
▁과다	-18269
▁기상	-18270
▁김여	-18271
▁끼워	-18272
▁난임	-18273
▁늘릴	-18274
▁당부	-18275
▁도구	-18276
▁독거	-18277
▁들리	-18278
▁뜻은	-18279
▁망언	-18280
▁맡아	-18281
▁며느	-18282
▁모인	-18283
▁몸도	-18284
▁믿기	-18285
▁방황	-18286
▁배고	-18287
▁번도	-18288
▁부지	-18289
▁부하	-18290
▁비위	-18291
▁비춰	-18292
▁상이	-18293
▁소신	-18294
▁소치	-18295
▁송치	-18296
▁수료	-18297
▁시시	-18298
▁신발	-18299
▁썰매	-18300
▁쓸때	-18301
▁안무	-18302
▁않죠	-18303
▁알몸	-18304
▁앓고	-18305
▁야한	-18306
▁얻게	-18307
▁영세	-18308
▁우는	-18309
▁원본	-18310
▁유정	-18311
▁이불	-18312
▁이자	-18313
▁일쑤	-18314
▁잃을	-18315
▁장치	-18316
▁재원	-18317
▁적산	-18318
▁주었	-18319
▁주취	-18320
▁중반	-18321
▁지망	-18322
▁지친	-18323
▁지혜	-18324
▁징벌	-18325
▁커질	-18326
▁통상	-18327
▁퍼부	-18328
▁편협	-18329
▁펼치	-18330
▁필히	-18331
▁한발	-18332
▁할머	-18333
▁해제	-18334
▁해택	-18335
갑니까	-18336
계획을	-18337
교복을	-18338
권리가	-18339
리라는	-18340
만하는	-18341
문화에	-18342
문화의	-18343
방안을	-18344
병원에	-18345
보호법	-18346
센터가	-18347
수업이	-18348
순위가	-18349
시킬수	-18350
아들이	-18351
앞으로	-18352
없도록	-18353
연예인	-18354
을때도	-18355
을수록	-18356
있어도	-18357
장관이	-18358
적이라	-18359
전화를	-18360
졌는지	-18361
중이고	-18362
지원금	-18363
차원의	-18364
컨텐츠	-18365
켈레톤	-18366
콘텐츠	-18367
트리고	-18368
하는등	-18369
하다니	-18370
했기에	-18371
했어야	-18372
▁겨울에	-18373
▁경기력	-18374
▁경우엔	-18375
▁고학년	-18376
▁과감히	-18377
▁구조를	-18378
▁권력과	-18379
▁규정은	-18380
▁그중에	-18381
▁기억에	-18382
▁나네요	-18383
▁날씨가	-18384
▁노력에	-18385
▁노예로	-18386
▁논란의	-18387
▁누려야	-18388
▁뉴스타	-18389
▁던지고	-18390
▁두발규	-18391
▁만나는	-18392
▁말하며	-18393
▁모르면	-18394
▁못가는	-18395
▁무수히	-18396
▁문제만	-18397
▁문화는	-18398
▁뭐하러	-18399
▁미국에	-18400
▁박항서	-18401
▁반성은	-18402
▁받거나	-18403
▁벌어질	-18404
▁보기도	-18405
▁보이기	-18406
▁부부의	-18407
▁분들과	-18408
▁비속어	-18409
▁비싸고	-18410
▁비행기	-18411
▁사형이	-18412
[...]
